{
  "version": "1.0",
  "truncation": null,
  "padding": null,
  "added_tokens": [
    {
      "id": 0,
      "content": "[UNK]",
      "single_word": false,
      "lstrip": false,
      "rstrip": false,
      "normalized": false,
      "special": true
    },
    {
      "id": 1,
      "content": "[START]",
      "single_word": false,
      "lstrip": false,
      "rstrip": false,
      "normalized": false,
      "special": true
    },
    {
      "id": 2,
      "content": "[NEXT]",
      "single_word": false,
      "lstrip": false,
      "rstrip": false,
      "normalized": false,
      "special": true
    },
    {
      "id": 3,
      "content": "[STOP]",
      "single_word": false,
      "lstrip": false,
      "rstrip": false,
      "normalized": false,
      "special": true
    }
  ],
  "normalizer": {
    "type": "Sequence",
    "normalizers": [
      {
        "type": "Lowercase"
      },
      {
        "type": "Strip",
        "strip_left": true,
        "strip_right": true
      }
    ]
  },
  "pre_tokenizer": {
    "type": "Whitespace"
  },
  "post_processor": null,
  "decoder": null,
  "model": {
    "type": "BPE",
    "dropout": null,
    "unk_token": null,
    "continuing_subword_prefix": null,
    "end_of_word_suffix": null,
    "fuse_unk": false,
    "byte_fallback": false,
    "ignore_merges": false,
    "vocab": {
      "[UNK]": 0,
      "[START]": 1,
      "[NEXT]": 2,
      "[STOP]": 3,
      " ": 4,
      "!": 5,
      "$": 6,
      "%": 7,
      "&": 8,
      "'": 9,
      "(": 10,
      ")": 11,
      "+": 12,
      ",": 13,
      "-": 14,
      ".": 15,
      "/": 16,
      "0": 17,
      "1": 18,
      "2": 19,
      "3": 20,
      "4": 21,
      "5": 22,
      "6": 23,
      "7": 24,
      "8": 25,
      "9": 26,
      ":": 27,
      ";": 28,
      "?": 29,
      "[": 30,
      "]": 31,
      "`": 32,
      "a": 33,
      "b": 34,
      "c": 35,
      "d": 36,
      "e": 37,
      "f": 38,
      "g": 39,
      "h": 40,
      "i": 41,
      "j": 42,
      "k": 43,
      "l": 44,
      "m": 45,
      "n": 46,
      "o": 47,
      "p": 48,
      "q": 49,
      "r": 50,
      "s": 51,
      "t": 52,
      "u": 53,
      "v": 54,
      "w": 55,
      "x": 56,
      "y": 57,
      "z": 58,
      "«": 59,
      "­": 60,
      "»": 61,
      "æ": 62,
      "é": 63,
      "ð": 64,
      "χ": 65,
      "а": 66,
      "б": 67,
      "в": 68,
      "г": 69,
      "д": 70,
      "е": 71,
      "ж": 72,
      "з": 73,
      "и": 74,
      "й": 75,
      "к": 76,
      "л": 77,
      "м": 78,
      "н": 79,
      "о": 80,
      "п": 81,
      "р": 82,
      "с": 83,
      "т": 84,
      "у": 85,
      "ф": 86,
      "х": 87,
      "ц": 88,
      "ч": 89,
      "ш": 90,
      "щ": 91,
      "ы": 92,
      "ь": 93,
      "э": 94,
      "ю": 95,
      "я": 96,
      "ё": 97,
      "і": 98,
      "ў": 99,
      "ش": 100,
      "–": 101,
      "—": 102,
      "’": 103,
      "“": 104,
      "”": 105,
      "…": 106,
      "−": 107,
      "﻿": 108,
      "на": 109,
      "ра": 110,
      "та": 111,
      "ка": 112,
      "ва": 113,
      "па": 114,
      "ць": 115,
      "не": 116,
      "лі": 117,
      "да": 118,
      "ма": 119,
      "ла": 120,
      "то": 121,
      "ны": 122,
      "дз": 123,
      "ры": 124,
      "кі": 125,
      "вы": 126,
      "ль": 127,
      "пра": 128,
      "за": 129,
      "ні": 130,
      "га": 131,
      "чы": 132,
      "гэ": 133,
      "ча": 134,
      "ле": 135,
      "ве": 136,
      "што": 137,
      "ты": 138,
      "ца": 139,
      "са": 140,
      "ся": 141,
      "мі": 142,
      "''": 143,
      "ля": 144,
      "ро": 145,
      "гэта": 146,
      "ме": 147,
      "ці": 148,
      "ад": 149,
      "рэ": 150,
      "мы": 151,
      "бы": 152,
      "ня": 153,
      "го": 154,
      "ко": 155,
      "дзе": 156,
      "цца": 157,
      "ста": 158,
      "це": 159,
      "ба": 160,
      "мо": 161,
      "ст": 162,
      "ку": 163,
      "му": 164,
      "жа": 165,
      "цы": 166,
      "бо": 167,
      "ды": 168,
      "пе": 169,
      "``": 170,
      "ві": 171,
      "дзі": 172,
      "шы": 173,
      "но": 174,
      "до": 175,
      "ло": 176,
      "ну": 177,
      "пры": 178,
      "во": 179,
      "ду": 180,
      "раз": 181,
      "лю": 182,
      "калі": 183,
      "ша": 184,
      "вя": 185,
      "як": 186,
      "ту": 187,
      "бі": 188,
      "ха": 189,
      "мя": 190,
      "су": 191,
      "сі": 192,
      "ру": 193,
      "ння": 194,
      "нас": 195,
      "ця": 196,
      "жы": 197,
      "нне": 198,
      "бу": 199,
      "але": 200,
      "най": 201,
      "які": 202,
      "тэ": 203,
      "ву": 204,
      "ныя": 205,
      "гу": 206,
      "хо": 207,
      "гі": 208,
      "дзя": 209,
      "бе": 210,
      "вае": 211,
      "чу": 212,
      "ін": 213,
      "по": 214,
      "ўс": 215,
      "боль": 216,
      "ска": 217,
      "іх": 218,
      "сць": 219,
      "яны": 220,
      "так": 221,
      "сці": 222,
      "пера": 223,
      "юць": 224,
      "лькі": 225,
      "зна": 226,
      "гэты": 227,
      "каб": 228,
      "ён": 229,
      "ваць": 230,
      "веда": 231,
      "для": 232,
      "спа": 233,
      "кла": 234,
      "чэ": 235,
      "дэ": 236,
      "ем": 237,
      "таму": 238,
      "пі": 239,
      "лу": 240,
      "пы": 241,
      "тры": 242,
      "ным": 243,
      "трэ": 244,
      "ных": 245,
      "сва": 246,
      "больш": 247,
      "аб": 248,
      "лася": 249,
      "све": 250,
      "пад": 251,
      "пер": 252,
      "кам": 253,
      "лы": 254,
      "нні": 255,
      "мяне": 256,
      "сь": 257,
      "сме": 258,
      "рабі": 259,
      "можа": 260,
      "яна": 261,
      "ная": 262,
      "нам": 263,
      "было": 264,
      "се": 265,
      "со": 266,
      "нае": 267,
      "нага": 268,
      "маг": 269,
      "толькі": 270,
      "ім": 271,
      "сама": 272,
      "нь": 273,
      "тра": 274,
      "год": 275,
      "разу": 276,
      "доў": 277,
      "якія": 278,
      "мне": 279,
      "тым": 280,
      "чала": 281,
      "ства": 282,
      "сту": 283,
      "яго": 284,
      "пу": 285,
      "спра": 286,
      "нава": 287,
      "нчы": 288,
      "дзей": 289,
      "ўля": 290,
      "ецца": 291,
      "тое": 292,
      "час": 293,
      "льмі": 294,
      "вельмі": 295,
      "гля": 296,
      "фа": 297,
      "быць": 298,
      "жыц": 299,
      "гра": 300,
      "смех": 301,
      "дума": 302,
      "кан": 303,
      "ўсё": 304,
      "разуме": 305,
      "цу": 306,
      "цыя": 307,
      "такі": 308,
      "чыць": 309,
      "зда": 310,
      "зі": 311,
      "пас": 312,
      "мен": 313,
      "жанчы": 314,
      "про": 315,
      "ўся": 316,
      "цэ": 317,
      "цё": 318,
      "тка": 319,
      "бра": 320,
      "ліся": 321,
      "бя": 322,
      "еце": 323,
      "ючы": 324,
      "ліва": 325,
      "цыі": 326,
      "ху": 327,
      "праз": 328,
      "чалаве": 329,
      "раў": 330,
      "мат": 331,
      "адно": 332,
      "зы": 333,
      "кры": 334,
      "ёсць": 335,
      "людзей": 336,
      "зрабі": 337,
      "фі": 338,
      "таго": 339,
      "роў": 340,
      "00": 341,
      "шмат": 342,
      "сам": 343,
      "былі": 344,
      "сто": 345,
      "рыя": 346,
      "пыта": 347,
      "вялі": 348,
      "насць": 349,
      "чо": 350,
      "яка": 351,
      "кары": 352,
      "ней": 353,
      "жна": 354,
      "юцца": 355,
      "заў": 356,
      "валі": 357,
      "магчы": 358,
      "жо": 359,
      "трэба": 360,
      "нашы": 361,
      "роз": 362,
      "ную": 363,
      "насці": 364,
      "выра": 365,
      "выя": 366,
      "быў": 367,
      "вай": 368,
      "адзі": 369,
      "сё": 370,
      "скі": 371,
      "хто": 372,
      "шчэ": 373,
      "ман": 374,
      "яко": 375,
      "пла": 376,
      "ёй": 377,
      "была": 378,
      "сты": 379,
      "жу": 380,
      "нымі": 381,
      "даў": 382,
      "клад": 383,
      "тва": 384,
      "нека": 385,
      "шта": 386,
      "чым": 387,
      "кую": 388,
      "мае": 389,
      "яе": 390,
      "там": 391,
      "гадоў": 392,
      "буду": 393,
      "оў": 394,
      "наша": 395,
      "яшчэ": 396,
      "вання": 397,
      "кож": 398,
      "людзі": 399,
      "шэ": 400,
      "кра": 401,
      "кай": 402,
      "ваў": 403,
      "праў": 404,
      "каў": 405,
      "дапа": 406,
      "джа": 407,
      "наву": 408,
      "вас": 409,
      "іншы": 410,
      "вам": 411,
      "вала": 412,
      "наў": 413,
      "будзе": 414,
      "вяр": 415,
      "атры": 416,
      "бле": 417,
      "лё": 418,
      "йш": 419,
      "нават": 420,
      "змя": 421,
      "пача": 422,
      "адна": 423,
      "пасля": 424,
      "аль": 425,
      "сы": 426,
      "кале": 427,
      "адчу": 428,
      "кні": 429,
      "вер": 430,
      "мой": 431,
      "ўсе": 432,
      "паві": 433,
      "праца": 434,
      "ноў": 435,
      "сэ": 436,
      "гэтага": 437,
      "проста": 438,
      "леп": 439,
      "муж": 440,
      "нта": 441,
      "пэ": 442,
      "шу": 443,
      "вось": 444,
      "ню": 445,
      "ванне": 446,
      "той": 447,
      "сябе": 448,
      "сім": 449,
      "аса": 450,
      "льні": 451,
      "ходзі": 452,
      "ге": 453,
      "ўз": 454,
      "рэч": 455,
      "жэ": 456,
      "зразуме": 457,
      "пя": 458,
      "спе": 459,
      "гэтыя": 460,
      "сла": 461,
      "жыццё": 462,
      "кты": 463,
      "каза": 464,
      "сле": 465,
      "каз": 466,
      "куль": 467,
      "свет": 468,
      "ідэ": 469,
      "патрэ": 470,
      "стра": 471,
      "магчыма": 472,
      "дру": 473,
      "ход": 474,
      "кта": 475,
      "хі": 476,
      "паў": 477,
      "адзін": 478,
      "пада": 479,
      "май": 480,
      "зараз": 481,
      "чай": 482,
      "можна": 483,
      "гэтым": 484,
      "працу": 485,
      "ніко": 486,
      "ваецца": 487,
      "таксама": 488,
      "..": 489,
      "ар": 490,
      "дзь": 491,
      "род": 492,
      "ступ": 493,
      "мужчы": 494,
      "вядо": 495,
      "павін": 496,
      "ке": 497,
      "мно": 498,
      "сабе": 499,
      "сьці": 500,
      "якая": 501,
      "пэў": 502,
      "ан": 503,
      "слу": 504,
      "ткі": 505,
      "блі": 506,
      "нэ": 507,
      "рма": 508,
      "лас": 509,
      "вера": 510,
      "сапраў": 511,
      "сло": 512,
      "кава": 513,
      "част": 514,
      "прыклад": 515,
      "першы": 516,
      "аў": 517,
      "тро": 518,
      "яўля": 519,
      "чынам": 520,
      "бачы": 521,
      "піса": 522,
      "карыста": 523,
      "яві": 524,
      "чаму": 525,
      "тэх": 526,
      "патрэб": 527,
      "намі": 528,
      "наві": 529,
      "сказа": 530,
      "такім": 531,
      "дрэ": 532,
      "фо": 533,
      "прабле": 534,
      "стэ": 535,
      "атрыма": 536,
      "шко": 537,
      "іс": 538,
      "цый": 539,
      "тут": 540,
      "свеце": 541,
      "гру": 542,
      "зу": 543,
      "фе": 544,
      "раза": 545,
      "каха": 546,
      "добра": 547,
      "шае": 548,
      "ніць": 549,
      "дзень": 550,
      "сце": 551,
      "чна": 552,
      "чае": 553,
      "цаў": 554,
      "мес": 555,
      "цыю": 556,
      "зрабіць": 557,
      "звы": 558,
      "цтва": 559,
      "робі": 560,
      "могу": 561,
      "некалькі": 562,
      "нія": 563,
      "дзяку": 564,
      "насам": 565,
      "ваюць": 566,
      "рыць": 567,
      "ніколі": 568,
      "пле": 569,
      "вых": 570,
      "стаў": 571,
      "нуць": 572,
      "жанчын": 573,
      "верагод": 574,
      "даць": 575,
      "праця": 576,
      "гэтай": 577,
      "кова": 578,
      "логі": 579,
      "цяж": 580,
      "больша": 581,
      "маўля": 582,
      "гэту": 583,
      "доб": 584,
      "вор": 585,
      "чалавек": 586,
      "могуць": 587,
      "насамрэч": 588,
      "зва": 589,
      "нт": 590,
      "усё": 591,
      "мага": 592,
      "тыя": 593,
      "самы": 594,
      "моман": 595,
      "хаце": 596,
      "зме": 597,
      "клі": 598,
      "распа": 599,
      "нешта": 600,
      "мала": 601,
      "бачыць": 602,
      "тара": 603,
      "тако": 604,
      "камі": 605,
      "важ": 606,
      "хачу": 607,
      "тэхна": 608,
      "вё": 609,
      "цю": 610,
      "рас": 611,
      "памі": 612,
      "лек": 613,
      "сёння": 614,
      "нты": 615,
      "пчо": 616,
      "машы": 617,
      "льныя": 618,
      "чыта": 619,
      "рэчы": 620,
      "або": 621,
      "свае": 622,
      "дык": 623,
      "кожны": 624,
      "разам": 625,
      "гле": 626,
      "дні": 627,
      "зе": 628,
      "зя": 629,
      "тку": 630,
      "цоў": 631,
      "ўжо": 632,
      "наступ": 633,
      "кія": 634,
      "сказаў": 635,
      "грама": 636,
      "апо": 637,
      "кар": 638,
      "ліч": 639,
      "працы": 640,
      "ваем": 641,
      "прэ": 642,
      "гала": 643,
      "тур": 644,
      "якім": 645,
      "можаце": 646,
      "знай": 647,
      "мэ": 648,
      "якую": 649,
      "напрыклад": 650,
      "мая": 651,
      "моў": 652,
      "размаўля": 653,
      "тэр": 654,
      "пля": 655,
      "юся": 656,
      "нак": 657,
      "тады": 658,
      "кая": 659,
      "вар": 660,
      "вацца": 661,
      "прад": 662,
      "коль": 663,
      "вой": 664,
      "нняў": 665,
      "цяпер": 666,
      "хоча": 667,
      "ведаеце": 668,
      "фарма": 669,
      "некато": 670,
      "шля": 671,
      "неверагод": 672,
      "рыі": 673,
      "няма": 674,
      "сіх": 675,
      "будучы": 676,
      "след": 677,
      "тэхналогі": 678,
      "усе": 679,
      "эм": 680,
      "пачу": 681,
      "кім": 682,
      "выні": 683,
      "працэ": 684,
      "гадзі": 685,
      "гало": 686,
      "волі": 687,
      "біра": 688,
      "клада": 689,
      "можам": 690,
      "апош": 691,
      "20": 692,
      "здо": 693,
      "кт": 694,
      "нку": 695,
      "элек": 696,
      "дат": 697,
      "льна": 698,
      "чаць": 699,
      "мер": 700,
      "коў": 701,
      "стрэ": 702,
      "шая": 703,
      "жыцця": 704,
      "вырашы": 705,
      "павінны": 706,
      "звычай": 707,
      "эк": 708,
      "над": 709,
      "тай": 710,
      "пара": 711,
      "ніі": 712,
      "гэтая": 713,
      "колькі": 714,
      "цей": 715,
      "вопле": 716,
      "чэнне": 717,
      "кампа": 718,
      "якое": 719,
      "воплескі": 720,
      "джэ": 721,
      "зноў": 722,
      "таў": 723,
      "лін": 724,
      "маль": 725,
      "магу": 726,
      "вым": 727,
      "адбы": 728,
      "баць": 729,
      "дзіць": 730,
      "сапраўды": 731,
      "дзякуй": 732,
      "19": 733,
      "нс": 734,
      "твор": 735,
      "кажа": 736,
      "пады": 737,
      "адказ": 738,
      "дум": 739,
      "гісто": 740,
      "дзяў": 741,
      "перад": 742,
      "маглі": 743,
      "адной": 744,
      "10": 745,
      "хва": 746,
      "кажу": 747,
      "нер": 748,
      "часу": 749,
      "сям": 750,
      "гэтак": 751,
      "рэш": 752,
      "стат": 753,
      "шага": 754,
      "рабіць": 755,
      "ско": 756,
      "кіх": 757,
      "часта": 758,
      "менаві": 759,
      "жада": 760,
      "000": 761,
      "арга": 762,
      "існу": 763,
      "момант": 764,
      "менавіта": 765,
      "нкі": 766,
      "памы": 767,
      "мар": 768,
      "праду": 769,
      "чына": 770,
      "дзіў": 771,
      "сістэ": 772,
      "ведаем": 773,
      "глядзе": 774,
      "нашыя": 775,
      "краі": 776,
      "вярну": 777,
      "ходзіць": 778,
      "уз": 779,
      "шча": 780,
      "раб": 781,
      "тар": 782,
      "вымі": 783,
      "чыцца": 784,
      "веры": 785,
      "тых": 786,
      "меры": 787,
      "скай": 788,
      "сваю": 789,
      "ктыў": 790,
      "чнай": 791,
      "дася": 792,
      "зай": 793,
      "лей": 794,
      "ўсю": 795,
      "сваіх": 796,
      "іншых": 797,
      "йшла": 798,
      "цяжка": 799,
      "амаль": 800,
      "два": 801,
      "йце": 802,
      "клю": 803,
      "рам": 804,
      "дар": 805,
      "меся": 806,
      "голас": 807,
      "дыя": 808,
      "вую": 809,
      "чэй": 810,
      "свай": 811,
      "гляда": 812,
      "думаю": 813,
      "нашых": 814,
      "вядома": 815,
      "месца": 816,
      "галоў": 817,
      "азна": 818,
      "бліва": 819,
      "ўні": 820,
      "пар": 821,
      "памя": 822,
      "дадзе": 823,
      "маёй": 824,
      "выву": 825,
      "льным": 826,
      "міль": 827,
      "рот": 828,
      "адсо": 829,
      "адкры": 830,
      "ставі": 831,
      "шай": 832,
      "сут": 833,
      "супра": 834,
      "без": 835,
      "трым": 836,
      "жанчыны": 837,
      "адносі": 838,
      "асабліва": 839,
      "ідэя": 840,
      "майго": 841,
      "грамад": 842,
      "некаторыя": 843,
      "аргані": 844,
      "гла": 845,
      "злу": 846,
      "нд": 847,
      "нах": 848,
      "кара": 849,
      "ленне": 850,
      "жыць": 851,
      "якой": 852,
      "будуць": 853,
      "дапамо": 854,
      "сэр": 855,
      "...": 856,
      "сказаць": 857,
      "нцы": 858,
      "ках": 859,
      "кана": 860,
      "каля": 861,
      "палі": 862,
      "даслед": 863,
      "маў": 864,
      "праві": 865,
      "тыч": 866,
      "бой": 867,
      "інтэр": 868,
      "менш": 869,
      "нашай": 870,
      "змяні": 871,
      "гэтую": 872,
      "звя": 873,
      "сця": 874,
      "вамі": 875,
      "лай": 876,
      "бала": 877,
      "будзь": 878,
      "свету": 879,
      "кампу": 880,
      "хутка": 881,
      "пытанне": 882,
      "колька": 883,
      "асо": 884,
      "дам": 885,
      "прае": 886,
      "стаць": 887,
      "сіць": 888,
      "гія": 889,
      "ведаю": 890,
      "лёг": 891,
      "казаць": 892,
      "друго": 893,
      "дасяг": 894,
      "свайго": 895,
      "аба": 896,
      "глі": 897,
      "збіра": 898,
      "нё": 899,
      "свой": 900,
      "хло": 901,
      "чная": 902,
      "энер": 903,
      "ўва": 904,
      "напіса": 905,
      "тая": 906,
      "кае": 907,
      "вая": 908,
      "зада": 909,
      "сярэ": 910,
      "гэтае": 911,
      "аду": 912,
      "дзяцей": 913,
      "справе": 914,
      "здароў": 915,
      "пэўне": 916,
      "30": 917,
      "апы": 918,
      "гва": 919,
      "яд": 920,
      "назы": 921,
      "ванні": 922,
      "мале": 923,
      "самой": 924,
      "стала": 925,
      "шыя": 926,
      "інфарма": 927,
      "потым": 928,
      "спачу": 929,
      "емся": 930,
      "цудоў": 931,
      "азначае": 932,
      "амеры": 933,
      "спы": 934,
      "яму": 935,
      "маю": 936,
      "льны": 937,
      "нічо": 938,
      "стара": 939,
      "моц": 940,
      "якіх": 941,
      "сваёй": 942,
      "версі": 943,
      "асабі": 944,
      "слуха": 945,
      "жліва": 946,
      "кро": 947,
      "плы": 948,
      "ўсім": 949,
      "вага": 950,
      "даведа": 951,
      "выба": 952,
      "прапа": 953,
      "чаго": 954,
      "лення": 955,
      "самі": 956,
      "сяб": 957,
      "мець": 958,
      "прыма": 959,
      "буда": 960,
      "гэтых": 961,
      "мента": 962,
      "лепш": 963,
      "мужчын": 964,
      "патрэбна": 965,
      "праблема": 966,
      "адбываецца": 967,
      "нічога": 968,
      "ас": 969,
      "гро": 970,
      "глы": 971,
      "дж": 972,
      "дра": 973,
      "шчы": 974,
      "наз": 975,
      "каго": 976,
      "падзе": 977,
      "даз": 978,
      "матэ": 979,
      "заўсё": 980,
      "ніка": 981,
      "сацыя": 982,
      "ляе": 983,
      "музы": 984,
      "чэння": 985,
      "ствара": 986,
      "павінна": 987,
      "паміж": 988,
      "гвал": 989,
      "заўсёды": 990,
      "апла": 991,
      "нца": 992,
      "нса": 993,
      "склада": 994,
      "ццё": 995,
      "нара": 996,
      "раней": 997,
      "валася": 998,
      "важна": 999,
      "паз": 1000,
      "паве": 1001,
      "паво": 1002,
      "мажліва": 1003,
      "лагі": 1004,
      "рым": 1005,
      "выкары": 1006,
      "выдат": 1007,
      "зале": 1008,
      "заме": 1009,
      "ціка": 1010,
      "тура": 1011,
      "туры": 1012,
      "сусвет": 1013,
      "дзячы": 1014,
      "сваім": 1015,
      "змяніць": 1016,
      "зразумець": 1017,
      "сапраўд": 1018,
      "працягу": 1019,
      "існуе": 1020,
      "арганіза": 1021,
      "выкарысто": 1022,
      "нка": 1023,
      "тчэй": 1024,
      "цця": 1025,
      "шчас": 1026,
      "яно": 1027,
      "імі": 1028,
      "ўшы": 1029,
      "ўсіх": 1030,
      "ўпэўне": 1031,
      "рада": 1032,
      "ваю": 1033,
      "пакуль": 1034,
      "даро": 1035,
      "дастат": 1036,
      "рылася": 1037,
      "вый": 1038,
      "прагра": 1039,
      "нікі": 1040,
      "ган": 1041,
      "сярод": 1042,
      "рэа": 1043,
      "няе": 1044,
      "ннем": 1045,
      "спадзя": 1046,
      "самае": 1047,
      "публі": 1048,
      "фізі": 1049,
      "іншыя": 1050,
      "аднаго": 1051,
      "альбо": 1052,
      "лепшы": 1053,
      "ўзро": 1054,
      "большасць": 1055,
      "пчол": 1056,
      "адсотка": 1057,
      "звяза": 1058,
      "еха": 1059,
      "сц": 1060,
      "спо": 1061,
      "пакі": 1062,
      "небудзь": 1063,
      "даволі": 1064,
      "выпад": 1065,
      "нік": 1066,
      "ніца": 1067,
      "гам": 1068,
      "часам": 1069,
      "штосьці": 1070,
      "робя": 1071,
      "адроз": 1072,
      "мовы": 1073,
      "жыву": 1074,
      "тэн": 1075,
      "значыць": 1076,
      "сваё": 1077,
      "соў": 1078,
      "жыцці": 1079,
      "такія": 1080,
      "хутчэй": 1081,
      "зрабілі": 1082,
      "нтаў": 1083,
      "зусім": 1084,
      "каханне": 1085,
      "рэшце": 1086,
      "адука": 1087,
      "малень": 1088,
      "зо": 1089,
      "лкам": 1090,
      "ску": 1091,
      "сцю": 1092,
      "чным": 1093,
      "эй": 1094,
      "ёр": 1095,
      "распра": 1096,
      "казаў": 1097,
      "паса": 1098,
      "падума": 1099,
      "маім": 1100,
      "цікава": 1101,
      "быцца": 1102,
      "стане": 1103,
      "гіі": 1104,
      "знаходзі": 1105,
      "падтрым": 1106,
      "ствары": 1107,
      "ўсяго": 1108,
      "чалавека": 1109,
      "ванняў": 1110,
      "навуча": 1111,
      "вярта": 1112,
      "слова": 1113,
      "першыню": 1114,
      "лічба": 1115,
      "знайсці": 1116,
      "неверагодна": 1117,
      "памята": 1118,
      "мільё": 1119,
      "хлоп": 1120,
      "замест": 1121,
      "грэ": 1122,
      "пам": 1123,
      "неаб": 1124,
      "ліза": 1125,
      "даля": 1126,
      "льнай": 1127,
      "заха": 1128,
      "чаты": 1129,
      "мог": 1130,
      "дысме": 1131,
      "нула": 1132,
      "сур": 1133,
      "цяг": 1134,
      "хоў": 1135,
      "справа": 1136,
      "цэн": 1137,
      "жэй": 1138,
      "яўляецца": 1139,
      "робіць": 1140,
      "змены": 1141,
      "зям": 1142,
      "апладысме": 1143,
      "дастаткова": 1144,
      "быццам": 1145,
      "неабход": 1146,
      "зня": 1147,
      "зды": 1148,
      "чны": 1149,
      "эка": 1150,
      "яў": 1151,
      "ўяві": 1152,
      "назі": 1153,
      "тах": 1154,
      "каваць": 1155,
      "пако": 1156,
      "падоб": 1157,
      "маты": 1158,
      "выгляда": 1159,
      "льнага": 1160,
      "ніцтва": 1161,
      "гады": 1162,
      "адным": 1163,
      "дзеся": 1164,
      "цеся": 1165,
      "стру": 1166,
      "новы": 1167,
      "поў": 1168,
      "лума": 1169,
      "першае": 1170,
      "бяспе": 1171,
      "зрабіў": 1172,
      "якога": 1173,
      "йшлі": 1174,
      "пачалі": 1175,
      "працаваць": 1176,
      "шую": 1177,
      "гледзячы": 1178,
      "працэс": 1179,
      "грамадства": 1180,
      "інтэрнэ": 1181,
      "апладысменты": 1182,
      "зро": 1183,
      "зша": 1184,
      "кве": 1185,
      "чныя": 1186,
      "шла": 1187,
      "наш": 1188,
      "пачала": 1189,
      "ненні": 1190,
      "даклад": 1191,
      "далей": 1192,
      "вышэ": 1193,
      "запыта": 1194,
      "салю": 1195,
      "няў": 1196,
      "гор": 1197,
      "відэ": 1198,
      "прызна": 1199,
      "тэле": 1200,
      "поспе": 1201,
      "абсалю": 1202,
      "смер": 1203,
      "траў": 1204,
      "спраба": 1205,
      "гляд": 1206,
      "розных": 1207,
      "зразумела": 1208,
      "працуе": 1209,
      "бачыце": 1210,
      "працяг": 1211,
      "лайн": 1212,
      "сяброў": 1213,
      "адсоткаў": 1214,
      "ана": 1215,
      "зм": 1216,
      "свя": 1217,
      "тары": 1218,
      "каман": 1219,
      "кіра": 1220,
      "ніцы": 1221,
      "тыў": 1222,
      "цалкам": 1223,
      "цін": 1224,
      "рэаль": 1225,
      "няць": 1226,
      "старо": 1227,
      "стагод": 1228,
      "цыяна": 1229,
      "шым": 1230,
      "вод": 1231,
      "разві": 1232,
      "вяда": 1233,
      "інды": 1234,
      "скага": 1235,
      "падчас": 1236,
      "здара": 1237,
      "якасці": 1238,
      "скіх": 1239,
      "йшоў": 1240,
      "фор": 1241,
      "кампаніі": 1242,
      "супраць": 1243,
      "назіра": 1244,
      "відэа": 1245,
      "абсалют": 1246,
      "джы": 1247,
      "зні": 1248,
      "крэ": 1249,
      "нна": 1250,
      "ус": 1251,
      "кага": 1252,
      "паку": 1253,
      "пало": 1254,
      "пазна": 1255,
      "лах": 1256,
      "дзён": 1257,
      "рых": 1258,
      "мета": 1259,
      "гола": 1260,
      "кол": 1261,
      "стан": 1262,
      "новыя": 1263,
      "вядзе": 1264,
      "туа": 1265,
      "цябе": 1266,
      "свед": 1267,
      "здарылася": 1268,
      "вялікі": 1269,
      "дапамагчы": 1270,
      "ідэі": 1271,
      "аўты": 1272,
      "такое": 1273,
      "ключа": 1274,
      "месяцаў": 1275,
      "амерыкан": 1276,
      "выкарыстоў": 1277,
      "15": 1278,
      "адз": 1279,
      "агу": 1280,
      "гна": 1281,
      "зла": 1282,
      "мся": 1283,
      "нда": 1284,
      "сем": 1285,
      "тлума": 1286,
      "рад": 1287,
      "рак": 1288,
      "тан": 1289,
      "важа": 1290,
      "падзя": 1291,
      "патра": 1292,
      "лічы": 1293,
      "маюць": 1294,
      "лаў": 1295,
      "вызна": 1296,
      "льнае": 1297,
      "право": 1298,
      "зако": 1299,
      "заба": 1300,
      "чаў": 1301,
      "чага": 1302,
      "весці": 1303,
      "тыся": 1304,
      "сябра": 1305,
      "рож": 1306,
      "сіў": 1307,
      "сітуа": 1308,
      "бес": 1309,
      "ведам": 1310,
      "стварэ": 1311,
      "студэ": 1312,
      "спрабу": 1313,
      "думаць": 1314,
      "зідэ": 1315,
      "пчолы": 1316,
      "дапамога": 1317,
      "re": 1318,
      "згу": 1319,
      "кру": 1320,
      "усіх": 1321,
      "хві": 1322,
      "рамі": 1323,
      "ваюцца": 1324,
      "пакале": 1325,
      "літара": 1326,
      "дазва": 1327,
      "маці": 1328,
      "маста": 1329,
      "маіх": 1330,
      "гада": 1331,
      "гадо": 1332,
      "весь": 1333,
      "штоў": 1334,
      "мелі": 1335,
      "метраў": 1336,
      "стая": 1337,
      "стано": 1338,
      "бач": 1339,
      "мову": 1340,
      "віцца": 1341,
      "дзіце": 1342,
      "шых": 1343,
      "лося": 1344,
      "прыла": 1345,
      "людзь": 1346,
      "найбольш": 1347,
      "трыма": 1348,
      "жанчына": 1349,
      "шматлі": 1350,
      "стой": 1351,
      "нашага": 1352,
      "атрым": 1353,
      "сперы": 1354,
      "анлайн": 1355,
      "слуш": 1356,
      "сказала": 1357,
      "хацела": 1358,
      "такога": 1359,
      "прэзідэ": 1360,
      "эксперы": 1361,
      "памыл": 1362,
      "злуча": 1363,
      "колькасць": 1364,
      "лёгка": 1365,
      "робяць": 1366,
      "людзьмі": 1367,
      "50": 1368,
      "апа": 1369,
      "джо": 1370,
      "ема": 1371,
      "нк": 1372,
      "фу": 1373,
      "ўпершыню": 1374,
      "настаў": 1375,
      "нен": 1376,
      "маё": 1377,
      "дзве": 1378,
      "кіраў": 1379,
      "пратэ": 1380,
      "заста": 1381,
      "заема": 1382,
      "ніх": 1383,
      "чака": 1384,
      "часо": 1385,
      "рэй": 1386,
      "няз": 1387,
      "года": 1388,
      "дзець": 1389,
      "сталі": 1390,
      "бабу": 1391,
      "мова": 1392,
      "дому": 1393,
      "любы": 1394,
      "тую": 1395,
      "хар": 1396,
      "руха": 1397,
      "дзяць": 1398,
      "піта": 1399,
      "свабо": 1400,
      "рабілі": 1401,
      "магла": 1402,
      "доўга": 1403,
      "графі": 1404,
      "магчымасць": 1405,
      "мужчыны": 1406,
      "многія": 1407,
      "бачылі": 1408,
      "звычайна": 1409,
      "аф": 1410,
      "ах": 1411,
      "дня": 1412,
      "йдзе": 1413,
      "піх": 1414,
      "рна": 1415,
      "спі": 1416,
      "сцэ": 1417,
      "уся": 1418,
      "ужо": 1419,
      "імя": 1420,
      "нат": 1421,
      "наза": 1422,
      "ваны": 1423,
      "пачы": 1424,
      "паглядзе": 1425,
      "лічу": 1426,
      "кімі": 1427,
      "вына": 1428,
      "высо": 1429,
      "льных": 1430,
      "цам": 1431,
      "роба": 1432,
      "рэн": 1433,
      "боку": 1434,
      "віць": 1435,
      "любі": 1436,
      "людзя": 1437,
      "паспя": 1438,
      "пытанні": 1439,
      "скія": 1440,
      "кніж": 1441,
      "кнігу": 1442,
      "кнігі": 1443,
      "сэк": 1444,
      "казалі": 1445,
      "вядомы": 1446,
      "часткі": 1447,
      "дрэвы": 1448,
      "размаўляць": 1449,
      "шлях": 1450,
      "тэхналогія": 1451,
      "здоль": 1452,
      "электро": 1453,
      "мерка": 1454,
      "199": 1455,
      "грошы": 1456,
      "споса": 1457,
      "жывуць": 1458,
      "зробле": 1459,
      "80": 1460,
      "te": 1461,
      "ува": 1462,
      "ула": 1463,
      "уяві": 1464,
      "шка": 1465,
      "шоў": 1466,
      "іе": 1467,
      "ўяўля": 1468,
      "раке": 1469,
      "такая": 1470,
      "каць": 1471,
      "каму": 1472,
      "каштоў": 1473,
      "вана": 1474,
      "вакол": 1475,
      "пала": 1476,
      "недзе": 1477,
      "мабі": 1478,
      "мадэ": 1479,
      "тоў": 1480,
      "рыю": 1481,
      "тымі": 1482,
      "саў": 1483,
      "ляў": 1484,
      "ціць": 1485,
      "адну": 1486,
      "нягледзячы": 1487,
      "конт": 1488,
      "бог": 1489,
      "бок": 1490,
      "пес": 1491,
      "дзіця": 1492,
      "прыго": 1493,
      "прыму": 1494,
      "дуць": 1495,
      "любо": 1496,
      "вяра": 1497,
      "дзяцін": 1498,
      "ваеце": 1499,
      "ведае": 1500,
      "ведала": 1501,
      "лых": 1502,
      "транс": 1503,
      "такіх": 1504,
      "ючыся": 1505,
      "вайце": 1506,
      "ваннем": 1507,
      "падарож": 1508,
      "мной": 1509,
      "патрэбны": 1510,
      "атрымаць": 1511,
      "чытаць": 1512,
      "будучыню": 1513,
      "гісторыя": 1514,
      "аднойчы": 1515,
      "вярнуцца": 1516,
      "адносіны": 1517,
      "дасягнуць": 1518,
      "энергіі": 1519,
      "напісаў": 1520,
      "стварылі": 1521,
      "чатыры": 1522,
      "натх": 1523,
      "людзям": 1524,
      "паспяхо": 1525,
      "аку": 1526,
      "усім": 1527,
      "цвё": 1528,
      "чных": 1529,
      "ўбачыць": 1530,
      "нацыяна": 1531,
      "кала": 1532,
      "ваныя": 1533,
      "паля": 1534,
      "далі": 1535,
      "дасла": 1536,
      "дадому": 1537,
      "працоў": 1538,
      "ніхто": 1539,
      "гаро": 1540,
      "гаво": 1541,
      "гарод": 1542,
      "гэтка": 1543,
      "чатку": 1544,
      "лес": 1545,
      "роглі": 1546,
      "гэтаму": 1547,
      "межа": 1548,
      "бага": 1549,
      "стры": 1550,
      "бор": 1551,
      "нулася": 1552,
      "вопы": 1553,
      "разі": 1554,
      "вяз": 1555,
      "жыў": 1556,
      "жыве": 1557,
      "гіх": 1558,
      "спачатку": 1559,
      "піць": 1560,
      "стварыць": 1561,
      "фар": 1562,
      "цыяй": 1563,
      "раўна": 1564,
      "адноль": 1565,
      "карыс": 1566,
      "розу": 1567,
      "розныя": 1568,
      "кожнага": 1569,
      "шэнне": 1570,
      "дапамага": 1571,
      "культуры": 1572,
      "нэр": 1573,
      "аўта": 1574,
      "карыстацца": 1575,
      "праблемы": 1576,
      "школы": 1577,
      "група": 1578,
      "хацеў": 1579,
      "будучыні": 1580,
      "электры": 1581,
      "гісторыі": 1582,
      "дзяўчы": 1583,
      "хваля": 1584,
      "кажуць": 1585,
      "скончы": 1586,
      "памыля": 1587,
      "займа": 1588,
      "сутнасць": 1589,
      "ядна": 1590,
      "будаваць": 1591,
      "зямлі": 1592,
      "ўявіць": 1593,
      "іероглі": 1594,
      "18": 1595,
      "ac": 1596,
      "дву": 1597,
      "пм": 1598,
      "рта": 1599,
      "смя": 1600,
      "чную": 1601,
      "надз": 1602,
      "накі": 1603,
      "нашмат": 1604,
      "наколькі": 1605,
      "натура": 1606,
      "рай": 1607,
      "тамі": 1608,
      "вало": 1609,
      "валю": 1610,
      "пачына": 1611,
      "паўсю": 1612,
      "паведам": 1613,
      "ліну": 1614,
      "лан": 1615,
      "кіла": 1616,
      "нію": 1617,
      "гэткі": 1618,
      "чат": 1619,
      "лена": 1620,
      "дзея": 1621,
      "жано": 1622,
      "дыі": 1623,
      "дома": 1624,
      "нулі": 1625,
      "прычы": 1626,
      "люб": 1627,
      "туі": 1628,
      "мясц": 1629,
      "сустрэ": 1630,
      "насцю": 1631,
      "чуць": 1632,
      "ведаў": 1633,
      "сеці": 1634,
      "нью": 1635,
      "нашым": 1636,
      "выраб": 1637,
      "нашае": 1638,
      "павінен": 1639,
      "зразумеў": 1640,
      "культур": 1641,
      "падаба": 1642,
      "месцы": 1643,
      "дзякуючы": 1644,
      "распаўсю": 1645,
      "шляху": 1646,
      "апошнія": 1647,
      "сістэма": 1648,
      "другое": 1649,
      "здароўе": 1650,
      "дазволі": 1651,
      "матэрыя": 1652,
      "даляраў": 1653,
      "цэнтра": 1654,
      "выглядае": 1655,
      "дзесяці": 1656,
      "патрабу": 1657,
      "надзвы": 1658,
      "мясцо": 1659,
      "аа": 1660,
      "асярод": 1661,
      "бры": 1662,
      "здзі": 1663,
      "зно": 1664,
      "смі": 1665,
      "шлі": 1666,
      "эн": 1667,
      "эфе": 1668,
      "ўла": 1669,
      "рап": 1670,
      "рага": 1671,
      "рады": 1672,
      "кавала": 1673,
      "вада": 1674,
      "пацы": 1675,
      "пазы": 1676,
      "нец": 1677,
      "ненне": 1678,
      "дач": 1679,
      "даюць": 1680,
      "далу": 1681,
      "вызва": 1682,
      "выклі": 1683,
      "права": 1684,
      "заве": 1685,
      "заня": 1686,
      "чар": 1687,
      "чалі": 1688,
      "сабой": 1689,
      "ляць": 1690,
      "адо": 1691,
      "рэд": 1692,
      "бачым": 1693,
      "куды": 1694,
      "бога": 1695,
      "дызай": 1696,
      "прыкла": 1697,
      "прыем": 1698,
      "сучас": 1699,
      "жылі": 1700,
      "жыла": 1701,
      "жывё": 1702,
      "тэра": 1703,
      "тэры": 1704,
      "хоць": 1705,
      "скажу": 1706,
      "трэця": 1707,
      "выраша": 1708,
      "іншымі": 1709,
      "змяня": 1710,
      "адчуванне": 1711,
      "пяць": 1712,
      "пэўна": 1713,
      "словы": 1714,
      "сцеж": 1715,
      "варта": 1716,
      "бацькі": 1717,
      "здароўя": 1718,
      "версітэ": 1719,
      "дакладна": 1720,
      "вышэй": 1721,
      "поспеху": 1722,
      "смерці": 1723,
      "афры": 1724,
      "вынаход": 1725,
      "надзвычай": 1726,
      "12": 1727,
      "100": 1728,
      "or": 1729,
      "ані": 1730,
      "араб": 1731,
      "гры": 1732,
      "зму": 1733,
      "йсці": 1734,
      "ск": 1735,
      "эга": 1736,
      "яр": 1737,
      "ідзе": 1738,
      "ісла": 1739,
      "ізноў": 1740,
      "нарэшце": 1741,
      "наконт": 1742,
      "ран": 1743,
      "ваш": 1744,
      "пару": 1745,
      "паказ": 1746,
      "невялі": 1747,
      "дае": 1748,
      "даво": 1749,
      "зах": 1750,
      "рок": 1751,
      "дзельні": 1752,
      "стам": 1753,
      "прынцы": 1754,
      "размоў": 1755,
      "хам": 1756,
      "хара": 1757,
      "супо": 1758,
      "сілі": 1759,
      "цягам": 1760,
      "тэо": 1761,
      "іншага": 1762,
      "ская": 1763,
      "ведаць": 1764,
      "першая": 1765,
      "солі": 1766,
      "разум": 1767,
      "думаў": 1768,
      "бяро": 1769,
      "чалавецтва": 1770,
      "шэння": 1771,
      "праўда": 1772,
      "пачаць": 1773,
      "пачатку": 1774,
      "каледжы": 1775,
      "кніга": 1776,
      "казала": 1777,
      "паўд": 1778,
      "паўно": 1779,
      "частку": 1780,
      "трохі": 1781,
      "пісаць": 1782,
      "кахання": 1783,
      "робіцца": 1784,
      "добры": 1785,
      "самых": 1786,
      "машын": 1787,
      "хочам": 1788,
      "тэхналогіі": 1789,
      "вынік": 1790,
      "гадзін": 1791,
      "гадзіны": 1792,
      "прадук": 1793,
      "кампутар": 1794,
      "сярэдзі": 1795,
      "асноў": 1796,
      "нарадзі": 1797,
      "спадзяюся": 1798,
      "распраца": 1799,
      "знаходзіцца": 1800,
      "мільёнаў": 1801,
      "уявіце": 1802,
      "паўсюль": 1803,
      "14": 1804,
      "ar": 1805,
      "oo": 1806,
      "ары": 1807,
      "апра": 1808,
      "астат": 1809,
      "пло": 1810,
      "рт": 1811,
      "ркі": 1812,
      "спыта": 1813,
      "чнага": 1814,
      "ёмі": 1815,
      "ўлас": 1816,
      "ўплы": 1817,
      "ўзаема": 1818,
      "навы": 1819,
      "наваць": 1820,
      "напэўна": 1821,
      "татуі": 1822,
      "вак": 1823,
      "папра": 1824,
      "папро": 1825,
      "небяспе": 1826,
      "дас": 1827,
      "мак": 1828,
      "мам": 1829,
      "лам": 1830,
      "торыі": 1831,
      "дзверы": 1832,
      "льга": 1833,
      "зага": 1834,
      "затым": 1835,
      "нім": 1836,
      "нібы": 1837,
      "ніцца": 1838,
      "нівод": 1839,
      "чыў": 1840,
      "веды": 1841,
      "цамі": 1842,
      "сар": 1843,
      "міна": 1844,
      "мела": 1845,
      "меды": 1846,
      "цікаў": 1847,
      "адчы": 1848,
      "няй": 1849,
      "няслуш": 1850,
      "кош": 1851,
      "дзеля": 1852,
      "бачу": 1853,
      "мове": 1854,
      "стве": 1855,
      "стро": 1856,
      "віла": 1857,
      "віду": 1858,
      "дзім": 1859,
      "дзілі": 1860,
      "прыга": 1861,
      "прывя": 1862,
      "разоў": 1863,
      "мяр": 1864,
      "супер": 1865,
      "тэк": 1866,
      "погляд": 1867,
      "побач": 1868,
      "ведалі": 1869,
      "спада": 1870,
      "спадар": 1871,
      "самая": 1872,
      "дзейні": 1873,
      "канды": 1874,
      "разумеем": 1875,
      "мент": 1876,
      "бяс": 1877,
      "фіна": 1878,
      "пытання": 1879,
      "заўва": 1880,
      "пачаў": 1881,
      "аднак": 1882,
      "сыла": 1883,
      "сэн": 1884,
      "другі": 1885,
      "многіх": 1886,
      "частка": 1887,
      "яўляюцца": 1888,
      "фон": 1889,
      "вёў": 1890,
      "хочаце": 1891,
      "вырашылі": 1892,
      "надта": 1893,
      "творча": 1894,
      "думку": 1895,
      "дадзеныя": 1896,
      "сэрца": 1897,
      "асабіста": 1898,
      "выбар": 1899,
      "глыбо": 1900,
      "дазво": 1901,
      "залеж": 1902,
      "адрозненні": 1903,
      "дапамогай": 1904,
      "атрымліва": 1905,
      "злучаных": 1906,
      "назад": 1907,
      "электрон": 1908,
      "цвёр": 1909,
      "паляп": 1910,
      "аднолька": 1911,
      "кіламетраў": 1912,
      "характа": 1913,
      "папросту": 1914,
      "25": 1915,
      "ат": 1916,
      "нту": 1917,
      "нню": 1918,
      "скую": 1919,
      "чкі": 1920,
      "істо": 1921,
      "нар": 1922,
      "павялі": 1923,
      "пайшла": 1924,
      "паспраба": 1925,
      "нельга": 1926,
      "ліць": 1927,
      "ліст": 1928,
      "лівыя": 1929,
      "дабра": 1930,
      "маем": 1931,
      "мабыць": 1932,
      "практы": 1933,
      "прафе": 1934,
      "чылі": 1935,
      "лены": 1936,
      "веру": 1937,
      "вень": 1938,
      "ляюць": 1939,
      "мень": 1940,
      "рэлі": 1941,
      "рэвалю": 1942,
      "годзе": 1943,
      "дзел": 1944,
      "бар": 1945,
      "бая": 1946,
      "бара": 1947,
      "віта": 1948,
      "новае": 1949,
      "прыня": 1950,
      "прычына": 1951,
      "шаў": 1952,
      "шаму": 1953,
      "хай": 1954,
      "хаця": 1955,
      "вулі": 1956,
      "вугля": 1957,
      "хочуць": 1958,
      "пераў": 1959,
      "перакла": 1960,
      "перакана": 1961,
      "чэнні": 1962,
      "падле": 1963,
      "камп": 1964,
      "лыя": 1965,
      "рабіў": 1966,
      "здаро": 1967,
      "пасла": 1968,
      "вялікай": 1969,
      "скім": 1970,
      "плане": 1971,
      "стэр": 1972,
      "групы": 1973,
      "робім": 1974,
      "самым": 1975,
      "такой": 1976,
      "машыны": 1977,
      "мэта": 1978,
      "тэрмі": 1979,
      "пачуццё": 1980,
      "выніку": 1981,
      "вырашыў": 1982,
      "творчы": 1983,
      "кажучы": 1984,
      "узро": 1985,
      "ставіць": 1986,
      "асоб": 1987,
      "праект": 1988,
      "другой": 1989,
      "сярэдні": 1990,
      "спачування": 1991,
      "моцна": 1992,
      "рэак": 1993,
      "ўзровень": 1994,
      "адукацыі": 1995,
      "навучання": 1996,
      "індывіду": 1997,
      "пазнаёмі": 1998,
      "дзяцінства": 1999,
      "трансфарма": 2000,
      "смярот": 2001,
      "дзесяцігод": 2002,
      "патрабуе": 2003,
      "пацые": 2004,
      "паўднё": 2005,
      "200": 2006,
      "er": 2007,
      "le": 2008,
      "on": 2009,
      "th": 2010,
      "абы": 2011,
      "жды": 2012,
      "йна": 2013,
      "мна": 2014,
      "нцаў": 2015,
      "псі": 2016,
      "сю": 2017,
      "скры": 2018,
      "тна": 2019,
      "тні": 2020,
      "шпіта": 2021,
      "энэр": 2022,
      "ўра": 2023,
      "ўну": 2024,
      "вагу": 2025,
      "валіся": 2026,
      "вашага": 2027,
      "патэн": 2028,
      "пастая": 2029,
      "неда": 2030,
      "ліцца": 2031,
      "дасле": 2032,
      "мара": 2033,
      "малю": 2034,
      "выму": 2035,
      "вынай": 2036,
      "выпу": 2037,
      "выкарыста": 2038,
      "залі": 2039,
      "запра": 2040,
      "зацікаў": 2041,
      "ніз": 2042,
      "гава": 2043,
      "гань": 2044,
      "чара": 2045,
      "чаны": 2046,
      "чацца": 2047,
      "міні": 2048,
      "дзеці": 2049,
      "моз": 2050,
      "жаль": 2051,
      "ноч": 2052,
      "новая": 2053,
      "дом": 2054,
      "доступ": 2055,
      "нуў": 2056,
      "нуліся": 2057,
      "прыйшоў": 2058,
      "вяцца": 2059,
      "сіі": 2060,
      "якімі": 2061,
      "гуль": 2062,
      "дзяр": 2063,
      "інжы": 2064,
      "іншае": 2065,
      "інстру": 2066,
      "сканні": 2067,
      "класці": 2068,
      "соне": 2069,
      "нагад": 2070,
      "ступе": 2071,
      "думала": 2072,
      "разумею": 2073,
      "здаецца": 2074,
      "жанчынам": 2075,
      "ецеся": 2076,
      "роўна": 2077,
      "нейкі": 2078,
      "заўжды": 2079,
      "магчымы": 2080,
      "хтосьці": 2081,
      "жудас": 2082,
      "штал": 2083,
      "шэсць": 2084,
      "крамя": 2085,
      "сэнс": 2086,
      "гель": 2087,
      "ўзя": 2088,
      "зразумелі": 2089,
      "ктар": 2090,
      "нікоў": 2091,
      "ангель": 2092,
      "бліз": 2093,
      "часткай": 2094,
      "трох": 2095,
      "бачыў": 2096,
      "карыстальні": 2097,
      "дрэва": 2098,
      "праблему": 2099,
      "хацелі": 2100,
      "наступны": 2101,
      "шляхам": 2102,
      "электра": 2103,
      "стрэс": 2104,
      "вырашыла": 2105,
      "джэння": 2106,
      "бацька": 2107,
      "падыход": 2108,
      "сістэмы": 2109,
      "галоўнае": 2110,
      "тычныя": 2111,
      "колькасці": 2112,
      "даведацца": 2113,
      "даведаліся": 2114,
      "пазба": 2115,
      "арганізацыі": 2116,
      "ехаць": 2117,
      "ніцай": 2118,
      "распрацоў": 2119,
      "неабходна": 2120,
      "аналі": 2121,
      "здараецца": 2122,
      "метафа": 2123,
      "голасу": 2124,
      "дазваляе": 2125,
      "апавяда": 2126,
      "дзецьмі": 2127,
      "ace": 2128,
      "двух": 2129,
      "люблю": 2130,
      "татуіроў": 2131,
      "фінанса": 2132,
      "індывідуаль": 2133,
      "75": 2134,
      "ай": 2135,
      "ата": 2136,
      "апера": 2137,
      "глу": 2138,
      "джу": 2139,
      "злі": 2140,
      "звалі": 2141,
      "змага": 2142,
      "звярта": 2143,
      "нг": 2144,
      "сха": 2145,
      "спро": 2146,
      "тві": 2147,
      "тных": 2148,
      "япо": 2149,
      "ёзна": 2150,
      "набы": 2151,
      "надру": 2152,
      "намага": 2153,
      "раку": 2154,
      "табе": 2155,
      "тасць": 2156,
      "пары": 2157,
      "пазі": 2158,
      "папя": 2159,
      "паказаць": 2160,
      "нем": 2161,
      "неш": 2162,
      "дай": 2163,
      "дак": 2164,
      "дара": 2165,
      "даку": 2166,
      "дано": 2167,
      "даем": 2168,
      "давайце": 2169,
      "тор": 2170,
      "кітай": 2171,
      "выпра": 2172,
      "льная": 2173,
      "прамы": 2174,
      "зас": 2175,
      "нікам": 2176,
      "ніцу": 2177,
      "гар": 2178,
      "гато": 2179,
      "гары": 2180,
      "чыкі": 2181,
      "лем": 2182,
      "адва": 2183,
      "нядаў": 2184,
      "колі": 2185,
      "стаўля": 2186,
      "дзіцца": 2187,
      "новай": 2188,
      "досве": 2189,
      "нуцца": 2190,
      "прыбы": 2191,
      "вора": 2192,
      "разы": 2193,
      "разважа": 2194,
      "білі": 2195,
      "настолькі": 2196,
      "цяў": 2197,
      "гук": 2198,
      "бер": 2199,
      "пом": 2200,
      "скае": 2201,
      "перажы": 2202,
      "ператва": 2203,
      "знагаро": 2204,
      "дэпрэ": 2205,
      "абмежа": 2206,
      "перша": 2207,
      "лым": 2208,
      "сетка": 2209,
      "сонца": 2210,
      "імк": 2211,
      "самага": 2212,
      "трады": 2213,
      "трапі": 2214,
      "канца": 2215,
      "разуменне": 2216,
      "менты": 2217,
      "чалавекам": 2218,
      "штатах": 2219,
      "шэнні": 2220,
      "джання": 2221,
      "шукаць": 2222,
      "кер": 2223,
      "аўды": 2224,
      "патрэбныя": 2225,
      "школу": 2226,
      "добрыя": 2227,
      "самыя": 2228,
      "плясканні": 2229,
      "экс": 2230,
      "кампанія": 2231,
      "ўніверсітэ": 2232,
      "сутнасці": 2233,
      "адносінах": 2234,
      "асоба": 2235,
      "абара": 2236,
      "шчыра": 2237,
      "кагосьці": 2238,
      "паводзі": 2239,
      "праграм": 2240,
      "звязаны": 2241,
      "памятаю": 2242,
      "мільёны": 2243,
      "здым": 2244,
      "здымак": 2245,
      "выкарыстоўваць": 2246,
      "шматлікіх": 2247,
      "спосаб": 2248,
      "ted": 2249,
      "іерогліфа": 2250,
      "распаўсюджа": 2251,
      "эфектыў": 2252,
      "захвор": 2253,
      "кандыда": 2254,
      "11": 2255,
      "40": 2256,
      "ch": 2257,
      "en": 2258,
      "ro": 2259,
      "апублі": 2260,
      "акрамя": 2261,
      "бру": 2262,
      "вэ": 2263,
      "кс": 2264,
      "нкаў": 2265,
      "ор": 2266,
      "рны": 2267,
      "сна": 2268,
      "сны": 2269,
      "сных": 2270,
      "столькі": 2271,
      "стым": 2272,
      "тны": 2273,
      "тныя": 2274,
      "ткам": 2275,
      "ура": 2276,
      "убачыць": 2277,
      "хта": 2278,
      "шс": 2279,
      "інава": 2280,
      "ўста": 2281,
      "нашу": 2282,
      "такую": 2283,
      "тавацца": 2284,
      "кало": 2285,
      "канаў": 2286,
      "варо": 2287,
      "пашы": 2288,
      "памер": 2289,
      "параўна": 2290,
      "пабудаваць": 2291,
      "лівае": 2292,
      "лічыць": 2293,
      "лідар": 2294,
      "дамі": 2295,
      "далё": 2296,
      "лабара": 2297,
      "тон": 2298,
      "рызы": 2299,
      "выбу": 2300,
      "выйшла": 2301,
      "льнасць": 2302,
      "прасто": 2303,
      "прачыта": 2304,
      "прамову": 2305,
      "зася": 2306,
      "запі": 2307,
      "чык": 2308,
      "чыла": 2309,
      "чая": 2310,
      "чанне": 2311,
      "тычыцца": 2312,
      "сах": 2313,
      "ляваць": 2314,
      "роб": 2315,
      "меха": 2316,
      "медано": 2317,
      "адразу": 2318,
      "рэнне": 2319,
      "рэчаў": 2320,
      "няга": 2321,
      "ком": 2322,
      "дзела": 2323,
      "стай": 2324,
      "цела": 2325,
      "мудра": 2326,
      "вінава": 2327,
      "новых": 2328,
      "прыва": 2329,
      "воб": 2330,
      "вочы": 2331,
      "размовы": 2332,
      "вяла": 2333,
      "суль": 2334,
      "сустра": 2335,
      "сія": 2336,
      "руку": 2337,
      "тэст": 2338,
      "чулі": 2339,
      "інве": 2340,
      "інду": 2341,
      "знахо": 2342,
      "значыцца": 2343,
      "ведаюць": 2344,
      "спако": 2345,
      "самастой": 2346,
      "пуль": 2347,
      "глядаць": 2348,
      "зір": 2349,
      "паслу": 2350,
      "зрабіла": 2351,
      "роўні": 2352,
      "вырас": 2353,
      "вайны": 2354,
      "кожная": 2355,
      "будзем": 2356,
      "вярджа": 2357,
      "атрымоў": 2358,
      "адчуваю": 2359,
      "верне": 2360,
      "працавала": 2361,
      "льнік": 2362,
      "хімі": 2363,
      "працуюць": 2364,
      "бліжэй": 2365,
      "дрэваў": 2366,
      "атрымаў": 2367,
      "атрымалі": 2368,
      "атрымала": 2369,
      "існава": 2370,
      "большага": 2371,
      "малады": 2372,
      "важнае": 2373,
      "дзяўчат": 2374,
      "частак": 2375,
      "дзіўна": 2376,
      "краіне": 2377,
      "трымліва": 2378,
      "даследванне": 2379,
      "змянілі": 2380,
      "змяніла": 2381,
      "энергія": 2382,
      "апынулася": 2383,
      "цудоўна": 2384,
      "спыні": 2385,
      "выбараў": 2386,
      "матэматы": 2387,
      "шчасце": 2388,
      "ўпэўнены": 2389,
      "выпадку": 2390,
      "захапля": 2391,
      "пакоі": 2392,
      "інтэрнэт": 2393,
      "старонкі": 2394,
      "злачы": 2395,
      "стварэння": 2396,
      "хвілін": 2397,
      "літаральна": 2398,
      "эксперымента": 2399,
      "пратэз": 2400,
      "часова": 2401,
      "мовах": 2402,
      "паглядзець": 2403,
      "зроблена": 2404,
      "прыгожа": 2405,
      "вопыт": 2406,
      "падабаецца": 2407,
      "раптам": 2408,
      "завецца": 2409,
      "сярэдзіне": 2410,
      "характару": 2411,
      "пераўтва": 2412,
      "the": 2413,
      "вымуша": 2414,
      "13": 2415,
      "17": 2416,
      "an": 2417,
      "at": 2418,
      "co": 2419,
      "face": 2420,
      "in": 2421,
      "it": 2422,
      "ацэ": 2423,
      "актыў": 2424,
      "дку": 2425,
      "есці": 2426,
      "йм": 2427,
      "кло": 2428,
      "лку": 2429,
      "мны": 2430,
      "мпі": 2431,
      "нтэ": 2432,
      "нкам": 2433,
      "ндыі": 2434,
      "офі": 2435,
      "рту": 2436,
      "сныя": 2437,
      "скла": 2438,
      "смар": 2439,
      "тнай": 2440,
      "шкі": 2441,
      "эфі": 2442,
      "ёз": 2443,
      "інак": 2444,
      "ўро": 2445,
      "нала": 2446,
      "наво": 2447,
      "наперад": 2448,
      "раё": 2449,
      "раска": 2450,
      "рашэнне": 2451,
      "тале": 2452,
      "тараў": 2453,
      "ваша": 2454,
      "ванае": 2455,
      "пае": 2456,
      "пач": 2457,
      "пагля": 2458,
      "несці": 2459,
      "немагчыма": 2460,
      "незвычай": 2461,
      "нехта": 2462,
      "ліны": 2463,
      "лівым": 2464,
      "даваць": 2465,
      "маса": 2466,
      "рыў": 2467,
      "рыцца": 2468,
      "вымаў": 2469,
      "выканаў": 2470,
      "льнасці": 2471,
      "запу": 2472,
      "зараб": 2473,
      "занадта": 2474,
      "ній": 2475,
      "ніку": 2476,
      "гана": 2477,
      "чых": 2478,
      "ленні": 2479,
      "вей": 2480,
      "сачыць": 2481,
      "сяць": 2482,
      "роду": 2483,
      "ціла": 2484,
      "адкуль": 2485,
      "гора": 2486,
      "дзеця": 2487,
      "мола": 2488,
      "ствы": 2489,
      "створа": 2490,
      "жах": 2491,
      "жаў": 2492,
      "дырэ": 2493,
      "пей": 2494,
      "віс": 2495,
      "відаво": 2496,
      "нова": 2497,
      "носіць": 2498,
      "досвед": 2499,
      "прыя": 2500,
      "прыві": 2501,
      "прырод": 2502,
      "прытрымліва": 2503,
      "туды": 2504,
      "туру": 2505,
      "біз": 2506,
      "біцца": 2507,
      "хат": 2508,
      "суаль": 2509,
      "рукі": 2510,
      "найлепшы": 2511,
      "вуч": 2512,
      "дзякую": 2513,
      "чую": 2514,
      "інсты": 2515,
      "ўспрыма": 2516,
      "значна": 2517,
      "значэнне": 2518,
      "ведаючы": 2519,
      "пішу": 2520,
      "сель": 2521,
      "ньце": 2522,
      "тран": 2523,
      "справы": 2524,
      "канфе": 2525,
      "крыў": 2526,
      "крыніцы": 2527,
      "філь": 2528,
      "вяліз": 2529,
      "вялікія": 2530,
      "вялікая": 2531,
      "якасць": 2532,
      "нейкія": 2533,
      "стыцы": 2534,
      "навучы": 2535,
      "навукоў": 2536,
      "навучыцца": 2537,
      "іншым": 2538,
      "каледжа": 2539,
      "адчувалі": 2540,
      "льнікі": 2541,
      "льнікам": 2542,
      "спецыя": 2543,
      "следу": 2544,
      "друга": 2545,
      "ктаў": 2546,
      "кеп": 2547,
      "англі": 2548,
      "першыя": 2549,
      "бачыла": 2550,
      "карыстаюцца": 2551,
      "дрэн": 2552,
      "фота": 2553,
      "сённяш": 2554,
      "наступнае": 2555,
      "галаве": 2556,
      "знайшла": 2557,
      "мэтай": 2558,
      "пачула": 2559,
      "здоле": 2560,
      "джэйм": 2561,
      "бацькоў": 2562,
      "кажам": 2563,
      "думкі": 2564,
      "гісторыю": 2565,
      "рэшт": 2566,
      "існуюць": 2567,
      "прадукт": 2568,
      "прадуктыў": 2569,
      "краінах": 2570,
      "раблю": 2571,
      "йцеся": 2572,
      "супрацоў": 2573,
      "дапамогі": 2574,
      "сэрцы": 2575,
      "паліты": 2576,
      "змянілася": 2577,
      "сцяў": 2578,
      "ўвазе": 2579,
      "слухаць": 2580,
      "крок": 2581,
      "прапанава": 2582,
      "назвай": 2583,
      "стварае": 2584,
      "гвалт": 2585,
      "пазней": 2586,
      "мажлівасць": 2587,
      "ўпэўнена": 2588,
      "ехалі": 2589,
      "адрозні": 2590,
      "падтрымліва": 2591,
      "цэнтры": 2592,
      "струк": 2593,
      "абсалютна": 2594,
      "усю": 2595,
      "адзна": 2596,
      "закон": 2597,
      "тысячы": 2598,
      "хвіліну": 2599,
      "нязру": 2600,
      "бабуля": 2601,
      "харча": 2602,
      "усяго": 2603,
      "сэксуаль": 2604,
      "ракеты": 2605,
      "жывем": 2606,
      "электрыч": 2607,
      "райз": 2608,
      "дазволіць": 2609,
      "прадукцый": 2610,
      "медыцы": 2611,
      "кошт": 2612,
      "прыгажо": 2613,
      "мяркую": 2614,
      "цвёрда": 2615,
      "прафесі": 2616,
      "зацікаўле": 2617,
      "гаварыць": 2618,
      "пазбавіцца": 2619,
      "нядаўна": 2620,
      "колісь": 2621,
      "экспер": 2622,
      "індуст": 2623,
      "канферэн": 2624,
      "60": 2625,
      "90": 2626,
      "ad": 2627,
      "ip": 2628,
      "iq": 2629,
      "tu": 2630,
      "асу": 2631,
      "алах": 2632,
      "бэ": 2633,
      "еш": 2634,
      "зле": 2635,
      "змог": 2636,
      "км": 2637,
      "ква": 2638,
      "нтам": 2639,
      "нкай": 2640,
      "пто": 2641,
      "прэч": 2642,
      "сля": 2643,
      "сня": 2644,
      "сбу": 2645,
      "свядома": 2646,
      "тнага": 2647,
      "уні": 2648,
      "успа": 2649,
      "улас": 2650,
      "узя": 2651,
      "уключа": 2652,
      "увесь": 2653,
      "цвер": 2654,
      "чнае": 2655,
      "шч": 2656,
      "шту": 2657,
      "ём": 2658,
      "ісці": 2659,
      "ўвесь": 2660,
      "ўдзельні": 2661,
      "наго": 2662,
      "рата": 2663,
      "раваць": 2664,
      "тае": 2665,
      "кал": 2666,
      "каро": 2667,
      "казы": 2668,
      "капіта": 2669,
      "ваўся": 2670,
      "ваючы": 2671,
      "паме": 2672,
      "павер": 2673,
      "палепшы": 2674,
      "недастаткова": 2675,
      "лівымі": 2676,
      "дачы": 2677,
      "дагэту": 2678,
      "дарэчы": 2679,
      "дасыла": 2680,
      "ламі": 2681,
      "кіру": 2682,
      "выс": 2683,
      "выда": 2684,
      "выха": 2685,
      "выру": 2686,
      "вытворча": 2687,
      "вызвалі": 2688,
      "льце": 2689,
      "праро": 2690,
      "прагрэ": 2691,
      "прайшлі": 2692,
      "зара": 2693,
      "заво": 2694,
      "забой": 2695,
      "ніна": 2696,
      "нілі": 2697,
      "чыя": 2698,
      "чана": 2699,
      "чароў": 2700,
      "лесе": 2701,
      "тыдні": 2702,
      "сана": 2703,
      "сажа": 2704,
      "міць": 2705,
      "розна": 2706,
      "межы": 2707,
      "ады": 2708,
      "адказаў": 2709,
      "мых": 2710,
      "горада": 2711,
      "кожна": 2712,
      "ковыя": 2713,
      "дзевя": 2714,
      "стамі": 2715,
      "балю": 2716,
      "жак": 2717,
      "жаць": 2718,
      "пестыцы": 2719,
      "прыходзіць": 2720,
      "разо": 2721,
      "разна": 2722,
      "мяса": 2723,
      "суты": 2724,
      "сувя": 2725,
      "сусве": 2726,
      "сурага": 2727,
      "сіла": 2728,
      "сілы": 2729,
      "руху": 2730,
      "насе": 2731,
      "настой": 2732,
      "буды": 2733,
      "ходу": 2734,
      "дзяцца": 2735,
      "пол": 2736,
      "пошу": 2737,
      "сціла": 2738,
      "спатрэ": 2739,
      "клаў": 2740,
      "піла": 2741,
      "сваімі": 2742,
      "абставі": 2743,
      "першай": 2744,
      "сеткі": 2745,
      "самай": 2746,
      "годна": 2747,
      "факт": 2748,
      "думаеце": 2749,
      "кантро": 2750,
      "жанчынамі": 2751,
      "цём": 2752,
      "ткані": 2753,
      "браць": 2754,
      "бяз": 2755,
      "бярэ": 2756,
      "вялік": 2757,
      "нейра": 2758,
      "розе": 2759,
      "адзіны": 2760,
      "мандэ": 2761,
      "плаціць": 2762,
      "кожным": 2763,
      "лёў": 2764,
      "йшло": 2765,
      "адначасова": 2766,
      "каленку": 2767,
      "каленка": 2768,
      "кніг": 2769,
      "кнізе": 2770,
      "працаўні": 2771,
      "льніцтва": 2772,
      "ідэй": 2773,
      "многа": 2774,
      "мноства": 2775,
      "словамі": 2776,
      "пісаў": 2777,
      "явілася": 2778,
      "сказалі": 2779,
      "школе": 2780,
      "большасці": 2781,
      "тэхналагі": 2782,
      "машыну": 2783,
      "хочаш": 2784,
      "тэхналогій": 2785,
      "тэхналогію": 2786,
      "апошні": 2787,
      "стрэсу": 2788,
      "хвароба": 2789,
      "скон": 2790,
      "сістэму": 2791,
      "глядзець": 2792,
      "краіны": 2793,
      "вярнулася": 2794,
      "дыяг": 2795,
      "дадзеных": 2796,
      "вывучыць": 2797,
      "сцямі": 2798,
      "баланс": 2799,
      "балатавацца": 2800,
      "называецца": 2801,
      "інфармацыі": 2802,
      "спачуванне": 2803,
      "версія": 2804,
      "прапаноў": 2805,
      "сацыяльныя": 2806,
      "гвалта": 2807,
      "гвалту": 2808,
      "нараджэння": 2809,
      "сусветнай": 2810,
      "дарос": 2811,
      "выйсці": 2812,
      "праграму": 2813,
      "сцвярджа": 2814,
      "падумаў": 2815,
      "падумала": 2816,
      "эканамі": 2817,
      "стагоддзі": 2818,
      "крэс": 2819,
      "палову": 2820,
      "падзяліцца": 2821,
      "сябрамі": 2822,
      "сітуацыя": 2823,
      "мастацтва": 2824,
      "станові": 2825,
      "прылады": 2826,
      "прэзідэнт": 2827,
      "кіраўніцтва": 2828,
      "харчо": 2829,
      "піхта": 2830,
      "пачынае": 2831,
      "песні": 2832,
      "розум": 2833,
      "дапамагае": 2834,
      "аўтамабі": 2835,
      "натуральна": 2836,
      "знойдзе": 2837,
      "адоле": 2838,
      "сцежкі": 2839,
      "тэорыя": 2840,
      "бяроза": 2841,
      "нібыта": 2842,
      "прывяло": 2843,
      "дазвольце": 2844,
      "атрымліваюць": 2845,
      "павяліч": 2846,
      "вуліцы": 2847,
      "стэрства": 2848,
      "сярэднім": 2849,
      "ўнутра": 2850,
      "патэнцыя": 2851,
      "даследа": 2852,
      "мозг": 2853,
      "ступені": 2854,
      "метафары": 2855,
      "адварот": 2856,
      "досведу": 2857,
      "далёка": 2858,
      "засяро": 2859,
      "самастойна": 2860,
      "смарт": 2861,
      "інакш": 2862,
      "дзецям": 2863,
      "транспа": 2864,
      "прыгажосць": 2865,
      "успамі": 2866,
      "уключаючы": 2867,
      "дагэтуль": 2868,
      ".”": 2869,
      "22": 2870,
      "3d": 2871,
      "500": 2872,
      "al": 2873,
      "boo": 2874,
      "ic": 2875,
      "me": 2876,
      "аж": 2877,
      "ак": 2878,
      "арэ": 2879,
      "акты": 2880,
      "бла": 2881,
      "бло": 2882,
      "дры": 2883,
      "дкі": 2884,
      "днасці": 2885,
      "ей": 2886,
      "еры": 2887,
      "ежу": 2888,
      "зру": 2889,
      "змен": 2890,
      "зможаце": 2891,
      "йдуць": 2892,
      "лкі": 2893,
      "сма": 2894,
      "срод": 2895,
      "сфе": 2896,
      "устой": 2897,
      "фэй": 2898,
      "фран": 2899,
      "цкі": 2900,
      "цці": 2901,
      "цце": 2902,
      "шо": 2903,
      "шся": 2904,
      "шчо": 2905,
      "штур": 2906,
      "эл": 2907,
      "эра": 2908,
      "яс": 2909,
      "ўпар": 2910,
      "наму": 2911,
      "рае": 2912,
      "раман": 2913,
      "расказаць": 2914,
      "вады": 2915,
      "вашы": 2916,
      "ваду": 2917,
      "вагі": 2918,
      "васці": 2919,
      "ваная": 2920,
      "вашыя": 2921,
      "паке": 2922,
      "панэ": 2923,
      "паставі": 2924,
      "павышэ": 2925,
      "невядо": 2926,
      "лік": 2927,
      "дама": 2928,
      "дала": 2929,
      "даль": 2930,
      "мац": 2931,
      "мару": 2932,
      "машта": 2933,
      "рылі": 2934,
      "выжы": 2935,
      "выклю": 2936,
      "льную": 2937,
      "забы": 2938,
      "заві": 2939,
      "задума": 2940,
      "зашмат": 2941,
      "заход": 2942,
      "заклі": 2943,
      "запаве": 2944,
      "нікаў": 2945,
      "гарэ": 2946,
      "чаныя": 2947,
      "часоў": 2948,
      "легла": 2949,
      "штогод": 2950,
      "сай": 2951,
      "міла": 2952,
      "міце": 2953,
      "меў": 2954,
      "медыя": 2955,
      "ціну": 2956,
      "адда": 2957,
      "адмо": 2958,
      "адлю": 2959,
      "рэча": 2960,
      "рэння": 2961,
      "рэкла": 2962,
      "рэсур": 2963,
      "нямі": 2964,
      "гоў": 2965,
      "дзеткі": 2966,
      "стасу": 2967,
      "старыя": 2968,
      "баў": 2969,
      "бата": 2970,
      "баку": 2971,
      "мовай": 2972,
      "мозгу": 2973,
      "мую": 2974,
      "мусім": 2975,
      "мусуль": 2976,
      "жам": 2977,
      "дыха": 2978,
      "пец": 2979,
      "віт": 2980,
      "віў": 2981,
      "новым": 2982,
      "новую": 2983,
      "лок": 2984,
      "нуўся": 2985,
      "прынта": 2986,
      "прыйшла": 2987,
      "прыцяг": 2988,
      "вопра": 2989,
      "вогу": 2990,
      "водзіць": 2991,
      "духоў": 2992,
      "каліфор": 2993,
      "шасці": 2994,
      "шакала": 2995,
      "вяза": 2996,
      "вячэ": 2997,
      "бія": 2998,
      "хаць": 2999,
      "хаты": 3000,
      "суд": 3001,
      "сігна": 3002,
      "рур": 3003,
      "булін": 3004,
      "тэста": 3005,
      "вуз": 3006,
      "гуля": 3007,
      "гучыць": 3008,
      "ходзяць": 3009,
      "гіп": 3010,
      "гіган": 3011,
      "дзяду": 3012,
      "інтэ": 3013,
      "іншаму": 3014,
      "пола": 3015,
      "ўстой": 3016,
      "скар": 3017,
      "пераклада": 3018,
      "спад": 3019,
      "клас": 3020,
      "чэмпі": 3021,
      "дэмі": 3022,
      "трэці": 3023,
      "лымі": 3024,
      "былося": 3025,
      "секу": 3026,
      "сотні": 3027,
      "імпуль": 3028,
      "пун": 3029,
      "пута": 3030,
      "кантра": 3031,
      "разумення": 3032,
      "зіі": 3033,
      "жанчыну": 3034,
      "ткай": 3035,
      "ючыя": 3036,
      "лівасць": 3037,
      "аднога": 3038,
      "крыху": 3039,
      "планава": 3040,
      "стыя": 3041,
      "стыцыі": 3042,
      "кожнай": 3043,
      "навучыць": 3044,
      "каледж": 3045,
      "адчуваць": 3046,
      "працавалі": 3047,
      "лепшага": 3048,
      "гер": 3049,
      "магчымасці": 3050,
      "ктары": 3051,
      "хірур": 3052,
      "працую": 3053,
      "мужчына": 3054,
      "мужчынамі": 3055,
      "анджа": 3056,
      "часткова": 3057,
      "першых": 3058,
      "навіны": 3059,
      "добрае": 3060,
      "робіце": 3061,
      "распавяда": 3062,
      "важныя": 3063,
      "лічбы": 3064,
      "галаса": 3065,
      "галасоў": 3066,
      "прадстаў": 3067,
      "эмпа": 3068,
      "вынікі": 3069,
      "апошняе": 3070,
      "меркава": 3071,
      "дзяўчына": 3072,
      "жадаеце": 3073,
      "узроўні": 3074,
      "месяц": 3075,
      "дадзены": 3076,
      "вывуча": 3077,
      "мільяр": 3078,
      "глаба": 3079,
      "даследванні": 3080,
      "праекта": 3081,
      "абавяз": 3082,
      "інфармацыю": 3083,
      "слухала": 3084,
      "назваў": 3085,
      "павелі": 3086,
      "выдатна": 3087,
      "выкарыстоўва": 3088,
      "ўзросце": 3089,
      "памёр": 3090,
      "лізацыі": 3091,
      "інтэрнэту": 3092,
      "кветкі": 3093,
      "тэлефон": 3094,
      "аўтызм": 3095,
      "амерыканцаў": 3096,
      "адзнакі": 3097,
      "агульнага": 3098,
      "сітуацыю": 3099,
      "атрымлі": 3100,
      "прэзідэнта": 3101,
      "функ": 3102,
      "нязмен": 3103,
      "любым": 3104,
      "ахвяра": 3105,
      "спіс": 3106,
      "кніжку": 3107,
      "здольнасці": 3108,
      "1998": 3109,
      "любові": 3110,
      "падарожжа": 3111,
      "даслаць": 3112,
      "гаворым": 3113,
      "накіроў": 3114,
      "пазыкі": 3115,
      "афрыцы": 3116,
      "паўночнай": 3117,
      "арые": 3118,
      "бяспла": 3119,
      "паспрабаваць": 3120,
      "узросце": 3121,
      "дзяржаў": 3122,
      "інжыне": 3123,
      "сонечнай": 3124,
      "ўзяць": 3125,
      "прамысло": 3126,
      "дэпрэсіі": 3127,
      "абараніць": 3128,
      "іерогліфаў": 3129,
      "параўнанні": 3130,
      "прасторы": 3131,
      "вобраз": 3132,
      "вернемся": 3133,
      "faceboo": 3134,
      "бізнэ": 3135,
      "разнастай": 3136,
      "сувязі": 3137,
      "фэйсбу": 3138,
      "facebook": 3139,
      "45": 3140,
      "70": 3141,
      "go": 3142,
      "аг": 3143,
      "ал": 3144,
      "ам": 3145,
      "аго": 3146,
      "абу": 3147,
      "апі": 3148,
      "аказ": 3149,
      "адам": 3150,
      "агрэ": 3151,
      "агарод": 3152,
      "гчы": 3153,
      "гса": 3154,
      "гну": 3155,
      "дныя": 3156,
      "ер": 3157,
      "ежа": 3158,
      "ежы": 3159,
      "жку": 3160,
      "змаглі": 3161,
      "збор": 3162,
      "йду": 3163,
      "йныя": 3164,
      "клу": 3165,
      "оле": 3166,
      "пкі": 3167,
      "рп": 3168,
      "рво": 3169,
      "снай": 3170,
      "спя": 3171,
      "схі": 3172,
      "тру": 3173,
      "тным": 3174,
      "тная": 3175,
      "тнае": 3176,
      "ую": 3177,
      "уста": 3178,
      "уну": 3179,
      "упершыню": 3180,
      "узаема": 3181,
      "узнагаро": 3182,
      "флей": 3183,
      "цкая": 3184,
      "ых": 3185,
      "эмо": 3186,
      "яц": 3187,
      "іра": 3188,
      "іме": 3189,
      "ўця": 3190,
      "ўяў": 3191,
      "ўразі": 3192,
      "нач": 3193,
      "напра": 3194,
      "нале": 3195,
      "наты": 3196,
      "надзей": 3197,
      "набыць": 3198,
      "накіра": 3199,
      "рат": 3200,
      "рабо": 3201,
      "расце": 3202,
      "тап": 3203,
      "талі": 3204,
      "камя": 3205,
      "ван": 3206,
      "вашае": 3207,
      "вашая": 3208,
      "вашым": 3209,
      "вашых": 3210,
      "паэ": 3211,
      "паль": 3212,
      "пасту": 3213,
      "патрэба": 3214,
      "пабуда": 3215,
      "паказаў": 3216,
      "пайшлі": 3217,
      "паспрабу": 3218,
      "пайсці": 3219,
      "паваро": 3220,
      "нес": 3221,
      "неры": 3222,
      "нечым": 3223,
      "ліі": 3224,
      "ліку": 3225,
      "лічым": 3226,
      "давя": 3227,
      "даючы": 3228,
      "дадат": 3229,
      "торыя": 3230,
      "рый": 3231,
      "рын": 3232,
      "рыф": 3233,
      "выма": 3234,
      "выкі": 3235,
      "выбі": 3236,
      "выдаў": 3237,
      "выпада": 3238,
      "выходзіць": 3239,
      "праграма": 3240,
      "правяла": 3241,
      "зам": 3242,
      "зая": 3243,
      "запа": 3244,
      "замя": 3245,
      "заслу": 3246,
      "закаха": 3247,
      "забес": 3248,
      "ніла": 3249,
      "нічаць": 3250,
      "габ": 3251,
      "чыма": 3252,
      "чырво": 3253,
      "чак": 3254,
      "чары": 3255,
      "чання": 3256,
      "чаюць": 3257,
      "лен": 3258,
      "лета": 3259,
      "верыць": 3260,
      "штодзён": 3261,
      "тып": 3262,
      "тыдзень": 3263,
      "сак": 3264,
      "сан": 3265,
      "сабра": 3266,
      "саджа": 3267,
      "лях": 3268,
      "ляецца": 3269,
      "рост": 3270,
      "мера": 3271,
      "адпа": 3272,
      "адбылося": 3273,
      "рэстара": 3274,
      "мысле": 3275,
      "нях": 3276,
      "няцца": 3277,
      "няправі": 3278,
      "кор": 3279,
      "коле": 3280,
      "стар": 3281,
      "старэй": 3282,
      "строў": 3283,
      "муль": 3284,
      "мусіць": 3285,
      "цылін": 3286,
      "відаў": 3287,
      "шыня": 3288,
      "нуюць": 3289,
      "нумар": 3290,
      "прыста": 3291,
      "прынам": 3292,
      "прыходзі": 3293,
      "прыклада": 3294,
      "прыняць": 3295,
      "душу": 3296,
      "разбу": 3297,
      "любя": 3298,
      "любой": 3299,
      "калісьці": 3300,
      "турма": 3301,
      "хаў": 3302,
      "хадзіць": 3303,
      "сум": 3304,
      "суке": 3305,
      "сусвету": 3306,
      "суразмоў": 3307,
      "сілу": 3308,
      "рух": 3309,
      "руч": 3310,
      "цяць": 3311,
      "вул": 3312,
      "вучы": 3313,
      "гукі": 3314,
      "гульні": 3315,
      "гію": 3316,
      "гігса": 3317,
      "інвалі": 3318,
      "іншая": 3319,
      "іншай": 3320,
      "скара": 3321,
      "знакамі": 3322,
      "кладзе": 3323,
      "дэба": 3324,
      "дэман": 3325,
      "пія": 3326,
      "пісь": 3327,
      "першую": 3328,
      "трапля": 3329,
      "доўж": 3330,
      "спраўля": 3331,
      "гляньце": 3332,
      "думалі": 3333,
      "думаем": 3334,
      "канку": 3335,
      "кантэк": 3336,
      "разумееце": 3337,
      "такімі": 3338,
      "здабы": 3339,
      "здавалася": 3340,
      "лівай": 3341,
      "крыніца": 3342,
      "філа": 3343,
      "чор": 3344,
      "заўважа": 3345,
      "жоў": 3346,
      "вырасла": 3347,
      "адзіно": 3348,
      "адзіным": 3349,
      "план": 3350,
      "журна": 3351,
      "даўно": 3352,
      "даўжэй": 3353,
      "кожнае": 3354,
      "кожную": 3355,
      "кайце": 3356,
      "дапаможа": 3357,
      "пачат": 3358,
      "пачалося": 3359,
      "паслядоў": 3360,
      "адчуваюць": 3361,
      "адчуваем": 3362,
      "сэнса": 3363,
      "лепшае": 3364,
      "лепшую": 3365,
      "пэт": 3366,
      "нюю": 3367,
      "сімпто": 3368,
      "льнікаў": 3369,
      "гей": 3370,
      "ўздоўж": 3371,
      "культура": 3372,
      "ктара": 3373,
      "паўтара": 3374,
      "паўплы": 3375,
      "майстэрства": 3376,
      "мужчынам": 3377,
      "пэўным": 3378,
      "школах": 3379,
      "цыйны": 3380,
      "цыйную": 3381,
      "сцей": 3382,
      "некалькіх": 3383,
      "большая": 3384,
      "добрым": 3385,
      "моманту": 3386,
      "кліе": 3387,
      "маладо": 3388,
      "тарам": 3389,
      "важны": 3390,
      "наступнай": 3391,
      "наступныя": 3392,
      "лічваць": 3393,
      "ваемся": 3394,
      "галасы": 3395,
      "знайшоў": 3396,
      "размаўляюць": 3397,
      "накштал": 3398,
      "прадме": 3399,
      "прадпрыма": 3400,
      "прадстаўля": 3401,
      "будучыня": 3402,
      "вырашыць": 3403,
      "кампанію": 3404,
      "думка": 3405,
      "вярнуўся": 3406,
      "верылі": 3407,
      "месяцы": 3408,
      "галоўная": 3409,
      "адкрыццё": 3410,
      "інтэрв": 3411,
      "баланса": 3412,
      "другога": 3413,
      "дасягнулі": 3414,
      "абаро": 3415,
      "хлопец": 3416,
      "напісаць": 3417,
      "задача": 3418,
      "называем": 3419,
      "асабістым": 3420,
      "самім": 3421,
      "сябры": 3422,
      "джвае": 3423,
      "музыка": 3424,
      "паветра": 3425,
      "выдатны": 3426,
      "цікавы": 3427,
      "сапраўдны": 3428,
      "ўшыся": 3429,
      "фізікі": 3430,
      "выпадкова": 3431,
      "маленькая": 3432,
      "зоркі": 3433,
      "ёрк": 3434,
      "стварыў": 3435,
      "навучанне": 3436,
      "памятаеце": 3437,
      "хлопца": 3438,
      "экано": 3439,
      "падобнае": 3440,
      "смерць": 3441,
      "свят": 3442,
      "каманда": 3443,
      "рэальнасць": 3444,
      "стагоддзя": 3445,
      "індыі": 3446,
      "скагаспадар": 3447,
      "назіраць": 3448,
      "рыхта": 3449,
      "тысяч": 3450,
      "сітуацыі": 3451,
      "стварэнне": 3452,
      "студэнты": 3453,
      "пакаленне": 3454,
      "становіцца": 3455,
      "шматлікія": 3456,
      "эксперымен": 3457,
      "джор": 3458,
      "фунда": 3459,
      "рухаві": 3460,
      "свабода": 3461,
      "сцэне": 3462,
      "сцэну": 3463,
      "высокія": 3464,
      "кніжкі": 3465,
      "зроблены": 3466,
      "увагі": 3467,
      "камуніка": 3468,
      "каштоўнасць": 3469,
      "каштоўнасці": 3470,
      "дзіцяці": 3471,
      "любоў": 3472,
      "нацыянальным": 3473,
      "гаворыць": 3474,
      "вязь": 3475,
      "дзяўчынка": 3476,
      "скончыць": 3477,
      "іерогліф": 3478,
      "валодаюць": 3479,
      "паведамленне": 3480,
      "жаночае": 3481,
      "жаночага": 3482,
      "сеціва": 3483,
      "рэдка": 3484,
      "трэцяе": 3485,
      "вырашаць": 3486,
      "змяняецца": 3487,
      "ісландыі": 3488,
      "спадары": 3489,
      "сэнсе": 3490,
      "трансфармацыі": 3491,
      "паўднёва": 3492,
      "пастаян": 3493,
      "недахо": 3494,
      "нагадвае": 3495,
      "татуіроўкі": 3496,
      "выпраба": 3497,
      "заснава": 3498,
      "інавацыі": 3499,
      "компле": 3500,
      "сустрака": 3501,
      "маладых": 3502,
      "ацэнь": 3503,
      "навокал": 3504,
      "моладзь": 3505,
      "відавочна": 3506,
      "інстыту": 3507,
      "сельскагаспадар": 3508,
      "другая": 3509,
      "джэймс": 3510,
      "узяць": 3511,
      "кожнаму": 3512,
      "сутык": 3513,
      "патэнцыял": 3514,
      "ажно": 3515,
      "запаведні": 3516,
      "адлюстроў": 3517,
      "вогуле": 3518,
      "павелічэнне": 3519,
      "давялося": 3520,
      "забеспя": 3521,
      "прынамсі": 3522,
      "накшталт": 3523,
      "1000": 3524,
      "2000": 3525,
      "300": 3526,
      "ap": 3527,
      "ne": 3528,
      "so": 3529,
      "ur": 3530,
      "ака": 3531,
      "адзе": 3532,
      "ажы": 3533,
      "ахо": 3534,
      "абе": 3535,
      "апара": 3536,
      "бкі": 3537,
      "блу": 3538,
      "блы": 3539,
      "бразі": 3540,
      "вю": 3541,
      "гнуць": 3542,
      "днк": 3543,
      "емы": 3544,
      "еру": 3545,
      "жка": 3546,
      "зь": 3547,
      "зю": 3548,
      "зма": 3549,
      "зга": 3550,
      "зво": 3551,
      "зджа": 3552,
      "здзіў": 3553,
      "збольшага": 3554,
      "збаланса": 3555,
      "йгра": 3556,
      "кэ": 3557,
      "кле": 3558,
      "кштал": 3559,
      "ллю": 3560,
      "лэй": 3561,
      "нскай": 3562,
      "пча": 3563,
      "плю": 3564,
      "пру": 3565,
      "упэўне": 3566,
      "что": 3567,
      "шш": 3568,
      "шкар": 3569,
      "шрыф": 3570,
      "эпо": 3571,
      "эпі": 3572,
      "яй": 3573,
      "іза": 3574,
      "ілю": 3575,
      "ўна": 3576,
      "ўвай": 3577,
      "ўключа": 3578,
      "ўбачылі": 3579,
      "ўбачыла": 3580,
      "нао": 3581,
      "нача": 3582,
      "наса": 3583,
      "нацца": 3584,
      "нады": 3585,
      "нагу": 3586,
      "наблі": 3587,
      "напачатку": 3588,
      "настро": 3589,
      "нажаль": 3590,
      "наадварот": 3591,
      "раса": 3592,
      "раху": 3593,
      "рацыю": 3594,
      "тата": 3595,
      "таніі": 3596,
      "ката": 3597,
      "каем": 3598,
      "камен": 3599,
      "камента": 3600,
      "касмі": 3601,
      "камень": 3602,
      "канеш": 3603,
      "ванай": 3604,
      "вась": 3605,
      "варыя": 3606,
      "вашай": 3607,
      "ванд": 3608,
      "павы": 3609,
      "панам": 3610,
      "пагра": 3611,
      "павяр": 3612,
      "паглы": 3613,
      "паказалі": 3614,
      "нега": 3615,
      "неяк": 3616,
      "нення": 3617,
      "незна": 3618,
      "незалеж": 3619,
      "ліста": 3620,
      "ліваць": 3621,
      "дах": 3622,
      "дасвед": 3623,
      "дарозе": 3624,
      "маць": 3625,
      "мама": 3626,
      "мары": 3627,
      "маця": 3628,
      "мавер": 3629,
      "лае": 3630,
      "лаці": 3631,
      "ланд": 3632,
      "дзвю": 3633,
      "рыхто": 3634,
      "кібер": 3635,
      "выро": 3636,
      "выказ": 3637,
      "выглядзе": 3638,
      "льнымі": 3639,
      "прада": 3640,
      "прагляда": 3641,
      "прамовы": 3642,
      "правяра": 3643,
      "прачытаць": 3644,
      "прайгра": 3645,
      "зала": 3646,
      "зачы": 3647,
      "заяві": 3648,
      "заціка": 3649,
      "застане": 3650,
      "забяспе": 3651,
      "нікамі": 3652,
      "гад": 3653,
      "гае": 3654,
      "газ": 3655,
      "гару": 3656,
      "гатэ": 3657,
      "чыкаў": 3658,
      "чаю": 3659,
      "часці": 3660,
      "часе": 3661,
      "чаецца": 3662,
      "лет": 3663,
      "леса": 3664,
      "лесу": 3665,
      "веге": 3666,
      "вечары": 3667,
      "тыд": 3668,
      "тыкі": 3669,
      "тыку": 3670,
      "цай": 3671,
      "само": 3672,
      "міра": 3673,
      "мікары": 3674,
      "лямі": 3675,
      "ляем": 3676,
      "менні": 3677,
      "адмы": 3678,
      "адпачы": 3679,
      "адсутнасць": 3680,
      "адміні": 3681,
      "адказы": 3682,
      "адлегла": 3683,
      "рэза": 3684,
      "рэпута": 3685,
      "быта": 3686,
      "быцця": 3687,
      "ням": 3688,
      "няла": 3689,
      "няюць": 3690,
      "няшмат": 3691,
      "няхай": 3692,
      "году": 3693,
      "ковай": 3694,
      "статы": 3695,
      "стату": 3696,
      "ставяцца": 3697,
      "баі": 3698,
      "бамі": 3699,
      "баваць": 3700,
      "мор": 3701,
      "куп": 3702,
      "куса": 3703,
      "купля": 3704,
      "божа": 3705,
      "болей": 3706,
      "дыс": 3707,
      "перыя": 3708,
      "від": 3709,
      "дзір": 3710,
      "дзіла": 3711,
      "дзілася": 3712,
      "дзіліся": 3713,
      "шымі": 3714,
      "ночы": 3715,
      "досту": 3716,
      "досы": 3717,
      "доказ": 3718,
      "доследу": 3719,
      "лом": 3720,
      "нута": 3721,
      "прыту": 3722,
      "прыносіць": 3723,
      "прыводзіць": 3724,
      "восем": 3725,
      "душы": 3726,
      "дугла": 3727,
      "разбі": 3728,
      "разгле": 3729,
      "размова": 3730,
      "люся": 3731,
      "вяд": 3732,
      "вяры": 3733,
      "туе": 3734,
      "туаль": 3735,
      "біне": 3736,
      "мядзве": 3737,
      "сіл": 3738,
      "сімі": 3739,
      "цяпера": 3740,
      "будаў": 3741,
      "бунту": 3742,
      "найвышэй": 3743,
      "тэд": 3744,
      "вучыцца": 3745,
      "гул": 3746,
      "гучаць": 3747,
      "бен": 3748,
      "позна": 3749,
      "сціць": 3750,
      "перамя": 3751,
      "зная": 3752,
      "спаць": 3753,
      "спажы": 3754,
      "класе": 3755,
      "дэн": 3756,
      "піў": 3757,
      "піцца": 3758,
      "пылок": 3759,
      "абра": 3760,
      "падрыхто": 3761,
      "персана": 3762,
      "рабіце": 3763,
      "сер": 3764,
      "магло": 3765,
      "імг": 3766,
      "пунк": 3767,
      "спраў": 3768,
      "справяд": 3769,
      "наваколь": 3770,
      "дзейнасць": 3771,
      "часы": 3772,
      "часцей": 3773,
      "фай": 3774,
      "фата": 3775,
      "фанта": 3776,
      "канцы": 3777,
      "канчат": 3778,
      "канцэнтра": 3779,
      "разумее": 3780,
      "зіць": 3781,
      "цэп": 3782,
      "цэлы": 3783,
      "цэнт": 3784,
      "ткамі": 3785,
      "бяздо": 3786,
      "лівасці": 3787,
      "раўноў": 3788,
      "шматразо": 3789,
      "пытаюцца": 3790,
      "вялікае": 3791,
      "вялікага": 3792,
      "якага": 3793,
      "нейшым": 3794,
      "рознымі": 3795,
      "вырабу": 3796,
      "выяўля": 3797,
      "стыкі": 3798,
      "стыль": 3799,
      "твар": 3800,
      "твары": 3801,
      "шэры": 3802,
      "дапаса": 3803,
      "джаны": 3804,
      "джанне": 3805,
      "змяняе": 3806,
      "сын": 3807,
      "калек": 3808,
      "калектыў": 3809,
      "адчуць": 3810,
      "адчувае": 3811,
      "працай": 3812,
      "лепшая": 3813,
      "шукаў": 3814,
      "асабо": 3815,
      "асаблі": 3816,
      "жэнне": 3817,
      "пяці": 3818,
      "культуру": 3819,
      "ідэю": 3820,
      "ідэнты": 3821,
      "патрэбы": 3822,
      "страціла": 3823,
      "армі": 3824,
      "артыку": 3825,
      "першым": 3826,
      "трошкі": 3827,
      "явіўся": 3828,
      "тэхні": 3829,
      "атрымалася": 3830,
      "атрымаецца": 3831,
      "школ": 3832,
      "грузаві": 3833,
      "зуе": 3834,
      "каханні": 3835,
      "цяжкія": 3836,
      "зварот": 3837,
      "хацелася": 3838,
      "раслін": 3839,
      "расчара": 3840,
      "машыне": 3841,
      "машынамі": 3842,
      "гледжання": 3843,
      "наступных": 3844,
      "знайшлі": 3845,
      "мэй": 3846,
      "мэты": 3847,
      "размаўляла": 3848,
      "прадказа": 3849,
      "некаторых": 3850,
      "пачуцця": 3851,
      "вынікам": 3852,
      "вынікаў": 3853,
      "гадзінні": 3854,
      "апошніх": 3855,
      "здольныя": 3856,
      "звычайны": 3857,
      "падыміце": 3858,
      "хваро": 3859,
      "жаданні": 3860,
      "краінаў": 3861,
      "верым": 3862,
      "верыла": 3863,
      "вывучаць": 3864,
      "адсоткі": 3865,
      "супраці": 3866,
      "адносінаў": 3867,
      "правіла": 3868,
      "тычны": 3869,
      "тычнага": 3870,
      "балан": 3871,
      "кампутары": 3872,
      "асобы": 3873,
      "праекты": 3874,
      "лёгкіх": 3875,
      "таям": 3876,
      "сярэдня": 3877,
      "апылення": 3878,
      "ядноў": 3879,
      "спыніць": 3880,
      "старажы": 3881,
      "моцнымі": 3882,
      "асабісты": 3883,
      "саміх": 3884,
      "прымаць": 3885,
      "грошай": 3886,
      "складаецца": 3887,
      "паверыць": 3888,
      "павод": 3889,
      "арганізацыя": 3890,
      "выйгра": 3891,
      "выйшаў": 3892,
      "праграмы": 3893,
      "публічна": 3894,
      "ўзросту": 3895,
      "ехаў": 3896,
      "пакінуў": 3897,
      "адукацыю": 3898,
      "маленькай": 3899,
      "падумаць": 3900,
      "цікавая": 3901,
      "лічбаў": 3902,
      "неабходныя": 3903,
      "пакой": 3904,
      "матыва": 3905,
      "інтэрнэце": 3906,
      "запытаў": 3907,
      "горш": 3908,
      "прызнацца": 3909,
      "тэлефа": 3910,
      "тэлефо": 3911,
      "поспех": 3912,
      "тыўным": 3913,
      "стагоддзе": 3914,
      "развіццё": 3915,
      "развіцця": 3916,
      "здараюцца": 3917,
      "форму": 3918,
      "абсалютная": 3919,
      "голасам": 3920,
      "аўтызму": 3921,
      "тлумачэнне": 3922,
      "лічылі": 3923,
      "вызначае": 3924,
      "забабо": 3925,
      "сябрам": 3926,
      "згубі": 3927,
      "гадовага": 3928,
      "прылада": 3929,
      "трымаць": 3930,
      "настаўнікі": 3931,
      "свабоды": 3932,
      "графіці": 3933,
      "ахво": 3934,
      "любіць": 3935,
      "вядомых": 3936,
      "вядомыя": 3937,
      "меркаванне": 3938,
      "увагу": 3939,
      "уладар": 3940,
      "ўяўляю": 3941,
      "мадэллю": 3942,
      "песню": 3943,
      "дзяцінстве": 3944,
      "акурат": 3945,
      "гэткая": 3946,
      "раўнапраў": 3947,
      "займацца": 3948,
      "гэткія": 3949,
      "дзеянні": 3950,
      "прычын": 3951,
      "матэрыялу": 3952,
      "асяроддзі": 3953,
      "брытан": 3954,
      "ўлада": 3955,
      "кавалак": 3956,
      "дачка": 3957,
      "вызвалення": 3958,
      "адоль": 3959,
      "дызайн": 3960,
      "прыклады": 3961,
      "прыемна": 3962,
      "сучасных": 3963,
      "вынаходніцтва": 3964,
      "паказвае": 3965,
      "бярозы": 3966,
      "асноўныя": 3967,
      "ўласнага": 3968,
      "ўплыў": 3969,
      "навыкі": 3970,
      "папрасілі": 3971,
      "ніводнага": 3972,
      "спадаба": 3973,
      "дзейнічаць": 3974,
      "пытаннямі": 3975,
      "асабістае": 3976,
      "электронны": 3977,
      "рэлігі": 3978,
      "рэвалюцыі": 3979,
      "вугляро": 3980,
      "пасланні": 3981,
      "планеты": 3982,
      "дзесяцігоддзя": 3983,
      "пацыента": 3984,
      "паўднёвай": 3985,
      "псіхо": 3986,
      "сюды": 3987,
      "шпіталь": 3988,
      "пастаянна": 3989,
      "выпус": 3990,
      "магчымым": 3991,
      "ангельскай": 3992,
      "аналіз": 3993,
      "надрукаваць": 3994,
      "дакумента": 3995,
      "аўдыторыі": 3996,
      "захворванняў": 3997,
      "кандыдатаў": 3998,
      "калоніі": 3999,
      "прачытала": 4000,
      "інвестыцыі": 4001,
      "спакойна": 4002,
      "атрымоўваецца": 4003,
      "вымушаны": 4004,
      "вымаўленне": 4005,
      "прывіле": 4006,
      "каледжаў": 4007,
      "англій": 4008,
      "прадуктыўнасць": 4009,
      "электрычнасці": 4010,
      "райзэн": 4011,
      "цвёрдасць": 4012,
      "прафесіяна": 4013,
      "канферэнцыі": 4014,
      "злева": 4015,
      "палепшыць": 4016,
      "высновы": 4017,
      "вытворчасці": 4018,
      "насельніцтва": 4019,
      "спатрэбіцца": 4020,
      "мандэла": 4021,
      "вашынг": 4022,
      "выключна": 4023,
      "рэсурсаў": 4024,
      "мусульман": 4025,
      "каліфорніі": 4026,
      "шакалад": 4027,
      "сігнал": 4028,
      "інтэлек": 4029,
      "секунд": 4030,
      "імпульс": 4031,
      "абавязкова": 4032,
      "арыента": 4033,
      "фэйсбуку": 4034,
      "агонь": 4035,
      "аказваецца": 4036,
      "агрэсіў": 4037,
      "прыстаса": 4038,
      "любяць": 4039,
      "пісьменні": 4040,
      "сімптомы": 4041,
      "фундамента": 4042,
      "комплекс": 4043,
      "кшталту": 4044,
      "канешне": 4045,
      "васьмі": 4046,
      "мацярын": 4047,
      "кібербулін": 4048,
      "вырошч": 4049,
      "вегета": 4050,
      "адміністра": 4051,
      "адлегласці": 4052,
      "досыць": 4053,
      "дугласа": 4054,
      "цяпераш": 4055,
      "падрыхтоў": 4056,
      "пункту": 4057,
      "ay": 4058,
      "ec": 4059,
      "mo": 4060,
      "son": 4061,
      "ti": 4062,
      "ue": 4063,
      "wat": 4064,
      "ара": 4065,
      "ава": 4066,
      "астра": 4067,
      "ахоў": 4068,
      "асэнса": 4069,
      "бр": 4070,
      "бро": 4071,
      "дка": 4072,
      "днай": 4073,
      "драў": 4074,
      "ен": 4075,
      "еўро": 4076,
      "егіп": 4077,
      "зці": 4078,
      "зваць": 4079,
      "збя": 4080,
      "зэй": 4081,
      "змагла": 4082,
      "звярнуцца": 4083,
      "змам": 4084,
      "йма": 4085,
      "крэа": 4086,
      "квіт": 4087,
      "лка": 4088,
      "лла": 4089,
      "нсі": 4090,
      "нцё": 4091,
      "нствы": 4092,
      "пты": 4093,
      "пчу": 4094,
      "пчала": 4095,
      "снага": 4096,
      "склад": 4097,
      "спрэч": 4098,
      "тб": 4099,
      "тво": 4100,
      "твае": 4101,
      "тнё": 4102,
      "уліч": 4103,
      "урок": 4104,
      "удзел": 4105,
      "увогуле": 4106,
      "убунту": 4107,
      "фразу": 4108,
      "хла": 4109,
      "цкай": 4110,
      "ццю": 4111,
      "чвае": 4112,
      "чнымі": 4113,
      "шна": 4114,
      "эры": 4115,
      "ючага": 4116,
      "ям": 4117,
      "яцтва": 4118,
      "яблы": 4119,
      "ёны": 4120,
      "іў": 4121,
      "іспа": 4122,
      "ўжы": 4123,
      "ўваж": 4124,
      "ўрэшце": 4125,
      "ўрок": 4126,
      "ўзнагаро": 4127,
      "нама": 4128,
      "нася": 4129,
      "надзе": 4130,
      "насту": 4131,
      "нарма": 4132,
      "назаўсёды": 4133,
      "нашую": 4134,
      "раг": 4135,
      "рама": 4136,
      "рання": 4137,
      "раюць": 4138,
      "рань": 4139,
      "расла": 4140,
      "раніцай": 4141,
      "таваць": 4142,
      "каф": 4143,
      "каё": 4144,
      "карэ": 4145,
      "кадзі": 4146,
      "кажы": 4147,
      "кавыя": 4148,
      "камер": 4149,
      "канад": 4150,
      "канец": 4151,
      "кабіне": 4152,
      "васць": 4153,
      "ваных": 4154,
      "вадзіць": 4155,
      "вачыма": 4156,
      "пале": 4157,
      "паці": 4158,
      "паня": 4159,
      "паста": 4160,
      "паша": 4161,
      "пахо": 4162,
      "памен": 4163,
      "пакры": 4164,
      "паказа": 4165,
      "паступ": 4166,
      "пабачыць": 4167,
      "пачыта": 4168,
      "пакара": 4169,
      "пагор": 4170,
      "паставіць": 4171,
      "пакласці": 4172,
      "пацвер": 4173,
      "нена": 4174,
      "нены": 4175,
      "неча": 4176,
      "неад": 4177,
      "неба": 4178,
      "незале": 4179,
      "лівы": 4180,
      "ліга": 4181,
      "лілася": 4182,
      "лісты": 4183,
      "дая": 4184,
      "даве": 4185,
      "дакра": 4186,
      "даступ": 4187,
      "дадаць": 4188,
      "дамоў": 4189,
      "мата": 4190,
      "маца": 4191,
      "магі": 4192,
      "лаг": 4193,
      "лата": 4194,
      "ласка": 4195,
      "ток": 4196,
      "рыліся": 4197,
      "кіне": 4198,
      "кінуць": 4199,
      "выраз": 4200,
      "высвет": 4201,
      "выкана": 4202,
      "выгляд": 4203,
      "выглядаць": 4204,
      "льфі": 4205,
      "праг": 4206,
      "правы": 4207,
      "праба": 4208,
      "прасу": 4209,
      "праходзі": 4210,
      "правёў": 4211,
      "зар": 4212,
      "закан": 4213,
      "заўсе": 4214,
      "замуж": 4215,
      "зароб": 4216,
      "ніц": 4217,
      "ніце": 4218,
      "ніякіх": 4219,
      "гара": 4220,
      "галі": 4221,
      "ганд": 4222,
      "гарад": 4223,
      "чыны": 4224,
      "лер": 4225,
      "лера": 4226,
      "лека": 4227,
      "лела": 4228,
      "век": 4229,
      "вен": 4230,
      "веліза": 4231,
      "вечар": 4232,
      "тыю": 4233,
      "тыі": 4234,
      "тыпу": 4235,
      "сала": 4236,
      "саро": 4237,
      "самую": 4238,
      "сямі": 4239,
      "між": 4240,
      "міну": 4241,
      "міжна": 4242,
      "мінула": 4243,
      "ляй": 4244,
      "ляючы": 4245,
      "лясы": 4246,
      "рока": 4247,
      "ролі": 4248,
      "родзе": 4249,
      "ровак": 4250,
      "ціце": 4251,
      "адбі": 4252,
      "адмоў": 4253,
      "адказаць": 4254,
      "адказалі": 4255,
      "адшукаць": 4256,
      "рэт": 4257,
      "рэнні": 4258,
      "ковы": 4259,
      "ковых": 4260,
      "цер": 4261,
      "бай": 4262,
      "базу": 4263,
      "мон": 4264,
      "стка": 4265,
      "сткі": 4266,
      "стрым": 4267,
      "куры": 4268,
      "жар": 4269,
      "жадаў": 4270,
      "цык": 4271,
      "цыві": 4272,
      "болю": 4273,
      "дыскры": 4274,
      "вія": 4275,
      "віна": 4276,
      "віру": 4277,
      "вілася": 4278,
      "шырока": 4279,
      "нось": 4280,
      "новага": 4281,
      "носяць": 4282,
      "дона": 4283,
      "добы": 4284,
      "дослед": 4285,
      "лог": 4286,
      "лонда": 4287,
      "прыхі": 4288,
      "прысут": 4289,
      "вое": 4290,
      "возь": 4291,
      "дур": 4292,
      "разе": 4293,
      "вяду": 4294,
      "туга": 4295,
      "туюць": 4296,
      "біна": 4297,
      "біблі": 4298,
      "хары": 4299,
      "харак": 4300,
      "хапае": 4301,
      "мясці": 4302,
      "суме": 4303,
      "сусе": 4304,
      "сувязь": 4305,
      "сінтэ": 4306,
      "рук": 4307,
      "ннямі": 4308,
      "насцяў": 4309,
      "найвялік": 4310,
      "тэма": 4311,
      "вучаць": 4312,
      "гую": 4313,
      "гуку": 4314,
      "гутар": 4315,
      "ходзе": 4316,
      "гім": 4317,
      "дзяся": 4318,
      "дзяце": 4319,
      "бей": 4320,
      "безу": 4321,
      "чуў": 4322,
      "пор": 4323,
      "поле": 4324,
      "полы": 4325,
      "ўспамі": 4326,
      "скан": 4327,
      "скажам": 4328,
      "перадзе": 4329,
      "перамо": 4330,
      "пераду": 4331,
      "перапы": 4332,
      "перашко": 4333,
      "перастаць": 4334,
      "перавагу": 4335,
      "знаць": 4336,
      "спадні": 4337,
      "спажыў": 4338,
      "спадобы": 4339,
      "чэнняў": 4340,
      "дэльфі": 4341,
      "лую": 4342,
      "пыт": 4343,
      "трыцца": 4344,
      "трэні": 4345,
      "абя": 4346,
      "абме": 4347,
      "абды": 4348,
      "светам": 4349,
      "падму": 4350,
      "падкрэс": 4351,
      "падрыхта": 4352,
      "перш": 4353,
      "камбіна": 4354,
      "можаш": 4355,
      "со2": 4356,
      "сот": 4357,
      "нагамі": 4358,
      "самалё": 4359,
      "саманта": 4360,
      "трапіць": 4361,
      "пуска": 4362,
      "пусты": 4363,
      "наваў": 4364,
      "глядзіце": 4365,
      "гравіта": 4366,
      "думае": 4367,
      "кантэн": 4368,
      "разумеюць": 4369,
      "здарыцца": 4370,
      "просіць": 4371,
      "бяско": 4372,
      "чалавечую": 4373,
      "крызі": 4374,
      "чоў": 4375,
      "нейшая": 4376,
      "нейшых": 4377,
      "нашымі": 4378,
      "розніца": 4379,
      "ваннях": 4380,
      "шэн": 4381,
      "кракадзі": 4382,
      "праўду": 4383,
      "дапамогу": 4384,
      "джае": 4385,
      "джаецца": 4386,
      "навуцы": 4387,
      "навукова": 4388,
      "навучэнне": 4389,
      "навучэння": 4390,
      "валанцё": 4391,
      "сыходзіць": 4392,
      "адчува": 4393,
      "верса": 4394,
      "працаў": 4395,
      "працаваў": 4396,
      "льніка": 4397,
      "льнікамі": 4398,
      "ген": 4399,
      "геро": 4400,
      "хіба": 4401,
      "майстра": 4402,
      "працуеце": 4403,
      "архі": 4404,
      "родны": 4405,
      "мужчыну": 4406,
      "пэўныя": 4407,
      "андэ": 4408,
      "англа": 4409,
      "слухоў": 4410,
      "нэй": 4411,
      "прыкладна": 4412,
      "аўто": 4413,
      "аўстра": 4414,
      "карыстаемся": 4415,
      "дрэў": 4416,
      "існую": 4417,
      "існасці": 4418,
      "існаваць": 4419,
      "цыйна": 4420,
      "цыйная": 4421,
      "фер": 4422,
      "месцаў": 4423,
      "звыш": 4424,
      "верагодна": 4425,
      "працягла": 4426,
      "логіі": 4427,
      "цяжкая": 4428,
      "большай": 4429,
      "моманты": 4430,
      "зменаў": 4431,
      "распавёў": 4432,
      "тарамі": 4433,
      "важных": 4434,
      "важная": 4435,
      "раскры": 4436,
      "машына": 4437,
      "чытання": 4438,
      "зялё": 4439,
      "наступным": 4440,
      "карпара": 4441,
      "карціну": 4442,
      "галаву": 4443,
      "моўна": 4444,
      "размаўляе": 4445,
      "размаўляў": 4446,
      "кольвесь": 4447,
      "кольвек": 4448,
      "неверагоднае": 4449,
      "будучых": 4450,
      "пачуць": 4451,
      "пачуцці": 4452,
      "кімсьці": 4453,
      "працэсу": 4454,
      "працэсе": 4455,
      "працэнтаў": 4456,
      "стрэсам": 4457,
      "звычайныя": 4458,
      "парадку": 4459,
      "кампаній": 4460,
      "адказу": 4461,
      "хвалю": 4462,
      "жадаем": 4463,
      "прадухі": 4464,
      "дзіўнае": 4465,
      "глядзеў": 4466,
      "верыце": 4467,
      "свайму": 4468,
      "месцам": 4469,
      "галоўны": 4470,
      "партнё": 4471,
      "памяць": 4472,
      "вывучылі": 4473,
      "грамадстве": 4474,
      "злучэнне": 4475,
      "каран": 4476,
      "сэрвіс": 4477,
      "каляро": 4478,
      "даследванняў": 4479,
      "тычным": 4480,
      "тычную": 4481,
      "змяніцца": 4482,
      "будзьце": 4483,
      "праехаць": 4484,
      "збіраць": 4485,
      "нёсак": 4486,
      "энерге": 4487,
      "ўвагу": 4488,
      "ўвагі": 4489,
      "апыленне": 4490,
      "ядро": 4491,
      "называлі": 4492,
      "інфармацыяй": 4493,
      "спачува": 4494,
      "цудоўныя": 4495,
      "цудоўным": 4496,
      "версіі": 4497,
      "даведаўся": 4498,
      "прапаную": 4499,
      "самімі": 4500,
      "грошаў": 4501,
      "сацыяльны": 4502,
      "музыкі": 4503,
      "музыку": 4504,
      "складана": 4505,
      "паволь": 4506,
      "мажлівасці": 4507,
      "залежыць": 4508,
      "цікавае": 4509,
      "сусветны": 4510,
      "сапраўдныя": 4511,
      "сапраўднае": 4512,
      "шчаслівымі": 4513,
      "дарогі": 4514,
      "ганна": 4515,
      "звязана": 4516,
      "пакідаем": 4517,
      "адукацыя": 4518,
      "пасаду": 4519,
      "падтрымлівае": 4520,
      "падтрымліваць": 4521,
      "хлопцаў": 4522,
      "хлопчык": 4523,
      "захапле": 4524,
      "знявага": 4525,
      "экалагі": 4526,
      "ўявілі": 4527,
      "пакою": 4528,
      "падобна": 4529,
      "падобны": 4530,
      "дзесят": 4531,
      "дзесяць": 4532,
      "кветак": 4533,
      "запыталася": 4534,
      "працягвае": 4535,
      "каманды": 4536,
      "кіраваць": 4537,
      "формы": 4538,
      "пакуп": 4539,
      "палова": 4540,
      "голаса": 4541,
      "семнацца": 4542,
      "бессмярот": 4543,
      "студэнт": 4544,
      "студэнтаў": 4545,
      "спрабуе": 4546,
      "згубілі": 4547,
      "крузэй": 4548,
      "пакаленняў": 4549,
      "слушна": 4550,
      "памылку": 4551,
      "памылкова": 4552,
      "джон": 4553,
      "настаўнік": 4554,
      "пратэзы": 4555,
      "застаюцца": 4556,
      "чакаюць": 4557,
      "бабулі": 4558,
      "пачынаў": 4559,
      "любімы": 4560,
      "сэксам": 4561,
      "уваса": 4562,
      "улады": 4563,
      "шкада": 4564,
      "ўяўляюць": 4565,
      "мадэлі": 4566,
      "мадэль": 4567,
      "прымушае": 4568,
      "прымусіць": 4569,
      "ведаеш": 4570,
      "гародні": 4571,
      "гэткага": 4572,
      "межах": 4573,
      "багацце": 4574,
      "памыляцца": 4575,
      "памыляемся": 4576,
      "дзеянне": 4577,
      "дзеянняў": 4578,
      "вырабляе": 4579,
      "мясцовасці": 4580,
      "аааа": 4581,
      "асяроддзе": 4582,
      "раптоў": 4583,
      "радыка": 4584,
      "выклік": 4585,
      "дызайнеры": 4586,
      "прыкладаў": 4587,
      "жывёлаў": 4588,
      "арабску": 4589,
      "грызлі": 4590,
      "прынцыпе": 4591,
      "машынная": 4592,
      "нарадзілася": 4593,
      "нарадзіўся": 4594,
      "астатніх": 4595,
      "спытаў": 4596,
      "спыталі": 4597,
      "загадзя": 4598,
      "сардэ": 4599,
      "няслушнасці": 4600,
      "кошту": 4601,
      "заўважыў": 4602,
      "сэнсу": 4603,
      "глыбока": 4604,
      "электронныя": 4605,
      "вуліцу": 4606,
      "здаровымі": 4607,
      "рэакцыя": 4608,
      "пацыентаў": 4609,
      "lego": 4610,
      "энэргіі": 4611,
      "малюнак": 4612,
      "вынайшлі": 4613,
      "выкарыстаць": 4614,
      "інжынер": 4615,
      "інструменты": 4616,
      "электрамабі": 4617,
      "пазітыў": 4618,
      "папяро": 4619,
      "папярэ": 4620,
      "традыцыі": 4621,
      "керр": 4622,
      "паводзіны": 4623,
      "апублікава": 4624,
      "пашыра": 4625,
      "рызыку": 4626,
      "выбух": 4627,
      "запісы": 4628,
      "меданосных": 4629,
      "меданосныя": 4630,
      "мудрасць": 4631,
      "знаходзяцца": 4632,
      "клопа": 4633,
      "ёзныя": 4634,
      "пачнем": 4635,
      "паглядзім": 4636,
      "прытрымлівацца": 4637,
      "навучыліся": 4638,
      "харчавання": 4639,
      "медыцын": 4640,
      "індустрыі": 4641,
      "універсітэ": 4642,
      "нагоды": 4643,
      "каротка": 4644,
      "капітал": 4645,
      "паверх": 4646,
      "дасылае": 4647,
      "прагрэс": 4648,
      "забойства": 4649,
      "дзевяць": 4650,
      "бярэж": 4651,
      "працаўнікі": 4652,
      "дыягназ": 4653,
      "дарослых": 4654,
      "становішча": 4655,
      "смартфо": 4656,
      "транспарту": 4657,
      "францу": 4658,
      "элвіс": 4659,
      "ўпарта": 4660,
      "невядомае": 4661,
      "маштаб": 4662,
      "заходняй": 4663,
      "батарэ": 4664,
      "біялагі": 4665,
      "полавыя": 4666,
      "пункт": 4667,
      "хірург": 4668,
      "бізнэс": 4669,
      "унутры": 4670,
      "выпадак": 4671,
      "заслугоў": 4672,
      "адпавяда": 4673,
      "мыслення": 4674,
      "вулляў": 4675,
      "дэманстра": 4676,
      "філадэльфі": 4677,
      "эканомі": 4678,
      "эксперыменту": 4679,
      "адлюстроўвае": 4680,
      "забеспячэнне": 4681,
      "акадэмі": 4682,
      "упэўнены": 4683,
      "шкарпэ": 4684,
      "наогул": 4685,
      "касмічнай": 4686,
      "негатыў": 4687,
      "дасведча": 4688,
      "застанецца": 4689,
      "тыдняў": 4690,
      "доступу": 4691,
      "цэнтр": 4692,
      "балансу": 4693,
      "паводле": 4694,
      "рэлігій": 4695,
      "выпускні": 4696,
      "вегетарыя": 4697,
      "watson": 4698,
      "асэнсаваць": 4699,
      "крэатыў": 4700,
      "квітне": 4701,
      "палесты": 4702,
      "нечакана": 4703,
      "незалежна": 4704,
      "заўседы": 4705,
      "дыскрыміна": 4706,
      "носьбі": 4707,
      "лондане": 4708,
      "характэры": 4709,
      "полымя": 4710,
      "кракадзіл": 4711,
      "крузэйра": 4712,
      "16": 4713,
      "21": 4714,
      "400": 4715,
      "ag": 4716,
      "cen": 4717,
      "el": 4718,
      "fi": 4719,
      "fre": 4720,
      "ho": 4721,
      "ja": 4722,
      "ri": 4723,
      "up": 4724,
      "ut": 4725,
      "vo": 4726,
      "ап": 4727,
      "ада": 4728,
      "аша": 4729,
      "атам": 4730,
      "абіра": 4731,
      "асця": 4732,
      "апытанне": 4733,
      "аліза": 4734,
      "апытання": 4735,
      "бю": 4736,
      "бляе": 4737,
      "глас": 4738,
      "др": 4739,
      "дро": 4740,
      "дных": 4741,
      "дскія": 4742,
      "ез": 4743,
      "екта": 4744,
      "зра": 4745,
      "зло": 4746,
      "збе": 4747,
      "звяр": 4748,
      "зрэш": 4749,
      "здра": 4750,
      "згодна": 4751,
      "йля": 4752,
      "кме": 4753,
      "кво": 4754,
      "квалі": 4755,
      "клё": 4756,
      "кцый": 4757,
      "лэ": 4758,
      "мпа": 4759,
      "мных": 4760,
      "нга": 4761,
      "нша": 4762,
      "нтра": 4763,
      "ннасць": 4764,
      "ннасці": 4765,
      "нках": 4766,
      "пчалі": 4767,
      "рнай": 4768,
      "сро": 4769,
      "спры": 4770,
      "сным": 4771,
      "сная": 4772,
      "спрэ": 4773,
      "спрыя": 4774,
      "тр": 4775,
      "тную": 4776,
      "твой": 4777,
      "удзельні": 4778,
      "хе": 4779,
      "хвалі": 4780,
      "цкія": 4781,
      "чку": 4782,
      "чмя": 4783,
      "чнасць": 4784,
      "чваюць": 4785,
      "чваем": 4786,
      "шпа": 4787,
      "шве": 4788,
      "эна": 4789,
      "эма": 4790,
      "эвалю": 4791,
      "ютар": 4792,
      "язджа": 4793,
      "ёю": 4794,
      "ёмы": 4795,
      "ёнаў": 4796,
      "ір": 4797,
      "іць": 4798,
      "іль": 4799,
      "ідзі": 4800,
      "ішла": 4801,
      "ўкі": 4802,
      "ўме": 4803,
      "ўзы": 4804,
      "ўклад": 4805,
      "ўбачыце": 4806,
      "напры": 4807,
      "нагі": 4808,
      "напаў": 4809,
      "натоў": 4810,
      "напалову": 4811,
      "напру": 4812,
      "раст": 4813,
      "раша": 4814,
      "расці": 4815,
      "рашэнні": 4816,
      "тама": 4817,
      "таты": 4818,
      "танне": 4819,
      "танчы": 4820,
      "тавалі": 4821,
      "тавала": 4822,
      "каці": 4823,
      "катэ": 4824,
      "кацыі": 4825,
      "камеры": 4826,
      "валь": 4827,
      "ваным": 4828,
      "вашу": 4829,
      "вадаро": 4830,
      "пася": 4831,
      "паго": 4832,
      "памо": 4833,
      "пасу": 4834,
      "пабу": 4835,
      "паліва": 4836,
      "палё": 4837,
      "паўз": 4838,
      "памно": 4839,
      "пакажу": 4840,
      "пажада": 4841,
      "пашча": 4842,
      "пайшоў": 4843,
      "пабачылі": 4844,
      "паказала": 4845,
      "паасоб": 4846,
      "паехаць": 4847,
      "паразуменне": 4848,
      "пайду": 4849,
      "патэлефа": 4850,
      "неб": 4851,
      "неныя": 4852,
      "неспадзя": 4853,
      "невялікі": 4854,
      "неспако": 4855,
      "лісто": 4856,
      "лінія": 4857,
      "лінію": 4858,
      "дада": 4859,
      "даві": 4860,
      "даска": 4861,
      "дазна": 4862,
      "дадаў": 4863,
      "давер": 4864,
      "дакта": 4865,
      "дастаў": 4866,
      "давяра": 4867,
      "данесці": 4868,
      "мані": 4869,
      "маецца": 4870,
      "маеце": 4871,
      "лая": 4872,
      "лагам": 4873,
      "лацін": 4874,
      "том": 4875,
      "торыю": 4876,
      "рыа": 4877,
      "рыт": 4878,
      "рыста": 4879,
      "рыўся": 4880,
      "рызму": 4881,
      "рытаніі": 4882,
      "кісла": 4883,
      "выле": 4884,
      "выся": 4885,
      "вымя": 4886,
      "выкла": 4887,
      "высту": 4888,
      "выйшлі": 4889,
      "выключа": 4890,
      "выгна": 4891,
      "выжыла": 4892,
      "льваць": 4893,
      "прага": 4894,
      "праве": 4895,
      "пражы": 4896,
      "прадаць": 4897,
      "праходзіць": 4898,
      "праходзяць": 4899,
      "пратап": 4900,
      "праслухоў": 4901,
      "зад": 4902,
      "забі": 4903,
      "заву": 4904,
      "закла": 4905,
      "залу": 4906,
      "запіса": 4907,
      "зацыю": 4908,
      "заяў": 4909,
      "зарад": 4910,
      "заахво": 4911,
      "нізм": 4912,
      "гаў": 4913,
      "гаду": 4914,
      "гасці": 4915,
      "газе": 4916,
      "чыся": 4917,
      "чыце": 4918,
      "чанымі": 4919,
      "чацвё": 4920,
      "вецер": 4921,
      "тычна": 4922,
      "цантра": 4923,
      "сара": 4924,
      "сакра": 4925,
      "сакрэ": 4926,
      "сястры": 4927,
      "сядзел": 4928,
      "сябар": 4929,
      "сядзела": 4930,
      "міма": 4931,
      "мігра": 4932,
      "міцэ": 4933,
      "місія": 4934,
      "ляце": 4935,
      "лявалі": 4936,
      "ляваў": 4937,
      "ляжыць": 4938,
      "роды": 4939,
      "мей": 4940,
      "метро": 4941,
      "ціска": 4942,
      "адсут": 4943,
      "адсю": 4944,
      "рэнняў": 4945,
      "няя": 4946,
      "горад": 4947,
      "кон": 4948,
      "ковым": 4949,
      "дзед": 4950,
      "дзеў": 4951,
      "дзена": 4952,
      "дзелі": 4953,
      "дзеда": 4954,
      "стае": 4955,
      "стана": 4956,
      "стары": 4957,
      "стабі": 4958,
      "старым": 4959,
      "баюся": 4960,
      "бачаць": 4961,
      "бакоў": 4962,
      "мона": 4963,
      "страў": 4964,
      "стрэчы": 4965,
      "кур": 4966,
      "куюць": 4967,
      "муха": 4968,
      "жае": 4969,
      "жанне": 4970,
      "цыды": 4971,
      "боска": 4972,
      "перу": 4973,
      "віце": 4974,
      "віды": 4975,
      "віўся": 4976,
      "відаць": 4977,
      "дзіва": 4978,
      "дзіркі": 4979,
      "шыўся": 4980,
      "нога": 4981,
      "доказаў": 4982,
      "ломны": 4983,
      "ложку": 4984,
      "нуе": 4985,
      "нуля": 4986,
      "прымя": 4987,
      "прысвя": 4988,
      "вок": 4989,
      "вога": 4990,
      "волю": 4991,
      "разма": 4992,
      "раззла": 4993,
      "размову": 4994,
      "разлічваць": 4995,
      "каліграфі": 4996,
      "шат": 4997,
      "шаю": 4998,
      "шаны": 4999,
      "якраз": 5000,
      "бін": 5001,
      "мяша": 5002,
      "суфі": 5003,
      "сумес": 5004,
      "сумна": 5005,
      "сустрэчы": 5006,
      "сію": 5007,
      "румі": 5008,
      "рукамі": 5009,
      "насця": 5010,
      "цяжэй": 5011,
      "жыхары": 5012,
      "буй": 5013,
      "бур": 5014,
      "будоў": 5015,
      "найваж": 5016,
      "найгор": 5017,
      "тэмы": 5018,
      "тэму": 5019,
      "тэсты": 5020,
      "вуп": 5021,
      "вучыць": 5022,
      "вучым": 5023,
      "гукаў": 5024,
      "хокі": 5025,
      "хораша": 5026,
      "гішпа": 5027,
      "дзядзь": 5028,
      "бега": 5029,
      "белы": 5030,
      "беглі": 5031,
      "ваен": 5032,
      "чужы": 5033,
      "інтры": 5034,
      "інсе": 5035,
      "інтэн": 5036,
      "іншую": 5037,
      "пова": 5038,
      "поля": 5039,
      "пост": 5040,
      "пойдзе": 5041,
      "пойдуць": 5042,
      "ўсход": 5043,
      "ўсвядо": 5044,
      "большы": 5045,
      "сказ": 5046,
      "сцілі": 5047,
      "перада": 5048,
      "пераме": 5049,
      "перамагчы": 5050,
      "пераклад": 5051,
      "пераход": 5052,
      "перамаглі": 5053,
      "перамог": 5054,
      "перажылі": 5055,
      "пераломны": 5056,
      "знаход": 5057,
      "знаходзіць": 5058,
      "кабрытаніі": 5059,
      "ведах": 5060,
      "веданне": 5061,
      "спалу": 5062,
      "спабор": 5063,
      "спасыла": 5064,
      "дэра": 5065,
      "дэма": 5066,
      "трывала": 5067,
      "большую": 5068,
      "абца": 5069,
      "абмен": 5070,
      "абраў": 5071,
      "абвінава": 5072,
      "падло": 5073,
      "падсвядома": 5074,
      "падштур": 5075,
      "пере": 5076,
      "перспе": 5077,
      "першага": 5078,
      "серата": 5079,
      "сорам": 5080,
      "наецца": 5081,
      "годны": 5082,
      "стую": 5083,
      "пух": 5084,
      "пустэ": 5085,
      "справу": 5086,
      "гляду": 5087,
      "фана": 5088,
      "факта": 5089,
      "думаюць": 5090,
      "думайце": 5091,
      "кантак": 5092,
      "канкрэ": 5093,
      "канструк": 5094,
      "канцэп": 5095,
      "ўсёй": 5096,
      "разумеў": 5097,
      "здага": 5098,
      "здагада": 5099,
      "здарэнне": 5100,
      "меншай": 5101,
      "пропалі": 5102,
      "простыя": 5103,
      "ткаў": 5104,
      "брайля": 5105,
      "чалавечай": 5106,
      "чалавечага": 5107,
      "крыві": 5108,
      "крыніцай": 5109,
      "зрабіце": 5110,
      "пыталі": 5111,
      "вялікую": 5112,
      "вялізная": 5113,
      "вялікабрытаніі": 5114,
      "чорны": 5115,
      "якай": 5116,
      "карысць": 5117,
      "нейкіх": 5118,
      "неймавер": 5119,
      "заўтра": 5120,
      "магчымае": 5121,
      "жонка": 5122,
      "жонкай": 5123,
      "розніцу": 5124,
      "вырашэння": 5125,
      "выявіць": 5126,
      "адзінай": 5127,
      "адзіная": 5128,
      "платы": 5129,
      "пласты": 5130,
      "планта": 5131,
      "стылі": 5132,
      "тваёй": 5133,
      "нашаму": 5134,
      "шэннем": 5135,
      "крамы": 5136,
      "джацца": 5137,
      "джанні": 5138,
      "навука": 5139,
      "навукі": 5140,
      "валасы": 5141,
      "будзеш": 5142,
      "будзеце": 5143,
      "лёс": 5144,
      "змяшча": 5145,
      "пачаўся": 5146,
      "пачакайце": 5147,
      "аднаму": 5148,
      "калегі": 5149,
      "адчулі": 5150,
      "адчула": 5151,
      "адчуваў": 5152,
      "кніжак": 5153,
      "простая": 5154,
      "лепшай": 5155,
      "лепшыя": 5156,
      "мужнасць": 5157,
      "нтамі": 5158,
      "шукаем": 5159,
      "асало": 5160,
      "ходзім": 5161,
      "гера": 5162,
      "гене": 5163,
      "гены": 5164,
      "генія": 5165,
      "ўзды": 5166,
      "пят": 5167,
      "пярэ": 5168,
      "слане": 5169,
      "слаба": 5170,
      "жыццёвы": 5171,
      "ідэаль": 5172,
      "патрэбу": 5173,
      "патрэбен": 5174,
      "страты": 5175,
      "страціць": 5176,
      "магчымасцю": 5177,
      "друкаваць": 5178,
      "другую": 5179,
      "ктараў": 5180,
      "падае": 5181,
      "майк": 5182,
      "пэўны": 5183,
      "пэўніцца": 5184,
      "анджэ": 5185,
      "служ": 5186,
      "словаў": 5187,
      "каваныя": 5188,
      "кавалкам": 5189,
      "бачыўшы": 5190,
      "карыстаецца": 5191,
      "карысталіся": 5192,
      "явіліся": 5193,
      "патрэбная": 5194,
      "дрэвам": 5195,
      "дрэвамі": 5196,
      "атрымаеце": 5197,
      "цыйныя": 5198,
      "грун": 5199,
      "групу": 5200,
      "групамі": 5201,
      "добрая": 5202,
      "добрага": 5203,
      "сцены": 5204,
      "робімся": 5205,
      "выхад": 5206,
      "верагоднасць": 5207,
      "логія": 5208,
      "маўляў": 5209,
      "самымі": 5210,
      "зменіцца": 5211,
      "клікі": 5212,
      "распача": 5213,
      "распазна": 5214,
      "распачаў": 5215,
      "распавесці": 5216,
      "малай": 5217,
      "маладзей": 5218,
      "важнай": 5219,
      "вёску": 5220,
      "расцяг": 5221,
      "расліну": 5222,
      "расліны": 5223,
      "распланава": 5224,
      "чытанне": 5225,
      "сваей": 5226,
      "зязю": 5227,
      "наступствы": 5228,
      "турмы": 5229,
      "турба": 5230,
      "мэнэ": 5231,
      "размаўлялі": 5232,
      "прадставіць": 5233,
      "некаторы": 5234,
      "неверагодным": 5235,
      "неверагодных": 5236,
      "неверагодная": 5237,
      "пачулі": 5238,
      "гадзіну": 5239,
      "2015": 5240,
      "датчык": 5241,
      "звычайная": 5242,
      "экспа": 5243,
      "парады": 5244,
      "адбыўся": 5245,
      "адбывалася": 5246,
      "адбываюцца": 5247,
      "падыма": 5248,
      "ской": 5249,
      "жадалі": 5250,
      "жадала": 5251,
      "жаданне": 5252,
      "існуючы": 5253,
      "марнава": 5254,
      "глядзелі": 5255,
      "краіна": 5256,
      "вярнуся": 5257,
      "узмац": 5258,
      "рабства": 5259,
      "цяжкае": 5260,
      "цяжкасці": 5261,
      "дыягна": 5262,
      "дыялог": 5263,
      "месцах": 5264,
      "азначала": 5265,
      "ўнізе": 5266,
      "ўніверса": 5267,
      "вывучэння": 5268,
      "адкрыць": 5269,
      "ставіцца": 5270,
      "карацей": 5271,
      "каранё": 5272,
      "дапамозе": 5273,
      "сэрві": 5274,
      "сэрцам": 5275,
      "даследвання": 5276,
      "маўглі": 5277,
      "правільных": 5278,
      "змяніліся": 5279,
      "сцяну": 5280,
      "кампутара": 5281,
      "кампутараў": 5282,
      "хуткага": 5283,
      "хуткасць": 5284,
      "хуткасцю": 5285,
      "пытаннем": 5286,
      "дасягненні": 5287,
      "збіралі": 5288,
      "збіралася": 5289,
      "задаво": 5290,
      "заданне": 5291,
      "апынуліся": 5292,
      "яднае": 5293,
      "называю": 5294,
      "малеку": 5295,
      "інфармацыя": 5296,
      "спачуваннем": 5297,
      "цудоўны": 5298,
      "амерыкі": 5299,
      "амерыцы": 5300,
      "спыняцца": 5301,
      "старасці": 5302,
      "крокам": 5303,
      "чагосьці": 5304,
      "будавалі": 5305,
      "мужчынская": 5306,
      "асно": 5307,
      "аснова": 5308,
      "глыбей": 5309,
      "шчык": 5310,
      "назваць": 5311,
      "падзем": 5312,
      "падзелена": 5313,
      "сацыяльным": 5314,
      "сацыяльнай": 5315,
      "ствараюць": 5316,
      "ствараем": 5317,
      "нцамі": 5318,
      "нараджаецца": 5319,
      "пазбе": 5320,
      "выдатныя": 5321,
      "турызм": 5322,
      "сапраўднага": 5323,
      "шчаслівыя": 5324,
      "дарогу": 5325,
      "даросла": 5326,
      "спадзяемся": 5327,
      "фізіка": 5328,
      "фізічная": 5329,
      "лепшых": 5330,
      "звязаныя": 5331,
      "спор": 5332,
      "пакінуць": 5333,
      "выпадкаў": 5334,
      "тэндэн": 5335,
      "маленькія": 5336,
      "золата": 5337,
      "ёрку": 5338,
      "пасады": 5339,
      "станем": 5340,
      "падтрымку": 5341,
      "лічбавыя": 5342,
      "хлопчы": 5343,
      "хлопцы": 5344,
      "памру": 5345,
      "захаваць": 5346,
      "цягнуць": 5347,
      "жэйшы": 5348,
      "неабходны": 5349,
      "зняво": 5350,
      "знявагі": 5351,
      "ўявіце": 5352,
      "матыву": 5353,
      "выглядаю": 5354,
      "выглядала": 5355,
      "поўнасцю": 5356,
      "кветку": 5357,
      "няўдач": 5358,
      "прызначэння": 5359,
      "спрабаваць": 5360,
      "спрабаваў": 5361,
      "працягваць": 5362,
      "сяброўка": 5363,
      "аналіза": 5364,
      "кіравала": 5365,
      "рэальны": 5366,
      "рэальнасці": 5367,
      "старонак": 5368,
      "старонку": 5369,
      "стагоддзяў": 5370,
      "здаравей": 5371,
      "пакут": 5372,
      "паловай": 5373,
      "метад": 5374,
      "станцыі": 5375,
      "стандар": 5376,
      "выкарыстоўвае": 5377,
      "адзнак": 5378,
      "тлумачыць": 5379,
      "падзяка": 5380,
      "лічыў": 5381,
      "вызнача": 5382,
      "праводзіць": 5383,
      "праводзіў": 5384,
      "закону": 5385,
      "забаўля": 5386,
      "тысячу": 5387,
      "стварэнні": 5388,
      "rev": 5389,
      "пакалення": 5390,
      "літаратуры": 5391,
      "дазваляць": 5392,
      "дазваляюць": 5393,
      "гадовы": 5394,
      "гадовыя": 5395,
      "становяцца": 5396,
      "прыладу": 5397,
      "шматлікімі": 5398,
      "прэзідэнтам": 5399,
      "эксперымент": 5400,
      "памылкі": 5401,
      "апанта": 5402,
      "застаецца": 5403,
      "часопі": 5404,
      "рухаецца": 5405,
      "свабоду": 5406,
      "графік": 5407,
      "ахвяры": 5408,
      "піхты": 5409,
      "сцэны": 5410,
      "паглядзеў": 5411,
      "высокі": 5412,
      "высокім": 5413,
      "робатаў": 5414,
      "сэкс": 5415,
      "здольнасць": 5416,
      "меркавання": 5417,
      "1999": 5418,
      "ter": 5419,
      "улада": 5420,
      "уявіць": 5421,
      "ўяўляла": 5422,
      "камусьці": 5423,
      "прымусіла": 5424,
      "падарожні": 5425,
      "натхня": 5426,
      "натхняць": 5427,
      "паспяховых": 5428,
      "паспяховымі": 5429,
      "даслаў": 5430,
      "даслала": 5431,
      "гавора": 5432,
      "гэткае": 5433,
      "гэткай": 5434,
      "вопыту": 5435,
      "аднолькава": 5436,
      "карысны": 5437,
      "карыснай": 5438,
      "розуму": 5439,
      "дапамагаць": 5440,
      "скончылася": 5441,
      "займаюся": 5442,
      "яднаныя": 5443,
      "accen": 5444,
      "двума": 5445,
      "натуральны": 5446,
      "пачынаю": 5447,
      "паведамленні": 5448,
      "гэткім": 5449,
      "прычынаў": 5450,
      "сустрэцца": 5451,
      "вырабляецца": 5452,
      "матэрыялы": 5453,
      "асяроддзя": 5454,
      "здзівіла": 5455,
      "радыё": 5456,
      "вадаспа": 5457,
      "далучыцца": 5458,
      "вызваленне": 5459,
      "выклікае": 5460,
      "праваты": 5461,
      "завем": 5462,
      "заняцца": 5463,
      "жывёлы": 5464,
      "тэрарызму": 5465,
      "скажуць": 5466,
      "трэцяга": 5467,
      "вышэйшая": 5468,
      "афрыкі": 5469,
      "афрыкан": 5470,
      "даводзіцца": 5471,
      "супольнасць": 5472,
      "тэорыі": 5473,
      "паўночна": 5474,
      "нарадзіліся": 5475,
      "распрацавалі": 5476,
      "астатнія": 5477,
      "спытаць": 5478,
      "ўплыву": 5479,
      "папрасіць": 5480,
      "папрасіў": 5481,
      "ніводная": 5482,
      "мінарэт": 5483,
      "адчыня": 5484,
      "дзейнічае": 5485,
      "творчасць": 5486,
      "дазволу": 5487,
      "паляпшэння": 5488,
      "паляпшэнні": 5489,
      "аднолькавыя": 5490,
      "нарцы": 5491,
      "павялічыць": 5492,
      "дабрабы": 5493,
      "практыцы": 5494,
      "баяцца": 5495,
      "прынялі": 5496,
      "пераклаў": 5497,
      "падлеткі": 5498,
      "тэрмін": 5499,
      "пачуццём": 5500,
      "творчыя": 5501,
      "рэакцыю": 5502,
      "пазнаёміцца": 5503,
      "пазнаёмілася": 5504,
      "трансфармацый": 5505,
      "смяротнасці": 5506,
      "дзесяцігоддзе": 5507,
      "псіхі": 5508,
      "шпіталі": 5509,
      "ўрапей": 5510,
      "марафо": 5511,
      "вынайсці": 5512,
      "запраграма": 5513,
      "запрасілі": 5514,
      "ганьбы": 5515,
      "ганьба": 5516,
      "гульняў": 5517,
      "блізка": 5518,
      "карыстальніка": 5519,
      "карыстальнікаў": 5520,
      "апавяданняў": 5521,
      "фінансаванне": 5522,
      "індывідуальных": 5523,
      "спрошча": 5524,
      "японія": 5525,
      "намаганні": 5526,
      "гатовыя": 5527,
      "прыбытак": 5528,
      "помніць": 5529,
      "перажывала": 5530,
      "першаснага": 5531,
      "сеткамі": 5532,
      "трапіў": 5533,
      "кампаніяй": 5534,
      "праграмнае": 5535,
      "здымкі": 5536,
      "інавацый": 5537,
      "ўсталёў": 5538,
      "лабараторыя": 5539,
      "мудрасці": 5540,
      "існавала": 5541,
      "спыніўся": 5542,
      "матэматыцы": 5543,
      "эксперыментах": 5544,
      "прыгожая": 5545,
      "пераўтварэнняў": 5546,
      "co2": 5547,
      "офісе": 5548,
      "расказ": 5549,
      "паглядзіце": 5550,
      "зарабляе": 5551,
      "горадзе": 5552,
      "гораду": 5553,
      "створана": 5554,
      "хатніх": 5555,
      "вучні": 5556,
      "ўспрымаць": 5557,
      "вялізны": 5558,
      "навукоўцы": 5559,
      "спецыяліст": 5560,
      "кепска": 5561,
      "дрэнныя": 5562,
      "фотаздым": 5563,
      "прапанавалі": 5564,
      "адрозніваюцца": 5565,
      "адзнакамі": 5566,
      "нязручна": 5567,
      "харчаванне": 5568,
      "райзэна": 5569,
      "медыцыны": 5570,
      "індустрыя": 5571,
      "квадра": 5572,
      "сляпы": 5573,
      "сняда": 5574,
      "кароткі": 5575,
      "памерам": 5576,
      "паверце": 5577,
      "вырубкі": 5578,
      "вызваліць": 5579,
      "заводах": 5580,
      "сажанцаў": 5581,
      "дзевяці": 5582,
      "балюча": 5583,
      "пестыцыдаў": 5584,
      "клаўд": 5585,
      "сцвярджае": 5586,
      "сцвярджаюць": 5587,
      "харчовай": 5588,
      "пачынаецца": 5589,
      "смартфон": 5590,
      "успамінаў": 5591,
      "актыві": 5592,
      "сродкі": 5593,
      "сферы": 5594,
      "пакеты": 5595,
      "павышэнне": 5596,
      "выжывання": 5597,
      "задумацца": 5598,
      "сайт": 5599,
      "рэчаіснасці": 5600,
      "стасункаў": 5601,
      "вячэру": 5602,
      "вузлы": 5603,
      "спадчы": 5604,
      "кантраляваць": 5605,
      "прадстаўнікоў": 5606,
      "выкарыстоўваю": 5607,
      "атрымліваеце": 5608,
      "функцыяна": 5609,
      "бясплатна": 5610,
      "дзяржаўных": 5611,
      "агародніцтва": 5612,
      "флейты": 5613,
      "эмоцыя": 5614,
      "імені": 5615,
      "ўразіла": 5616,
      "напрам": 5617,
      "камяні": 5618,
      "паспрабуйце": 5619,
      "вымавіць": 5620,
      "габрэ": 5621,
      "штодзённа": 5622,
      "мульты": 5623,
      "прыкладам": 5624,
      "турмах": 5625,
      "вучыцеся": 5626,
      "трапляе": 5627,
      "канкурэн": 5628,
      "паслядоўнасці": 5629,
      "кліентаў": 5630,
      "прадметы": 5631,
      "святло": 5632,
      "джордж": 5633,
      "сельскагаспадарчых": 5634,
      "new": 5635,
      "адзенне": 5636,
      "блука": 5637,
      "эпоха": 5638,
      "ізато": 5639,
      "набліжа": 5640,
      "вандра": 5641,
      "пагража": 5642,
      "мікарызы": 5643,
      "адмысло": 5644,
      "рэпутацыю": 5645,
      "статысты": 5646,
      "шэрыл": 5647,
      "арміі": 5648,
      "гадзіннік": 5649,
      "забабоны": 5650,
      "спадабалася": 5651,
      "прывілея": 5652,
      "інтэлектуаль": 5653,
      "аварыі": 5654,
      "егіпце": 5655,
      "хлапчу": 5656,
      "яблычкі": 5657,
      "насяко": 5658,
      "міжнарод": 5659,
      "стрымліва": 5660,
      "возьме": 5661,
      "безумоўна": 5662,
      "перадузя": 5663,
      "трыццаць": 5664,
      "абмену": 5665,
      "падкрэсліць": 5666,
      "пустыні": 5667,
      "кантэнту": 5668,
      "бясконца": 5669,
      "працаўнікоў": 5670,
      "архіў": 5671,
      "аўстраліі": 5672,
      "француз": 5673,
      "філадэльфіі": 5674,
      "зрэшты": 5675,
      "кваліфі": 5676,
      "сродак": 5677,
      "напрыканцы": 5678,
      "растлума": 5679,
      "памоч": 5680,
      "пашчасціла": 5681,
      "паасобку": 5682,
      "дактароў": 5683,
      "давяраць": 5684,
      "кіслароду": 5685,
      "прагалы": 5686,
      "пратапта": 5687,
      "цантральным": 5688,
      "міцэлі": 5689,
      "адсюль": 5690,
      "мухама": 5691,
      "інсекты": 5692,
      "інтэнсіў": 5693,
      "перспекты": 5694,
      "сератаніна": 5695,
      "неймаверна": 5696,
      "плантацыі": 5697,
      "каранёў": 5698,
      "accentu": 5699,
      "120": 5700,
      "24": 5701,
      "28": 5702,
      "3000": 5703,
      "43": 5704,
      "5000": 5705,
      "67": 5706,
      "68": 5707,
      "95": 5708,
      "am": 5709,
      "are": 5710,
      "bl": 5711,
      "cit": 5712,
      "di": 5713,
      "ft": 5714,
      "foo": 5715,
      "gle": 5716,
      "hon": 5717,
      "is": 5718,
      "ien": 5719,
      "lar": 5720,
      "mic": 5721,
      "nap": 5722,
      "nut": 5723,
      "ou": 5724,
      "pace": 5725,
      "pro": 5726,
      "sm": 5727,
      "sap": 5728,
      "snap": 5729,
      "space": 5730,
      "tw": 5731,
      "war": 5732,
      "yor": 5733,
      "аэ": 5734,
      "алі": 5735,
      "ама": 5736,
      "ага": 5737,
      "ало": 5738,
      "асі": 5739,
      "агі": 5740,
      "азі": 5741,
      "ашча": 5742,
      "анічога": 5743,
      "азо": 5744,
      "арэн": 5745,
      "апрацоў": 5746,
      "азір": 5747,
      "аэра": 5748,
      "адама": 5749,
      "бёр": 5750,
      "вэй": 5751,
      "гл": 5752,
      "гня": 5753,
      "гнае": 5754,
      "гчэй": 5755,
      "дны": 5756,
      "дная": 5757,
      "днае": 5758,
      "днасць": 5759,
      "ек": 5760,
      "ера": 5761,
      "елі": 5762,
      "еду": 5763,
      "ект": 5764,
      "еднасці": 5765,
      "еўрапей": 5766,
      "жні": 5767,
      "жнае": 5768,
      "ждж": 5769,
      "зэ": 5770,
      "зка": 5771,
      "здзе": 5772,
      "збі": 5773,
      "здзя": 5774,
      "змяне": 5775,
      "зможа": 5776,
      "згра": 5777,
      "згадзі": 5778,
      "зможам": 5779,
      "змагу": 5780,
      "знеш": 5781,
      "згвалта": 5782,
      "йд": 5783,
      "йным": 5784,
      "йскай": 5785,
      "йскіх": 5786,
      "йсня": 5787,
      "кля": 5788,
      "лi": 5789,
      "лёй": 5790,
      "лэн": 5791,
      "мз": 5792,
      "мм": 5793,
      "мле": 5794,
      "мбы": 5795,
      "мяк": 5796,
      "нды": 5797,
      "нгу": 5798,
      "нкамі": 5799,
      "нскім": 5800,
      "оз": 5801,
      "ол": 5802,
      "ом": 5803,
      "плі": 5804,
      "пяко": 5805,
      "плё": 5806,
      "рпа": 5807,
      "рса": 5808,
      "рпе": 5809,
      "рная": 5810,
      "см": 5811,
      "сне": 5812,
      "смо": 5813,
      "сну": 5814,
      "сфа": 5815,
      "сцё": 5816,
      "снасць": 5817,
      "скуль": 5818,
      "ске": 5819,
      "сфарма": 5820,
      "снула": 5821,
      "скеп": 5822,
      "спяко": 5823,
      "тве": 5824,
      "тцы": 5825,
      "тнымі": 5826,
      "учы": 5827,
      "уця": 5828,
      "ужы": 5829,
      "уплы": 5830,
      "ухваля": 5831,
      "умовах": 5832,
      "усімі": 5833,
      "упэўніцца": 5834,
      "фра": 5835,
      "флі": 5836,
      "фры": 5837,
      "хт": 5838,
      "хво": 5839,
      "цкіх": 5840,
      "цкага": 5841,
      "цгей": 5842,
      "чвалі": 5843,
      "шпры": 5844,
      "шлю": 5845,
      "шныя": 5846,
      "шпі": 5847,
      "шкай": 5848,
      "шпацы": 5849,
      "шкло": 5850,
      "элі": 5851,
      "эле": 5852,
      "экра": 5853,
      "элан": 5854,
      "юна": 5855,
      "юту": 5856,
      "ютара": 5857,
      "ютары": 5858,
      "ян": 5859,
      "ядзе": 5860,
      "яце": 5861,
      "ятка": 5862,
      "язы": 5863,
      "ясна": 5864,
      "ёты": 5865,
      "ёмых": 5866,
      "ёлаг": 5867,
      "іна": 5868,
      "іні": 5869,
      "іду": 5870,
      "ідуць": 5871,
      "ішлі": 5872,
      "ідзяце": 5873,
      "ўда": 5874,
      "ўчы": 5875,
      "ўліч": 5876,
      "ўклю": 5877,
      "ўзаба": 5878,
      "ўпала": 5879,
      "ўбачым": 5880,
      "ўдзел": 5881,
      "ўбачыў": 5882,
      "ўвечары": 5883,
      "ўнёсак": 5884,
      "ўгнае": 5885,
      "наф": 5886,
      "наць": 5887,
      "наме": 5888,
      "наці": 5889,
      "наня": 5890,
      "нацыі": 5891,
      "наюцца": 5892,
      "назвы": 5893,
      "надаць": 5894,
      "назва": 5895,
      "назе": 5896,
      "нашча": 5897,
      "набор": 5898,
      "нашэння": 5899,
      "назаўжды": 5900,
      "наперадзе": 5901,
      "рах": 5902,
      "рая": 5903,
      "раста": 5904,
      "рату": 5905,
      "рагу": 5906,
      "рафі": 5907,
      "ракра": 5908,
      "расказаў": 5909,
      "раніцы": 5910,
      "расказала": 5911,
      "таі": 5912,
      "таюць": 5913,
      "тацыі": 5914,
      "таваў": 5915,
      "тарыць": 5916,
      "кавы": 5917,
      "каві": 5918,
      "канне": 5919,
      "касць": 5920,
      "касе": 5921,
      "камала": 5922,
      "вадзе": 5923,
      "ванага": 5924,
      "ванымі": 5925,
      "паг": 5926,
      "пал": 5927,
      "пан": 5928,
      "паст": 5929,
      "падо": 5930,
      "пагу": 5931,
      "пабе": 5932,
      "паведа": 5933,
      "пакла": 5934,
      "пасе": 5935,
      "папу": 5936,
      "паху": 5937,
      "пашко": 5938,
      "пастаў": 5939,
      "паколькі": 5940,
      "павярну": 5941,
      "патлума": 5942,
      "паразмаўляць": 5943,
      "паразі": 5944,
      "пафар": 5945,
      "пабачыў": 5946,
      "пагар": 5947,
      "пагаварыць": 5948,
      "павярнулася": 5949,
      "паскара": 5950,
      "параўноў": 5951,
      "несу": 5952,
      "неным": 5953,
      "непас": 5954,
      "ненымі": 5955,
      "незразуме": 5956,
      "непаў": 5957,
      "ненаві": 5958,
      "ненна": 5959,
      "нешматлікія": 5960,
      "непазбе": 5961,
      "неўзаба": 5962,
      "ліп": 5963,
      "лілі": 5964,
      "ліла": 5965,
      "ліліся": 5966,
      "лівых": 5967,
      "лічаць": 5968,
      "лініі": 5969,
      "лічыцца": 5970,
      "літары": 5971,
      "дага": 5972,
      "даты": 5973,
      "дачу": 5974,
      "дамаг": 5975,
      "даецца": 5976,
      "даху": 5977,
      "дайшла": 5978,
      "дагляда": 5979,
      "дадам": 5980,
      "даказаць": 5981,
      "давядзе": 5982,
      "дагна": 5983,
      "давесці": 5984,
      "дачака": 5985,
      "датычыцца": 5986,
      "маз": 5987,
      "мал": 5988,
      "мана": 5989,
      "мане": 5990,
      "мання": 5991,
      "мапу": 5992,
      "матам": 5993,
      "макта": 5994,
      "марыць": 5995,
      "масфе": 5996,
      "матычнага": 5997,
      "лад": 5998,
      "лак": 5999,
      "лама": 6000,
      "тогра": 6001,
      "товых": 6002,
      "дзю": 6003,
      "дзвя": 6004,
      "дзёр": 6005,
      "рыд": 6006,
      "рысы": 6007,
      "рынку": 6008,
      "рычар": 6009,
      "кіё": 6010,
      "кіроў": 6011,
      "кідаў": 6012,
      "кінула": 6013,
      "кітаі": 6014,
      "выбы": 6015,
      "выхо": 6016,
      "вылу": 6017,
      "выбра": 6018,
      "вымаўля": 6019,
      "выбіра": 6020,
      "выказаў": 6021,
      "лье": 6022,
      "льтра": 6023,
      "льцаў": 6024,
      "льскай": 6025,
      "льёнаў": 6026,
      "прато": 6027,
      "прачы": 6028,
      "прамі": 6029,
      "прапу": 6030,
      "правялі": 6031,
      "правыя": 6032,
      "правер": 6033,
      "прайшоў": 6034,
      "правядзе": 6035,
      "правесці": 6036,
      "прамова": 6037,
      "прарок": 6038,
      "прарыў": 6039,
      "прайшло": 6040,
      "прасцей": 6041,
      "прадэманстра": 6042,
      "зака": 6043,
      "захо": 6044,
      "загі": 6045,
      "заклад": 6046,
      "заяўля": 6047,
      "задаць": 6048,
      "захва": 6049,
      "заган": 6050,
      "засярод": 6051,
      "захоў": 6052,
      "зароба": 6053,
      "затэры": 6054,
      "зачара": 6055,
      "забру": 6056,
      "замаца": 6057,
      "засаро": 6058,
      "запыт": 6059,
      "запаволь": 6060,
      "запомніць": 6061,
      "нішто": 6062,
      "нічным": 6063,
      "нічаюць": 6064,
      "ніякага": 6065,
      "гал": 6066,
      "гах": 6067,
      "гату": 6068,
      "гадаць": 6069,
      "гарада": 6070,
      "чыё": 6071,
      "чыва": 6072,
      "чымі": 6073,
      "чале": 6074,
      "чаем": 6075,
      "чаная": 6076,
      "чапля": 6077,
      "чарада": 6078,
      "чацвёр": 6079,
      "лега": 6080,
      "леных": 6081,
      "ледзь": 6082,
      "летку": 6083,
      "лерам": 6084,
      "лепей": 6085,
      "вед": 6086,
      "вем": 6087,
      "вет": 6088,
      "вец": 6089,
      "веку": 6090,
      "весі": 6091,
      "вегі": 6092,
      "велічы": 6093,
      "ветру": 6094,
      "везці": 6095,
      "весткі": 6096,
      "тыка": 6097,
      "тыпо": 6098,
      "тыпы": 6099,
      "саба": 6100,
      "сабо": 6101,
      "сасу": 6102,
      "сафа": 6103,
      "садзіць": 6104,
      "санд": 6105,
      "сабаку": 6106,
      "сяке": 6107,
      "сядзяць": 6108,
      "мін": 6109,
      "міт": 6110,
      "міў": 6111,
      "мілі": 6112,
      "міха": 6113,
      "місты": 6114,
      "мішэ": 6115,
      "ляр": 6116,
      "ляю": 6117,
      "лята": 6118,
      "ляне": 6119,
      "лялі": 6120,
      "ляры": 6121,
      "ляванне": 6122,
      "ляваны": 6123,
      "лягчэй": 6124,
      "рос": 6125,
      "рох": 6126,
      "роны": 6127,
      "роля": 6128,
      "роста": 6129,
      "росту": 6130,
      "ровар": 6131,
      "меч": 6132,
      "метры": 6133,
      "метады": 6134,
      "меран": 6135,
      "ціна": 6136,
      "цілі": 6137,
      "ціцца": 6138,
      "ціўся": 6139,
      "ціску": 6140,
      "ціэка": 6141,
      "цішыня": 6142,
      "аддзе": 6143,
      "адту": 6144,
      "адпо": 6145,
      "адсе": 6146,
      "адмаўля": 6147,
      "адпаве": 6148,
      "рэс": 6149,
      "рэжы": 6150,
      "рэспі": 6151,
      "няба": 6152,
      "няецца": 6153,
      "няшчас": 6154,
      "няздоль": 6155,
      "гол": 6156,
      "кой": 6157,
      "кола": 6158,
      "ковую": 6159,
      "кодам": 6160,
      "корань": 6161,
      "дзем": 6162,
      "дзены": 6163,
      "дзесьці": 6164,
      "дзедам": 6165,
      "ццаці": 6166,
      "стады": 6167,
      "стану": 6168,
      "стануць": 6169,
      "стаіць": 6170,
      "бал": 6171,
      "бам": 6172,
      "балы": 6173,
      "бавалі": 6174,
      "банку": 6175,
      "банкі": 6176,
      "бачацца": 6177,
      "бачанне": 6178,
      "моцы": 6179,
      "стрыя": 6180,
      "кураў": 6181,
      "мужа": 6182,
      "мусілі": 6183,
      "мусяць": 6184,
      "жаны": 6185,
      "цыгарэ": 6186,
      "боскай": 6187,
      "болем": 6188,
      "бостана": 6189,
      "бомбы": 6190,
      "дые": 6191,
      "дына": 6192,
      "пені": 6193,
      "песе": 6194,
      "пенсі": 6195,
      "печыва": 6196,
      "він": 6197,
      "вілі": 6198,
      "віль": 6199,
      "віцы": 6200,
      "вінні": 6201,
      "віцеся": 6202,
      "вібры": 6203,
      "вірту": 6204,
      "дзіс": 6205,
      "шын": 6206,
      "шыф": 6207,
      "шыні": 6208,
      "ногі": 6209,
      "новаў": 6210,
      "новымі": 6211,
      "доры": 6212,
      "доме": 6213,
      "досле": 6214,
      "дорага": 6215,
      "доктара": 6216,
      "дождж": 6217,
      "ложка": 6218,
      "нуль": 6219,
      "нуся": 6220,
      "нуем": 6221,
      "нуеце": 6222,
      "нутая": 6223,
      "прыні": 6224,
      "прыно": 6225,
      "прымае": 6226,
      "прызвы": 6227,
      "прыпамі": 6228,
      "прыйшлі": 6229,
      "прыйдзе": 6230,
      "прывёў": 6231,
      "прывіта": 6232,
      "прысутнасці": 6233,
      "прыроду": 6234,
      "прыехалі": 6235,
      "прыраўноў": 6236,
      "прыехаў": 6237,
      "прыродзе": 6238,
      "прыкме": 6239,
      "вопыта": 6240,
      "воклікі": 6241,
      "разгляда": 6242,
      "разглядаць": 6243,
      "разрыў": 6244,
      "люба": 6245,
      "люцэ": 6246,
      "люстэр": 6247,
      "каліся": 6248,
      "шак": 6249,
      "шан": 6250,
      "шах": 6251,
      "шаюць": 6252,
      "шаем": 6253,
      "шаюцца": 6254,
      "шалан": 6255,
      "шанец": 6256,
      "шанцаў": 6257,
      "вяць": 6258,
      "вядаць": 6259,
      "туні": 6260,
      "біі": 6261,
      "бітва": 6262,
      "хана": 6263,
      "хату": 6264,
      "хаюць": 6265,
      "хапіла": 6266,
      "мяжы": 6267,
      "сума": 6268,
      "сухо": 6269,
      "сумне": 6270,
      "сусвеце": 6271,
      "сукуп": 6272,
      "сілай": 6273,
      "руся": 6274,
      "рункам": 6275,
      "ннях": 6276,
      "насы": 6277,
      "цята": 6278,
      "цярпе": 6279,
      "жыце": 6280,
      "жывой": 6281,
      "найпрыга": 6282,
      "найбуй": 6283,
      "найглыбей": 6284,
      "тэм": 6285,
      "тэда": 6286,
      "тэрыі": 6287,
      "вуза": 6288,
      "вучо": 6289,
      "губ": 6290,
      "гур": 6291,
      "гуляў": 6292,
      "гуляць": 6293,
      "гімі": 6294,
      "гіпо": 6295,
      "дзях": 6296,
      "беспра": 6297,
      "бетон": 6298,
      "бераг": 6299,
      "беразе": 6300,
      "ваеш": 6301,
      "чуем": 6302,
      "інтуі": 6303,
      "полу": 6304,
      "потай": 6305,
      "ўсведам": 6306,
      "большыя": 6307,
      "скалы": 6308,
      "іхны": 6309,
      "таксі": 6310,
      "сцін": 6311,
      "сцівас": 6312,
      "пераку": 6313,
      "перадаць": 6314,
      "перамага": 6315,
      "перайшла": 6316,
      "перавесці": 6317,
      "перашка": 6318,
      "перайсці": 6319,
      "перайма": 6320,
      "пераасэнсаваць": 6321,
      "пераязджа": 6322,
      "знакі": 6323,
      "значэння": 6324,
      "значыла": 6325,
      "гэтымі": 6326,
      "спазна": 6327,
      "спампа": 6328,
      "класі": 6329,
      "клавія": 6330,
      "клавесі": 6331,
      "дэлі": 6332,
      "дэнт": 6333,
      "дэталі": 6334,
      "пію": 6335,
      "піі": 6336,
      "піра": 6337,
      "піло": 6338,
      "пірамі": 6339,
      "пылку": 6340,
      "трыво": 6341,
      "трымала": 6342,
      "сваяко": 6343,
      "абста": 6344,
      "света": 6345,
      "падлі": 6346,
      "падня": 6347,
      "падба": 6348,
      "падво": 6349,
      "падвер": 6350,
      "падказ": 6351,
      "падняла": 6352,
      "падтрымаць": 6353,
      "падбеглі": 6354,
      "смешна": 6355,
      "рабіла": 6356,
      "рабіліся": 6357,
      "наяў": 6358,
      "сеў": 6359,
      "села": 6360,
      "сонцы": 6361,
      "імчацца": 6362,
      "імперыя": 6363,
      "ньё": 6364,
      "трап": 6365,
      "трагі": 6366,
      "трасе": 6367,
      "мней": 6368,
      "ствару": 6369,
      "студыі": 6370,
      "ягоны": 6371,
      "ягонай": 6372,
      "пушча": 6373,
      "спраца": 6374,
      "справай": 6375,
      "спраекта": 6376,
      "наварта": 6377,
      "дзейс": 6378,
      "ўляцца": 6379,
      "часцю": 6380,
      "факты": 6381,
      "файна": 6382,
      "фактаў": 6383,
      "фанаты": 6384,
      "фатогра": 6385,
      "граў": 6386,
      "гранд": 6387,
      "думак": 6388,
      "канта": 6389,
      "канты": 6390,
      "кантэ": 6391,
      "кансуль": 6392,
      "канфлі": 6393,
      "разумець": 6394,
      "здаў": 6395,
      "паско": 6396,
      "меню": 6397,
      "жанчынай": 6398,
      "прода": 6399,
      "проці": 6400,
      "пройдзе": 6401,
      "цэмент": 6402,
      "цэдаль": 6403,
      "цэлае": 6404,
      "цэдэнт": 6405,
      "ткавы": 6406,
      "бягу": 6407,
      "бязлі": 6408,
      "ючым": 6409,
      "празмер": 6410,
      "чалавекі": 6411,
      "чалавеку": 6412,
      "чалавечая": 6413,
      "чалавечых": 6414,
      "зыходзіць": 6415,
      "крыс": 6416,
      "крыста": 6417,
      "крыніцу": 6418,
      "крыніц": 6419,
      "фіцы": 6420,
      "фікаваць": 6421,
      "пытаюць": 6422,
      "вялікім": 6423,
      "вялікіх": 6424,
      "чорт": 6425,
      "якасцямі": 6426,
      "нейкую": 6427,
      "нейкая": 6428,
      "нейкім": 6429,
      "нейроны": 6430,
      "заўзя": 6431,
      "жор": 6432,
      "жонку": 6433,
      "жонкі": 6434,
      "розь": 6435,
      "розны": 6436,
      "розніцы": 6437,
      "вырасту": 6438,
      "вырасце": 6439,
      "вырашэнне": 6440,
      "скімі": 6441,
      "якому": 6442,
      "плат": 6443,
      "плацяць": 6444,
      "плаціце": 6445,
      "стыту": 6446,
      "жукоў": 6447,
      "даўгі": 6448,
      "штата": 6449,
      "тамэ": 6450,
      "нашая": 6451,
      "ваннямі": 6452,
      "краму": 6453,
      "краін": 6454,
      "кранае": 6455,
      "праўдзе": 6456,
      "дапасоў": 6457,
      "дапамагло": 6458,
      "навук": 6459,
      "навучэ": 6460,
      "валак": 6461,
      "наўрад": 6462,
      "бленнем": 6463,
      "пачалася": 6464,
      "пачаткам": 6465,
      "аднаўля": 6466,
      "альбэ": 6467,
      "альцгей": 6468,
      "калега": 6469,
      "каленкі": 6470,
      "адчуў": 6471,
      "адчувала": 6472,
      "адчуванні": 6473,
      "працах": 6474,
      "ноўку": 6475,
      "простага": 6476,
      "асакава": 6477,
      "гена": 6478,
      "гебра": 6479,
      "генаў": 6480,
      "геній": 6481,
      "ўзроў": 6482,
      "ўзгада": 6483,
      "ўзроўні": 6484,
      "ўзгад": 6485,
      "ўзбярэж": 6486,
      "зразумееце": 6487,
      "слані": 6488,
      "славу": 6489,
      "сланоў": 6490,
      "жыццёвага": 6491,
      "ктыкі": 6492,
      "казалася": 6493,
      "слепа": 6494,
      "страху": 6495,
      "страшэн": 6496,
      "магчымасцей": 6497,
      "друк": 6498,
      "ктарам": 6499,
      "паўняе": 6500,
      "падаць": 6501,
      "падаецца": 6502,
      "падарункам": 6503,
      "майка": 6504,
      "працуючы": 6505,
      "нікому": 6506,
      "арке": 6507,
      "дзьве": 6508,
      "вядомай": 6509,
      "вядомая": 6510,
      "пэўнай": 6511,
      "пэўнага": 6512,
      "нэль": 6513,
      "слоўні": 6514,
      "кавалку": 6515,
      "частцы": 6516,
      "частках": 6517,
      "аўтара": 6518,
      "аўтар": 6519,
      "яўлялася": 6520,
      "яўляўся": 6521,
      "пісанне": 6522,
      "карыстаючыся": 6523,
      "явіцца": 6524,
      "патрэбнымі": 6525,
      "навіна": 6526,
      "сказана": 6527,
      "дрэнна": 6528,
      "фонд": 6529,
      "праблемай": 6530,
      "стэрэа": 6531,
      "школай": 6532,
      "цыйнай": 6533,
      "груп": 6534,
      "грунту": 6535,
      "зуецца": 6536,
      "фей": 6537,
      "разар": 6538,
      "сцежак": 6539,
      "верагодней": 6540,
      "цяжкай": 6541,
      "большасцю": 6542,
      "добрых": 6543,
      "магазі": 6544,
      "змена": 6545,
      "змену": 6546,
      "зменамі": 6547,
      "зменіць": 6548,
      "кліні": 6549,
      "клікаў": 6550,
      "клічуць": 6551,
      "распачаць": 6552,
      "распачалі": 6553,
      "маладыя": 6554,
      "важнасць": 6555,
      "раслі": 6556,
      "памірае": 6557,
      "паміраюць": 6558,
      "пчолам": 6559,
      "пчоламі": 6560,
      "машынай": 6561,
      "чытаючы": 6562,
      "глеба": 6563,
      "цоўку": 6564,
      "наступная": 6565,
      "грамада": 6566,
      "прэсы": 6567,
      "прэтэн": 6568,
      "прэцэдэнт": 6569,
      "галавой": 6570,
      "турме": 6571,
      "турму": 6572,
      "прадказ": 6573,
      "прадказаць": 6574,
      "хочацца": 6575,
      "працэнт": 6576,
      "працэсар": 6577,
      "гадзіне": 6578,
      "гадзінамі": 6579,
      "воліць": 6580,
      "апошнім": 6581,
      "апошняй": 6582,
      "апошняга": 6583,
      "апошнюю": 6584,
      "2012": 6585,
      "2014": 6586,
      "здольным": 6587,
      "здольны": 6588,
      "датчыкі": 6589,
      "коўваюць": 6590,
      "жыццязмяня": 6591,
      "таймз": 6592,
      "параі": 6593,
      "парада": 6594,
      "джэнне": 6595,
      "джэраў": 6596,
      "джэбр": 6597,
      "зноўку": 6598,
      "лінда": 6599,
      "мальных": 6600,
      "бацьку": 6601,
      "бацькам": 6602,
      "бацькамі": 6603,
      "198": 6604,
      "1980": 6605,
      "1975": 6606,
      "падымае": 6607,
      "падыходзіць": 6608,
      "падыйшоў": 6609,
      "падыходу": 6610,
      "адказнасць": 6611,
      "адказваюць": 6612,
      "адказваю": 6613,
      "думкай": 6614,
      "думкамі": 6615,
      "дзяўчаты": 6616,
      "перадкі": 6617,
      "жадаюць": 6618,
      "арган": 6619,
      "марс": 6620,
      "марш": 6621,
      "марка": 6622,
      "прадуктаў": 6623,
      "дзіўная": 6624,
      "сістэмай": 6625,
      "вярнуліся": 6626,
      "шчаны": 6627,
      "рабстве": 6628,
      "дасяга": 6629,
      "дасягае": 6630,
      "цяжкасць": 6631,
      "дваю": 6632,
      "ключ": 6633,
      "дыягра": 6634,
      "галоўныя": 6635,
      "галоўным": 6636,
      "галоўных": 6637,
      "парта": 6638,
      "парку": 6639,
      "партуга": 6640,
      "дадзеным": 6641,
      "вывучала": 6642,
      "адсотак": 6643,
      "адкрылі": 6644,
      "адкрыцця": 6645,
      "адкрытымі": 6646,
      "адкрытасць": 6647,
      "сутнасцю": 6648,
      "беззаган": 6649,
      "асаблівасці": 6650,
      "асаблівасцямі": 6651,
      "злучэнні": 6652,
      "карані": 6653,
      "карале": 6654,
      "канала": 6655,
      "паліцы": 6656,
      "паліцыю": 6657,
      "даследчыкі": 6658,
      "маўчаць": 6659,
      "маўчанне": 6660,
      "правільныя": 6661,
      "правільным": 6662,
      "правілаў": 6663,
      "тычных": 6664,
      "інтэрнацыянальным": 6665,
      "сцяна": 6666,
      "балаў": 6667,
      "кампусах": 6668,
      "асобу": 6669,
      "лёгкімі": 6670,
      "абавяза": 6671,
      "збіраюць": 6672,
      "збіраецца": 6673,
      "збіраюся": 6674,
      "збіраецеся": 6675,
      "напісала": 6676,
      "задаюць": 6677,
      "апыля": 6678,
      "называюць": 6679,
      "спыненне": 6680,
      "спыніцца": 6681,
      "старамі": 6682,
      "старанна": 6683,
      "версію": 6684,
      "асабістая": 6685,
      "асабістую": 6686,
      "слухаем": 6687,
      "слухайце": 6688,
      "крокі": 6689,
      "даведалася": 6690,
      "прапанаваць": 6691,
      "прымаца": 6692,
      "прымаюць": 6693,
      "асвя": 6694,
      "шчырыя": 6695,
      "шчырай": 6696,
      "назвалі": 6697,
      "падзея": 6698,
      "падзеі": 6699,
      "падзенне": 6700,
      "падземны": 6701,
      "нікаюць": 6702,
      "сацыяльная": 6703,
      "музыцы": 6704,
      "ствараюцца": 6705,
      "нцам": 6706,
      "нцавала": 6707,
      "нсан": 6708,
      "складаліся": 6709,
      "пазбя": 6710,
      "мажлівасцяў": 6711,
      "рымляне": 6712,
      "выдатнай": 6713,
      "цікавымі": 6714,
      "сусветнага": 6715,
      "сапраўдным": 6716,
      "сапраўдная": 6717,
      "арганізацый": 6718,
      "арганізаваныя": 6719,
      "радасць": 6720,
      "радасці": 6721,
      "выйгры": 6722,
      "гандаль": 6723,
      "ганстар": 6724,
      "публічнай": 6725,
      "публічная": 6726,
      "публічную": 6727,
      "лепшым": 6728,
      "звязаным": 6729,
      "звязаная": 6730,
      "спорт": 6731,
      "пакінула": 6732,
      "выпадка": 6733,
      "выпадках": 6734,
      "робячы": 6735,
      "робяцца": 6736,
      "адрозне": 6737,
      "маленькі": 6738,
      "маленькае": 6739,
      "зорак": 6740,
      "пасадзе": 6741,
      "знаходзімся": 6742,
      "вяртацца": 6743,
      "лічбавы": 6744,
      "лічбавую": 6745,
      "памятае": 6746,
      "памятаць": 6747,
      "грэкі": 6748,
      "памна": 6749,
      "лізацыяй": 6750,
      "справазда": 6751,
      "зямлёй": 6752,
      "неабходнасць": 6753,
      "знясі": 6754,
      "знявагу": 6755,
      "падобныя": 6756,
      "поўна": 6757,
      "поўную": 6758,
      "грамадствам": 6759,
      "інтэрнэтам": 6760,
      "зрок": 6761,
      "кветкавы": 6762,
      "запытаўся": 6763,
      "запыталіся": 6764,
      "прызнаць": 6765,
      "тэлеві": 6766,
      "спрабавала": 6767,
      "працягваецца": 6768,
      "працягнуць": 6769,
      "сяброўкі": 6770,
      "змро": 6771,
      "святы": 6772,
      "святка": 6773,
      "каманду": 6774,
      "камандай": 6775,
      "кіраванні": 6776,
      "рэальныя": 6777,
      "рэальным": 6778,
      "развівацца": 6779,
      "назіралі": 6780,
      "назіранне": 6781,
      "назіраем": 6782,
      "джыг": 6783,
      "зніш": 6784,
      "зніклі": 6785,
      "знішча": 6786,
      "крэды": 6787,
      "усведам": 6788,
      "кагадзе": 6789,
      "пакутуе": 6790,
      "станцый": 6791,
      "вялікімі": 6792,
      "ключаецца": 6793,
      "амерыканскага": 6794,
      "амерыканскім": 6795,
      "выкарыстоўвалі": 6796,
      "агульнай": 6797,
      "агульнае": 6798,
      "тлумачэння": 6799,
      "танц": 6800,
      "падзяляюць": 6801,
      "лічыла": 6802,
      "лічыце": 6803,
      "вызначэння": 6804,
      "вызначэнні": 6805,
      "беспрэцэдэнт": 6806,
      "студэн": 6807,
      "спрабуюць": 6808,
      "спрабуем": 6809,
      "спрабуеце": 6810,
      "пакаленні": 6811,
      "мастака": 6812,
      "гадамі": 6813,
      "гадовым": 6814,
      "гадовая": 6815,
      "стаяць": 6816,
      "стаялі": 6817,
      "бачце": 6818,
      "трымання": 6819,
      "джоні": 6820,
      "джонсан": 6821,
      "настаўніка": 6822,
      "ненцыя": 6823,
      "кіраўнікі": 6824,
      "кіраўнікоў": 6825,
      "засталіся": 6826,
      "чаканні": 6827,
      "годак": 6828,
      "бабуль": 6829,
      "любыя": 6830,
      "рухаемся": 6831,
      "доўгатэрмі": 6832,
      "графіку": 6833,
      "афлайн": 6834,
      "усяе": 6835,
      "усяля": 6836,
      "назавем": 6837,
      "паглядзела": 6838,
      "кніжныя": 6839,
      "вядомым": 6840,
      "тэхналогіямі": 6841,
      "меркавалі": 6842,
      "меркаваў": 6843,
      "меркаваннем": 6844,
      "1990": 6845,
      "1993": 6846,
      "спосабамі": 6847,
      "прыгож": 6848,
      "прыгоды": 6849,
      "любое": 6850,
      "трансплантацыі": 6851,
      "падарожнічаць": 6852,
      "паспяхова": 6853,
      "паспяховыя": 6854,
      "акуліст": 6855,
      "акуліста": 6856,
      "нацыянальныя": 6857,
      "нацыянальнай": 6858,
      "працоўны": 6859,
      "працоўкі": 6860,
      "працоўнае": 6861,
      "фарму": 6862,
      "карысная": 6863,
      "дапамагаюць": 6864,
      "аўтама": 6865,
      "групай": 6866,
      "электрычнага": 6867,
      "дзяўчыну": 6868,
      "скончыў": 6869,
      "скончыцца": 6870,
      "памыляюся": 6871,
      "ртае": 6872,
      "ланце": 6873,
      "гэткіх": 6874,
      "прычыны": 6875,
      "сеціве": 6876,
      "культурныя": 6877,
      "падабалася": 6878,
      "падабаюцца": 6879,
      "матэрыялаў": 6880,
      "патрабуюць": 6881,
      "мясцовы": 6882,
      "мясцовых": 6883,
      "здзіла": 6884,
      "здзівіцеся": 6885,
      "знойдуць": 6886,
      "эндзі": 6887,
      "эфект": 6888,
      "ўлады": 6889,
      "пазык": 6890,
      "выклікаць": 6891,
      "чаргу": 6892,
      "рэдна": 6893,
      "прыкладу": 6894,
      "прыемны": 6895,
      "прыемным": 6896,
      "прыемства": 6897,
      "сучаснай": 6898,
      "жывёл": 6899,
      "трэцяя": 6900,
      "змяняцца": 6901,
      "вартае": 6902,
      "вынаходка": 6903,
      "надзвычайна": 6904,
      "надзвычайнае": 6905,
      "org": 6906,
      "ors": 6907,
      "аніякага": 6908,
      "аніякай": 6909,
      "арабскую": 6910,
      "скрозь": 6911,
      "парушэння": 6912,
      "паказвала": 6913,
      "невяліч": 6914,
      "невялікае": 6915,
      "прынцып": 6916,
      "суполкі": 6917,
      "добрымі": 6918,
      "кампутарныя": 6919,
      "распрацаваў": 6920,
      "распрацавала": 6921,
      "арышта": 6922,
      "апранула": 6923,
      "апранута": 6924,
      "астатняга": 6925,
      "плоце": 6926,
      "ўласныя": 6927,
      "ўзаемаадносіны": 6928,
      "навыперадкі": 6929,
      "небяспецы": 6930,
      "небяспечнай": 6931,
      "ніводнай": 6932,
      "адчыніць": 6933,
      "няслушна": 6934,
      "няслушнасць": 6935,
      "строй": 6936,
      "суперкамп": 6937,
      "спадарства": 6938,
      "кандыдат": 6939,
      "сэнсоў": 6940,
      "залежнасці": 6941,
      "аднолькавае": 6942,
      "характары": 6943,
      "атмасфе": 6944,
      "атланце": 6945,
      "істота": 6946,
      "істотныя": 6947,
      "паспрабавала": 6948,
      "дабрачы": 6949,
      "дабрацца": 6950,
      "практыкава": 6951,
      "рэлігіі": 6952,
      "рэвалюцыю": 6953,
      "бардэ": 6954,
      "прычынах": 6955,
      "вуглярод": 6956,
      "вугляроду": 6957,
      "пераканаць": 6958,
      "перакананні": 6959,
      "перакананняў": 6960,
      "падлетка": 6961,
      "падлеткам": 6962,
      "планету": 6963,
      "узростам": 6964,
      "асобны": 6965,
      "рэакцыі": 6966,
      "пазнаёміліся": 6967,
      "трансфармацыя": 6968,
      "дзесяцігоддзі": 6969,
      "2008": 6970,
      "абысці": 6971,
      "абыяка": 6972,
      "псіха": 6973,
      "энэргію": 6974,
      "ўнутры": 6975,
      "даследу": 6976,
      "выпуску": 6977,
      "выкарыстала": 6978,
      "запрашаю": 6979,
      "нізка": 6980,
      "мозга": 6981,
      "нагадваць": 6982,
      "магчымых": 6983,
      "жудасна": 6984,
      "ўзяла": 6985,
      "ангельскую": 6986,
      "блізкі": 6987,
      "блізкіх": 6988,
      "электрастанцыі": 6989,
      "метафару": 6990,
      "апавяданні": 6991,
      "двухба": 6992,
      "фінансавыя": 6993,
      "аперацыя": 6994,
      "джун": 6995,
      "джулье": 6996,
      "звяртаць": 6997,
      "схавацца": 6998,
      "японіі": 6999,
      "надрукава": 7000,
      "дарагіх": 7001,
      "дакументы": 7002,
      "засму": 7003,
      "гармо": 7004,
      "гатовы": 7005,
      "досведзе": 7006,
      "прыбытку": 7007,
      "разважанняў": 7008,
      "берх": 7009,
      "ператвара": 7010,
      "ператварылася": 7011,
      "абмежаванняў": 7012,
      "першасны": 7013,
      "сеткай": 7014,
      "сетках": 7015,
      "імкнулася": 7016,
      "трапілі": 7017,
      "керра": 7018,
      "аўдыторыя": 7019,
      "ўніверсітэт": 7020,
      "ўніверсітэце": 7021,
      "шчырасці": 7022,
      "паводзінаў": 7023,
      "паводзінах": 7024,
      "праграмнага": 7025,
      "распаўсюджаная": 7026,
      "эфектыўна": 7027,
      "эфектыўней": 7028,
      "захворвання": 7029,
      "chat": 7030,
      "roso": 7031,
      "апублікавала": 7032,
      "вэб": 7033,
      "орга": 7034,
      "уража": 7035,
      "ураджа": 7036,
      "лідарства": 7037,
      "лабараторыі": 7038,
      "выбуху": 7039,
      "механіз": 7040,
      "механізм": 7041,
      "прываб": 7042,
      "прыватныя": 7043,
      "зірнуць": 7044,
      "зірніце": 7045,
      "выраслі": 7046,
      "хімію": 7047,
      "існаванне": 7048,
      "матэматыку": 7049,
      "злачынствы": 7050,
      "эксперыментаваць": 7051,
      "com": 7052,
      "ing": 7053,
      "itter": 7054,
      "актыўны": 7055,
      "нтэжа": 7056,
      "склалі": 7057,
      "эфір": 7058,
      "ёзную": 7059,
      "ўрокі": 7060,
      "навошта": 7061,
      "раёне": 7062,
      "расказы": 7063,
      "таленаві": 7064,
      "незвычайны": 7065,
      "незвычайнае": 7066,
      "запуска": 7067,
      "запуск": 7068,
      "ганаруся": 7069,
      "моладзі": 7070,
      "жахліва": 7071,
      "прыродным": 7072,
      "хатнія": 7073,
      "вучняў": 7074,
      "вялізныя": 7075,
      "навучылася": 7076,
      "навукоўцаў": 7077,
      "сённяшні": 7078,
      "сённяшнія": 7079,
      "джэймса": 7080,
      "структура": 7081,
      "сэксуальная": 7082,
      "прадукцыйнасці": 7083,
      "зацікаўленыя": 7084,
      "эксперт": 7085,
      "канферэнцыя": 7086,
      "ipur": 7087,
      "iphon": 7088,
      "свядомасці": 7089,
      "унізе": 7090,
      "дачыненні": 7091,
      "кірунку": 7092,
      "выхаваць": 7093,
      "выруба": 7094,
      "прарока": 7095,
      "рознага": 7096,
      "балючае": 7097,
      "сусветаў": 7098,
      "сурагатнага": 7099,
      "настойлівымі": 7100,
      "будынак": 7101,
      "будынкі": 7102,
      "пошуку": 7103,
      "кантроль": 7104,
      "тканіны": 7105,
      "тканіну": 7106,
      "бязглу": 7107,
      "бяздро": 7108,
      "нейрахімі": 7109,
      "тэхналагічны": 7110,
      "сконч": 7111,
      "эканамісты": 7112,
      "пачынаеце": 7113,
      "аўтамабілі": 7114,
      "адолець": 7115,
      "даследавання": 7116,
      "даследаванне": 7117,
      "адваротным": 7118,
      "засяродзілася": 7119,
      "засяродзіліся": 7120,
      "транспарт": 7121,
      "успаміны": 7122,
      "meg": 7123,
      "бласла": 7124,
      "блог": 7125,
      "блогу": 7126,
      "ейны": 7127,
      "зручна": 7128,
      "зручны": 7129,
      "смачная": 7130,
      "устойлівыя": 7131,
      "панэлі": 7132,
      "панэль": 7133,
      "паставілі": 7134,
      "мацней": 7135,
      "заклік": 7136,
      "гарэла": 7137,
      "міласці": 7138,
      "дыхання": 7139,
      "вопраткі": 7140,
      "вопратку": 7141,
      "духоўнага": 7142,
      "вячэра": 7143,
      "гіганцкі": 7144,
      "дзядулю": 7145,
      "спадчына": 7146,
      "чэмпіяна": 7147,
      "кантралю": 7148,
      "гербі": 7149,
      "анджалес": 7150,
      "распавядаюць": 7151,
      "эмпатыя": 7152,
      "эмпатыю": 7153,
      "мільярды": 7154,
      "мільярдаў": 7155,
      "выкарыстоўваючы": 7156,
      "атрымліваецца": 7157,
      "інжынера": 7158,
      "прамысловай": 7159,
      "агні": 7160,
      "алгебра": 7161,
      "апісва": 7162,
      "гнуткі": 7163,
      "схільныя": 7164,
      "узнагароды": 7165,
      "эмоцыі": 7166,
      "ўяўлення": 7167,
      "камяню": 7168,
      "паэт": 7169,
      "паступова": 7170,
      "паварочвае": 7171,
      "несвядомыя": 7172,
      "выбітны": 7173,
      "заяваў": 7174,
      "габрэй": 7175,
      "летась": 7176,
      "сабралі": 7177,
      "саджаць": 7178,
      "прыходзілі": 7179,
      "прыходзіла": 7180,
      "разбурыць": 7181,
      "інваліднасці": 7182,
      "дэбатаў": 7183,
      "піяніна": 7184,
      "канкурэ": 7185,
      "кантэксту": 7186,
      "заўважаць": 7187,
      "адзінокім": 7188,
      "пачаткова": 7189,
      "культурай": 7190,
      "паўплываў": 7191,
      "маладой": 7192,
      "абароны": 7193,
      "спадарыні": 7194,
      "пастаянных": 7195,
      "недахопы": 7196,
      "сустракаю": 7197,
      "сутыкнулася": 7198,
      "запаведнік": 7199,
      "solar": 7200,
      "бразілі": 7201,
      "бразіліі": 7202,
      "звонку": 7203,
      "збалансавана": 7204,
      "клетак": 7205,
      "лэйкаф": 7206,
      "шрыфт": 7207,
      "эпідэмі": 7208,
      "ілюзі": 7209,
      "ілюзіі": 7210,
      "рахунку": 7211,
      "катастро": 7212,
      "каментары": 7213,
      "павярхоў": 7214,
      "лаціна": 7215,
      "дзвюх": 7216,
      "дзвюма": 7217,
      "залатыя": 7218,
      "заявіць": 7219,
      "зацікавіцца": 7220,
      "часціцамі": 7221,
      "самому": 7222,
      "рэзаць": 7223,
      "бытавы": 7224,
      "баішся": 7225,
      "куппам": 7226,
      "кусавацца": 7227,
      "дзірка": 7228,
      "разгледзім": 7229,
      "мядзведзя": 7230,
      "спажывае": 7231,
      "серва": 7232,
      "імгненне": 7233,
      "імгненна": 7234,
      "фантасты": 7235,
      "канчаткова": 7236,
      "канцэнтрацыя": 7237,
      "канцэнтрацыі": 7238,
      "выяўляецца": 7239,
      "дапасаваць": 7240,
      "асабовасць": 7241,
      "асаблівае": 7242,
      "артыкул": 7243,
      "хваробы": 7244,
      "хваробу": 7245,
      "сярэдняга": 7246,
      "матываваць": 7247,
      "тэлефоны": 7248,
      "згубіла": 7249,
      "раўнапраўе": 7250,
      "вуглярода": 7251,
      "дзесяцігоддзямі": 7252,
      "псіхолагі": 7253,
      "вашынгтон": 7254,
      "прыстасаванні": 7255,
      "пісьменнікі": 7256,
      "кібербулінг": 7257,
      "адміністрацыі": 7258,
      "цяперашнім": 7259,
      "ахоўвае": 7260,
      "збянтэжа": 7261,
      "спрэчкі": 7262,
      "творы": 7263,
      "улічваючы": 7264,
      "ўзнагарода": 7265,
      "намаляваць": 7266,
      "нармальна": 7267,
      "раману": 7268,
      "каёт": 7269,
      "карэя": 7270,
      "пашанцавала": 7271,
      "паступленне": 7272,
      "пачытаў": 7273,
      "прагно": 7274,
      "прасунуліся": 7275,
      "заробку": 7276,
      "гандлё": 7277,
      "саламон": 7278,
      "мінулае": 7279,
      "цыклы": 7280,
      "цывілізацыяй": 7281,
      "вірус": 7282,
      "бібліі": 7283,
      "сінтэз": 7284,
      "ўспаміны": 7285,
      "сканцэнтра": 7286,
      "перамож": 7287,
      "спажыўцам": 7288,
      "падмурак": 7289,
      "камбінатор": 7290,
      "крызіс": 7291,
      "валанцёраў": 7292,
      "англамоў": 7293,
      "фермы": 7294,
      "працягласць": 7295,
      "раскрыць": 7296,
      "карпарацыі": 7297,
      "семнаццаты": 7298,
      "увасабленнем": 7299,
      "гародніны": 7300,
      "радыкальна": 7301,
      "электрамабіль": 7302,
      "медыцынскіх": 7303,
      "выпускнікоў": 7304,
      "квітнеючыя": 7305,
      "палестын": 7306,
      "дыскрымінацыя": 7307,
      "носьбіта": 7308,
      "jaipur": 7309,
      "riors": 7310,
      "аптымі": 7311,
      "ашалам": 7312,
      "асцярож": 7313,
      "апытаннях": 7314,
      "бюракра": 7315,
      "спрыяе": 7316,
      "чмялі": 7317,
      "швецыя": 7318,
      "танней": 7319,
      "вадароду": 7320,
      "пагорак": 7321,
      "пабудо": 7322,
      "палёту": 7323,
      "патэлефанаваў": 7324,
      "лацінскай": 7325,
      "выгнанне": 7326,
      "заахвоч": 7327,
      "чацвёртае": 7328,
      "сядзелкі": 7329,
      "ціскам": 7330,
      "монакультуры": 7331,
      "куртку": 7332,
      "вокны": 7333,
      "каліграфіі": 7334,
      "мяшанне": 7335,
      "сумесны": 7336,
      "бегаюць": 7337,
      "інтрыгу": 7338,
      "перамены": 7339,
      "знаходжу": 7340,
      "падштурх": 7341,
      "грунтоў": 7342,
      "распланаваным": 7343,
      "турбавацца": 7344,
      "мэнэджэраў": 7345,
      "экспаненцыя": 7346,
      "малекулы": 7347,
      "дарослага": 7348,
      "запраграмаваць": 7349,
      "сляпых": 7350,
      "напрамку": 7351,
      "габрэяў": 7352,
      "мультысусвету": 7353,
      "возьмем": 7354,
      "інсектыцы": 7355,
      "accenture": 7356,
      "blue": 7357,
      "city": 7358,
      "foot": 7359,
      "microso": 7360,
      "nutmeg": 7361,
      "snapchat": 7362,
      "spacex": 7363,
      "twitter": 7364,
      "warriors": 7365,
      "york": 7366,
      "аловак": 7367,
      "арэнду": 7368,
      "аэрапор": 7369,
      "бёртан": 7370,
      "здзяйсня": 7371,
      "сфакусавацца": 7372,
      "ухваляльныя": 7373,
      "ініцыя": 7374,
      "ўчынак": 7375,
      "ратуйце": 7376,
      "непасрэдна": 7377,
      "непаўнаварта": 7378,
      "неўзабаве": 7379,
      "дамагліся": 7380,
      "дагнаць": 7381,
      "дзвярэй": 7382,
      "рычард": 7383,
      "прачынаецца": 7384,
      "засяродж": 7385,
      "заробак": 7386,
      "гарадах": 7387,
      "сафары": 7388,
      "рэжыме": 7389,
      "рэспіра": 7390,
      "цыгарэту": 7391,
      "віртуаль": 7392,
      "новаўвядзе": 7393,
      "прывітанне": 7394,
      "вопытам": 7395,
      "перашкаджае": 7396,
      "спраектаваў": 7397,
      "грандмайстра": 7398,
      "кансульта": 7399,
      "бязліта": 7400,
      "альцгеймера": 7401,
      "ўзбярэжжа": 7402,
      "стэрэатыпы": 7403,
      "iphone": 7404,
      "бяздрота": 7405,
      "solarcity": 7406,
      "microsoft": 7407,
      ".»": 7408,
      "23": 7409,
      "26": 7410,
      "27": 7411,
      "29": 7412,
      "32": 7413,
      "38": 7414,
      "39": 7415,
      "41": 7416,
      "52": 7417,
      "53": 7418,
      "64": 7419,
      "65": 7420,
      "98": 7421,
      "99": 7422,
      "900": 7423,
      "av": 7424,
      "be": 7425,
      "bu": 7426,
      "ck": 7427,
      "cr": 7428,
      "cal": 7429,
      "cis": 7430,
      "de": 7431,
      "dro": 7432,
      "ed": 7433,
      "ear": 7434,
      "fo": 7435,
      "goo": 7436,
      "gue": 7437,
      "gag": 7438,
      "ib": 7439,
      "id": 7440,
      "il": 7441,
      "iх": 7442,
      "iя": 7443,
      "ite": 7444,
      "jec": 7445,
      "ld": 7446,
      "ms": 7447,
      "men": 7448,
      "os": 7449,
      "ow": 7450,
      "omen": 7451,
      "pe": 7452,
      "pal": 7453,
      "pay": 7454,
      "qu": 7455,
      "ron": 7456,
      "ran": 7457,
      "sh": 7458,
      "ss": 7459,
      "sec": 7460,
      "sup": 7461,
      "squ": 7462,
      "tr": 7463,
      "too": 7464,
      "ure": 7465,
      "wor": 7466,
      "women": 7467,
      "you": 7468,
      "ае": 7469,
      "ачу": 7470,
      "апу": 7471,
      "атакі": 7472,
      "апыта": 7473,
      "апраца": 7474,
      "аке": 7475,
      "аан": 7476,
      "азу": 7477,
      "акт": 7478,
      "агляда": 7479,
      "апар": 7480,
      "акаля": 7481,
      "акру": 7482,
      "апытанні": 7483,
      "авало": 7484,
      "апісаць": 7485,
      "апло": 7486,
      "апісаў": 7487,
      "акрэс": 7488,
      "адаслаць": 7489,
      "авія": 7490,
      "апярэ": 7491,
      "аказалася": 7492,
      "бв": 7493,
      "бка": 7494,
      "брэ": 7495,
      "бку": 7496,
      "бэка": 7497,
      "брэй": 7498,
      "гві": 7499,
      "дна": 7500,
      "дне": 7501,
      "дную": 7502,
      "двар": 7503,
      "дхоў": 7504,
      "двое": 7505,
      "днейшых": 7506,
      "ед": 7507,
      "ец": 7508,
      "еў": 7509,
      "ела": 7510,
      "ечы": 7511,
      "едзь": 7512,
      "ектыў": 7513,
      "ечкі": 7514,
      "емых": 7515,
      "ездзіла": 7516,
      "жня": 7517,
      "жныя": 7518,
      "жным": 7519,
      "жных": 7520,
      "жджу": 7521,
      "зд": 7522,
      "зкі": 7523,
      "зза": 7524,
      "зем": 7525,
      "згод": 7526,
      "знасці": 7527,
      "зоў": 7528,
      "звер": 7529,
      "зблі": 7530,
      "зэм": 7531,
      "згвал": 7532,
      "знік": 7533,
      "збудаваць": 7534,
      "згодзе": 7535,
      "зробім": 7536,
      "зраблю": 7537,
      "згоду": 7538,
      "збро": 7539,
      "змарнава": 7540,
      "збудавалі": 7541,
      "здзейс": 7542,
      "зрэзаць": 7543,
      "йме": 7544,
      "йор": 7545,
      "кце": 7546,
      "кту": 7547,
      "ксі": 7548,
      "кпі": 7549,
      "кроў": 7550,
      "кторыі": 7551,
      "кнуў": 7552,
      "квэ": 7553,
      "лз": 7554,
      "мс": 7555,
      "мё": 7556,
      "мпу": 7557,
      "мкаў": 7558,
      "мёр": 7559,
      "мскага": 7560,
      "нны": 7561,
      "нгі": 7562,
      "ннага": 7563,
      "нства": 7564,
      "ншта": 7565,
      "нсіі": 7566,
      "нбур": 7567,
      "нціна": 7568,
      "оры": 7569,
      "окс": 7570,
      "олагам": 7571,
      "опіі": 7572,
      "пка": 7573,
      "пту": 7574,
      "пліны": 7575,
      "ре": 7576,
      "рка": 7577,
      "рда": 7578,
      "рла": 7579,
      "рме": 7580,
      "рго": 7581,
      "рму": 7582,
      "рсі": 7583,
      "рву": 7584,
      "ркай": 7585,
      "рсан": 7586,
      "сi": 7587,
      "сму": 7588,
      "сцы": 7589,
      "слы": 7590,
      "скра": 7591,
      "слё": 7592,
      "сноў": 7593,
      "сход": 7594,
      "спіса": 7595,
      "снах": 7596,
      "скласці": 7597,
      "свое": 7598,
      "тс": 7599,
      "твы": 7600,
      "тболь": 7601,
      "тнасці": 7602,
      "твай": 7603,
      "тніка": 7604,
      "тнікі": 7605,
      "улі": 7606,
      "ума": 7607,
      "удзе": 7608,
      "узна": 7609,
      "увай": 7610,
      "удаў": 7611,
      "умоў": 7612,
      "уніка": 7613,
      "урэшце": 7614,
      "увесці": 7615,
      "устано": 7616,
      "убачыў": 7617,
      "украіне": 7618,
      "усярэдзіне": 7619,
      "угару": 7620,
      "уночы": 7621,
      "унёсак": 7622,
      "уіль": 7623,
      "убачыўшы": 7624,
      "уол": 7625,
      "улетку": 7626,
      "фразы": 7627,
      "фбр": 7628,
      "хх": 7629,
      "хэ": 7630,
      "хад": 7631,
      "хмы": 7632,
      "хаду": 7633,
      "цру": 7634,
      "цкім": 7635,
      "цвярджа": 7636,
      "цом": 7637,
      "цтве": 7638,
      "чка": 7639,
      "чле": 7640,
      "чкам": 7641,
      "чкай": 7642,
      "чваецца": 7643,
      "чнікам": 7644,
      "шва": 7645,
      "шку": 7646,
      "шную": 7647,
      "шкале": 7648,
      "шнія": 7649,
      "шніх": 7650,
      "шлюб": 7651,
      "швэ": 7652,
      "ым": 7653,
      "эль": 7654,
      "эмі": 7655,
      "эста": 7656,
      "эды": 7657,
      "эру": 7658,
      "эрай": 7659,
      "этап": 7660,
      "энеб": 7661,
      "эзатэры": 7662,
      "эдвар": 7663,
      "юшы": 7664,
      "ютараў": 7665,
      "юстыцыі": 7666,
      "ят": 7667,
      "ява": 7668,
      "яне": 7669,
      "яла": 7670,
      "яты": 7671,
      "ятамі": 7672,
      "ёў": 7673,
      "ёна": 7674,
      "ёвы": 7675,
      "ёмам": 7676,
      "ід": 7677,
      "іма": 7678,
      "іму": 7679,
      "іды": 7680,
      "ісу": 7681,
      "ігу": 7682,
      "ізы": 7683,
      "ідзіце": 7684,
      "іраку": 7685,
      "імавер": 7686,
      "ізра": 7687,
      "ішыўся": 7688,
      "ігол": 7689,
      "ўн": 7690,
      "ўці": 7691,
      "ўго": 7692,
      "ўку": 7693,
      "ўму": 7694,
      "ўцы": 7695,
      "ўпры": 7696,
      "ўраз": 7697,
      "ўдзя": 7698,
      "ўпаў": 7699,
      "ўстаў": 7700,
      "ўгле": 7701,
      "ўдні": 7702,
      "ўвой": 7703,
      "ўклада": 7704,
      "ўхва": 7705,
      "ўмець": 7706,
      "ўрада": 7707,
      "ўцяг": 7708,
      "ўрад": 7709,
      "ўстры": 7710,
      "ўлена": 7711,
      "ўмовах": 7712,
      "ўнесці": 7713,
      "ўвогуле": 7714,
      "ўсімі": 7715,
      "ўперадзе": 7716,
      "ўльтра": 7717,
      "ўпотай": 7718,
      "ўтрымання": 7719,
      "ўпрыгож": 7720,
      "ўмяшанне": 7721,
      "–-": 7722,
      "наю": 7723,
      "наве": 7724,
      "нашто": 7725,
      "набо": 7726,
      "надо": 7727,
      "наюць": 7728,
      "надэ": 7729,
      "наем": 7730,
      "набра": 7731,
      "наючы": 7732,
      "набыла": 7733,
      "наноў": 7734,
      "нахі": 7735,
      "нагру": 7736,
      "нальныя": 7737,
      "намеры": 7738,
      "насіць": 7739,
      "натуры": 7740,
      "напрацягу": 7741,
      "напоў": 7742,
      "напало": 7743,
      "нагода": 7744,
      "надае": 7745,
      "насар": 7746,
      "намалю": 7747,
      "настаўля": 7748,
      "нанова": 7749,
      "напішу": 7750,
      "назбіраць": 7751,
      "народы": 7752,
      "назбіралі": 7753,
      "раю": 7754,
      "ракі": 7755,
      "радзі": 7756,
      "раючы": 7757,
      "раваў": 7758,
      "расы": 7759,
      "рамэ": 7760,
      "раненні": 7761,
      "рацыяна": 7762,
      "рагчы": 7763,
      "тава": 7764,
      "тарэ": 7765,
      "тацы": 7766,
      "таем": 7767,
      "тацыю": 7768,
      "тавар": 7769,
      "танцы": 7770,
      "тавалася": 7771,
      "таматы": 7772,
      "тадхоў": 7773,
      "кане": 7774,
      "каме": 7775,
      "каюць": 7776,
      "каспа": 7777,
      "капі": 7778,
      "канчы": 7779,
      "каецца": 7780,
      "каўся": 7781,
      "кавяр": 7782,
      "кавым": 7783,
      "караб": 7784,
      "касцю": 7785,
      "кальных": 7786,
      "катоў": 7787,
      "кастры": 7788,
      "катамі": 7789,
      "каэфі": 7790,
      "кашту": 7791,
      "вах": 7792,
      "вані": 7793,
      "вача": 7794,
      "ваму": 7795,
      "вачо": 7796,
      "ванія": 7797,
      "вазе": 7798,
      "ваюся": 7799,
      "ваджэння": 7800,
      "варылі": 7801,
      "пах": 7802,
      "пата": 7803,
      "пака": 7804,
      "паць": 7805,
      "падз": 7806,
      "пані": 7807,
      "пага": 7808,
      "паца": 7809,
      "паро": 7810,
      "пажа": 7811,
      "пабо": 7812,
      "пату": 7813,
      "пабі": 7814,
      "патэ": 7815,
      "папера": 7816,
      "падаў": 7817,
      "папраў": 7818,
      "падзяку": 7819,
      "паходзіць": 7820,
      "паніка": 7821,
      "пазначыць": 7822,
      "папрацаваць": 7823,
      "пасіў": 7824,
      "павагу": 7825,
      "пасярэдзіне": 7826,
      "пакло": 7827,
      "павады": 7828,
      "паразумення": 7829,
      "пажадаеце": 7830,
      "паўздоўж": 7831,
      "павярнуўся": 7832,
      "палюбяць": 7833,
      "пакажы": 7834,
      "паперу": 7835,
      "пацярпе": 7836,
      "пацвярджа": 7837,
      "нера": 7838,
      "нечы": 7839,
      "неспа": 7840,
      "несе": 7841,
      "незаў": 7842,
      "несла": 7843,
      "непада": 7844,
      "непатрэбна": 7845,
      "нелагі": 7846,
      "нентаў": 7847,
      "нецікава": 7848,
      "непадоб": 7849,
      "незразумела": 7850,
      "немся": 7851,
      "нечака": 7852,
      "нектар": 7853,
      "непатрэбныя": 7854,
      "ненатуральна": 7855,
      "невыпадкова": 7856,
      "несправяд": 7857,
      "непрадказа": 7858,
      "невядомых": 7859,
      "непакара": 7860,
      "невыкана": 7861,
      "нестабі": 7862,
      "немагчымае": 7863,
      "неіснуючы": 7864,
      "непатрэбнымі": 7865,
      "неабыяка": 7866,
      "некантралю": 7867,
      "нечкай": 7868,
      "ліз": 7869,
      "ліў": 7870,
      "ліха": 7871,
      "лідэ": 7872,
      "ліўся": 7873,
      "ліней": 7874,
      "ліваецца": 7875,
      "лістаў": 7876,
      "літраў": 7877,
      "лістамі": 7878,
      "лішак": 7879,
      "даб": 7880,
      "дана": 7881,
      "дамы": 7882,
      "даста": 7883,
      "дало": 7884,
      "давай": 7885,
      "давала": 7886,
      "даход": 7887,
      "дарма": 7888,
      "даходзіць": 7889,
      "дарам": 7890,
      "дайшлі": 7891,
      "дарага": 7892,
      "даверу": 7893,
      "дактар": 7894,
      "дагары": 7895,
      "дастаўля": 7896,
      "даглядаць": 7897,
      "дабіцца": 7898,
      "даходу": 7899,
      "дактары": 7900,
      "даспадобы": 7901,
      "дапуска": 7902,
      "дапушча": 7903,
      "дажджу": 7904,
      "мас": 7905,
      "мач": 7906,
      "мака": 7907,
      "мато": 7908,
      "мамі": 7909,
      "мало": 7910,
      "ману": 7911,
      "маючы": 7912,
      "мараў": 7913,
      "масы": 7914,
      "магія": 7915,
      "маімі": 7916,
      "мазгу": 7917,
      "маск": 7918,
      "матычныя": 7919,
      "малымі": 7920,
      "ласе": 7921,
      "ланта": 7922,
      "лазе": 7923,
      "лагары": 7924,
      "лагер": 7925,
      "тона": 7926,
      "тога": 7927,
      "того": 7928,
      "торна": 7929,
      "тодай": 7930,
      "торый": 7931,
      "дзвяра": 7932,
      "дзвяры": 7933,
      "рыда": 7934,
      "рыла": 7935,
      "рыса": 7936,
      "рыстай": 7937,
      "кіно": 7938,
      "кішэ": 7939,
      "кірма": 7940,
      "кідалі": 7941,
      "кітнае": 7942,
      "выва": 7943,
      "выня": 7944,
      "выста": 7945,
      "высі": 7946,
      "выразу": 7947,
      "вызы": 7948,
      "выкры": 7949,
      "вымага": 7950,
      "выкара": 7951,
      "выжыць": 7952,
      "выдаля": 7953,
      "выхоў": 7954,
      "выгады": 7955,
      "вырабілі": 7956,
      "выдалі": 7957,
      "выпіць": 7958,
      "выдадзеныя": 7959,
      "выкласці": 7960,
      "выгодна": 7961,
      "выплаціць": 7962,
      "выдадзены": 7963,
      "вышыня": 7964,
      "выляце": 7965,
      "выкон": 7966,
      "выгуляць": 7967,
      "льку": 7968,
      "льбі": 7969,
      "львання": 7970,
      "льню": 7971,
      "льтавалі": 7972,
      "льшчык": 7973,
      "льванія": 7974,
      "прач": 7975,
      "прары": 7976,
      "прагу": 7977,
      "прабе": 7978,
      "правалі": 7979,
      "пратако": 7980,
      "прагле": 7981,
      "прайшла": 7982,
      "пражыць": 7983,
      "прасоў": 7984,
      "пражыў": 7985,
      "прадаюць": 7986,
      "прасачыць": 7987,
      "праяс": 7988,
      "прамовай": 7989,
      "прататы": 7990,
      "прааналіза": 7991,
      "прастыту": 7992,
      "прабачце": 7993,
      "заб": 7994,
      "зава": 7995,
      "зача": 7996,
      "замі": 7997,
      "заку": 7998,
      "зашы": 7999,
      "заваць": 8000,
      "засту": 8001,
      "зацыя": 8002,
      "забра": 8003,
      "зараў": 8004,
      "завай": 8005,
      "забуду": 8006,
      "заходзі": 8007,
      "загру": 8008,
      "захоча": 8009,
      "зайшла": 8010,
      "запалі": 8011,
      "заас": 8012,
      "запам": 8013,
      "закру": 8014,
      "загада": 8015,
      "зарабілі": 8016,
      "завіта": 8017,
      "захацелі": 8018,
      "зацвер": 8019,
      "заплаціць": 8020,
      "замару": 8021,
      "закладзе": 8022,
      "зацята": 8023,
      "запаўняе": 8024,
      "заключаецца": 8025,
      "нін": 8026,
      "ніў": 8027,
      "ніну": 8028,
      "нікалі": 8029,
      "ніліся": 8030,
      "нікае": 8031,
      "нізуе": 8032,
      "гая": 8033,
      "гата": 8034,
      "гавор": 8035,
      "гарас": 8036,
      "гарот": 8037,
      "гатоў": 8038,
      "галіны": 8039,
      "газам": 8040,
      "гасцё": 8041,
      "чыка": 8042,
      "чыста": 8043,
      "чылася": 8044,
      "чынні": 8045,
      "чыке": 8046,
      "гэй": 8047,
      "гэт": 8048,
      "чаі": 8049,
      "часа": 8050,
      "чакалі": 8051,
      "чанай": 8052,
      "чалася": 8053,
      "чанні": 8054,
      "чаючы": 8055,
      "чакае": 8056,
      "лекі": 8057,
      "леныя": 8058,
      "ленымі": 8059,
      "летам": 8060,
      "ленняў": 8061,
      "лекара": 8062,
      "лекаваць": 8063,
      "ленту": 8064,
      "ленню": 8065,
      "леглас": 8066,
      "леапар": 8067,
      "вена": 8068,
      "ветра": 8069,
      "ветэра": 8070,
      "тывы": 8071,
      "тыту": 8072,
      "тынг": 8073,
      "цар": 8074,
      "цана": 8075,
      "сад": 8076,
      "сал": 8077,
      "саф": 8078,
      "сац": 8079,
      "савы": 8080,
      "садзе": 8081,
      "сады": 8082,
      "сапі": 8083,
      "сакар": 8084,
      "сасны": 8085,
      "садаві": 8086,
      "сакаві": 8087,
      "саід": 8088,
      "сядзіць": 8089,
      "сядзець": 8090,
      "сямей": 8091,
      "сястрой": 8092,
      "міл": 8093,
      "мір": 8094,
      "мінда": 8095,
      "лям": 8096,
      "ляс": 8097,
      "ляжа": 8098,
      "ляман": 8099,
      "ляльныя": 8100,
      "лянкі": 8101,
      "лячэння": 8102,
      "лясах": 8103,
      "лясныя": 8104,
      "ляцяць": 8105,
      "ром": 8106,
      "роніць": 8107,
      "родам": 8108,
      "мецца": 8109,
      "меней": 8110,
      "метр": 8111,
      "мексі": 8112,
      "методай": 8113,
      "ціха": 8114,
      "цігод": 8115,
      "ціск": 8116,
      "адра": 8117,
      "адка": 8118,
      "адны": 8119,
      "адве": 8120,
      "адво": 8121,
      "адсу": 8122,
      "адпу": 8123,
      "адбуду": 8124,
      "адбудзе": 8125,
      "адказа": 8126,
      "адхі": 8127,
      "адклада": 8128,
      "адкажу": 8129,
      "адклю": 8130,
      "адправі": 8131,
      "адкро": 8132,
      "адмовы": 8133,
      "аддалі": 8134,
      "адсутнасці": 8135,
      "адпуска": 8136,
      "рэм": 8137,
      "рэп": 8138,
      "рэць": 8139,
      "рэха": 8140,
      "рэгі": 8141,
      "рэннем": 8142,
      "рэгуля": 8143,
      "рэцэп": 8144,
      "рэзка": 8145,
      "рэбэка": 8146,
      "рэдактар": 8147,
      "бываюць": 8148,
      "нясу": 8149,
      "нясе": 8150,
      "няроў": 8151,
      "нянаві": 8152,
      "нязвы": 8153,
      "няспы": 8154,
      "няцеся": 8155,
      "нябач": 8156,
      "нялёгка": 8157,
      "няўпэўнена": 8158,
      "няведанне": 8159,
      "нямеч": 8160,
      "горы": 8161,
      "госці": 8162,
      "горыі": 8163,
      "годам": 8164,
      "гоніцца": 8165,
      "гонар": 8166,
      "комі": 8167,
      "коўс": 8168,
      "конь": 8169,
      "кошта": 8170,
      "ковымі": 8171,
      "костка": 8172,
      "дзеце": 8173,
      "дзетак": 8174,
      "дзеная": 8175,
      "стах": 8176,
      "стацца": 8177,
      "статак": 8178,
      "ставаць": 8179,
      "сталася": 8180,
      "стаім": 8181,
      "ставалі": 8182,
      "ставаў": 8183,
      "станаў": 8184,
      "станоў": 8185,
      "станаві": 8186,
      "стазе": 8187,
      "сталых": 8188,
      "сталом": 8189,
      "ставяць": 8190,
      "цем": 8191,
      "цені": 8192,
      "целе": 8193,
      "баг": 8194,
      "бак": 8195,
      "бан": 8196,
      "бат": 8197,
      "бана": 8198,
      "бакі": 8199,
      "бабы": 8200,
      "бало": 8201,
      "банне": 8202,
      "бавыя": 8203,
      "бальні": 8204,
      "баках": 8205,
      "банка": 8206,
      "банк": 8207,
      "баляць": 8208,
      "баске": 8209,
      "бачанні": 8210,
      "бароніць": 8211,
      "мося": 8212,
      "моды": 8213,
      "мовамі": 8214,
      "модных": 8215,
      "стр": 8216,
      "ству": 8217,
      "сткай": 8218,
      "куе": 8219,
      "кузаў": 8220,
      "курых": 8221,
      "курэнне": 8222,
      "купіў": 8223,
      "мура": 8224,
      "мужы": 8225,
      "мурамі": 8226,
      "мутацыі": 8227,
      "жана": 8228,
      "жалі": 8229,
      "жале": 8230,
      "жарта": 8231,
      "жарту": 8232,
      "жахаў": 8233,
      "цыд": 8234,
      "цые": 8235,
      "цыпліны": 8236,
      "боем": 8237,
      "богам": 8238,
      "бостане": 8239,
      "боскага": 8240,
      "дый": 8241,
      "дыпло": 8242,
      "пеў": 8243,
      "пекла": 8244,
      "педыя": 8245,
      "пешкі": 8246,
      "пекіне": 8247,
      "педага": 8248,
      "пенсіі": 8249,
      "віны": 8250,
      "вікі": 8251,
      "візі": 8252,
      "вібра": 8253,
      "вікта": 8254,
      "відам": 8255,
      "вічыны": 8256,
      "вікторыі": 8257,
      "дзіду": 8258,
      "дзіцё": 8259,
      "дзісты": 8260,
      "дзікай": 8261,
      "дзікіх": 8262,
      "шыма": 8263,
      "шыцца": 8264,
      "шыце": 8265,
      "шылася": 8266,
      "шырэй": 8267,
      "шынствы": 8268,
      "ног": 8269,
      "ной": 8270,
      "ном": 8271,
      "нобы": 8272,
      "ностыкі": 8273,
      "дозу": 8274,
      "донар": 8275,
      "доктар": 8276,
      "доказы": 8277,
      "догляду": 8278,
      "лоб": 8279,
      "лос": 8280,
      "лорна": 8281,
      "лосаф": 8282,
      "нуд": 8283,
      "нуўшыся": 8284,
      "нулямі": 8285,
      "прыхо": 8286,
      "прыкры": 8287,
      "прышчэ": 8288,
      "прыступ": 8289,
      "прыбіра": 8290,
      "прыдум": 8291,
      "прышла": 8292,
      "прыгада": 8293,
      "прыдумаў": 8294,
      "прынесці": 8295,
      "прыйшло": 8296,
      "прынсі": 8297,
      "прыроды": 8298,
      "вода": 8299,
      "восі": 8300,
      "вобра": 8301,
      "вольным": 8302,
      "вострыя": 8303,
      "дух": 8304,
      "душ": 8305,
      "дура": 8306,
      "душа": 8307,
      "дурань": 8308,
      "разве": 8309,
      "разгу": 8310,
      "разбіра": 8311,
      "раздум": 8312,
      "размове": 8313,
      "размна": 8314,
      "размовах": 8315,
      "разбярэ": 8316,
      "размовай": 8317,
      "разлічыў": 8318,
      "разлад": 8319,
      "лютым": 8320,
      "лютасць": 8321,
      "людскія": 8322,
      "калікуппам": 8323,
      "шана": 8324,
      "шанні": 8325,
      "шанава": 8326,
      "шаецца": 8327,
      "шалё": 8328,
      "шанцы": 8329,
      "вясё": 8330,
      "вядзіце": 8331,
      "вядуць": 8332,
      "тук": 8333,
      "тупі": 8334,
      "тунак": 8335,
      "біл": 8336,
      "біну": 8337,
      "білася": 8338,
      "біліся": 8339,
      "біраў": 8340,
      "бібле": 8341,
      "хае": 8342,
      "хал": 8343,
      "халі": 8344,
      "хала": 8345,
      "хамі": 8346,
      "хадзіў": 8347,
      "хапала": 8348,
      "хадзілі": 8349,
      "хабамі": 8350,
      "халла": 8351,
      "хабавыя": 8352,
      "мян": 8353,
      "мячэ": 8354,
      "мяняць": 8355,
      "мяжоў": 8356,
      "суб": 8357,
      "суда": 8358,
      "сумы": 8359,
      "суюць": 8360,
      "супя": 8361,
      "сумоў": 8362,
      "судзілі": 8363,
      "суперажы": 8364,
      "суадносінаў": 8365,
      "сід": 8366,
      "сін": 8367,
      "сіроў": 8368,
      "руе": 8369,
      "рум": 8370,
      "рука": 8371,
      "руюць": 8372,
      "руках": 8373,
      "насцей": 8374,
      "настычныя": 8375,
      "наскурых": 8376,
      "цярп": 8377,
      "жыра": 8378,
      "жыцца": 8379,
      "жывымі": 8380,
      "жыхар": 8381,
      "буйныя": 8382,
      "наймен": 8383,
      "найджэ": 8384,
      "наймаць": 8385,
      "найперш": 8386,
      "найбольшай": 8387,
      "тэт": 8388,
      "тэмай": 8389,
      "тэслу": 8390,
      "тэстаў": 8391,
      "тэстам": 8392,
      "тэары": 8393,
      "тэат": 8394,
      "тэктар": 8395,
      "тэарэ": 8396,
      "тэлэ": 8397,
      "вуча": 8398,
      "вугле": 8399,
      "вугла": 8400,
      "вуглы": 8401,
      "вучыў": 8402,
      "вучылі": 8403,
      "вучэнні": 8404,
      "вугал": 8405,
      "гума": 8406,
      "гучала": 8407,
      "гуман": 8408,
      "гугл": 8409,
      "гусцін": 8410,
      "хом": 8411,
      "хобі": 8412,
      "ходзя": 8413,
      "ходаў": 8414,
      "хопіць": 8415,
      "дзяленне": 8416,
      "дзялянкі": 8417,
      "беска": 8418,
      "бегла": 8419,
      "бедня": 8420,
      "бегчы": 8421,
      "белую": 8422,
      "белая": 8423,
      "чула": 8424,
      "чулымі": 8425,
      "інтым": 8426,
      "інфе": 8427,
      "інгрэ": 8428,
      "інтэра": 8429,
      "інтарэ": 8430,
      "под": 8431,
      "поці": 8432,
      "поста": 8433,
      "погля": 8434,
      "погляда": 8435,
      "поўні": 8436,
      "посця": 8437,
      "пояс": 8438,
      "повязь": 8439,
      "ўско": 8440,
      "ўскай": 8441,
      "ўсхваля": 8442,
      "ўспом": 8443,
      "ўсходзе": 8444,
      "ўсміха": 8445,
      "большае": 8446,
      "большымі": 8447,
      "скала": 8448,
      "сканер": 8449,
      "скаўкі": 8450,
      "іхнія": 8451,
      "іхняе": 8452,
      "сціў": 8453,
      "сціпла": 8454,
      "сціскае": 8455,
      "перай": 8456,
      "перапі": 8457,
      "пералё": 8458,
      "пераслед": 8459,
      "перажыць": 8460,
      "перавага": 8461,
      "перапоў": 8462,
      "пераважа": 8463,
      "пераваро": 8464,
      "пераследу": 8465,
      "пераадоле": 8466,
      "перавагі": 8467,
      "перавяза": 8468,
      "перакуса": 8469,
      "пералом": 8470,
      "пераадоль": 8471,
      "перафразу": 8472,
      "пераносяць": 8473,
      "пераабста": 8474,
      "перапрацоўкі": 8475,
      "знак": 8476,
      "значная": 8477,
      "знаёмых": 8478,
      "спар": 8479,
      "спала": 8480,
      "спатка": 8481,
      "спазня": 8482,
      "спажыве": 8483,
      "спазнаць": 8484,
      "спатыка": 8485,
      "спальвання": 8486,
      "клаві": 8487,
      "класаў": 8488,
      "класах": 8489,
      "клапоці": 8490,
      "чэл": 8491,
      "чэр": 8492,
      "дэта": 8493,
      "дэнта": 8494,
      "дэфе": 8495,
      "дэпарта": 8496,
      "дэтэктар": 8497,
      "пілі": 8498,
      "піша": 8499,
      "піцу": 8500,
      "піўшыся": 8501,
      "пішыце": 8502,
      "лусце": 8503,
      "лучна": 8504,
      "трымай": 8505,
      "трымаў": 8506,
      "трымаю": 8507,
      "трыльёнаў": 8508,
      "трэнер": 8509,
      "свая": 8510,
      "сваркі": 8511,
      "абло": 8512,
      "абвя": 8513,
      "абсы": 8514,
      "абстра": 8515,
      "абслу": 8516,
      "абгру": 8517,
      "абслед": 8518,
      "абмень": 8519,
      "абразы": 8520,
      "абмеркава": 8521,
      "абнадзей": 8522,
      "абвесткі": 8523,
      "абсерва": 8524,
      "абмяжоў": 8525,
      "падста": 8526,
      "падвяр": 8527,
      "падвод": 8528,
      "падтрыма": 8529,
      "падпіх": 8530,
      "падпрацоў": 8531,
      "падлічыць": 8532,
      "падлік": 8533,
      "падруч": 8534,
      "падлічваць": 8535,
      "падтрымала": 8536,
      "кампрамі": 8537,
      "лыкоў": 8538,
      "смелы": 8539,
      "смелыя": 8540,
      "рабілася": 8541,
      "намё": 8542,
      "былое": 8543,
      "сей": 8544,
      "сетку": 8545,
      "серыі": 8546,
      "семіна": 8547,
      "сектары": 8548,
      "сой": 8549,
      "сора": 8550,
      "нагаві": 8551,
      "нагадаць": 8552,
      "імпе": 8553,
      "імчанне": 8554,
      "імёны": 8555,
      "самаві": 8556,
      "саманты": 8557,
      "самаўпэўне": 8558,
      "самадастаткова": 8559,
      "самароб": 8560,
      "нька": 8561,
      "траге": 8562,
      "трапяць": 8563,
      "траціну": 8564,
      "доўгі": 8565,
      "ствах": 8566,
      "стуюць": 8567,
      "ступіў": 8568,
      "ягоных": 8569,
      "ягоная": 8570,
      "пужа": 8571,
      "пусто": 8572,
      "пустазе": 8573,
      "справаў": 8574,
      "справамі": 8575,
      "навала": 8576,
      "наватая": 8577,
      "навакол": 8578,
      "нчыкі": 8579,
      "гляў": 8580,
      "глядаў": 8581,
      "глянула": 8582,
      "глядзяць": 8583,
      "глядзім": 8584,
      "фаў": 8585,
      "фактар": 8586,
      "фавэ": 8587,
      "фальтавалі": 8588,
      "град": 8589,
      "грае": 8590,
      "граю": 8591,
      "граць": 8592,
      "гралі": 8593,
      "грашо": 8594,
      "грашыма": 8595,
      "думаючы": 8596,
      "кантры": 8597,
      "канцоў": 8598,
      "каннэр": 8599,
      "канюшы": 8600,
      "разумелі": 8601,
      "цуд": 8602,
      "цуе": 8603,
      "цыям": 8604,
      "цыяні": 8605,
      "цыянуюць": 8606,
      "здацца": 8607,
      "здарэнні": 8608,
      "зію": 8609,
      "пасты": 8610,
      "ментам": 8611,
      "ментара": 8612,
      "меншая": 8613,
      "меншасці": 8614,
      "просты": 8615,
      "простым": 8616,
      "ўсяля": 8617,
      "цэр": 8618,
      "цэлую": 8619,
      "цётка": 8620,
      "цёраў": 8621,
      "цёплы": 8622,
      "тках": 8623,
      "брака": 8624,
      "брацца": 8625,
      "браныя": 8626,
      "братам": 8627,
      "браян": 8628,
      "бяры": 8629,
      "бяру": 8630,
      "бянтэ": 8631,
      "бярозе": 8632,
      "бяднейшых": 8633,
      "ючых": 8634,
      "хун": 8635,
      "хуткі": 8636,
      "чалавечы": 8637,
      "раўнава": 8638,
      "крывя": 8639,
      "крывас": 8640,
      "крычаць": 8641,
      "крыміна": 8642,
      "крыпты": 8643,
      "зрабіцца": 8644,
      "зрабіліся": 8645,
      "фік": 8646,
      "фіка": 8647,
      "фіні": 8648,
      "фірма": 8649,
      "філан": 8650,
      "філосаф": 8651,
      "роўкі": 8652,
      "шматплане": 8653,
      "пытаецца": 8654,
      "пытаўся": 8655,
      "пытанняў": 8656,
      "вялізнай": 8657,
      "вялізар": 8658,
      "чок": 8659,
      "чора": 8660,
      "чорта": 8661,
      "човен": 8662,
      "нейшы": 8663,
      "нейкай": 8664,
      "нейшае": 8665,
      "нейкае": 8666,
      "заўгодна": 8667,
      "розным": 8668,
      "выража": 8669,
      "вырабе": 8670,
      "вырашэнні": 8671,
      "выявы": 8672,
      "выявіў": 8673,
      "выявілася": 8674,
      "выявілі": 8675,
      "вайна": 8676,
      "вайне": 8677,
      "вайско": 8678,
      "вайцеся": 8679,
      "адзінага": 8680,
      "адзіную": 8681,
      "адзінак": 8682,
      "сёмы": 8683,
      "шчэння": 8684,
      "шчэнне": 8685,
      "манрэаль": 8686,
      "якою": 8687,
      "планы": 8688,
      "плату": 8689,
      "планам": 8690,
      "планаваць": 8691,
      "плануеце": 8692,
      "стыў": 8693,
      "стыму": 8694,
      "стычным": 8695,
      "тваю": 8696,
      "твару": 8697,
      "тваіх": 8698,
      "твараў": 8699,
      "тварам": 8700,
      "штат": 8701,
      "штаце": 8702,
      "штатаў": 8703,
      "чымсьці": 8704,
      "маей": 8705,
      "будуе": 8706,
      "будуецца": 8707,
      "нашаю": 8708,
      "кожныя": 8709,
      "шэра": 8710,
      "шэнняў": 8711,
      "шэраг": 8712,
      "край": 8713,
      "крам": 8714,
      "краме": 8715,
      "кратамі": 8716,
      "праўды": 8717,
      "дапама": 8718,
      "дапамогуць": 8719,
      "дапамаглі": 8720,
      "джаць": 8721,
      "навучу": 8722,
      "навучыў": 8723,
      "навучылі": 8724,
      "навуковай": 8725,
      "вяршыня": 8726,
      "вярхом": 8727,
      "бленыя": 8728,
      "бленых": 8729,
      "лёк": 8730,
      "лёсу": 8731,
      "лётаюць": 8732,
      "йшую": 8733,
      "змяняць": 8734,
      "змяшаем": 8735,
      "пачатак": 8736,
      "аднавіць": 8737,
      "сым": 8738,
      "сына": 8739,
      "сыра": 8740,
      "сыну": 8741,
      "сысці": 8742,
      "сышоў": 8743,
      "сытацы": 8744,
      "каледжу": 8745,
      "адчуем": 8746,
      "адчування": 8747,
      "верш": 8748,
      "вернасць": 8749,
      "працадаў": 8750,
      "ноўкі": 8751,
      "нтавая": 8752,
      "шукалі": 8753,
      "шукайце": 8754,
      "асацыю": 8755,
      "льніку": 8756,
      "ходзіў": 8757,
      "геа": 8758,
      "генаты": 8759,
      "ўзня": 8760,
      "ўзру": 8761,
      "ўзяў": 8762,
      "ўздзеянне": 8763,
      "ўзнікаюць": 8764,
      "жэння": 8765,
      "жэнні": 8766,
      "пятні": 8767,
      "пячорны": 8768,
      "слана": 8769,
      "жыццём": 8770,
      "жыццёва": 8771,
      "жыццёвых": 8772,
      "жыццёвым": 8773,
      "следам": 8774,
      "ідэал": 8775,
      "страш": 8776,
      "страту": 8777,
      "стратэ": 8778,
      "страчаная": 8779,
      "магчымасцяў": 8780,
      "друем": 8781,
      "друкавала": 8782,
      "хіб": 8783,
      "хіп": 8784,
      "хітра": 8785,
      "хісавы": 8786,
      "паўтары": 8787,
      "паўдзельні": 8788,
      "паўгадзіны": 8789,
      "паўтор": 8790,
      "паўтарыць": 8791,
      "паўторна": 8792,
      "адзінкавыя": 8793,
      "падат": 8794,
      "падаем": 8795,
      "падараваць": 8796,
      "падарылі": 8797,
      "майстры": 8798,
      "чайце": 8799,
      "працуем": 8800,
      "нікога": 8801,
      "арды": 8802,
      "аргу": 8803,
      "архе": 8804,
      "арфей": 8805,
      "дзьце": 8806,
      "родных": 8807,
      "кель": 8808,
      "кедра": 8809,
      "кедр": 8810,
      "многім": 8811,
      "множанне": 8812,
      "пэўных": 8813,
      "анё": 8814,
      "ангур": 8815,
      "слуга": 8816,
      "бліск": 8817,
      "вераць": 8818,
      "верасня": 8819,
      "слон": 8820,
      "словам": 8821,
      "каваных": 8822,
      "кавалкі": 8823,
      "часткамі": 8824,
      "першымі": 8825,
      "аўтары": 8826,
      "аўгусцін": 8827,
      "тропаў": 8828,
      "тролін": 8829,
      "яўляемся": 8830,
      "бачыш": 8831,
      "пісанымі": 8832,
      "карыстанне": 8833,
      "карысталася": 8834,
      "карыстаюся": 8835,
      "тэхно": 8836,
      "тэхнік": 8837,
      "тэхнікаў": 8838,
      "патрэбным": 8839,
      "навін": 8840,
      "навінамі": 8841,
      "навінах": 8842,
      "дрэсіроў": 8843,
      "праблем": 8844,
      "праблеме": 8845,
      "праблемаў": 8846,
      "стэро": 8847,
      "атрымання": 8848,
      "шкодні": 8849,
      "цыйным": 8850,
      "цыйных": 8851,
      "цыйнымі": 8852,
      "грудзей": 8853,
      "грудзях": 8854,
      "фера": 8855,
      "феміні": 8856,
      "федэра": 8857,
      "разабраць": 8858,
      "разабрацца": 8859,
      "кахаць": 8860,
      "каханым": 8861,
      "добрай": 8862,
      "сценах": 8863,
      "сцерагчы": 8864,
      "звычкі": 8865,
      "некалькімі": 8866,
      "выхаду": 8867,
      "стаўку": 8868,
      "працягва": 8869,
      "цяжкім": 8870,
      "цяжкіх": 8871,
      "цяжкімі": 8872,
      "звар": 8873,
      "зваль": 8874,
      "усёй": 8875,
      "моманце": 8876,
      "момантам": 8877,
      "момантаў": 8878,
      "зменяцца": 8879,
      "змешчаны": 8880,
      "клікам": 8881,
      "клікаем": 8882,
      "распач": 8883,
      "распачына": 8884,
      "маладая": 8885,
      "тарах": 8886,
      "важным": 8887,
      "важнага": 8888,
      "важную": 8889,
      "важлівасці": 8890,
      "вёса": 8891,
      "вёсцы": 8892,
      "расса": 8893,
      "расчароў": 8894,
      "расшыф": 8895,
      "памідоры": 8896,
      "лекцыя": 8897,
      "чытаюць": 8898,
      "чытачоў": 8899,
      "абодвух": 8900,
      "сваем": 8901,
      "глебу": 8902,
      "глебе": 8903,
      "зяць": 8904,
      "цоўка": 8905,
      "наступнага": 8906,
      "апоўдні": 8907,
      "картак": 8908,
      "кардыя": 8909,
      "карціць": 8910,
      "карткамі": 8911,
      "кардына": 8912,
      "лічваюць": 8913,
      "прэс": 8914,
      "прэса": 8915,
      "галава": 8916,
      "галавы": 8917,
      "галандыі": 8918,
      "галактыкі": 8919,
      "турнай": 8920,
      "турбіну": 8921,
      "мэце": 8922,
      "мэту": 8923,
      "мэтаў": 8924,
      "размаўляем": 8925,
      "размаўляеце": 8926,
      "размаўляйце": 8927,
      "пляж": 8928,
      "плячыма": 8929,
      "пляцоўка": 8930,
      "варты": 8931,
      "прадбач": 8932,
      "прадпрыемства": 8933,
      "шляхамі": 8934,
      "неверагодны": 8935,
      "неверагоднай": 8936,
      "неверагодныя": 8937,
      "пачуў": 8938,
      "пачуццю": 8939,
      "працэсам": 8940,
      "галовы": 8941,
      "галосных": 8942,
      "біраюць": 8943,
      "2010": 8944,
      "2011": 8945,
      "датчыкаў": 8946,
      "стрэльбі": 8947,
      "жыццяў": 8948,
      "жыццяздольным": 8949,
      "вырашым": 8950,
      "звычайным": 8951,
      "звычайнага": 8952,
      "экстра": 8953,
      "экстрэ": 8954,
      "экску": 8955,
      "экзэм": 8956,
      "надвор": 8957,
      "тайва": 8958,
      "тайце": 8959,
      "тайлер": 8960,
      "тайлера": 8961,
      "парад": 8962,
      "паравыя": 8963,
      "парадак": 8964,
      "паражэнне": 8965,
      "паратунак": 8966,
      "чэннем": 8967,
      "джэнні": 8968,
      "джэрсі": 8969,
      "таўне": 8970,
      "лінкі": 8971,
      "лінды": 8972,
      "лінгві": 8973,
      "магутная": 8974,
      "бацькоўс": 8975,
      "1930": 8976,
      "1950": 8977,
      "1970": 8978,
      "нскую": 8979,
      "творца": 8980,
      "творцы": 8981,
      "творныя": 8982,
      "творчым": 8983,
      "творчага": 8984,
      "творчасцю": 8985,
      "кажаш": 8986,
      "кажаце": 8987,
      "падыйсці": 8988,
      "адказвае": 8989,
      "адказваць": 8990,
      "адказнымі": 8991,
      "адказвала": 8992,
      "адказваеце": 8993,
      "гэтаксама": 8994,
      "рэшткі": 8995,
      "стать": 8996,
      "скок": 8997,
      "жадаю": 8998,
      "жадання": 8999,
      "жаданыя": 9000,
      "памыліліся": 9001,
      "марк": 9002,
      "марке": 9003,
      "мармела": 9004,
      "дзіўны": 9005,
      "дзіўным": 9006,
      "глядзела": 9007,
      "краіну": 9008,
      "краінай": 9009,
      "краінамі": 9010,
      "узгада": 9011,
      "узрасла": 9012,
      "узбярэж": 9013,
      "узнікае": 9014,
      "тарку": 9015,
      "верыў": 9016,
      "ктыўна": 9017,
      "ктыўнага": 9018,
      "зайздра": 9019,
      "цяжкасцю": 9020,
      "дваюцца": 9021,
      "месяца": 9022,
      "чэйшыя": 9023,
      "галоўнага": 9024,
      "галоўную": 9025,
      "галоўнымі": 9026,
      "ўнікі": 9027,
      "ўнілася": 9028,
      "памяшка": 9029,
      "памянша": 9030,
      "памятайце": 9031,
      "дадзена": 9032,
      "дадзенага": 9033,
      "вывучэнне": 9034,
      "вывучаў": 9035,
      "мільяне": 9036,
      "адкрыла": 9037,
      "адкрыты": 9038,
      "адкрытым": 9039,
      "адкрытая": 9040,
      "ставіла": 9041,
      "ставіліся": 9042,
      "ставімся": 9043,
      "безраз": 9044,
      "адносін": 9045,
      "адносіцца": 9046,
      "ідэямі": 9047,
      "грамадскі": 9048,
      "грамадскія": 9049,
      "арганізм": 9050,
      "арганізуе": 9051,
      "арганізмам": 9052,
      "главу": 9053,
      "злучыць": 9054,
      "злучэння": 9055,
      "злучыла": 9056,
      "карану": 9057,
      "каранямі": 9058,
      "леннем": 9059,
      "канадзе": 9060,
      "канады": 9061,
      "паліцыя": 9062,
      "паліцыяй": 9063,
      "палічылі": 9064,
      "паліцэнтры": 9065,
      "даследваць": 9066,
      "даследчыкаў": 9067,
      "маўры": 9068,
      "правіць": 9069,
      "правілы": 9070,
      "правілах": 9071,
      "правільнасці": 9072,
      "бойд": 9073,
      "звязва": 9074,
      "сцяне": 9075,
      "баламі": 9076,
      "балатавалася": 9077,
      "кампуса": 9078,
      "хуткасці": 9079,
      "колькасцю": 9080,
      "асочнікам": 9081,
      "праектаў": 9082,
      "лёгкім": 9083,
      "дасягнеш": 9084,
      "дасягнення": 9085,
      "збіраем": 9086,
      "збіраўся": 9087,
      "збіраліся": 9088,
      "збіраюцца": 9089,
      "нём": 9090,
      "энергію": 9091,
      "ўвага": 9092,
      "ўваючы": 9093,
      "напісана": 9094,
      "напісаны": 9095,
      "ваяваць": 9096,
      "задачы": 9097,
      "задацца": 9098,
      "заданні": 9099,
      "задарма": 9100,
      "задаваль": 9101,
      "задаволіць": 9102,
      "сярэдне": 9103,
      "здароўю": 9104,
      "апынуцца": 9105,
      "апынуўся": 9106,
      "апынаюцца": 9107,
      "называе": 9108,
      "называць": 9109,
      "маленечкай": 9110,
      "інфарматара": 9111,
      "інфарматараў": 9112,
      "інфармацыйную": 9113,
      "інфарматарам": 9114,
      "спачувае": 9115,
      "спачуванні": 9116,
      "цудоўнай": 9117,
      "цудоўная": 9118,
      "цудоўнасць": 9119,
      "амерыку": 9120,
      "спыняецца": 9121,
      "старая": 9122,
      "старамо": 9123,
      "стараюся": 9124,
      "моцны": 9125,
      "моцныя": 9126,
      "моцнае": 9127,
      "моцнага": 9128,
      "асабістыя": 9129,
      "слухаю": 9130,
      "кроку": 9131,
      "кропкі": 9132,
      "крочання": 9133,
      "плынь": 9134,
      "прапануюць": 9135,
      "ментары": 9136,
      "ментальнага": 9137,
      "мужчынскага": 9138,
      "праблемах": 9139,
      "аспер": 9140,
      "джваем": 9141,
      "шчыкаў": 9142,
      "назбіраў": 9143,
      "падзею": 9144,
      "падзенні": 9145,
      "падзелены": 9146,
      "сацыяльных": 9147,
      "сацыяльную": 9148,
      "музычная": 9149,
      "музыканта": 9150,
      "ствараць": 9151,
      "ствараеце": 9152,
      "стваральнікі": 9153,
      "стваральнікаў": 9154,
      "аплаты": 9155,
      "складае": 9156,
      "складання": 9157,
      "складалася": 9158,
      "складаная": 9159,
      "ранейшаму": 9160,
      "павольна": 9161,
      "паводзіць": 9162,
      "паводзім": 9163,
      "лагічна": 9164,
      "выдатная": 9165,
      "выдатнымі": 9166,
      "выдаткоў": 9167,
      "замеж": 9168,
      "цікавыя": 9169,
      "цікавяцца": 9170,
      "цікавей": 9171,
      "сусветныя": 9172,
      "сусветным": 9173,
      "сапраўдных": 9174,
      "сапраўднаму": 9175,
      "арганізацыю": 9176,
      "арганізавацца": 9177,
      "шчасліва": 9178,
      "шчаслівым": 9179,
      "шчаслівы": 9180,
      "ўпэўненыя": 9181,
      "ўпэўненая": 9182,
      "ўпэўненымі": 9183,
      "дарог": 9184,
      "дарожныя": 9185,
      "выйду": 9186,
      "выйдзіце": 9187,
      "выйдуць": 9188,
      "праграмісты": 9189,
      "ганстарамі": 9190,
      "публічным": 9191,
      "фізікаў": 9192,
      "фізічныя": 9193,
      "фізічную": 9194,
      "фізічнага": 9195,
      "аднагодак": 9196,
      "лепшымі": 9197,
      "звязанае": 9198,
      "звязанага": 9199,
      "ехала": 9200,
      "сцвяр": 9201,
      "споўнілася": 9202,
      "пакідаць": 9203,
      "пакінулі": 9204,
      "пакіньце": 9205,
      "выпадковых": 9206,
      "гамбур": 9207,
      "адрозненне": 9208,
      "хутчэйшы": 9209,
      "адукацый": 9210,
      "адукацыяй": 9211,
      "маленькім": 9212,
      "зоны": 9213,
      "зойме": 9214,
      "скура": 9215,
      "пасавалі": 9216,
      "пасадзіў": 9217,
      "пасадзілі": 9218,
      "пасадку": 9219,
      "пасадкі": 9220,
      "падумалі": 9221,
      "знаходзім": 9222,
      "знаходзіце": 9223,
      "знаходзілася": 9224,
      "знаходзіліся": 9225,
      "знаходзіцеся": 9226,
      "падтрымкі": 9227,
      "стварыла": 9228,
      "навучацца": 9229,
      "навучанню": 9230,
      "вяртае": 9231,
      "вярталі": 9232,
      "вяртанне": 9233,
      "вяртаецца": 9234,
      "вяртаюцца": 9235,
      "словах": 9236,
      "лічбавых": 9237,
      "памятаючы": 9238,
      "хлопцам": 9239,
      "хлопчыкі": 9240,
      "грэцыі": 9241,
      "даляр": 9242,
      "даляры": 9243,
      "захадзе": 9244,
      "захаваннем": 9245,
      "чатырна": 9246,
      "чатырох": 9247,
      "цягнік": 9248,
[...]
