{
  "version": "1.0",
  "truncation": null,
  "padding": null,
  "added_tokens": [
    {
      "id": 0,
      "content": "[UNK]",
      "single_word": false,
      "lstrip": false,
      "rstrip": false,
      "normalized": false,
      "special": true
    },
    {
      "id": 1,
      "content": "[START]",
      "single_word": false,
      "lstrip": false,
      "rstrip": false,
      "normalized": false,
      "special": true
    },
    {
      "id": 2,
      "content": "[NEXT]",
      "single_word": false,
      "lstrip": false,
      "rstrip": false,
      "normalized": false,
      "special": true
    },
    {
      "id": 3,
      "content": "[STOP]",
      "single_word": false,
      "lstrip": false,
      "rstrip": false,
      "normalized": false,
      "special": true
    }
  ],
  "normalizer": {
    "type": "Sequence",
    "normalizers": [
      {
        "type": "Lowercase"
      },
      {
        "type": "Strip",
        "strip_left": true,
        "strip_right": true
      }
    ]
  },
  "pre_tokenizer": {
    "type": "Whitespace"
  },
  "post_processor": null,
  "decoder": null,
  "model": {
    "type": "BPE",
    "dropout": null,
    "unk_token": null,
    "continuing_subword_prefix": null,
    "end_of_word_suffix": null,
    "fuse_unk": false,
    "byte_fallback": false,
    "ignore_merges": false,
    "vocab": {
      "[UNK]": 0,
      "[START]": 1,
      "[NEXT]": 2,
      "[STOP]": 3,
      " ": 4,
      "!": 5,
      "#": 6,
      "$": 7,
      "%": 8,
      "&": 9,
      "'": 10,
      "(": 11,
      ")": 12,
      "*": 13,
      "+": 14,
      ",": 15,
      "-": 16,
      ".": 17,
      "/": 18,
      "0": 19,
      "1": 20,
      "2": 21,
      "3": 22,
      "4": 23,
      "5": 24,
      "6": 25,
      "7": 26,
      "8": 27,
      "9": 28,
      ":": 29,
      ";": 30,
      "=": 31,
      "?": 32,
      "@": 33,
      "[": 34,
      "\\": 35,
      "]": 36,
      "^": 37,
      "_": 38,
      "`": 39,
      "a": 40,
      "b": 41,
      "c": 42,
      "d": 43,
      "e": 44,
      "f": 45,
      "g": 46,
      "h": 47,
      "i": 48,
      "j": 49,
      "k": 50,
      "l": 51,
      "m": 52,
      "n": 53,
      "o": 54,
      "p": 55,
      "q": 56,
      "r": 57,
      "s": 58,
      "t": 59,
      "u": 60,
      "v": 61,
      "w": 62,
      "x": 63,
      "y": 64,
      "z": 65,
      "": 66,
      "": 67,
      "¢": 68,
      "£": 69,
      "²": 70,
      "¿": 71,
      "à": 72,
      "á": 73,
      "â": 74,
      "ã": 75,
      "ä": 76,
      "å": 77,
      "æ": 78,
      "ç": 79,
      "è": 80,
      "é": 81,
      "ê": 82,
      "ë": 83,
      "ì": 84,
      "í": 85,
      "ï": 86,
      "ð": 87,
      "ñ": 88,
      "ó": 89,
      "ô": 90,
      "ö": 91,
      "ø": 92,
      "ú": 93,
      "û": 94,
      "ü": 95,
      "ā": 96,
      "ă": 97,
      "ć": 98,
      "č": 99,
      "ē": 100,
      "ě": 101,
      "ī": 102,
      "ō": 103,
      "ť": 104,
      "˚": 105,
      "τ": 106,
      "ย": 107,
      "ร": 108,
      "อ": 109,
      "่": 110,
      "–": 111,
      "—": 112,
      "‘": 113,
      "’": 114,
      "“": 115,
      "”": 116,
      "•": 117,
      "…": 118,
      "∇": 119,
      "♪": 120,
      "♫": 121,
      "th": 122,
      "in": 123,
      "the": 124,
      "an": 125,
      "re": 126,
      "at": 127,
      "ou": 128,
      "er": 129,
      "on": 130,
      "is": 131,
      "to": 132,
      "and": 133,
      "en": 134,
      "al": 135,
      "ing": 136,
      "it": 137,
      "or": 138,
      "es": 139,
      "of": 140,
      "as": 141,
      "ar": 142,
      "ed": 143,
      "we": 144,
      "that": 145,
      "le": 146,
      "se": 147,
      "st": 148,
      "om": 149,
      "wh": 150,
      "ic": 151,
      "you": 152,
      "ve": 153,
      "be": 154,
      "ow": 155,
      "ly": 156,
      "ac": 157,
      "ion": 158,
      "''": 159,
      "ha": 160,
      "so": 161,
      "ll": 162,
      "ent": 163,
      "this": 164,
      "me": 165,
      "ut": 166,
      "ch": 167,
      "ld": 168,
      "ver": 169,
      "li": 170,
      "ot": 171,
      "he": 172,
      "ay": 173,
      "id": 174,
      "gh": 175,
      "for": 176,
      "ab": 177,
      "do": 178,
      "ro": 179,
      "are": 180,
      "wi": 181,
      "ke": 182,
      "out": 183,
      "ge": 184,
      "lo": 185,
      "pe": 186,
      "all": 187,
      "ter": 188,
      "mo": 189,
      "was": 190,
      "ne": 191,
      "they": 192,
      "go": 193,
      "ir": 194,
      "un": 195,
      "de": 196,
      "``": 197,
      "ri": 198,
      "au": 199,
      "ome": 200,
      "ce": 201,
      "one": 202,
      "if": 203,
      "now": 204,
      "im": 205,
      "us": 206,
      "ally": 207,
      "but": 208,
      "have": 209,
      "with": 210,
      "fe": 211,
      "what": 212,
      "am": 213,
      "op": 214,
      "our": 215,
      "ct": 216,
      "wor": 217,
      "ad": 218,
      "ation": 219,
      "can": 220,
      "con": 221,
      "thing": 222,
      "te": 223,
      "tr": 224,
      "ght": 225,
      "su": 226,
      "ther": 227,
      "fr": 228,
      "ould": 229,
      "very": 230,
      "there": 231,
      "pl": 232,
      "ant": 233,
      "com": 234,
      "not": 235,
      "about": 236,
      "act": 237,
      "ma": 238,
      "per": 239,
      "pro": 240,
      "ex": 241,
      "my": 242,
      "ul": 243,
      "some": 244,
      "art": 245,
      "oun": 246,
      "ust": 247,
      "ind": 248,
      "ol": 249,
      "il": 250,
      "ur": 251,
      "ok": 252,
      "ap": 253,
      "like": 254,
      "how": 255,
      "od": 256,
      "peop": 257,
      "people": 258,
      "ate": 259,
      "ess": 260,
      "ig": 261,
      "ity": 262,
      "ause": 263,
      "no": 264,
      "from": 265,
      "bec": 266,
      "man": 267,
      "ye": 268,
      "ain": 269,
      "est": 270,
      "qu": 271,
      "ag": 272,
      "res": 273,
      "just": 274,
      "ive": 275,
      "way": 276,
      "up": 277,
      "sa": 278,
      "po": 279,
      "these": 280,
      "ink": 281,
      "gr": 282,
      "ci": 283,
      "know": 284,
      "when": 285,
      "ide": 286,
      "them": 287,
      "get": 288,
      "ti": 289,
      "see": 290,
      "ers": 291,
      "by": 292,
      "because": 293,
      "think": 294,
      "who": 295,
      "ist": 296,
      "co": 297,
      "ment": 298,
      "ill": 299,
      "ure": 300,
      "ars": 301,
      "ound": 302,
      "more": 303,
      "other": 304,
      "had": 305,
      "going": 306,
      "whe": 307,
      "ren": 308,
      "work": 309,
      "ich": 310,
      "end": 311,
      "sp": 312,
      "red": 313,
      "sh": 314,
      "ine": 315,
      "were": 316,
      "your": 317,
      "ort": 318,
      "fo": 319,
      "would": 320,
      "ack": 321,
      "here": 322,
      "look": 323,
      "their": 324,
      "which": 325,
      "br": 326,
      "00": 327,
      "ies": 328,
      "ta": 329,
      "ous": 330,
      "ev": 331,
      "ually": 332,
      "em": 333,
      "day": 334,
      "really": 335,
      "want": 336,
      "ble": 337,
      "where": 338,
      "pp": 339,
      "world": 340,
      "then": 341,
      "time": 342,
      "tor": 343,
      "ast": 344,
      "every": 345,
      "der": 346,
      "ple": 347,
      "has": 348,
      "ard": 349,
      "age": 350,
      "um": 351,
      "pr": 352,
      "ans": 353,
      "ace": 354,
      "ach": 355,
      "reat": 356,
      "iz": 357,
      "own": 358,
      "iv": 359,
      "able": 360,
      "ough": 361,
      "will": 362,
      "than": 363,
      "new": 364,
      "any": 365,
      "actually": 366,
      "et": 367,
      "augh": 368,
      "cent": 369,
      "could": 370,
      "ions": 371,
      "ph": 372,
      "into": 373,
      "ong": 374,
      "aughter": 375,
      "king": 376,
      "ence": 377,
      "bo": 378,
      "did": 379,
      "right": 380,
      "wo": 381,
      "years": 382,
      "el": 383,
      "say": 384,
      "ca": 385,
      "ild": 386,
      "itt": 387,
      "things": 388,
      "laughter": 389,
      "well": 390,
      "ose": 391,
      "bu": 392,
      "ight": 393,
      "been": 394,
      "put": 395,
      "she": 396,
      "most": 397,
      "chan": 398,
      "dis": 399,
      "ice": 400,
      "dif": 401,
      "ical": 402,
      "part": 403,
      "sel": 404,
      "ie": 405,
      "his": 406,
      "make": 407,
      "ite": 408,
      "need": 409,
      "fir": 410,
      "log": 411,
      "over": 412,
      "happ": 413,
      "str": 414,
      "ree": 415,
      "try": 416,
      "bl": 417,
      "start": 418,
      "sy": 419,
      "af": 420,
      "feren": 421,
      "mu": 422,
      "tal": 423,
      "first": 424,
      "those": 425,
      "back": 426,
      "two": 427,
      "something": 428,
      "form": 429,
      "hu": 430,
      "cl": 431,
      "cr": 432,
      "got": 433,
      "call": 434,
      "ho": 435,
      "ass": 436,
      "spe": 437,
      "ia": 438,
      "ign": 439,
      "des": 440,
      "ts": 441,
      "also": 442,
      "ber": 443,
      "ens": 444,
      "gu": 445,
      "kind": 446,
      "ves": 447,
      "said": 448,
      "differen": 449,
      "pre": 450,
      "even": 451,
      "lot": 452,
      "litt": 453,
      "ater": 454,
      "little": 455,
      "let": 456,
      "life": 457,
      "much": 458,
      "di": 459,
      "ving": 460,
      "bet": 461,
      "imp": 462,
      "ty": 463,
      "gen": 464,
      "her": 465,
      "int": 466,
      "ss": 467,
      "many": 468,
      "coun": 469,
      "bod": 470,
      "only": 471,
      "cre": 472,
      "thr": 473,
      "take": 474,
      "rest": 475,
      "stu": 476,
      "ated": 477,
      "under": 478,
      "ck": 479,
      "tell": 480,
      "ish": 481,
      "ob": 482,
      "its": 483,
      "lear": 484,
      "ful": 485,
      "come": 486,
      "ect": 487,
      "cho": 488,
      "hi": 489,
      "comm": 490,
      "real": 491,
      "inter": 492,
      "body": 493,
      "ep": 494,
      "good": 495,
      "does": 496,
      "different": 497,
      "human": 498,
      "tri": 499,
      "ms": 500,
      "through": 501,
      "show": 502,
      "self": 503,
      "around": 504,
      "ting": 505,
      "use": 506,
      "down": 507,
      "ase": 508,
      "uct": 509,
      "mar": 510,
      "may": 511,
      "stand": 512,
      "tur": 513,
      "tory": 514,
      "pres": 515,
      "why": 516,
      "read": 517,
      "ick": 518,
      "cess": 519,
      "off": 520,
      "vi": 521,
      "son": 522,
      "tim": 523,
      "being": 524,
      "ations": 525,
      "ning": 526,
      "pt": 527,
      "dr": 528,
      "stem": 529,
      "tech": 530,
      "als": 531,
      "car": 532,
      "ue": 533,
      "ought": 534,
      "sur": 535,
      "side": 536,
      "aw": 537,
      "same": 538,
      "cont": 539,
      "fore": 540,
      "med": 541,
      "proble": 542,
      "big": 543,
      "happen": 544,
      "sci": 545,
      "lect": 546,
      "great": 547,
      "ict": 548,
      "wr": 549,
      "year": 550,
      "ces": 551,
      "fl": 552,
      "ject": 553,
      "ps": 554,
      "system": 555,
      "comp": 556,
      "three": 557,
      "col": 558,
      "ser": 559,
      "sto": 560,
      "talk": 561,
      "ents": 562,
      "child": 563,
      "ance": 564,
      "fa": 565,
      "min": 566,
      "bi": 567,
      "mon": 568,
      "sol": 569,
      "doing": 570,
      "ef": 571,
      "build": 572,
      "after": 573,
      "ak": 574,
      "fin": 575,
      "percent": 576,
      "long": 577,
      "find": 578,
      "cor": 579,
      "bit": 580,
      "fact": 581,
      "again": 582,
      "soci": 583,
      "cer": 584,
      "xt": 585,
      "ways": 586,
      "ary": 587,
      "today": 588,
      "quest": 589,
      "cour": 590,
      "logy": 591,
      "ically": 592,
      "cond": 593,
      "ower": 594,
      "ask": 595,
      "ys": 596,
      "inte": 597,
      "eng": 598,
      "ved": 599,
      "called": 600,
      "wom": 601,
      "ible": 602,
      "inv": 603,
      "less": 604,
      "vers": 605,
      "ear": 606,
      "exper": 607,
      "made": 608,
      "sm": 609,
      "ame": 610,
      "change": 611,
      "illion": 612,
      "ities": 613,
      "bas": 614,
      "cal": 615,
      "techno": 616,
      "ger": 617,
      "uc": 618,
      "ics": 619,
      "turn": 620,
      "ons": 621,
      "fect": 622,
      "hel": 623,
      "ual": 624,
      "inst": 625,
      "plan": 626,
      "import": 627,
      "should": 628,
      "sing": 629,
      "ition": 630,
      "ever": 631,
      "ating": 632,
      "pa": 633,
      "arch": 634,
      "last": 635,
      "az": 636,
      "light": 637,
      "person": 638,
      "ates": 639,
      "appl": 640,
      "gan": 641,
      "und": 642,
      "times": 643,
      "pu": 644,
      "ave": 645,
      "amer": 646,
      "high": 647,
      "creat": 648,
      "design": 649,
      "play": 650,
      "ial": 651,
      "important": 652,
      "icul": 653,
      "another": 654,
      "imag": 655,
      "old": 656,
      "feel": 657,
      "used": 658,
      "idea": 659,
      "prod": 660,
      "him": 661,
      "pol": 662,
      "before": 663,
      "started": 664,
      "sha": 665,
      "understand": 666,
      "cul": 667,
      "power": 668,
      "mean": 669,
      "ica": 670,
      "stud": 671,
      "brain": 672,
      "interest": 673,
      "000": 674,
      "alth": 675,
      "thought": 676,
      "exam": 677,
      "never": 678,
      "place": 679,
      "ize": 680,
      "ip": 681,
      "went": 682,
      "toge": 683,
      "together": 684,
      "might": 685,
      "hand": 686,
      "better": 687,
      "ists": 688,
      "vir": 689,
      "beli": 690,
      "mat": 691,
      "ise": 692,
      "mem": 693,
      "fam": 694,
      "found": 695,
      "ire": 696,
      "par": 697,
      "land": 698,
      "give": 699,
      "ra": 700,
      "ile": 701,
      "story": 702,
      "dec": 703,
      "20": 704,
      "ility": 705,
      "problem": 706,
      "sim": 707,
      "still": 708,
      "cur": 709,
      "ago": 710,
      "bab": 711,
      "few": 712,
      "ily": 713,
      "commun": 714,
      "applause": 715,
      "ds": 716,
      "nat": 717,
      "course": 718,
      "pat": 719,
      "care": 720,
      "les": 721,
      "pos": 722,
      "next": 723,
      "num": 724,
      "ution": 725,
      "water": 726,
      "help": 727,
      "mus": 728,
      "net": 729,
      "chool": 730,
      "kes": 731,
      "vis": 732,
      "school": 733,
      "each": 734,
      "too": 735,
      "velo": 736,
      "point": 737,
      "kid": 738,
      "cell": 739,
      "came": 740,
      "19": 741,
      "cy": 742,
      "ry": 743,
      "ors": 744,
      "dat": 745,
      "ited": 746,
      "technology": 747,
      "10": 748,
      "comple": 749,
      "av": 750,
      "ted": 751,
      "develo": 752,
      "ments": 753,
      "bal": 754,
      "learn": 755,
      "sort": 756,
      "second": 757,
      "rel": 758,
      "att": 759,
      "trans": 760,
      "gy": 761,
      "ks": 762,
      "face": 763,
      "ness": 764,
      "ix": 765,
      "ff": 766,
      "poss": 767,
      "question": 768,
      "ense": 769,
      "women": 770,
      "comput": 771,
      "ween": 772,
      "clo": 773,
      "tain": 774,
      "uni": 775,
      "afr": 776,
      "cap": 777,
      "develop": 778,
      "grow": 779,
      "four": 780,
      "pri": 781,
      "far": 782,
      "between": 783,
      "data": 784,
      "comes": 785,
      "small": 786,
      "move": 787,
      "mom": 788,
      "ward": 789,
      "gener": 790,
      "chang": 791,
      "live": 792,
      "book": 793,
      "love": 794,
      "ib": 795,
      "mal": 796,
      "ian": 797,
      "children": 798,
      "led": 799,
      "eve": 800,
      "maybe": 801,
      "room": 802,
      "example": 803,
      "port": 804,
      "gre": 805,
      "looking": 806,
      "formation": 807,
      "fri": 808,
      "nor": 809,
      "ized": 810,
      "ters": 811,
      "yes": 812,
      "head": 813,
      "vie": 814,
      "done": 815,
      "lim": 816,
      "lar": 817,
      "war": 818,
      "ures": 819,
      "mind": 820,
      "reas": 821,
      "using": 822,
      "organ": 823,
      "aph": 824,
      "jo": 825,
      "ines": 826,
      "ress": 827,
      "line": 828,
      "health": 829,
      "set": 830,
      "wanted": 831,
      "econ": 832,
      "bor": 833,
      "ug": 834,
      "econom": 835,
      "ten": 836,
      "bus": 837,
      "building": 838,
      "ational": 839,
      "working": 840,
      "selves": 841,
      "away": 842,
      "ross": 843,
      "exp": 844,
      "home": 845,
      "ific": 846,
      "friend": 847,
      "country": 848,
      "giv": 849,
      "aut": 850,
      "million": 851,
      "..": 852,
      "bre": 853,
      "experi": 854,
      "sk": 855,
      "wal": 856,
      "whole": 857,
      "ital": 858,
      "publ": 859,
      "ven": 860,
      "ism": 861,
      "vide": 862,
      "iness": 863,
      "always": 864,
      "bot": 865,
      "open": 866,
      "trying": 867,
      "cri": 868,
      "ious": 869,
      "everything": 870,
      "gover": 871,
      "men": 872,
      "ins": 873,
      "sure": 874,
      "project": 875,
      "oney": 876,
      "believe": 877,
      "space": 878,
      "ft": 879,
      "lt": 880,
      "information": 881,
      "ls": 882,
      "ones": 883,
      "coming": 884,
      "eas": 885,
      "search": 886,
      "ote": 887,
      "lead": 888,
      "val": 889,
      "govern": 890,
      "run": 891,
      "ner": 892,
      "five": 893,
      "atch": 894,
      "hal": 895,
      "low": 896,
      "cept": 897,
      "pict": 898,
      "speci": 899,
      "mis": 900,
      "tra": 901,
      "sub": 902,
      "create": 903,
      "conne": 904,
      "air": 905,
      "ris": 906,
      "ath": 907,
      "dri": 908,
      "thinking": 909,
      "number": 910,
      "glo": 911,
      "aces": 912,
      "hard": 913,
      "50": 914,
      "cu": 915,
      "pret": 916,
      "process": 917,
      "money": 918,
      "took": 919,
      "anim": 920,
      "fut": 921,
      "elect": 922,
      "won": 923,
      "pect": 924,
      "means": 925,
      "ute": 926,
      "ident": 927,
      "ction": 928,
      "doll": 929,
      "fu": 930,
      "ative": 931,
      "ban": 932,
      "making": 933,
      "earth": 934,
      "graph": 935,
      "ener": 936,
      "struct": 937,
      "beg": 938,
      "ready": 939,
      "add": 940,
      "thank": 941,
      "ah": 942,
      "cle": 943,
      "future": 944,
      "tries": 945,
      "music": 946,
      "become": 947,
      "kids": 948,
      "ries": 949,
      "resp": 950,
      "grou": 951,
      "month": 952,
      "mic": 953,
      "fun": 954,
      "food": 955,
      "gest": 956,
      "enough": 957,
      "city": 958,
      "leg": 959,
      "bring": 960,
      "inc": 961,
      "social": 962,
      "top": 963,
      "best": 964,
      "probab": 965,
      "quite": 966,
      "left": 967,
      "planet": 968,
      "view": 969,
      "science": 970,
      "sum": 971,
      "half": 972,
      "without": 973,
      "interesting": 974,
      "os": 975,
      "reg": 976,
      "product": 977,
      "getting": 978,
      "youn": 979,
      "sense": 980,
      "allow": 981,
      "ouse": 982,
      "teach": 983,
      "ken": 984,
      "mor": 985,
      "energy": 986,
      "tre": 987,
      "ices": 988,
      "llow": 989,
      "possible": 990,
      "ory": 991,
      "happened": 992,
      "che": 993,
      "contro": 994,
      "ket": 995,
      "countries": 996,
      "lives": 997,
      "ican": 998,
      "gram": 999,
      "tors": 1000,
      "scient": 1001,
      "keep": 1002,
      "pie": 1003,
      "char": 1004,
      "pass": 1005,
      "sound": 1006,
      "probably": 1007,
      "ond": 1008,
      "mode": 1009,
      "cus": 1010,
      "pho": 1011,
      "talking": 1012,
      "wee": 1013,
      "wa": 1014,
      "aren": 1015,
      "pop": 1016,
      "iting": 1017,
      "lan": 1018,
      "job": 1019,
      "mother": 1020,
      "pretty": 1021,
      "hope": 1022,
      "member": 1023,
      "ately": 1024,
      "la": 1025,
      "ability": 1026,
      "issu": 1027,
      "tern": 1028,
      "sign": 1029,
      "amaz": 1030,
      "ture": 1031,
      "while": 1032,
      "imagine": 1033,
      "vo": 1034,
      "phys": 1035,
      "gl": 1036,
      "na": 1037,
      "sion": 1038,
      "moment": 1039,
      "beaut": 1040,
      "told": 1041,
      "global": 1042,
      "den": 1043,
      "polit": 1044,
      "public": 1045,
      "answ": 1046,
      "reason": 1047,
      "stre": 1048,
      "blo": 1049,
      "across": 1050,
      "stuff": 1051,
      "case": 1052,
      "mach": 1053,
      "ants": 1054,
      "business": 1055,
      "har": 1056,
      "saw": 1057,
      "such": 1058,
      "unt": 1059,
      "connect": 1060,
      "family": 1061,
      "educ": 1062,
      "anything": 1063,
      "200": 1064,
      "viron": 1065,
      "environ": 1066,
      "ying": 1067,
      "dollars": 1068,
      "ince": 1069,
      "list": 1070,
      "having": 1071,
      "gn": 1072,
      "bro": 1073,
      "hour": 1074,
      "young": 1075,
      "ced": 1076,
      "din": 1077,
      "africa": 1078,
      "simple": 1079,
      "video": 1080,
      "fort": 1081,
      "fig": 1082,
      "icular": 1083,
      "prof": 1084,
      "computer": 1085,
      "iter": 1086,
      "ili": 1087,
      "else": 1088,
      "cha": 1089,
      "living": 1090,
      "present": 1091,
      "days": 1092,
      "research": 1093,
      "seen": 1094,
      "ird": 1095,
      "once": 1096,
      "makes": 1097,
      "yet": 1098,
      "vol": 1099,
      "asked": 1100,
      "fac": 1101,
      "ural": 1102,
      "experience": 1103,
      "ided": 1104,
      "particular": 1105,
      "complete": 1106,
      "vel": 1107,
      "photo": 1108,
      "begin": 1109,
      "ality": 1110,
      "effect": 1111,
      "works": 1112,
      "bad": 1113,
      "later": 1114,
      "inste": 1115,
      "certain": 1116,
      "almost": 1117,
      "app": 1118,
      "uro": 1119,
      "ety": 1120,
      "mid": 1121,
      "remember": 1122,
      "serv": 1123,
      "six": 1124,
      "ang": 1125,
      "tru": 1126,
      "30": 1127,
      "ient": 1128,
      "met": 1129,
      "gir": 1130,
      "state": 1131,
      "nothing": 1132,
      "tem": 1133,
      "wonder": 1134,
      "billion": 1135,
      "equ": 1136,
      "sit": 1137,
      "happens": 1138,
      "picture": 1139,
      "thous": 1140,
      "tom": 1141,
      "thousand": 1142,
      "house": 1143,
      "night": 1144,
      "law": 1145,
      "ash": 1146,
      "goes": 1147,
      "national": 1148,
      "okay": 1149,
      "chall": 1150,
      "says": 1151,
      "supp": 1152,
      "test": 1153,
      "program": 1154,
      "cost": 1155,
      "disco": 1156,
      "inside": 1157,
      "both": 1158,
      "pain": 1159,
      "states": 1160,
      "ina": 1161,
      "uring": 1162,
      "environment": 1163,
      "single": 1164,
      "contin": 1165,
      "suc": 1166,
      "government": 1167,
      "acy": 1168,
      "treat": 1169,
      "verse": 1170,
      "watch": 1171,
      "already": 1172,
      "ud": 1173,
      "cou": 1174,
      "often": 1175,
      "mil": 1176,
      "hear": 1177,
      "ings": 1178,
      "ention": 1179,
      "cells": 1180,
      "problems": 1181,
      "whether": 1182,
      "popul": 1183,
      "oh": 1184,
      "dep": 1185,
      "fron": 1186,
      "ange": 1187,
      "order": 1188,
      "basically": 1189,
      "sou": 1190,
      "ages": 1191,
      "hold": 1192,
      "amazing": 1193,
      "community": 1194,
      "history": 1195,
      "prot": 1196,
      "looked": 1197,
      "ivid": 1198,
      "langu": 1199,
      "answer": 1200,
      "unch": 1201,
      "saying": 1202,
      "dire": 1203,
      "someone": 1204,
      "sed": 1205,
      "within": 1206,
      "lab": 1207,
      "wrong": 1208,
      "ilt": 1209,
      "tw": 1210,
      "words": 1211,
      "electr": 1212,
      "oper": 1213,
      "iful": 1214,
      "exact": 1215,
      "heart": 1216,
      "ury": 1217,
      "walk": 1218,
      "months": 1219,
      "evol": 1220,
      "instead": 1221,
      "ground": 1222,
      "incred": 1223,
      "ously": 1224,
      "bio": 1225,
      "hy": 1226,
      "sometimes": 1227,
      "dist": 1228,
      "fund": 1229,
      "oc": 1230,
      "united": 1231,
      "expl": 1232,
      "myself": 1233,
      "bed": 1234,
      "class": 1235,
      "pay": 1236,
      "since": 1237,
      "ield": 1238,
      "matter": 1239,
      "fil": 1240,
      "large": 1241,
      "cut": 1242,
      "hund": 1243,
      "looks": 1244,
      "hundred": 1245,
      "uce": 1246,
      "group": 1247,
      "ideas": 1248,
      "action": 1249,
      "bar": 1250,
      "mater": 1251,
      "kill": 1252,
      "phone": 1253,
      "beautiful": 1254,
      "bers": 1255,
      "everybody": 1256,
      "incre": 1257,
      "word": 1258,
      "100": 1259,
      "woman": 1260,
      "dan": 1261,
      "ering": 1262,
      "ship": 1263,
      "built": 1264,
      "gets": 1265,
      "ste": 1266,
      "heard": 1267,
      "ization": 1268,
      "nature": 1269,
      "true": 1270,
      "until": 1271,
      "clear": 1272,
      "fish": 1273,
      "individ": 1274,
      "nam": 1275,
      "engine": 1276,
      "scal": 1277,
      "itive": 1278,
      "audi": 1279,
      "appro": 1280,
      "pris": 1281,
      "places": 1282,
      "dev": 1283,
      "resu": 1284,
      "aster": 1285,
      "cancer": 1286,
      "object": 1287,
      "piece": 1288,
      "cord": 1289,
      "entire": 1290,
      "figure": 1291,
      "paren": 1292,
      "demo": 1293,
      "mer": 1294,
      "guy": 1295,
      "free": 1296,
      "species": 1297,
      "must": 1298,
      "fer": 1299,
      "stories": 1300,
      "control": 1301,
      "follow": 1302,
      "name": 1303,
      "mag": 1304,
      "dle": 1305,
      "society": 1306,
      "oce": 1307,
      "though": 1308,
      "internet": 1309,
      "stop": 1310,
      "education": 1311,
      "taking": 1312,
      "ues": 1313,
      "clim": 1314,
      "inno": 1315,
      "ivity": 1316,
      "dar": 1317,
      "learned": 1318,
      "black": 1319,
      "couple": 1320,
      "tool": 1321,
      "exc": 1322,
      "friends": 1323,
      "company": 1324,
      "que": 1325,
      "became": 1326,
      "ease": 1327,
      "share": 1328,
      "decided": 1329,
      "train": 1330,
      "language": 1331,
      "15": 1332,
      "everyone": 1333,
      "completely": 1334,
      "front": 1335,
      "model": 1336,
      "sc": 1337,
      "ton": 1338,
      "knew": 1339,
      "spend": 1340,
      "experim": 1341,
      "success": 1342,
      "reco": 1343,
      "collect": 1344,
      "past": 1345,
      "exactly": 1346,
      "acter": 1347,
      "sw": 1348,
      "quick": 1349,
      "adv": 1350,
      "middle": 1351,
      "ator": 1352,
      "father": 1353,
      "plic": 1354,
      "huge": 1355,
      "meas": 1356,
      "key": 1357,
      "against": 1358,
      "team": 1359,
      "dro": 1360,
      "field": 1361,
      "ush": 1362,
      "...": 1363,
      "fic": 1364,
      "level": 1365,
      "turns": 1366,
      "disease": 1367,
      "yeah": 1368,
      "wind": 1369,
      "happening": 1370,
      "por": 1371,
      "rad": 1372,
      "itself": 1373,
      "robot": 1374,
      "diff": 1375,
      "green": 1376,
      "sho": 1377,
      "rather": 1378,
      "meet": 1379,
      "questions": 1380,
      "cau": 1381,
      "ctor": 1382,
      "bur": 1383,
      "indust": 1384,
      "cam": 1385,
      "drug": 1386,
      "igh": 1387,
      "america": 1388,
      "mill": 1389,
      "street": 1390,
      "close": 1391,
      "ming": 1392,
      "deal": 1393,
      "ourselves": 1394,
      "protect": 1395,
      "sun": 1396,
      "mass": 1397,
      "mess": 1398,
      "reli": 1399,
      "euro": 1400,
      "ze": 1401,
      "ben": 1402,
      "ied": 1403,
      "invest": 1404,
      "fully": 1405,
      "spect": 1406,
      "systems": 1407,
      "fly": 1408,
      "kinds": 1409,
      "others": 1410,
      "appe": 1411,
      "study": 1412,
      "micro": 1413,
      "themselves": 1414,
      "animals": 1415,
      "pot": 1416,
      "relation": 1417,
      "century": 1418,
      "god": 1419,
      "jour": 1420,
      "ail": 1421,
      "pred": 1422,
      "beha": 1423,
      "step": 1424,
      "news": 1425,
      "bs": 1426,
      "along": 1427,
      "coll": 1428,
      "cir": 1429,
      "cons": 1430,
      "liter": 1431,
      "colle": 1432,
      "depend": 1433,
      "aid": 1434,
      "hours": 1435,
      "innov": 1436,
      "ional": 1437,
      "worked": 1438,
      "complex": 1439,
      "dre": 1440,
      "created": 1441,
      "ences": 1442,
      "univers": 1443,
      "difficul": 1444,
      "exist": 1445,
      "recent": 1446,
      "opport": 1447,
      "ork": 1448,
      "compan": 1449,
      "utes": 1450,
      "dig": 1451,
      "grand": 1452,
      "itting": 1453,
      "fre": 1454,
      "deep": 1455,
      "opportun": 1456,
      "hind": 1457,
      "sex": 1458,
      "finally": 1459,
      "io": 1460,
      "known": 1461,
      "speak": 1462,
      "based": 1463,
      "third": 1464,
      "thousands": 1465,
      "students": 1466,
      "ling": 1467,
      "var": 1468,
      "somebody": 1469,
      "ished": 1470,
      "tin": 1471,
      "arr": 1472,
      "learning": 1473,
      "trad": 1474,
      "universe": 1475,
      "behavi": 1476,
      "ses": 1477,
      "cities": 1478,
      "amoun": 1479,
      "india": 1480,
      "logical": 1481,
      "haps": 1482,
      "istic": 1483,
      "ples": 1484,
      "perhaps": 1485,
      "early": 1486,
      "changed": 1487,
      "least": 1488,
      "death": 1489,
      "natural": 1490,
      "american": 1491,
      "fall": 1492,
      "40": 1493,
      "bon": 1494,
      "dom": 1495,
      "text": 1496,
      "seven": 1497,
      "viol": 1498,
      "ier": 1499,
      "ats": 1500,
      "lots": 1501,
      "turned": 1502,
      "super": 1503,
      "machine": 1504,
      "hor": 1505,
      "plant": 1506,
      "york": 1507,
      "europe": 1508,
      "incl": 1509,
      "break": 1510,
      "issue": 1511,
      "happy": 1512,
      "communic": 1513,
      "listen": 1514,
      "ror": 1515,
      "gress": 1516,
      "china": 1517,
      "outside": 1518,
      "flu": 1519,
      "squ": 1520,
      "aged": 1521,
      "taken": 1522,
      "market": 1523,
      "jor": 1524,
      "ential": 1525,
      "simp": 1526,
      "ases": 1527,
      "ared": 1528,
      "expect": 1529,
      "ially": 1530,
      "typ": 1531,
      "paper": 1532,
      "posed": 1533,
      "acc": 1534,
      "fail": 1535,
      "week": 1536,
      "companies": 1537,
      "scale": 1538,
      "flo": 1539,
      "full": 1540,
      "democr": 1541,
      "vered": 1542,
      "minutes": 1543,
      "wall": 1544,
      "ians": 1545,
      "utions": 1546,
      "ibly": 1547,
      "reality": 1548,
      "og": 1549,
      "tend": 1550,
      "parents": 1551,
      "ocean": 1552,
      "emp": 1553,
      "pped": 1554,
      "ordin": 1555,
      "takes": 1556,
      "pur": 1557,
      "beginning": 1558,
      "gave": 1559,
      "access": 1560,
      "size": 1561,
      "moving": 1562,
      "seeing": 1563,
      "instit": 1564,
      "wards": 1565,
      "uck": 1566,
      "reach": 1567,
      "behind": 1568,
      "sens": 1569,
      "explo": 1570,
      "during": 1571,
      "rich": 1572,
      "forest": 1573,
      "given": 1574,
      "difficult": 1575,
      "sent": 1576,
      "sequ": 1577,
      "culture": 1578,
      "rent": 1579,
      "vision": 1580,
      "ider": 1581,
      "easy": 1582,
      "dream": 1583,
      "short": 1584,
      "sym": 1585,
      "ither": 1586,
      "needed": 1587,
      "aring": 1588,
      "path": 1589,
      "support": 1590,
      "ients": 1591,
      "ots": 1592,
      "main": 1593,
      "guys": 1594,
      "difference": 1595,
      "obvi": 1596,
      "media": 1597,
      "sil": 1598,
      "image": 1599,
      "ade": 1600,
      "famili": 1601,
      "ele": 1602,
      "local": 1603,
      "eyes": 1604,
      "area": 1605,
      "box": 1606,
      "atic": 1607,
      "mark": 1608,
      "explain": 1609,
      "60": 1610,
      "ump": 1611,
      "scre": 1612,
      "ster": 1613,
      "tail": 1614,
      "verage": 1615,
      "major": 1616,
      "decis": 1617,
      "ament": 1618,
      "stay": 1619,
      "neur": 1620,
      "economic": 1621,
      "ives": 1622,
      "leave": 1623,
      "blue": 1624,
      "pattern": 1625,
      "extre": 1626,
      "eight": 1627,
      "force": 1628,
      "grad": 1629,
      "audience": 1630,
      "absol": 1631,
      "safe": 1632,
      "bir": 1633,
      "pet": 1634,
      "needs": 1635,
      "humans": 1636,
      "itect": 1637,
      "architect": 1638,
      "partic": 1639,
      "common": 1640,
      "white": 1641,
      "hood": 1642,
      "pick": 1643,
      "hands": 1644,
      "population": 1645,
      "simply": 1646,
      "felt": 1647,
      "extra": 1648,
      "parts": 1649,
      "draw": 1650,
      "political": 1651,
      "absolute": 1652,
      "began": 1653,
      "special": 1654,
      "send": 1655,
      "ney": 1656,
      "18": 1657,
      "impro": 1658,
      "chem": 1659,
      "cks": 1660,
      "recogn": 1661,
      "terms": 1662,
      "born": 1663,
      "wonderful": 1664,
      "event": 1665,
      "fast": 1666,
      "anci": 1667,
      "non": 1668,
      "surv": 1669,
      "tow": 1670,
      "amount": 1671,
      "sour": 1672,
      "powerful": 1673,
      "behavior": 1674,
      "ances": 1675,
      "itions": 1676,
      "risk": 1677,
      "mul": 1678,
      "sis": 1679,
      "perfect": 1680,
      "longer": 1681,
      "girl": 1682,
      "measure": 1683,
      "feed": 1684,
      "growth": 1685,
      "ith": 1686,
      "defin": 1687,
      "win": 1688,
      "astic": 1689,
      "strong": 1690,
      "pract": 1691,
      "personal": 1692,
      "12": 1693,
      "ides": 1694,
      "medi": 1695,
      "bri": 1696,
      "ru": 1697,
      "lost": 1698,
      "near": 1699,
      "blood": 1700,
      "gone": 1701,
      "invol": 1702,
      "knowled": 1703,
      "foot": 1704,
      "scientists": 1705,
      "trave": 1706,
      "road": 1707,
      "realized": 1708,
      "ball": 1709,
      "climate": 1710,
      "fur": 1711,
      "ature": 1712,
      "resour": 1713,
      "ties": 1714,
      "rate": 1715,
      "spir": 1716,
      "yourself": 1717,
      "experiment": 1718,
      "ax": 1719,
      "oil": 1720,
      "trust": 1721,
      "type": 1722,
      "approach": 1723,
      "solution": 1724,
      "record": 1725,
      "idence": 1726,
      "sug": 1727,
      "spec": 1728,
      "game": 1729,
      "ired": 1730,
      "enge": 1731,
      "leaders": 1732,
      "poor": 1733,
      "voice": 1734,
      "die": 1735,
      "fight": 1736,
      "itch": 1737,
      "telling": 1738,
      "south": 1739,
      "conv": 1740,
      "changes": 1741,
      "whatever": 1742,
      "center": 1743,
      "tract": 1744,
      "stage": 1745,
      "prom": 1746,
      "respons": 1747,
      "ude": 1748,
      "challenge": 1749,
      "died": 1750,
      "board": 1751,
      "emot": 1752,
      "cop": 1753,
      "quickly": 1754,
      "camer": 1755,
      "revol": 1756,
      "ibility": 1757,
      "sof": 1758,
      "lling": 1759,
      "buy": 1760,
      "surface": 1761,
      "economy": 1762,
      "photograph": 1763,
      "tried": 1764,
      "psy": 1765,
      "ford": 1766,
      "ively": 1767,
      "technolog": 1768,
      "interested": 1769,
      "ging": 1770,
      "ilar": 1771,
      "oud": 1772,
      "worth": 1773,
      "forward": 1774,
      "impact": 1775,
      "patients": 1776,
      "value": 1777,
      "sea": 1778,
      "pose": 1779,
      "growing": 1780,
      "dark": 1781,
      "either": 1782,
      "descri": 1783,
      "press": 1784,
      "color": 1785,
      "write": 1786,
      "orig": 1787,
      "opportunity": 1788,
      "structure": 1789,
      "direct": 1790,
      "evolution": 1791,
      "bes": 1792,
      "dna": 1793,
      "ni": 1794,
      "material": 1795,
      "slow": 1796,
      "anal": 1797,
      "terri": 1798,
      "books": 1799,
      "alone": 1800,
      "term": 1801,
      "knowledge": 1802,
      "sitting": 1803,
      "ank": 1804,
      "lands": 1805,
      "relig": 1806,
      "ination": 1807,
      "medic": 1808,
      "ring": 1809,
      "row": 1810,
      "ended": 1811,
      "weeks": 1812,
      "ju": 1813,
      "spent": 1814,
      "ned": 1815,
      "sal": 1816,
      "profess": 1817,
      "80": 1818,
      "count": 1819,
      "ency": 1820,
      "changing": 1821,
      "rain": 1822,
      "ined": 1823,
      "emer": 1824,
      "stain": 1825,
      "fear": 1826,
      "cool": 1827,
      "fair": 1828,
      "incredible": 1829,
      "average": 1830,
      "lish": 1831,
      "neigh": 1832,
      "ged": 1833,
      "astr": 1834,
      "quality": 1835,
      "gal": 1836,
      "sl": 1837,
      "post": 1838,
      "development": 1839,
      "situ": 1840,
      "lies": 1841,
      "hundreds": 1842,
      "tic": 1843,
      "zer": 1844,
      "ouch": 1845,
      "shows": 1846,
      "ular": 1847,
      "11": 1848,
      "eat": 1849,
      "areas": 1850,
      "def": 1851,
      "mot": 1852,
      "predict": 1853,
      "convers": 1854,
      "mit": 1855,
      "sud": 1856,
      "centr": 1857,
      "pen": 1858,
      "physical": 1859,
      "rele": 1860,
      "comb": 1861,
      "flow": 1862,
      "extreme": 1863,
      "sudden": 1864,
      "card": 1865,
      "tran": 1866,
      "bill": 1867,
      "intell": 1868,
      "soon": 1869,
      "ames": 1870,
      "intellig": 1871,
      "hosp": 1872,
      "understanding": 1873,
      "similar": 1874,
      "numbers": 1875,
      "solve": 1876,
      "developed": 1877,
      "aking": 1878,
      "giving": 1879,
      "fundament": 1880,
      "moder": 1881,
      "brought": 1882,
      "images": 1883,
      "movement": 1884,
      "vent": 1885,
      "entially": 1886,
      "serious": 1887,
      "tradition": 1888,
      "eth": 1889,
      "sat": 1890,
      "hon": 1891,
      "gor": 1892,
      "moun": 1893,
      "argu": 1894,
      "film": 1895,
      "individual": 1896,
      "technologies": 1897,
      "gs": 1898,
      "dou": 1899,
      "ried": 1900,
      "feet": 1901,
      "vor": 1902,
      "requ": 1903,
      "ox": 1904,
      "ane": 1905,
      "ref": 1906,
      "dead": 1907,
      "tu": 1908,
      "hot": 1909,
      "arm": 1910,
      "priv": 1911,
      "normal": 1912,
      "ler": 1913,
      "lay": 1914,
      "mole": 1915,
      "feeling": 1916,
      "attention": 1917,
      "nice": 1918,
      "consci": 1919,
      "produce": 1920,
      "literally": 1921,
      "shi": 1922,
      "cit": 1923,
      "je": 1924,
      "hip": 1925,
      "eye": 1926,
      "likely": 1927,
      "interact": 1928,
      "morning": 1929,
      "cars": 1930,
      "sustain": 1931,
      "invent": 1932,
      "ordinary": 1933,
      "uses": 1934,
      "revolution": 1935,
      "nal": 1936,
      "peri": 1937,
      "izing": 1938,
      "millions": 1939,
      "fire": 1940,
      "aging": 1941,
      "electric": 1942,
      "absolutely": 1943,
      "ny": 1944,
      "ades": 1945,
      "transp": 1946,
      "prin": 1947,
      "bottom": 1948,
      "fortun": 1949,
      "crit": 1950,
      "truth": 1951,
      "anyone": 1952,
      "network": 1953,
      "starting": 1954,
      "realize": 1955,
      "tools": 1956,
      "cially": 1957,
      "north": 1958,
      "challeng": 1959,
      "pal": 1960,
      "vill": 1961,
      "ga": 1962,
      "represent": 1963,
      "seems": 1964,
      "generation": 1965,
      "dim": 1966,
      "touch": 1967,
      "recently": 1968,
      "cing": 1969,
      "sup": 1970,
      "issues": 1971,
      "sli": 1972,
      "polic": 1973,
      "animal": 1974,
      "web": 1975,
      "male": 1976,
      "pan": 1977,
      "favor": 1978,
      "inde": 1979,
      "sever": 1980,
      "spread": 1981,
      "attack": 1982,
      "rul": 1983,
      "west": 1984,
      "miles": 1985,
      "hum": 1986,
      "ators": 1987,
      "ilities": 1988,
      "lled": 1989,
      "patient": 1990,
      "computers": 1991,
      "result": 1992,
      "digital": 1993,
      "fill": 1994,
      "guess": 1995,
      "creating": 1996,
      "discovered": 1997,
      "code": 1998,
      "modern": 1999,
      "da": 2000,
      "carbon": 2001,
      "baby": 2002,
      "bey": 2003,
      "moved": 2004,
      "affect": 2005,
      "capital": 2006,
      "running": 2007,
      "90": 2008,
      "aur": 2009,
      "map": 2010,
      "ped": 2011,
      "among": 2012,
      "print": 2013,
      "boy": 2014,
      "forms": 2015,
      "wood": 2016,
      "current": 2017,
      "benef": 2018,
      "save": 2019,
      "gi": 2020,
      "ials": 2021,
      "vic": 2022,
      "espe": 2023,
      "conf": 2024,
      "compass": 2025,
      "dy": 2026,
      "mars": 2027,
      "ches": 2028,
      "smart": 2029,
      "connected": 2030,
      "innovation": 2031,
      "tele": 2032,
      "secur": 2033,
      "stat": 2034,
      "medical": 2035,
      "wrote": 2036,
      "rid": 2037,
      "asking": 2038,
      "girls": 2039,
      "increas": 2040,
      "star": 2041,
      "loc": 2042,
      "developing": 2043,
      "70": 2044,
      "rece": 2045,
      "secre": 2046,
      "position": 2047,
      "citiz": 2048,
      "report": 2049,
      "cris": 2050,
      "town": 2051,
      "25": 2052,
      "sphere": 2053,
      "industry": 2054,
      "conscious": 2055,
      "band": 2056,
      "push": 2057,
      "choice": 2058,
      "visual": 2059,
      "function": 2060,
      "avail": 2061,
      "skill": 2062,
      "clean": 2063,
      "suggest": 2064,
      "track": 2065,
      "genet": 2066,
      "uced": 2067,
      "gives": 2068,
      "table": 2069,
      "except": 2070,
      "several": 2071,
      "div": 2072,
      "const": 2073,
      "proper": 2074,
      "syn": 2075,
      "designed": 2076,
      "especially": 2077,
      "construct": 2078,
      "lines": 2079,
      "consum": 2080,
      "joy": 2081,
      "strate": 2082,
      "speed": 2083,
      "sounds": 2084,
      "progress": 2085,
      "security": 2086,
      "ony": 2087,
      "kets": 2088,
      "focus": 2089,
      "nobody": 2090,
      "violence": 2091,
      "dest": 2092,
      "uals": 2093,
      "wish": 2094,
      "beyond": 2095,
      "online": 2096,
      "ctors": 2097,
      "nine": 2098,
      "sor": 2099,
      "lived": 2100,
      "subject": 2101,
      "tiny": 2102,
      "period": 2103,
      "rup": 2104,
      "plants": 2105,
      "surpris": 2106,
      "meaning": 2107,
      "liz": 2108,
      "tar": 2109,
      "mathem": 2110,
      "origin": 2111,
      "dam": 2112,
      "lad": 2113,
      "mand": 2114,
      "general": 2115,
      "putting": 2116,
      "groups": 2117,
      "ensive": 2118,
      "source": 2119,
      "resources": 2120,
      "activ": 2121,
      "cause": 2122,
      "ore": 2123,
      "song": 2124,
      "thor": 2125,
      "necess": 2126,
      "talked": 2127,
      "reasons": 2128,
      "university": 2129,
      "ran": 2130,
      "chris": 2131,
      "multi": 2132,
      "icans": 2133,
      "chance": 2134,
      "ption": 2135,
      "shape": 2136,
      "screen": 2137,
      "don": 2138,
      "lts": 2139,
      "goog": 2140,
      "seem": 2141,
      "relationship": 2142,
      "writing": 2143,
      "available": 2144,
      "cli": 2145,
      "theory": 2146,
      "mechan": 2147,
      "rights": 2148,
      "english": 2149,
      "drive": 2150,
      "round": 2151,
      "abo": 2152,
      "bacter": 2153,
      "wide": 2154,
      "onto": 2155,
      "door": 2156,
      "usion": 2157,
      "peace": 2158,
      "concer": 2159,
      "international": 2160,
      "incredibly": 2161,
      "gent": 2162,
      "towards": 2163,
      "lea": 2164,
      "showed": 2165,
      "solar": 2166,
      "aim": 2167,
      "transform": 2168,
      "late": 2169,
      "prov": 2170,
      "mission": 2171,
      "compassion": 2172,
      "becomes": 2173,
      "please": 2174,
      "obviously": 2175,
      "sle": 2176,
      "stri": 2177,
      "rod": 2178,
      "respon": 2179,
      "mountain": 2180,
      "gas": 2181,
      "nuc": 2182,
      "iction": 2183,
      "farm": 2184,
      "danger": 2185,
      "agr": 2186,
      "tion": 2187,
      "bigger": 2188,
      "sco": 2189,
      "playing": 2190,
      "poll": 2191,
      "neighbor": 2192,
      "device": 2193,
      "chr": 2194,
      "google": 2195,
      "ado": 2196,
      "hun": 2197,
      "san": 2198,
      "brid": 2199,
      "ival": 2200,
      "dimens": 2201,
      "sold": 2202,
      "suff": 2203,
      "african": 2204,
      "character": 2205,
      "includ": 2206,
      "rules": 2207,
      "soph": 2208,
      "certainly": 2209,
      "consider": 2210,
      "basic": 2211,
      "sky": 2212,
      "message": 2213,
      "bank": 2214,
      "fold": 2215,
      "involved": 2216,
      "evidence": 2217,
      "anybody": 2218,
      "situation": 2219,
      "movie": 2220,
      "clin": 2221,
      "drugs": 2222,
      "democracy": 2223,
      "fant": 2224,
      "mp": 2225,
      "rial": 2226,
      "abor": 2227,
      "effic": 2228,
      "particularly": 2229,
      "tit": 2230,
      "rop": 2231,
      "mine": 2232,
      "perspect": 2233,
      "scientific": 2234,
      "journey": 2235,
      "vari": 2236,
      "hit": 2237,
      "tot": 2238,
      "role": 2239,
      "mobi": 2240,
      "genes": 2241,
      "pictures": 2242,
      "terror": 2243,
      "istan": 2244,
      "walking": 2245,
      "ba": 2246,
      "showing": 2247,
      "office": 2248,
      "aware": 2249,
      "princi": 2250,
      "ilo": 2251,
      "oid": 2252,
      "potential": 2253,
      "ene": 2254,
      "ift": 2255,
      "azy": 2256,
      "believ": 2257,
      "fix": 2258,
      "narr": 2259,
      "une": 2260,
      "vert": 2261,
      "wash": 2262,
      "knows": 2263,
      "further": 2264,
      "fing": 2265,
      "pping": 2266,
      "threat": 2267,
      "load": 2268,
      "examples": 2269,
      "schools": 2270,
      "fortunately": 2271,
      "cin": 2272,
      "indeed": 2273,
      "confl": 2274,
      "ference": 2275,
      "virt": 2276,
      "hom": 2277,
      "concept": 2278,
      "cape": 2279,
      "joh": 2280,
      "link": 2281,
      "stick": 2282,
      "zero": 2283,
      "bol": 2284,
      "ley": 2285,
      "kept": 2286,
      "park": 2287,
      "hol": 2288,
      "jud": 2289,
      "organization": 2290,
      "eventually": 2291,
      "hospital": 2292,
      "apart": 2293,
      "cold": 2294,
      "skin": 2295,
      "deli": 2296,
      "agree": 2297,
      "creative": 2298,
      "communities": 2299,
      "fuel": 2300,
      "particip": 2301,
      "mail": 2302,
      "higher": 2303,
      "fundamental": 2304,
      "college": 2305,
      "mental": 2306,
      "ships": 2307,
      "eco": 2308,
      "anti": 2309,
      "pover": 2310,
      "anyway": 2311,
      "iss": 2312,
      "ably": 2313,
      "adul": 2314,
      "wants": 2315,
      "trees": 2316,
      "wait": 2317,
      "rap": 2318,
      "sam": 2319,
      "everywhere": 2320,
      "starts": 2321,
      "tribut": 2322,
      "biggest": 2323,
      "smo": 2324,
      "ann": 2325,
      "ify": 2326,
      "largest": 2327,
      "camera": 2328,
      "ake": 2329,
      "ners": 2330,
      "tex": 2331,
      "pair": 2332,
      "bul": 2333,
      "enter": 2334,
      "comfort": 2335,
      "ived": 2336,
      "inese": 2337,
      "infect": 2338,
      "pression": 2339,
      "rais": 2340,
      "continue": 2341,
      "chemical": 2342,
      "tree": 2343,
      "crazy": 2344,
      "grew": 2345,
      "projects": 2346,
      "accept": 2347,
      "loy": 2348,
      "complic": 2349,
      "tural": 2350,
      "families": 2351,
      "lif": 2352,
      "pers": 2353,
      "results": 2354,
      "colleag": 2355,
      "daughter": 2356,
      "gree": 2357,
      "ghan": 2358,
      "deb": 2359,
      "detail": 2360,
      "antly": 2361,
      "discover": 2362,
      "cat": 2363,
      "notice": 2364,
      "exciting": 2365,
      "birth": 2366,
      "cross": 2367,
      "rect": 2368,
      "chinese": 2369,
      "choose": 2370,
      "carry": 2371,
      "bat": 2372,
      "ites": 2373,
      "imm": 2374,
      "jobs": 2375,
      "medicine": 2376,
      "central": 2377,
      "suddenly": 2378,
      "phen": 2379,
      "standing": 2380,
      "individuals": 2381,
      "objects": 2382,
      "collabor": 2383,
      "ese": 2384,
      "john": 2385,
      "poverty": 2386,
      "fit": 2387,
      "buildings": 2388,
      "labor": 2389,
      "freed": 2390,
      "immedi": 2391,
      "cru": 2392,
      "respond": 2393,
      "service": 2394,
      "improve": 2395,
      "village": 2396,
      "itten": 2397,
      "bodies": 2398,
      "prison": 2399,
      "perspective": 2400,
      "mous": 2401,
      "separ": 2402,
      "aught": 2403,
      "favorite": 2404,
      "author": 2405,
      "urban": 2406,
      "introd": 2407,
      "tens": 2408,
      "wild": 2409,
      "standard": 2410,
      "itary": 2411,
      "minute": 2412,
      "financi": 2413,
      "allowed": 2414,
      "sem": 2415,
      "doctor": 2416,
      "dete": 2417,
      "president": 2418,
      "materials": 2419,
      "extraordinary": 2420,
      "conversation": 2421,
      "molecul": 2422,
      "crisis": 2423,
      "response": 2424,
      "sand": 2425,
      "ints": 2426,
      "ingly": 2427,
      "essentially": 2428,
      "deser": 2429,
      "machines": 2430,
      "cases": 2431,
      "east": 2432,
      "mir": 2433,
      "student": 2434,
      "specific": 2435,
      "intelligence": 2436,
      "fle": 2437,
      "insp": 2438,
      "sect": 2439,
      "ultim": 2440,
      "brit": 2441,
      "howe": 2442,
      "occur": 2443,
      "square": 2444,
      "totally": 2445,
      "14": 2446,
      "vil": 2447,
      "usually": 2448,
      "nuclear": 2449,
      "faster": 2450,
      "ires": 2451,
      "perform": 2452,
      "lose": 2453,
      "killed": 2454,
      "however": 2455,
      "ium": 2456,
      "jap": 2457,
      "xic": 2458,
      "pieces": 2459,
      "launch": 2460,
      "decision": 2461,
      "ges": 2462,
      "lam": 2463,
      "wife": 2464,
      "models": 2465,
      "tware": 2466,
      "sus": 2467,
      "ows": 2468,
      "freedom": 2469,
      "japan": 2470,
      "police": 2471,
      "software": 2472,
      "including": 2473,
      "16": 2474,
      "mas": 2475,
      "manage": 2476,
      "architecture": 2477,
      "psycho": 2478,
      "shot": 2479,
      "organiz": 2480,
      "500": 2481,
      "luck": 2482,
      "minis": 2483,
      "successful": 2484,
      "above": 2485,
      "shown": 2486,
      "named": 2487,
      "pack": 2488,
      "wealth": 2489,
      "docu": 2490,
      "brother": 2491,
      "temper": 2492,
      "supposed": 2493,
      "tle": 2494,
      "zz": 2495,
      "waste": 2496,
      "traditional": 2497,
      "weight": 2498,
      "lying": 2499,
      "worse": 2500,
      "governments": 2501,
      "legal": 2502,
      "bom": 2503,
      "sch": 2504,
      "loved": 2505,
      "agno": 2506,
      "mobile": 2507,
      "meant": 2508,
      "blind": 2509,
      "watching": 2510,
      "policy": 2511,
      "mathemat": 2512,
      "bing": 2513,
      "cas": 2514,
      "cise": 2515,
      "ders": 2516,
      "context": 2517,
      "shop": 2518,
      "gene": 2519,
      "finding": 2520,
      "increase": 2521,
      "bacteria": 2522,
      "lower": 2523,
      "wise": 2524,
      "isms": 2525,
      "allows": 2526,
      "passion": 2527,
      "journal": 2528,
      "secret": 2529,
      "ded": 2530,
      "sell": 2531,
      "versity": 2532,
      "larger": 2533,
      "nation": 2534,
      "somewhere": 2535,
      "prote": 2536,
      "brains": 2537,
      "sleep": 2538,
      "complicated": 2539,
      "healthy": 2540,
      "discus": 2541,
      "solutions": 2542,
      "task": 2543,
      "infr": 2544,
      "goal": 2545,
      "antic": 2546,
      "continu": 2547,
      "extremely": 2548,
      "ery": 2549,
      "activity": 2550,
      "respect": 2551,
      "earli": 2552,
      "electricity": 2553,
      "cup": 2554,
      "none": 2555,
      "page": 2556,
      "gold": 2557,
      "ified": 2558,
      "positive": 2559,
      "products": 2560,
      "check": 2561,
      "clearly": 2562,
      "swi": 2563,
      "tun": 2564,
      "taught": 2565,
      "excited": 2566,
      "cure": 2567,
      "older": 2568,
      "treatment": 2569,
      "hop": 2570,
      "rus": 2571,
      "bud": 2572,
      "moral": 2573,
      "atmo": 2574,
      "compet": 2575,
      "biology": 2576,
      "institutions": 2577,
      "arily": 2578,
      "somehow": 2579,
      "afford": 2580,
      "teachers": 2581,
      "glass": 2582,
      "genetic": 2583,
      "13": 2584,
      "bunch": 2585,
      "fas": 2586,
      "nia": 2587,
      "impossible": 2588,
      "mak": 2589,
      "cover": 2590,
      "tells": 2591,
      "written": 2592,
      "financial": 2593,
      "hiv": 2594,
      "tv": 2595,
      "remark": 2596,
      "recognize": 2597,
      "site": 2598,
      "wes": 2599,
      "influ": 2600,
      "achie": 2601,
      "stra": 2602,
      "teacher": 2603,
      "private": 2604,
      "fine": 2605,
      "ray": 2606,
      "rem": 2607,
      "ama": 2608,
      "diagno": 2609,
      "citizens": 2610,
      "lin": 2611,
      "nut": 2612,
      "remind": 2613,
      "offic": 2614,
      "conditions": 2615,
      "americans": 2616,
      "signific": 2617,
      "engineering": 2618,
      "onic": 2619,
      "memory": 2620,
      "appear": 2621,
      "patterns": 2622,
      "achieve": 2623,
      "17": 2624,
      "swe": 2625,
      "reading": 2626,
      "crimin": 2627,
      "base": 2628,
      "muse": 2629,
      "production": 2630,
      "magic": 2631,
      "income": 2632,
      "account": 2633,
      "dog": 2634,
      "points": 2635,
      "lat": 2636,
      "auto": 2637,
      "plac": 2638,
      "atory": 2639,
      "therefore": 2640,
      "integr": 2641,
      "engage": 2642,
      "truly": 2643,
      "stars": 2644,
      "tered": 2645,
      "sorts": 2646,
      "travel": 2647,
      "rand": 2648,
      "liber": 2649,
      "ables": 2650,
      "neuro": 2651,
      "ribut": 2652,
      "upon": 2653,
      "pull": 2654,
      "politics": 2655,
      "games": 2656,
      "icle": 2657,
      "phones": 2658,
      "strug": 2659,
      "virus": 2660,
      "famous": 2661,
      "western": 2662,
      "atom": 2663,
      "habit": 2664,
      "justice": 2665,
      "saving": 2666,
      "mention": 2667,
      "logist": 2668,
      "painting": 2669,
      "neurons": 2670,
      "straight": 2671,
      "hall": 2672,
      "wel": 2673,
      "iced": 2674,
      "bel": 2675,
      "adap": 2676,
      "although": 2677,
      "ered": 2678,
      "hur": 2679,
      "ased": 2680,
      "roy": 2681,
      "demand": 2682,
      "series": 2683,
      "decades": 2684,
      "expensive": 2685,
      "address": 2686,
      "museum": 2687,
      "vels": 2688,
      "meth": 2689,
      "diseas": 2690,
      "plane": 2691,
      "galax": 2692,
      "beat": 2693,
      "perfor": 2694,
      "unique": 2695,
      "trade": 2696,
      "block": 2697,
      "military": 2698,
      "radio": 2699,
      "bits": 2700,
      "onom": 2701,
      "offe": 2702,
      "foc": 2703,
      "brand": 2704,
      "calcul": 2705,
      "civi": 2706,
      "humanity": 2707,
      "floor": 2708,
      "scan": 2709,
      "geo": 2710,
      "199": 2711,
      "challenges": 2712,
      "enor": 2713,
      "becoming": 2714,
      "version": 2715,
      "explore": 2716,
      "alive": 2717,
      "provide": 2718,
      "happiness": 2719,
      "strange": 2720,
      "gotten": 2721,
      "speaking": 2722,
      "preci": 2723,
      "region": 2724,
      "critical": 2725,
      "doctors": 2726,
      "consequ": 2727,
      "services": 2728,
      "performan": 2729,
      "gar": 2730,
      "omen": 2731,
      "actual": 2732,
      "anymore": 2733,
      "throughout": 2734,
      "familiar": 2735,
      "decisions": 2736,
      "diseases": 2737,
      "unfortunately": 2738,
      "thern": 2739,
      "unders": 2740,
      "ham": 2741,
      "hero": 2742,
      "greatest": 2743,
      "smaller": 2744,
      "costs": 2745,
      "dependent": 2746,
      "catch": 2747,
      "dad": 2748,
      "neg": 2749,
      "willing": 2750,
      "curi": 2751,
      "effective": 2752,
      "environmental": 2753,
      "training": 2754,
      "types": 2755,
      "neighborhood": 2756,
      "itation": 2757,
      "cial": 2758,
      "dangerous": 2759,
      "cis": 2760,
      "mist": 2761,
      "init": 2762,
      "roll": 2763,
      "moon": 2764,
      "worry": 2765,
      "proto": 2766,
      "cade": 2767,
      "final": 2768,
      "distribut": 2769,
      "trick": 2770,
      "studies": 2771,
      "jump": 2772,
      "cry": 2773,
      "robots": 2774,
      "phenomen": 2775,
      "enced": 2776,
      "lebr": 2777,
      "river": 2778,
      "celebr": 2779,
      "anywhere": 2780,
      "career": 2781,
      "skills": 2782,
      "hell": 2783,
      "igr": 2784,
      "price": 2785,
      "store": 2786,
      "himself": 2787,
      "massive": 2788,
      "reflect": 2789,
      "conflict": 2790,
      "forget": 2791,
      "quar": 2792,
      "beings": 2793,
      "transport": 2794,
      "bridge": 2795,
      "ric": 2796,
      "range": 2797,
      "math": 2798,
      "seconds": 2799,
      "gradu": 2800,
      "gun": 2801,
      "optim": 2802,
      "teen": 2803,
      "resist": 2804,
      "workers": 2805,
      "shar": 2806,
      "logists": 2807,
      "tum": 2808,
      "ceed": 2809,
      "counter": 2810,
      "uction": 2811,
      "driving": 2812,
      "fascin": 2813,
      "faces": 2814,
      "acity": 2815,
      "ounds": 2816,
      "throw": 2817,
      "content": 2818,
      "earlier": 2819,
      "pes": 2820,
      "lights": 2821,
      "astruct": 2822,
      "colleagues": 2823,
      "nan": 2824,
      "ustr": 2825,
      "values": 2826,
      "waiting": 2827,
      "slight": 2828,
      "trou": 2829,
      "afghan": 2830,
      "beauty": 2831,
      "broad": 2832,
      "performance": 2833,
      "lu": 2834,
      "rise": 2835,
      "associ": 2836,
      "aries": 2837,
      "hair": 2838,
      "manu": 2839,
      "organizations": 2840,
      "infrastruct": 2841,
      "hey": 2842,
      "plastic": 2843,
      "tax": 2844,
      "claim": 2845,
      "interview": 2846,
      "akes": 2847,
      "immediately": 2848,
      "select": 2849,
      "pressure": 2850,
      "laws": 2851,
      "fantastic": 2852,
      "hid": 2853,
      "vacc": 2854,
      "contribut": 2855,
      "active": 2856,
      "cook": 2857,
      "thanks": 2858,
      "courage": 2859,
      "cali": 2860,
      "paign": 2861,
      "industrial": 2862,
      "campaign": 2863,
      "plat": 2864,
      "hous": 2865,
      "lap": 2866,
      "greater": 2867,
      "direction": 2868,
      "walked": 2869,
      "following": 2870,
      "choices": 2871,
      "summer": 2872,
      "sustainable": 2873,
      "tood": 2874,
      "arri": 2875,
      "seas": 2876,
      "surve": 2877,
      "contain": 2878,
      "simul": 2879,
      "expand": 2880,
      "stream": 2881,
      "understood": 2882,
      "instr": 2883,
      "rock": 2884,
      "compe": 2885,
      "chair": 2886,
      "race": 2887,
      "levels": 2888,
      "forth": 2889,
      "ending": 2890,
      "surger": 2891,
      "legs": 2892,
      "relationships": 2893,
      "meter": 2894,
      "quant": 2895,
      "members": 2896,
      "related": 2897,
      "scientist": 2898,
      "spirit": 2899,
      "oxy": 2900,
      "demon": 2901,
      "decade": 2902,
      "iger": 2903,
      "relative": 2904,
      "camp": 2905,
      "swim": 2906,
      "21": 2907,
      "dance": 2908,
      "eties": 2909,
      "sen": 2910,
      "sick": 2911,
      "ories": 2912,
      "party": 2913,
      "cles": 2914,
      "societies": 2915,
      "tro": 2916,
      "nel": 2917,
      "religion": 2918,
      "atmosphere": 2919,
      "cast": 2920,
      "alter": 2921,
      "termin": 2922,
      "hole": 2923,
      "useful": 2924,
      "shared": 2925,
      "helped": 2926,
      "physics": 2927,
      "programs": 2928,
      "random": 2929,
      "ech": 2930,
      "meters": 2931,
      "loss": 2932,
      "prevent": 2933,
      "corpor": 2934,
      "drop": 2935,
      "invented": 2936,
      "email": 2937,
      "mut": 2938,
      "sad": 2939,
      "sess": 2940,
      "enjoy": 2941,
      "veh": 2942,
      "belief": 2943,
      "attle": 2944,
      "honest": 2945,
      "ito": 2946,
      "mary": 2947,
      "drink": 2948,
      "washing": 2949,
      "infrastructure": 2950,
      "gle": 2951,
      "consciousness": 2952,
      "24": 2953,
      "itted": 2954,
      "mostly": 2955,
      "method": 2956,
      "laugh": 2957,
      "sme": 2958,
      "van": 2959,
      "ali": 2960,
      "connection": 2961,
      "physic": 2962,
      "gain": 2963,
      "remain": 2964,
      "arab": 2965,
      "commer": 2966,
      "cultural": 2967,
      "flying": 2968,
      "target": 2969,
      "craf": 2970,
      "explor": 2971,
      "bag": 2972,
      "mam": 2973,
      "female": 2974,
      "traf": 2975,
      "whose": 2976,
      "turning": 2977,
      "ucing": 2978,
      "streets": 2979,
      "listening": 2980,
      "cket": 2981,
      "lond": 2982,
      "iling": 2983,
      "markets": 2984,
      "custom": 2985,
      "enormous": 2986,
      "manufact": 2987,
      "london": 2988,
      "entre": 2989,
      "frame": 2990,
      "ends": 2991,
      "decide": 2992,
      "join": 2993,
      "various": 2994,
      "remarkable": 2995,
      "hack": 2996,
      "artist": 2997,
      "techni": 2998,
      "harv": 2999,
      "directly": 3000,
      "hus": 3001,
      "algor": 3002,
      "els": 3003,
      "stopped": 3004,
      "condition": 3005,
      "instance": 3006,
      "dollar": 3007,
      "rule": 3008,
      "efficient": 3009,
      "entrepre": 3010,
      "algorith": 3011,
      "300": 3012,
      "fat": 3013,
      "pts": 3014,
      "thetic": 3015,
      "era": 3016,
      "weap": 3017,
      "actions": 3018,
      "graphic": 3019,
      "experiments": 3020,
      "obvious": 3021,
      "nearly": 3022,
      "instru": 3023,
      "aper": 3024,
      "ahead": 3025,
      "nur": 3026,
      "worst": 3027,
      "conserv": 3028,
      "suit": 3029,
      "terrible": 3030,
      "agricul": 3031,
      "held": 3032,
      "embr": 3033,
      "match": 3034,
      "raise": 3035,
      "babies": 3036,
      "closer": 3037,
      "minds": 3038,
      "practice": 3039,
      "temperature": 3040,
      "rare": 3041,
      "anda": 3042,
      "heav": 3043,
      "desp": 3044,
      "highly": 3045,
      "teaching": 3046,
      "oting": 3047,
      "ira": 3048,
      "civil": 3049,
      "spo": 3050,
      "braz": 3051,
      "creativity": 3052,
      "popular": 3053,
      "lie": 3054,
      "imate": 3055,
      "paid": 3056,
      "capacity": 3057,
      "sorry": 3058,
      "califor": 3059,
      "mr": 3060,
      "insect": 3061,
      "ale": 3062,
      "webs": 3063,
      "sharing": 3064,
      "prise": 3065,
      "genome": 3066,
      "cked": 3067,
      "techn": 3068,
      "kil": 3069,
      "compl": 3070,
      "causes": 3071,
      "communication": 3072,
      "comfortable": 3073,
      "mes": 3074,
      "wered": 3075,
      "istics": 3076,
      "correct": 3077,
      "meeting": 3078,
      "scar": 3079,
      "total": 3080,
      "forces": 3081,
      "seemed": 3082,
      "communicate": 3083,
      "ancient": 3084,
      "survive": 3085,
      "fab": 3086,
      "ping": 3087,
      "sate": 3088,
      "contr": 3089,
      "core": 3090,
      "surround": 3091,
      "capture": 3092,
      "experiences": 3093,
      "profound": 3094,
      "victim": 3095,
      "dynam": 3096,
      "california": 3097,
      "fed": 3098,
      "lic": 3099,
      "lack": 3100,
      "wis": 3101,
      "noticed": 3102,
      "played": 3103,
      "rooms": 3104,
      "inspired": 3105,
      "civiliz": 3106,
      "satell": 3107,
      "dying": 3108,
      "sn": 3109,
      "ya": 3110,
      "contact": 3111,
      "broken": 3112,
      "responsibility": 3113,
      "original": 3114,
      "document": 3115,
      "surgery": 3116,
      "ai": 3117,
      "gap": 3118,
      "rough": 3119,
      "zo": 3120,
      "anced": 3121,
      "stress": 3122,
      "networks": 3123,
      "afraid": 3124,
      "planets": 3125,
      "osaur": 3126,
      "purpose": 3127,
      "slide": 3128,
      "bone": 3129,
      "island": 3130,
      "lli": 3131,
      "coast": 3132,
      "basis": 3133,
      "cycle": 3134,
      "malar": 3135,
      "effects": 3136,
      "scr": 3137,
      "degre": 3138,
      "analy": 3139,
      "degrees": 3140,
      "master": 3141,
      "below": 3142,
      "rench": 3143,
      "applic": 3144,
      "published": 3145,
      "addition": 3146,
      "finger": 3147,
      "slightly": 3148,
      "despite": 3149,
      "heat": 3150,
      "reduce": 3151,
      "philo": 3152,
      "feels": 3153,
      "native": 3154,
      "trem": 3155,
      "virtual": 3156,
      "frank": 3157,
      "spin": 3158,
      "produced": 3159,
      "hearing": 3160,
      "switch": 3161,
      "thes": 3162,
      "ently": 3163,
      "tery": 3164,
      "opt": 3165,
      "ils": 3166,
      "cooper": 3167,
      "ender": 3168,
      "spot": 3169,
      "vast": 3170,
      "seed": 3171,
      "unk": 3172,
      "histor": 3173,
      "crow": 3174,
      "speech": 3175,
      "dram": 3176,
      "passed": 3177,
      "detect": 3178,
      "ultimately": 3179,
      "afghanistan": 3180,
      "website": 3181,
      "cate": 3182,
      "cred": 3183,
      "mix": 3184,
      "vit": 3185,
      "wire": 3186,
      "shift": 3187,
      "corner": 3188,
      "devices": 3189,
      "traffic": 3190,
      "philosoph": 3191,
      "ii": 3192,
      "itor": 3193,
      "concl": 3194,
      "designers": 3195,
      "facebook": 3196,
      "missing": 3197,
      "biological": 3198,
      "advant": 3199,
      "rout": 3200,
      "org": 3201,
      "lied": 3202,
      "yellow": 3203,
      "differently": 3204,
      "paral": 3205,
      "possibly": 3206,
      "twice": 3207,
      "edge": 3208,
      "mod": 3209,
      "miss": 3210,
      "emotional": 3211,
      "nations": 3212,
      "rot": 3213,
      "fran": 3214,
      "birds": 3215,
      "tough": 3216,
      "foundation": 3217,
      "fro": 3218,
      "fash": 3219,
      "ked": 3220,
      "yle": 3221,
      "conference": 3222,
      "express": 3223,
      "prep": 3224,
      "matters": 3225,
      "avid": 3226,
      "regular": 3227,
      "apply": 3228,
      "copy": 3229,
      "giant": 3230,
      "mou": 3231,
      "ancy": 3232,
      "dered": 3233,
      "exer": 3234,
      "myster": 3235,
      "artists": 3236,
      "formed": 3237,
      "diversity": 3238,
      "corrup": 3239,
      "bringing": 3240,
      "television": 3241,
      "farmers": 3242,
      "rapid": 3243,
      "russ": 3244,
      "significant": 3245,
      "cro": 3246,
      "ior": 3247,
      "percept": 3248,
      "knowing": 3249,
      "regul": 3250,
      "radi": 3251,
      "gentle": 3252,
      "tremend": 3253,
      "rom": 3254,
      "ison": 3255,
      "bear": 3256,
      "hibit": 3257,
      "importantly": 3258,
      "sexual": 3259,
      "mi": 3260,
      "alia": 3261,
      "acce": 3262,
      "doz": 3263,
      "ards": 3264,
      "helping": 3265,
      "brea": 3266,
      "structures": 3267,
      "supply": 3268,
      "motiv": 3269,
      "bound": 3270,
      "cod": 3271,
      "return": 3272,
      "depart": 3273,
      "ada": 3274,
      "background": 3275,
      "answers": 3276,
      "symbol": 3277,
      "necessary": 3278,
      "molecules": 3279,
      "bble": 3280,
      "gard": 3281,
      "hang": 3282,
      "mad": 3283,
      "vul": 3284,
      "indian": 3285,
      "invis": 3286,
      "imagination": 3287,
      "moments": 3288,
      "easily": 3289,
      "dinosaur": 3290,
      "double": 3291,
      "deliver": 3292,
      "kilome": 3293,
      "ram": 3294,
      "tissue": 3295,
      "repe": 3296,
      "abilities": 3297,
      "degree": 3298,
      "letter": 3299,
      "offer": 3300,
      "compon": 3301,
      "organisms": 3302,
      "crime": 3303,
      "magaz": 3304,
      "landscape": 3305,
      "husband": 3306,
      "ding": 3307,
      "eating": 3308,
      "inspir": 3309,
      "chur": 3310,
      "pros": 3311,
      "fuge": 3312,
      "european": 3313,
      "atives": 3314,
      "isra": 3315,
      "differences": 3316,
      "posite": 3317,
      "cheap": 3318,
      "evolved": 3319,
      "fashion": 3320,
      "cum": 3321,
      "itude": 3322,
      "otherwise": 3323,
      "intel": 3324,
      "aids": 3325,
      "entrepreneur": 3326,
      "ather": 3327,
      "reve": 3328,
      "cies": 3329,
      "sport": 3330,
      "spaces": 3331,
      "serve": 3332,
      "avoid": 3333,
      "spending": 3334,
      "majority": 3335,
      "trouble": 3336,
      "mort": 3337,
      "intu": 3338,
      "ishing": 3339,
      "commit": 3340,
      "norm": 3341,
      "easier": 3342,
      "hydro": 3343,
      "window": 3344,
      "bought": 3345,
      "itter": 3346,
      "sets": 3347,
      "accur": 3348,
      "grav": 3349,
      "ets": 3350,
      "bling": 3351,
      "forever": 3352,
      "brings": 3353,
      "investment": 3354,
      "frequ": 3355,
      "placed": 3356,
      "mouth": 3357,
      "aspect": 3358,
      "wear": 3359,
      "boys": 3360,
      "partners": 3361,
      "cloud": 3362,
      "identity": 3363,
      "stone": 3364,
      "austr": 3365,
      "spring": 3366,
      "carto": 3367,
      "creates": 3368,
      "limited": 3369,
      "leading": 3370,
      "arent": 3371,
      "complexity": 3372,
      "walls": 3373,
      "billions": 3374,
      "fol": 3375,
      "snow": 3376,
      "tren": 3377,
      "anth": 3378,
      "iran": 3379,
      "consu": 3380,
      "gry": 3381,
      "shel": 3382,
      "foreign": 3383,
      "studying": 3384,
      "definition": 3385,
      "strategy": 3386,
      "asia": 3387,
      "assum": 3388,
      "ung": 3389,
      "stuck": 3390,
      "funny": 3391,
      "domin": 3392,
      "focused": 3393,
      "smell": 3394,
      "malaria": 3395,
      "dp": 3396,
      "pig": 3397,
      "ened": 3398,
      "pleas": 3399,
      "collective": 3400,
      "describe": 3401,
      "benefits": 3402,
      "ky": 3403,
      "scri": 3404,
      "notion": 3405,
      "noise": 3406,
      "previ": 3407,
      "discovery": 3408,
      "entirely": 3409,
      "pi": 3410,
      "extend": 3411,
      "ysis": 3412,
      "visit": 3413,
      "transl": 3414,
      "circle": 3415,
      "oxygen": 3416,
      "400": 3417,
      "david": 3418,
      "nas": 3419,
      "pil": 3420,
      "tons": 3421,
      "decl": 3422,
      "possibility": 3423,
      "graphy": 3424,
      "institution": 3425,
      "soft": 3426,
      "religious": 3427,
      "iraq": 3428,
      "fis": 3429,
      "gri": 3430,
      "mart": 3431,
      "refuge": 3432,
      "acade": 3433,
      "rob": 3434,
      "bled": 3435,
      "finished": 3436,
      "politic": 3437,
      "chain": 3438,
      "promise": 3439,
      "3d": 3440,
      "bird": 3441,
      "jan": 3442,
      "uary": 3443,
      "iding": 3444,
      "click": 3445,
      "effort": 3446,
      "prior": 3447,
      "engineers": 3448,
      "pic": 3449,
      "sac": 3450,
      "tes": 3451,
      "coal": 3452,
      "crash": 3453,
      "host": 3454,
      "drag": 3455,
      "profit": 3456,
      "metaph": 3457,
      "failure": 3458,
      "tube": 3459,
      "ns": 3460,
      "py": 3461,
      "pto": 3462,
      "stor": 3463,
      "assem": 3464,
      "icles": 3465,
      "resh": 3466,
      "matic": 3467,
      "valu": 3468,
      "tempor": 3469,
      "opportunities": 3470,
      "accident": 3471,
      "conce": 3472,
      "appreci": 3473,
      "calls": 3474,
      "trial": 3475,
      "faith": 3476,
      "198": 3477,
      "mothers": 3478,
      "brilli": 3479,
      "invisible": 3480,
      "dia": 3481,
      "eper": 3482,
      "french": 3483,
      "rely": 3484,
      "dreams": 3485,
      "elements": 3486,
      "responsible": 3487,
      "independent": 3488,
      "bees": 3489,
      "opposite": 3490,
      "note": 3491,
      "balance": 3492,
      "opened": 3493,
      "raised": 3494,
      "adapt": 3495,
      "coffe": 3496,
      "nic": 3497,
      "metal": 3498,
      "grown": 3499,
      "talks": 3500,
      "tempt": 3501,
      "necessarily": 3502,
      "bright": 3503,
      "iers": 3504,
      "wave": 3505,
      "ana": 3506,
      "attract": 3507,
      "arian": 3508,
      "accord": 3509,
      "soil": 3510,
      "chick": 3511,
      "depression": 3512,
      "childhood": 3513,
      "leads": 3514,
      "signal": 3515,
      "apped": 3516,
      "distance": 3517,
      "destroy": 3518,
      "suffering": 3519,
      "egy": 3520,
      "pau": 3521,
      "station": 3522,
      "usual": 3523,
      "therap": 3524,
      "itely": 3525,
      "surprise": 3526,
      "holding": 3527,
      "collap": 3528,
      "leadership": 3529,
      "desert": 3530,
      "lucky": 3531,
      "coffee": 3532,
      "date": 3533,
      "hill": 3534,
      "si": 3535,
      "inct": 3536,
      "stren": 3537,
      "ifically": 3538,
      "ager": 3539,
      "wheel": 3540,
      "etc": 3541,
      "fairly": 3542,
      "brazil": 3543,
      "otic": 3544,
      "apple": 3545,
      "proud": 3546,
      "creation": 3547,
      "trill": 3548,
      "closed": 3549,
      "prize": 3550,
      "emplo": 3551,
      "ino": 3552,
      "chi": 3553,
      "managed": 3554,
      "epide": 3555,
      "colors": 3556,
      "breast": 3557,
      "forests": 3558,
      "xico": 3559,
      "tremendous": 3560,
      "streng": 3561,
      "cand": 3562,
      "due": 3563,
      "eli": 3564,
      "mur": 3565,
      "mouse": 3566,
      "niger": 3567,
      "sector": 3568,
      "libr": 3569,
      "determin": 3570,
      "dry": 3571,
      "fighting": 3572,
      "require": 3573,
      "benefit": 3574,
      "british": 3575,
      "bread": 3576,
      "gg": 3577,
      "scul": 3578,
      "ening": 3579,
      "forced": 3580,
      "maint": 3581,
      "indic": 3582,
      "lesson": 3583,
      "sites": 3584,
      "caught": 3585,
      "flight": 3586,
      "tures": 3587,
      "arts": 3588,
      "artific": 3589,
      "grab": 3590,
      "newsp": 3591,
      "strain": 3592,
      "studied": 3593,
      "pressed": 3594,
      "trained": 3595,
      "believed": 3596,
      "consequences": 3597,
      "commercial": 3598,
      "blog": 3599,
      "fif": 3600,
      "pun": 3601,
      "rum": 3602,
      "tour": 3603,
      "weird": 3604,
      "section": 3605,
      "chimp": 3606,
      "fell": 3607,
      "fellow": 3608,
      "qual": 3609,
      "surge": 3610,
      "compared": 3611,
      "court": 3612,
      "rac": 3613,
      "tent": 3614,
      "moves": 3615,
      "grade": 3616,
      "equal": 3617,
      "succeed": 3618,
      "figured": 3619,
      "remote": 3620,
      "bow": 3621,
      "bly": 3622,
      "lph": 3623,
      "lunch": 3624,
      "mber": 3625,
      "wit": 3626,
      "zed": 3627,
      "foss": 3628,
      "blow": 3629,
      "pregn": 3630,
      "compare": 3631,
      "capable": 3632,
      "leader": 3633,
      "professor": 3634,
      "intellect": 3635,
      "flies": 3636,
      "gust": 3637,
      "sight": 3638,
      "atures": 3639,
      "heads": 3640,
      "emotions": 3641,
      "currently": 3642,
      "multiple": 3643,
      "hidden": 3644,
      "craft": 3645,
      "scare": 3646,
      "anger": 3647,
      "arct": 3648,
      "belong": 3649,
      "qui": 3650,
      "cogn": 3651,
      "helps": 3652,
      "organized": 3653,
      "continent": 3654,
      "scen": 3655,
      "fields": 3656,
      "failed": 3657,
      "relev": 3658,
      "150": 3659,
      "du": 3660,
      "gay": 3661,
      "pac": 3662,
      "mov": 3663,
      "cope": 3664,
      "factory": 3665,
      "twitter": 3666,
      "names": 3667,
      "particles": 3668,
      "phenomenon": 3669,
      "kilometers": 3670,
      "45": 3671,
      "75": 3672,
      "fal": 3673,
      "vac": 3674,
      "events": 3675,
      "boat": 3676,
      "bert": 3677,
      "ibilities": 3678,
      "steps": 3679,
      "deeply": 3680,
      "motion": 3681,
      "filled": 3682,
      "negative": 3683,
      "acceler": 3684,
      "fi": 3685,
      "gender": 3686,
      "islam": 3687,
      "ander": 3688,
      "weak": 3689,
      "everyday": 3690,
      "install": 3691,
      "puzz": 3692,
      "generate": 3693,
      "researchers": 3694,
      "oceans": 3695,
      "adults": 3696,
      "eral": 3697,
      "plus": 3698,
      "ques": 3699,
      "increasingly": 3700,
      "dimensional": 3701,
      "las": 3702,
      "pounds": 3703,
      "rational": 3704,
      "tag": 3705,
      "aste": 3706,
      "whom": 3707,
      "implic": 3708,
      "horri": 3709,
      "argue": 3710,
      "announ": 3711,
      "debate": 3712,
      "washington": 3713,
      "ka": 3714,
      "aling": 3715,
      "extin": 3716,
      "photos": 3717,
      "caused": 3718,
      "leaving": 3719,
      "civilization": 3720,
      "magazine": 3721,
      "fli": 3722,
      "umb": 3723,
      "desire": 3724,
      "trip": 3725,
      "creatures": 3726,
      "engineer": 3727,
      "typical": 3728,
      "sequence": 3729,
      "safety": 3730,
      "constantly": 3731,
      "competition": 3732,
      "tumor": 3733,
      "advantage": 3734,
      "ware": 3735,
      "ths": 3736,
      "replace": 3737,
      "assu": 3738,
      "wearing": 3739,
      "riage": 3740,
      "tric": 3741,
      "driven": 3742,
      "begins": 3743,
      "treated": 3744,
      "followed": 3745,
      "seriously": 3746,
      "damage": 3747,
      "vulner": 3748,
      "normally": 3749,
      "wow": 3750,
      "inner": 3751,
      "prop": 3752,
      "phil": 3753,
      "precise": 3754,
      "married": 3755,
      "invited": 3756,
      "expert": 3757,
      "subst": 3758,
      "hopefully": 3759,
      "convinc": 3760,
      "slowly": 3761,
      "gather": 3762,
      "construction": 3763,
      "ology": 3764,
      "thri": 3765,
      "oted": 3766,
      "los": 3767,
      "erson": 3768,
      "restaur": 3769,
      "planning": 3770,
      "morrow": 3771,
      "keeping": 3772,
      "paint": 3773,
      "investig": 3774,
      "surprising": 3775,
      "mentioned": 3776,
      "platform": 3777,
      "employe": 3778,
      "fresh": 3779,
      "hate": 3780,
      "roof": 3781,
      "ami": 3782,
      "magn": 3783,
      "experts": 3784,
      "circu": 3785,
      "separate": 3786,
      "mathematics": 3787,
      "fascinating": 3788,
      "agriculture": 3789,
      "gment": 3790,
      "nit": 3791,
      "sides": 3792,
      "cycl": 3793,
      "charge": 3794,
      "scene": 3795,
      "leaves": 3796,
      "leng": 3797,
      "tomorrow": 3798,
      "asp": 3799,
      "arms": 3800,
      "mosqu": 3801,
      "unless": 3802,
      "opin": 3803,
      "conside": 3804,
      "izes": 3805,
      "conduct": 3806,
      "transformation": 3807,
      "magnet": 3808,
      "principle": 3809,
      "department": 3810,
      "according": 3811,
      "considered": 3812,
      "motor": 3813,
      "destr": 3814,
      "germany": 3815,
      "hypo": 3816,
      "cutting": 3817,
      "brief": 3818,
      "daily": 3819,
      "influence": 3820,
      "artificial": 3821,
      "witness": 3822,
      "battle": 3823,
      "tori": 3824,
      "lets": 3825,
      "mexico": 3826,
      "congress": 3827,
      "acts": 3828,
      "puts": 3829,
      "impress": 3830,
      "observ": 3831,
      "generations": 3832,
      "harm": 3833,
      "equival": 3834,
      "paying": 3835,
      "promis": 3836,
      "location": 3837,
      "received": 3838,
      "surprised": 3839,
      "bomb": 3840,
      "protein": 3841,
      "gin": 3842,
      "vote": 3843,
      "isol": 3844,
      "army": 3845,
      "ulate": 3846,
      "quote": 3847,
      "crack": 3848,
      "colon": 3849,
      "imagin": 3850,
      "healthcare": 3851,
      "ification": 3852,
      "identify": 3853,
      "productive": 3854,
      "kenya": 3855,
      "universal": 3856,
      "demonstr": 3857,
      "folks": 3858,
      "gall": 3859,
      "gdp": 3860,
      "rural": 3861,
      "istry": 3862,
      "encies": 3863,
      "idents": 3864,
      "frag": 3865,
      "poem": 3866,
      "polar": 3867,
      "warm": 3868,
      "organic": 3869,
      "businesses": 3870,
      "sister": 3871,
      "professional": 3872,
      "clinical": 3873,
      "principles": 3874,
      "homes": 3875,
      "management": 3876,
      "brilliant": 3877,
      "dress": 3878,
      "rit": 3879,
      "udes": 3880,
      "thir": 3881,
      "thesis": 3882,
      "encing": 3883,
      "vere": 3884,
      "irt": 3885,
      "deeper": 3886,
      "exhibit": 3887,
      "novel": 3888,
      "estab": 3889,
      "bles": 3890,
      "fourth": 3891,
      "signals": 3892,
      "harder": 3893,
      "survival": 3894,
      "lady": 3895,
      "corruption": 3896,
      "quiet": 3897,
      "movies": 3898,
      "35": 3899,
      "bic": 3900,
      "xim": 3901,
      "actor": 3902,
      "teles": 3903,
      "essential": 3904,
      "estic": 3905,
      "co2": 3906,
      "achi": 3907,
      "dial": 3908,
      "insight": 3909,
      "angle": 3910,
      "described": 3911,
      "church": 3912,
      "tall": 3913,
      "zone": 3914,
      "reaction": 3915,
      "meat": 3916,
      "grass": 3917,
      "highest": 3918,
      "testing": 3919,
      "dealing": 3920,
      "appeared": 3921,
      "cards": 3922,
      "technical": 3923,
      "nav": 3924,
      "spl": 3925,
      "incent": 3926,
      "theater": 3927,
      "liqu": 3928,
      "frustr": 3929,
      "bran": 3930,
      "calling": 3931,
      "obsess": 3932,
      "solved": 3933,
      "experienced": 3934,
      "picked": 3935,
      "specifically": 3936,
      "honor": 3937,
      "90s": 3938,
      "trillion": 3939,
      "99": 3940,
      "tap": 3941,
      "orbit": 3942,
      "seat": 3943,
      "goals": 3944,
      "advert": 3945,
      "acting": 3946,
      "saved": 3947,
      "interaction": 3948,
      "limit": 3949,
      "voices": 3950,
      "facing": 3951,
      "operating": 3952,
      "concerned": 3953,
      "launched": 3954,
      "spoke": 3955,
      "kick": 3956,
      "pages": 3957,
      "ron": 3958,
      "rates": 3959,
      "stic": 3960,
      "acters": 3961,
      "geor": 3962,
      "unte": 3963,
      "exists": 3964,
      "tian": 3965,
      "covered": 3966,
      "izon": 3967,
      "letters": 3968,
      "stood": 3969,
      "transition": 3970,
      "cule": 3971,
      "osity": 3972,
      "characters": 3973,
      "radical": 3974,
      "drawing": 3975,
      "emotion": 3976,
      "define": 3977,
      "credit": 3978,
      "pill": 3979,
      "wat": 3980,
      "infin": 3981,
      "explan": 3982,
      "iles": 3983,
      "grid": 3984,
      "flat": 3985,
      "processes": 3986,
      "wake": 3987,
      "waves": 3988,
      "argument": 3989,
      "issions": 3990,
      "curious": 3991,
      "wisdom": 3992,
      "israel": 3993,
      "rat": 3994,
      "weather": 3995,
      "preser": 3996,
      "opening": 3997,
      "risks": 3998,
      "microbes": 3999,
      "existence": 4000,
      "convention": 4001,
      "strateg": 4002,
      "houses": 4003,
      "weapons": 4004,
      "insects": 4005,
      "metaphor": 4006,
      "bt": 4007,
      "mile": 4008,
      "atically": 4009,
      "toward": 4010,
      "esome": 4011,
      "bell": 4012,
      "soli": 4013,
      "perce": 4014,
      "producing": 4015,
      "yester": 4016,
      "breath": 4017,
      "watched": 4018,
      "circum": 4019,
      "violent": 4020,
      "property": 4021,
      "struggle": 4022,
      "equivalent": 4023,
      "bare": 4024,
      "reward": 4025,
      "review": 4026,
      "replic": 4027,
      "ston": 4028,
      "worried": 4029,
      "whenever": 4030,
      "empath": 4031,
      "presents": 4032,
      "finish": 4033,
      "volunte": 4034,
      "analysis": 4035,
      "liquid": 4036,
      "keys": 4037,
      "reser": 4038,
      "shif": 4039,
      "brown": 4040,
      "awesome": 4041,
      "feelings": 4042,
      "effectively": 4043,
      "grandmother": 4044,
      "sending": 4045,
      "requires": 4046,
      "francis": 4047,
      "australia": 4048,
      "stim": 4049,
      "users": 4050,
      "igno": 4051,
      "emissions": 4052,
      "designer": 4053,
      "20th": 4054,
      "voc": 4055,
      "southern": 4056,
      "advanced": 4057,
      "sentence": 4058,
      "perfectly": 4059,
      "feedback": 4060,
      "release": 4061,
      "satellite": 4062,
      "jam": 4063,
      "rs": 4064,
      "agers": 4065,
      "ensity": 4066,
      "designing": 4067,
      "valley": 4068,
      "nerv": 4069,
      "dinner": 4070,
      "languages": 4071,
      "resource": 4072,
      "cameras": 4073,
      "conversations": 4074,
      "statistics": 4075,
      "ladies": 4076,
      "21st": 4077,
      "yesterday": 4078,
      "inj": 4079,
      "abstr": 4080,
      "exchange": 4081,
      "firm": 4082,
      "marine": 4083,
      "served": 4084,
      "setting": 4085,
      "occup": 4086,
      "consist": 4087,
      "astronom": 4088,
      "makers": 4089,
      "galaxy": 4090,
      "graduate": 4091,
      "exercise": 4092,
      "george": 4093,
      "pin": 4094,
      "som": 4095,
      "apo": 4096,
      "logic": 4097,
      "aff": 4098,
      "march": 4099,
      "versus": 4100,
      "shapes": 4101,
      "clock": 4102,
      "amazon": 4103,
      "adult": 4104,
      "einste": 4105,
      "ius": 4106,
      "stup": 4107,
      "beach": 4108,
      "user": 4109,
      "thinks": 4110,
      "clu": 4111,
      "prime": 4112,
      "processing": 4113,
      "connections": 4114,
      "electron": 4115,
      "appropri": 4116,
      "democratic": 4117,
      "eleph": 4118,
      "emerging": 4119,
      "manufacturing": 4120,
      "politicians": 4121,
      "relevant": 4122,
      "mosquito": 4123,
      "wing": 4124,
      "icon": 4125,
      "bee": 4126,
      "prove": 4127,
      "exe": 4128,
      "worldwide": 4129,
      "marke": 4130,
      "ballo": 4131,
      "warming": 4132,
      "intelligent": 4133,
      "galaxies": 4134,
      "achiev": 4135,
      "pul": 4136,
      "tch": 4137,
      "vas": 4138,
      "abled": 4139,
      "losing": 4140,
      "ctions": 4141,
      "maps": 4142,
      "pole": 4143,
      "pool": 4144,
      "studi": 4145,
      "marriage": 4146,
      "stock": 4147,
      "portion": 4148,
      "broke": 4149,
      "symme": 4150,
      "layer": 4151,
      "christ": 4152,
      "variety": 4153,
      "flex": 4154,
      "nervous": 4155,
      "cil": 4156,
      "zing": 4157,
      "orders": 4158,
      "secure": 4159,
      "acle": 4160,
      "femin": 4161,
      "canada": 4162,
      "ests": 4163,
      "election": 4164,
      "hyper": 4165,
      "collection": 4166,
      "chemistry": 4167,
      "molecule": 4168,
      "70s": 4169,
      "vehicle": 4170,
      "victims": 4171,
      "maintain": 4172,
      "intellectual": 4173,
      "gate": 4174,
      "shad": 4175,
      "ault": 4176,
      "command": 4177,
      "biom": 4178,
      "importance": 4179,
      "attach": 4180,
      "equip": 4181,
      "protected": 4182,
      "messages": 4183,
      "richard": 4184,
      "medium": 4185,
      "roads": 4186,
      "unex": 4187,
      "transportation": 4188,
      "alternative": 4189,
      "stupid": 4190,
      "2000": 4191,
      "contract": 4192,
      "shut": 4193,
      "lifetime": 4194,
      "crete": 4195,
      "aked": 4196,
      "thoughts": 4197,
      "autism": 4198,
      "protection": 4199,
      "60s": 4200,
      "affected": 4201,
      "mountains": 4202,
      "terrorism": 4203,
      "techniques": 4204,
      "bay": 4205,
      "roots": 4206,
      "aud": 4207,
      "aming": 4208,
      "powered": 4209,
      "illness": 4210,
      "cave": 4211,
      "singing": 4212,
      "gling": 4213,
      "expected": 4214,
      "employ": 4215,
      "citizen": 4216,
      "holes": 4217,
      "details": 4218,
      "einstein": 4219,
      "eld": 4220,
      "lor": 4221,
      "mate": 4222,
      "raw": 4223,
      "del": 4224,
      "display": 4225,
      "gue": 4226,
      "muscle": 4227,
      "privi": 4228,
      "blocks": 4229,
      "occas": 4230,
      "darwin": 4231,
      "shoes": 4232,
      "narrative": 4233,
      "budget": 4234,
      "criminal": 4235,
      "cognitive": 4236,
      "hide": 4237,
      "kore": 4238,
      "pow": 4239,
      "insu": 4240,
      "atl": 4241,
      "acqu": 4242,
      "grain": 4243,
      "whereas": 4244,
      "cortex": 4245,
      "cultures": 4246,
      "possibilities": 4247,
      "economics": 4248,
      "driver": 4249,
      "wondering": 4250,
      "swed": 4251,
      "institute": 4252,
      "definitely": 4253,
      "privacy": 4254,
      "sophistic": 4255,
      "tension": 4256,
      "minister": 4257,
      "quantum": 4258,
      "organs": 4259,
      "garden": 4260,
      "jail": 4261,
      "mac": 4262,
      "pure": 4263,
      "union": 4264,
      "expression": 4265,
      "diet": 4266,
      "minim": 4267,
      "viruses": 4268,
      "parad": 4269,
      "regard": 4270,
      "killing": 4271,
      "element": 4272,
      "evolutionary": 4273,
      "80s": 4274,
      "increasing": 4275,
      "increased": 4276,
      "relatively": 4277,
      "heavy": 4278,
      "rapidly": 4279,
      "previous": 4280,
      "cow": 4281,
      "fied": 4282,
      "mates": 4283,
      "migr": 4284,
      "eness": 4285,
      "selling": 4286,
      "neath": 4287,
      "unit": 4288,
      "proof": 4289,
      "myth": 4290,
      "urally": 4291,
      "centers": 4292,
      "underneath": 4293,
      "monitor": 4294,
      "patent": 4295,
      "carefully": 4296,
      "movements": 4297,
      "videos": 4298,
      "pected": 4299,
      "empty": 4300,
      "required": 4301,
      "perception": 4302,
      "epidemic": 4303,
      "library": 4304,
      "accompl": 4305,
      "plate": 4306,
      "extract": 4307,
      "agre": 4308,
      "airplane": 4309,
      "scope": 4310,
      "dimensions": 4311,
      "arrived": 4312,
      "prepared": 4313,
      "employees": 4314,
      "equipment": 4315,
      "iest": 4316,
      "tane": 4317,
      "wed": 4318,
      "instruct": 4319,
      "itarian": 4320,
      "sees": 4321,
      "inequality": 4322,
      "northern": 4323,
      "angers": 4324,
      "lawy": 4325,
      "horse": 4326,
      "consumption": 4327,
      "hurt": 4328,
      "dynamic": 4329,
      "roughly": 4330,
      "radiation": 4331,
      "gravity": 4332,
      "sculpt": 4333,
      "65": 4334,
      "bath": 4335,
      "dots": 4336,
      "oly": 4337,
      "ume": 4338,
      "vin": 4339,
      "wars": 4340,
      "actors": 4341,
      "empower": 4342,
      "embar": 4343,
      "cents": 4344,
      "assist": 4345,
      "gency": 4346,
      "vibr": 4347,
      "cular": 4348,
      "steel": 4349,
      "grandfather": 4350,
      "sources": 4351,
      "antibi": 4352,
      "maker": 4353,
      "bors": 4354,
      "ki": 4355,
      "ride": 4356,
      "ske": 4357,
      "reci": 4358,
      "unknown": 4359,
      "france": 4360,
      "manip": 4361,
      "pray": 4362,
      "existing": 4363,
      "sympto": 4364,
      "profession": 4365,
      "soldiers": 4366,
      "associated": 4367,
      "exploration": 4368,
      "scared": 4369,
      "diction": 4370,
      "tan": 4371,
      "insur": 4372,
      "anze": 4373,
      "itals": 4374,
      "veget": 4375,
      "usive": 4376,
      "suic": 4377,
      "estim": 4378,
      "span": 4379,
      "partner": 4380,
      "cords": 4381,
      "battery": 4382,
      "britain": 4383,
      "initi": 4384,
      "survey": 4385,
      "nasa": 4386,
      "chimpanze": 4387,
      "fossil": 4388,
      "convinced": 4389,
      "ko": 4390,
      "dolph": 4391,
      "worlds": 4392,
      "awful": 4393,
      "males": 4394,
      "organism": 4395,
      "keeps": 4396,
      "advent": 4397,
      "shoot": 4398,
      "burn": 4399,
      "consumer": 4400,
      "participate": 4401,
      "chemicals": 4402,
      "cartoon": 4403,
      "length": 4404,
      "winter": 4405,
      "rew": 4406,
      "represents": 4407,
      "lywood": 4408,
      "ulation": 4409,
      "writer": 4410,
      "facts": 4411,
      "german": 4412,
      "bang": 4413,
      "2008": 4414,
      "classroom": 4415,
      "typically": 4416,
      "released": 4417,
      "printing": 4418,
      "introduce": 4419,
      "molecular": 4420,
      "japanese": 4421,
      "bage": 4422,
      "dot": 4423,
      "iency": 4424,
      "encourage": 4425,
      "unlike": 4426,
      "fru": 4427,
      "article": 4428,
      "former": 4429,
      "desk": 4430,
      "interface": 4431,
      "viet": 4432,
      "curve": 4433,
      "naturally": 4434,
      "bush": 4435,
      "funding": 4436,
      "practical": 4437,
      "recorded": 4438,
      "attacks": 4439,
      "zoom": 4440,
      "gentlemen": 4441,
      "dinosaurs": 4442,
      "reveal": 4443,
      "temporary": 4444,
      "gift": 4445,
      "hat": 4446,
      "lens": 4447,
      "repair": 4448,
      "ari": 4449,
      "icing": 4450,
      "icts": 4451,
      "mel": 4452,
      "peak": 4453,
      "nets": 4454,
      "grant": 4455,
      "boo": 4456,
      "pointed": 4457,
      "applied": 4458,
      "combination": 4459,
      "entertain": 4460,
      "infected": 4461,
      "mortality": 4462,
      "valuable": 4463,
      "strength": 4464,
      "mc": 4465,
      "rush": 4466,
      "tories": 4467,
      "leap": 4468,
      "negot": 4469,
      "teeth": 4470,
      "odd": 4471,
      "ideal": 4472,
      "goods": 4473,
      "solving": 4474,
      "generated": 4475,
      "electrical": 4476,
      "scot": 4477,
      "silence": 4478,
      "awareness": 4479,
      "distribution": 4480,
      "season": 4481,
      "fisher": 4482,
      "symptoms": 4483,
      "negoti": 4484,
      "loud": 4485,
      "rice": 4486,
      "via": 4487,
      "refer": 4488,
      "encour": 4489,
      "cipl": 4490,
      "bubble": 4491,
      "mune": 4492,
      "berg": 4493,
      "controlled": 4494,
      "volume": 4495,
      "factors": 4496,
      "soul": 4497,
      "parent": 4498,
      "spectrum": 4499,
      "potentially": 4500,
      "reached": 4501,
      "fundamentally": 4502,
      "satis": 4503,
      "constit": 4504,
      "francisco": 4505,
      "studio": 4506,
      "22": 4507,
      "cking": 4508,
      "kne": 4509,
      "mm": 4510,
      "phas": 4511,
      "pak": 4512,
      "toy": 4513,
      "doors": 4514,
      "outcome": 4515,
      "ops": 4516,
      "option": 4517,
      "concentr": 4518,
      "monkey": 4519,
      "engaged": 4520,
      "primary": 4521,
      "environments": 4522,
      "confidence": 4523,
      "nigeria": 4524,
      "circumst": 4525,
      "gut": 4526,
      "reven": 4527,
      "height": 4528,
      "phr": 4529,
      "lessons": 4530,
      "rising": 4531,
      "traveling": 4532,
      "satur": 4533,
      "challenging": 4534,
      "clinic": 4535,
      "carrying": 4536,
      "authority": 4537,
      "resistance": 4538,
      "destruction": 4539,
      "pakistan": 4540,
      "kitch": 4541,
      "rhy": 4542,
      "sla": 4543,
      "anderson": 4544,
      "lock": 4545,
      "iron": 4546,
      "amp": 4547,
      "conver": 4548,
      "quit": 4549,
      "inevit": 4550,
      "colum": 4551,
      "coral": 4552,
      "added": 4553,
      "fishing": 4554,
      "neighbors": 4555,
      "properties": 4556,
      "23": 4557,
      "avi": 4558,
      "jer": 4559,
      "kno": 4560,
      "uces": 4561,
      "uries": 4562,
      "zy": 4563,
      "thus": 4564,
      "ret": 4565,
      "style": 4566,
      "upper": 4567,
      "struck": 4568,
      "ignor": 4569,
      "vessel": 4570,
      "ptions": 4571,
      "invention": 4572,
      "technological": 4573,
      "fewer": 4574,
      "cyber": 4575,
      "joined": 4576,
      "drives": 4577,
      "literature": 4578,
      "behaviors": 4579,
      "defined": 4580,
      "suppose": 4581,
      "sample": 4582,
      "introduced": 4583,
      "mathematical": 4584,
      "pregnant": 4585,
      "etry": 4586,
      "lf": 4587,
      "reti": 4588,
      "attempt": 4589,
      "islands": 4590,
      "sole": 4591,
      "notes": 4592,
      "poetry": 4593,
      "trials": 4594,
      "finance": 4595,
      "transfer": 4596,
      "generally": 4597,
      "breaking": 4598,
      "regions": 4599,
      "holds": 4600,
      "depends": 4601,
      "falling": 4602,
      "sensitive": 4603,
      "explained": 4604,
      "ancestors": 4605,
      "doubt": 4606,
      "constant": 4607,
      "mirror": 4608,
      "quarter": 4609,
      "vulnerable": 4610,
      "gro": 4611,
      "jack": 4612,
      "liked": 4613,
      "immune": 4614,
      "feature": 4615,
      "eval": 4616,
      "discipl": 4617,
      "planes": 4618,
      "muslim": 4619,
      "runs": 4620,
      "factor": 4621,
      "include": 4622,
      "surviv": 4623,
      "clip": 4624,
      "discussion": 4625,
      "harvard": 4626,
      "paul": 4627,
      "sophisticated": 4628,
      "gon": 4629,
      "pas": 4630,
      "tack": 4631,
      "ission": 4632,
      "staff": 4633,
      "imple": 4634,
      "ads": 4635,
      "buying": 4636,
      "desper": 4637,
      "memories": 4638,
      "visible": 4639,
      "economies": 4640,
      "apping": 4641,
      "director": 4642,
      "convince": 4643,
      "ecosystem": 4644,
      "vaccine": 4645,
      "mystery": 4646,
      "components": 4647,
      "sports": 4648,
      "restaurant": 4649,
      "empathy": 4650,
      "bin": 4651,
      "dh": 4652,
      "eg": 4653,
      "rab": 4654,
      "za": 4655,
      "thin": 4656,
      "thom": 4657,
      "youth": 4658,
      "accoun": 4659,
      "hael": 4660,
      "noon": 4661,
      "tape": 4662,
      "reef": 4663,
      "england": 4664,
      "paris": 4665,
      "border": 4666,
      "electro": 4667,
      "allowing": 4668,
      "appears": 4669,
      "horizon": 4670,
      "hospitals": 4671,
      "laboratory": 4672,
      "harvest": 4673,
      "conservation": 4674,
      "crowd": 4675,
      "chicken": 4676,
      "600": 4677,
      "fiction": 4678,
      "gam": 4679,
      "james": 4680,
      "pit": 4681,
      "alex": 4682,
      "arrest": 4683,
      "weigh": 4684,
      "ented": 4685,
      "ids": 4686,
      "absor": 4687,
      "ured": 4688,
      "whel": 4689,
      "shell": 4690,
      "overwhel": 4691,
      "interests": 4692,
      "borders": 4693,
      "milk": 4694,
      "tonight": 4695,
      "situations": 4696,
      "activities": 4697,
      "swimming": 4698,
      "instrument": 4699,
      "fabric": 4700,
      "hydrogen": 4701,
      "opinion": 4702,
      "explanation": 4703,
      "dut": 4704,
      "ffe": 4705,
      "rema": 4706,
      "ato": 4707,
      "enable": 4708,
      "ark": 4709,
      "stan": 4710,
      "stair": 4711,
      "lyn": 4712,
      "perman": 4713,
      "poo": 4714,
      "ums": 4715,
      "memor": 4716,
      "simpl": 4717,
      "apparent": 4718,
      "asteroid": 4719,
      "innovative": 4720,
      "communications": 4721,
      "mechanism": 4722,
      "linked": 4723,
      "collaboration": 4724,
      "discuss": 4725,
      "algorithms": 4726,
      "entrepreneurs": 4727,
      "appreciate": 4728,
      "navig": 4729,
      "mers": 4730,
      "nest": 4731,
      "pian": 4732,
      "inform": 4733,
      "resolution": 4734,
      "lio": 4735,
      "ays": 4736,
      "dogs": 4737,
      "rig": 4738,
      "ams": 4739,
      "concrete": 4740,
      "trau": 4741,
      "bra": 4742,
      "centuries": 4743,
      "interpret": 4744,
      "shaped": 4745,
      "2010": 4746,
      "197": 4747,
      "busy": 4748,
      "autonom": 4749,
      "charles": 4750,
      "status": 4751,
      "score": 4752,
      "occurred": 4753,
      "embrace": 4754,
      "options": 4755,
      "newspaper": 4756,
      "kitchen": 4757,
      "kn": 4758,
      "pace": 4759,
      "asing": 4760,
      "pher": 4761,
      "boom": 4762,
      "assign": 4763,
      "compar": 4764,
      "boring": 4765,
      "glam": 4766,
      "chap": 4767,
      "faced": 4768,
      "barri": 4769,
      "photographs": 4770,
      "meaningful": 4771,
      "hoping": 4772,
      "sweet": 4773,
      "inspiration": 4774,
      "remains": 4775,
      "fying": 4776,
      "lit": 4777,
      "taste": 4778,
      "vention": 4779,
      "infl": 4780,
      "stro": 4781,
      "till": 4782,
      "disrup": 4783,
      "curren": 4784,
      "relate": 4785,
      "expon": 4786,
      "bottle": 4787,
      "arency": 4788,
      "statement": 4789,
      "tests": 4790,
      "operation": 4791,
      "operate": 4792,
      "feeding": 4793,
      "transparency": 4794,
      "mechanical": 4795,
      "judge": 4796,
      "ultimate": 4797,
      "frankly": 4798,
      "accurate": 4799,
      "pleasure": 4800,
      "unexpected": 4801,
      "implement": 4802,
      "pitch": 4803,
      "sar": 4804,
      "records": 4805,
      "ising": 4806,
      "commod": 4807,
      "agency": 4808,
      "prefer": 4809,
      "pulled": 4810,
      "equality": 4811,
      "falls": 4812,
      "critic": 4813,
      "adopt": 4814,
      "dramatic": 4815,
      "angry": 4816,
      "error": 4817,
      "youtube": 4818,
      "chart": 4819,
      "ours": 4820,
      "illustr": 4821,
      "umps": 4822,
      "channel": 4823,
      "disaster": 4824,
      "guide": 4825,
      "internal": 4826,
      "flower": 4827,
      "serving": 4828,
      "computing": 4829,
      "michael": 4830,
      "figures": 4831,
      "treating": 4832,
      "deploy": 4833,
      "films": 4834,
      "dropped": 4835,
      "amounts": 4836,
      "boxes": 4837,
      "sugar": 4838,
      "oxide": 4839,
      "hotel": 4840,
      "russia": 4841,
      "script": 4842,
      "pacific": 4843,
      "false": 4844,
      "puzzle": 4845,
      "rhyth": 4846,
      "bones": 4847,
      "mice": 4848,
      "vation": 4849,
      "remove": 4850,
      "toxic": 4851,
      "illegal": 4852,
      "grap": 4853,
      "phan": 4854,
      "preced": 4855,
      "icted": 4856,
      "globe": 4857,
      "functions": 4858,
      "ternal": 4859,
      "physically": 4860,
      "2009": 4861,
      "largely": 4862,
      "windows": 4863,
      "causing": 4864,
      "deaths": 4865,
      "domestic": 4866,
      "sensors": 4867,
      "architects": 4868,
      "songs": 4869,
      "efficiency": 4870,
      "corporate": 4871,
      "breathe": 4872,
      "agreed": 4873,
      "han": 4874,
      "pm": 4875,
      "thick": 4876,
      "renew": 4877,
      "ingred": 4878,
      "chip": 4879,
      "heim": 4880,
      "dece": 4881,
      "comment": 4882,
      "guard": 4883,
      "evening": 4884,
      "flash": 4885,
      "percentage": 4886,
      "personally": 4887,
      "eastern": 4888,
      "signs": 4889,
      "stretch": 4890,
      "connecting": 4891,
      "electronic": 4892,
      "advice": 4893,
      "policies": 4894,
      "capitalism": 4895,
      "titan": 4896,
      "performing": 4897,
      "proteins": 4898,
      "contrast": 4899,
      "dozen": 4900,
      "olymp": 4901,
      "cute": 4902,
      "fan": 4903,
      "sep": 4904,
      "chose": 4905,
      "liver": 4906,
      "rocket": 4907,
      "constrain": 4908,
      "plom": 4909,
      "coordin": 4910,
      "evil": 4911,
      "clust": 4912,
      "diplom": 4913,
      "shake": 4914,
      "19th": 4915,
      "walks": 4916,
      "ferti": 4917,
      "collected": 4918,
      "portra": 4919,
      "dependence": 4920,
      "immigr": 4921,
      "dedic": 4922,
      "therapy": 4923,
      "bg": 4924,
      "dir": 4925,
      "mitted": 4926,
      "pup": 4927,
      "anx": 4928,
      "excl": 4929,
      "handle": 4930,
      "equally": 4931,
      "closely": 4932,
      "silk": 4933,
      "providing": 4934,
      "curiosity": 4935,
      "scratch": 4936,
      "refugees": 4937,
      "assume": 4938,
      "cot": 4939,
      "fib": 4940,
      "pink": 4941,
      "sir": 4942,
      "ull": 4943,
      "theme": 4944,
      "toler": 4945,
      "asy": 4946,
      "abol": 4947,
      "admit": 4948,
      "nose": 4949,
      "resili": 4950,
      "smile": 4951,
      "clothes": 4952,
      "50s": 4953,
      "evolve": 4954,
      "measured": 4955,
      "sustainability": 4956,
      "brothers": 4957,
      "algorithm": 4958,
      "applications": 4959,
      "intuitive": 4960,
      "implications": 4961,
      "magnetic": 4962,
      "abstract": 4963,
      "marketing": 4964,
      "cart": 4965,
      "ears": 4966,
      "itors": 4967,
      "wid": 4968,
      "anony": 4969,
      "orches": 4970,
      "forts": 4971,
      "locked": 4972,
      "mob": 4973,
      "neither": 4974,
      "ifying": 4975,
      "ambit": 4976,
      "thered": 4977,
      "nowhere": 4978,
      "embed": 4979,
      "parking": 4980,
      "poses": 4981,
      "burning": 4982,
      "recording": 4983,
      "pollution": 4984,
      "latin": 4985,
      "prosper": 4986,
      "telescope": 4987,
      "conventional": 4988,
      "appropriate": 4989,
      "balloon": 4990,
      "paradig": 4991,
      "phase": 4992,
      "septem": 4993,
      "aa": 4994,
      "cend": 4995,
      "gps": 4996,
      "iop": 4997,
      "rass": 4998,
      "sque": 4999,
      "vital": 5000,
      "inject": 5001,
      "modif": 5002,
      "conven": 5003,
      "presence": 5004,
      "afternoon": 5005,
      "airport": 5006,
      "topic": 5007,
      "advance": 5008,
      "teams": 5009,
      "stayed": 5010,
      "stronger": 5011,
      "combine": 5012,
      "functional": 5013,
      "suffer": 5014,
      "ropy": 5015,
      "vehicles": 5016,
      "alien": 5017,
      "circuit": 5018,
      "embarrass": 5019,
      "september": 5020,
      "fusion": 5021,
      "hes": 5022,
      "va": 5023,
      "reject": 5024,
      "recycl": 5025,
      "stable": 5026,
      "utter": 5027,
      "posing": 5028,
      "cock": 5029,
      "imagined": 5030,
      "musical": 5031,
      "surely": 5032,
      "dancing": 5033,
      "recognized": 5034,
      "schol": 5035,
      "atoms": 5036,
      "welcome": 5037,
      "aspects": 5038,
      "dign": 5039,
      "hits": 5040,
      "tical": 5041,
      "twent": 5042,
      "severe": 5043,
      "chica": 5044,
      "abuse": 5045,
      "uncertain": 5046,
      "unusual": 5047,
      "determ": 5048,
      "button": 5049,
      "plent": 5050,
      "player": 5051,
      "wondered": 5052,
      "clever": 5053,
      "productivity": 5054,
      "younger": 5055,
      "tested": 5056,
      "angeles": 5057,
      "combined": 5058,
      "journalist": 5059,
      "heroes": 5060,
      "january": 5061,
      "egypt": 5062,
      "candid": 5063,
      "solid": 5064,
      "chicago": 5065,
      "determine": 5066,
      "bby": 5067,
      "gence": 5068,
      "hen": 5069,
      "pump": 5070,
      "herent": 5071,
      "outcomes": 5072,
      "adminis": 5073,
      "exposed": 5074,
      "tie": 5075,
      "shall": 5076,
      "ief": 5077,
      "overall": 5078,
      "crying": 5079,
      "creature": 5080,
      "196": 5081,
      "transplant": 5082,
      "glac": 5083,
      "greenhouse": 5084,
      "pushing": 5085,
      "flew": 5086,
      "continued": 5087,
      "mistake": 5088,
      "mistakes": 5089,
      "vaccines": 5090,
      "customers": 5091,
      "instruments": 5092,
      "occasion": 5093,
      "suicide": 5094,
      "250": 5095,
      "dense": 5096,
      "gates": 5097,
      "ker": 5098,
      "lon": 5099,
      "ral": 5100,
      "ante": 5101,
      "stal": 5102,
      "plot": 5103,
      "ulous": 5104,
      "odi": 5105,
      "sahar": 5106,
      "poly": 5107,
      "string": 5108,
      "obama": 5109,
      "flag": 5110,
      "shame": 5111,
      "populations": 5112,
      "reaching": 5113,
      "defense": 5114,
      "humor": 5115,
      "consumers": 5116,
      "mathematic": 5117,
      "provided": 5118,
      "offered": 5119,
      "wireless": 5120,
      "bia": 5121,
      "uk": 5122,
      "wine": 5123,
      "yard": 5124,
      "ining": 5125,
      "input": 5126,
      "removed": 5127,
      "ision": 5128,
      "whal": 5129,
      "pled": 5130,
      "anta": 5131,
      "extent": 5132,
      "worker": 5133,
      "owners": 5134,
      "download": 5135,
      "carried": 5136,
      "bias": 5137,
      "mony": 5138,
      "mush": 5139,
      "grows": 5140,
      "breed": 5141,
      "cheaper": 5142,
      "equation": 5143,
      "painful": 5144,
      "papers": 5145,
      "accessible": 5146,
      "reported": 5147,
      "distributed": 5148,
      "celebrate": 5149,
      "laptop": 5150,
      "horrible": 5151,
      "bicy": 5152,
      "insurance": 5153,
      "thomas": 5154,
      "jac": 5155,
      "mim": 5156,
      "rition": 5157,
      "peer": 5158,
      "neut": 5159,
      "fears": 5160,
      "brow": 5161,
      "wherever": 5162,
      "boston": 5163,
      "disgust": 5164,
      "logically": 5165,
      "clar": 5166,
      "efforts": 5167,
      "rail": 5168,
      "farmer": 5169,
      "2007": 5170,
      "chaos": 5171,
      "distinct": 5172,
      "rub": 5173,
      "traveled": 5174,
      "emergency": 5175,
      "passionate": 5176,
      "nutrition": 5177,
      "exploring": 5178,
      "surrounded": 5179,
      "conclusion": 5180,
      "trend": 5181,
      "diabet": 5182,
      "collapse": 5183,
      "circumstances": 5184,
      "ckets": 5185,
      "dust": 5186,
      "nes": 5187,
      "pting": 5188,
      "rome": 5189,
      "cher": 5190,
      "features": 5191,
      "antarct": 5192,
      "shr": 5193,
      "disappear": 5194,
      "matically": 5195,
      "careful": 5196,
      "signed": 5197,
      "educational": 5198,
      "sunlight": 5199,
      "existed": 5200,
      "floating": 5201,
      "axis": 5202,
      "psych": 5203,
      "tracking": 5204,
      "standards": 5205,
      "savings": 5206,
      "technique": 5207,
      "application": 5208,
      "seeds": 5209,
      "paralle": 5210,
      "powers": 5211,
      "cers": 5212,
      "ji": 5213,
      "regre": 5214,
      "ita": 5215,
      "escape": 5216,
      "icient": 5217,
      "otics": 5218,
      "root": 5219,
      "cere": 5220,
      "proced": 5221,
      "seek": 5222,
      "prepar": 5223,
      "engaging": 5224,
      "limits": 5225,
      "queen": 5226,
      "senses": 5227,
      "pengu": 5228,
      "amongst": 5229,
      "receive": 5230,
      "paintings": 5231,
      "categor": 5232,
      "elimin": 5233,
      "surgeon": 5234,
      "whales": 5235,
      "27": 5236,
      "bil": 5237,
      "dict": 5238,
      "rw": 5239,
      "thal": 5240,
      "react": 5241,
      "reform": 5242,
      "stack": 5243,
      "acular": 5244,
      "adam": 5245,
      "plug": 5246,
      "gray": 5247,
      "wanting": 5248,
      "astro": 5249,
      "fake": 5250,
      "earthqu": 5251,
      "microscope": 5252,
      "recognition": 5253,
      "flowers": 5254,
      "fixed": 5255,
      "fingers": 5256,
      "complain": 5257,
      "barely": 5258,
      "eggs": 5259,
      "grapher": 5260,
      "fright": 5261,
      "oth": 5262,
      "edia": 5263,
      "abs": 5264,
      "abund": 5265,
      "wik": 5266,
      "somewhat": 5267,
      "aston": 5268,
      "strangers": 5269,
      "intense": 5270,
      "minor": 5271,
      "datab": 5272,
      "economists": 5273,
      "banks": 5274,
      "presented": 5275,
      "classic": 5276,
      "climb": 5277,
      "collecting": 5278,
      "ethiop": 5279,
      "fuels": 5280,
      "documents": 5281,
      "fascinated": 5282,
      "spiritual": 5283,
      "scary": 5284,
      "dramatically": 5285,
      "destroyed": 5286,
      "sweden": 5287,
      "piano": 5288,
      "iphone": 5289,
      "twe": 5290,
      "zen": 5291,
      "acles": 5292,
      "chief": 5293,
      "decre": 5294,
      "congo": 5295,
      "extr": 5296,
      "spider": 5297,
      "disorder": 5298,
      "overcome": 5299,
      "bike": 5300,
      "joke": 5301,
      "millen": 5302,
      "practices": 5303,
      "represented": 5304,
      "confident": 5305,
      "subjects": 5306,
      "shark": 5307,
      "cooking": 5308,
      "housing": 5309,
      "captured": 5310,
      "federal": 5311,
      "fifth": 5312,
      "obsessed": 5313,
      "taneously": 5314,
      "jim": 5315,
      "rors": 5316,
      "inf": 5317,
      "ises": 5318,
      "steve": 5319,
      "whist": 5320,
      "rif": 5321,
      "authen": 5322,
      "plans": 5323,
      "illusion": 5324,
      "pharm": 5325,
      "genius": 5326,
      "intention": 5327,
      "underwater": 5328,
      "plays": 5329,
      "africans": 5330,
      "searching": 5331,
      "drill": 5332,
      "devast": 5333,
      "shock": 5334,
      "accum": 5335,
      "flood": 5336,
      "silicon": 5337,
      "spreading": 5338,
      "transformed": 5339,
      "selection": 5340,
      "methods": 5341,
      "historical": 5342,
      "decline": 5343,
      "achieved": 5344,
      "reverse": 5345,
      "reference": 5346,
      "item": 5347,
      "lian": 5348,
      "poet": 5349,
      "polio": 5350,
      "syri": 5351,
      "cra": 5352,
      "council": 5353,
      "pressing": 5354,
      "players": 5355,
      "skull": 5356,
      "elections": 5357,
      "passing": 5358,
      "lake": 5359,
      "chrom": 5360,
      "samples": 5361,
      "lux": 5362,
      "precisely": 5363,
      "christmas": 5364,
      "heimer": 5365,
      "paradigm": 5366,
      "bally": 5367,
      "cash": 5368,
      "lung": 5369,
      "recomm": 5370,
      "orient": 5371,
      "sters": 5372,
      "wired": 5373,
      "loop": 5374,
      "tration": 5375,
      "traged": 5376,
      "comed": 5377,
      "agend": 5378,
      "pocket": 5379,
      "kingdom": 5380,
      "bless": 5381,
      "thrown": 5382,
      "committed": 5383,
      "personality": 5384,
      "olds": 5385,
      "missed": 5386,
      "interestingly": 5387,
      "globalization": 5388,
      "fluid": 5389,
      "fortunate": 5390,
      "divide": 5391,
      "title": 5392,
      "apartment": 5393,
      "raising": 5394,
      "debt": 5395,
      "tasks": 5396,
      "anticip": 5397,
      "diagnosed": 5398,
      "integrated": 5399,
      "drinking": 5400,
      "pyram": 5401,
      "infinite": 5402,
      "ape": 5403,
      "ja": 5404,
      "pti": 5405,
      "ouds": 5406,
      "degrad": 5407,
      "frid": 5408,
      "resc": 5409,
      "tight": 5410,
      "illance": 5411,
      "shirt": 5412,
      "owned": 5413,
      "clouds": 5414,
      "commission": 5415,
      "colony": 5416,
      "monkeys": 5417,
      "positions": 5418,
      "organize": 5419,
      "ugly": 5420,
      "pursu": 5421,
      "behavioral": 5422,
      "interactive": 5423,
      "ridicul": 5424,
      "suggests": 5425,
      "enemy": 5426,
      "accepted": 5427,
      "inspire": 5428,
      "official": 5429,
      "concepts": 5430,
      "split": 5431,
      "dies": 5432,
      "ime": 5433,
      "zheimer": 5434,
      "request": 5435,
      "alzheimer": 5436,
      "aband": 5437,
      "uncle": 5438,
      "plain": 5439,
      "umin": 5440,
      "dioxide": 5441,
      "trig": 5442,
      "corn": 5443,
      "virgin": 5444,
      "truck": 5445,
      "increases": 5446,
      "measuring": 5447,
      "robotic": 5448,
      "palest": 5449,
      "hunger": 5450,
      "virtually": 5451,
      "birthday": 5452,
      "golden": 5453,
      "automatically": 5454,
      "surveillance": 5455,
      "execut": 5456,
      "plenty": 5457,
      "ey": 5458,
      "fare": 5459,
      "hut": 5460,
      "honey": 5461,
      "tles": 5462,
      "toi": 5463,
      "sty": 5464,
      "soap": 5465,
      "rocks": 5466,
      "dere": 5467,
      "autom": 5468,
      "implant": 5469,
      "amin": 5470,
      "adic": 5471,
      "proportion": 5472,
      "diverse": 5473,
      "lessly": 5474,
      "shoulder": 5475,
      "identical": 5476,
      "drove": 5477,
      "elev": 5478,
      "neuron": 5479,
      "june": 5480,
      "pollen": 5481,
      "suspect": 5482,
      "cooperation": 5483,
      "exhibition": 5484,
      "electronics": 5485,
      "elephant": 5486,
      "antibiotics": 5487,
      "dignity": 5488,
      "authentic": 5489,
      "mals": 5490,
      "ngo": 5491,
      "pour": 5492,
      "lem": 5493,
      "ida": 5494,
      "mold": 5495,
      "opy": 5496,
      "tea": 5497,
      "prices": 5498,
      "genom": 5499,
      "oldest": 5500,
      "relations": 5501,
      "experiencing": 5502,
      "otech": 5503,
      "labe": 5504,
      "educated": 5505,
      "programming": 5506,
      "spectacular": 5507,
      "drawn": 5508,
      "lifest": 5509,
      "commitment": 5510,
      "fruit": 5511,
      "retire": 5512,
      "poorest": 5513,
      "toilet": 5514,
      "800": 5515,
      "bid": 5516,
      "cd": 5517,
      "cens": 5518,
      "cats": 5519,
      "jes": 5520,
      "lou": 5521,
      "pha": 5522,
      "rating": 5523,
      "anatom": 5524,
      "meg": 5525,
      "uncomfortable": 5526,
      "nobel": 5527,
      "distr": 5528,
      "mayor": 5529,
      "attan": 5530,
      "adding": 5531,
      "legis": 5532,
      "laid": 5533,
      "divided": 5534,
      "affordable": 5535,
      "quarters": 5536,
      "mammals": 5537,
      "framework": 5538,
      "dozens": 5539,
      "component": 5540,
      "frequency": 5541,
      "extinct": 5542,
      "aspir": 5543,
      "establish": 5544,
      "korea": 5545,
      "dirty": 5546,
      "eu": 5547,
      "gig": 5548,
      "hattan": 5549,
      "tat": 5550,
      "oned": 5551,
      "lege": 5552,
      "sey": 5553,
      "manhattan": 5554,
      "estimate": 5555,
      "spok": 5556,
      "elly": 5557,
      "needle": 5558,
      "hook": 5559,
      "asks": 5560,
      "invite": 5561,
      "secondly": 5562,
      "friendly": 5563,
      "volcan": 5564,
      "hearts": 5565,
      "speaker": 5566,
      "predictable": 5567,
      "properly": 5568,
      "hungry": 5569,
      "dimension": 5570,
      "journalists": 5571,
      "nutri": 5572,
      "liberal": 5573,
      "neighborhoods": 5574,
      "weapon": 5575,
      "spinal": 5576,
      "pipe": 5577,
      "permanent": 5578,
      "95": 5579,
      "cab": 5580,
      "reput": 5581,
      "ald": 5582,
      "orange": 5583,
      "aside": 5584,
      "lean": 5585,
      "nels": 5586,
      "units": 5587,
      "delic": 5588,
      "maxim": 5589,
      "iled": 5590,
      "aps": 5591,
      "ague": 5592,
      "cosmo": 5593,
      "spon": 5594,
      "intended": 5595,
      "stands": 5596,
      "produces": 5597,
      "borrow": 5598,
      "graphics": 5599,
      "legacy": 5600,
      "passeng": 5601,
      "champ": 5602,
      "distant": 5603,
      "classes": 5604,
      "recover": 5605,
      "plicity": 5606,
      "involves": 5607,
      "worthy": 5608,
      "interacting": 5609,
      "villages": 5610,
      "hollywood": 5611,
      "latest": 5612,
      "consequence": 5613,
      "prototype": 5614,
      "optimistic": 5615,
      "contribute": 5616,
      "license": 5617,
      "philosophy": 5618,
      "privilege": 5619,
      "atlantic": 5620,
      "32": 5621,
      "aes": 5622,
      "density": 5623,
      "gul": 5624,
      "jef": 5625,
      "pix": 5626,
      "trop": 5627,
      "tho": 5628,
      "isa": 5629,
      "whale": 5630,
      "aret": 5631,
      "dear": 5632,
      "delive": 5633,
      "essence": 5634,
      "ela": 5635,
      "disorders": 5636,
      "ferences": 5637,
      "guar": 5638,
      "intim": 5639,
      "controlling": 5640,
      "elsewhere": 5641,
      "filter": 5642,
      "expectations": 5643,
      "hello": 5644,
      "guns": 5645,
      "mammo": 5646,
      "breathing": 5647,
      "strategies": 5648,
      "ignore": 5649,
      "apparently": 5650,
      "embedded": 5651,
      "delivered": 5652,
      "ias": 5653,
      "kilo": 5654,
      "pion": 5655,
      "vot": 5656,
      "yield": 5657,
      "recru": 5658,
      "enh": 5659,
      "alga": 5660,
      "behave": 5661,
      "excell": 5662,
      "ulated": 5663,
      "odes": 5664,
      "ressing": 5665,
      "tip": 5666,
      "affair": 5667,
      "leton": 5668,
      "herself": 5669,
      "underlying": 5670,
      "chocol": 5671,
      "2011": 5672,
      "globally": 5673,
      "2005": 5674,
      "presentation": 5675,
      "facial": 5676,
      "protest": 5677,
      "operations": 5678,
      "audio": 5679,
      "tower": 5680,
      "football": 5681,
      "directions": 5682,
      "salt": 5683,
      "layers": 5684,
      "interactions": 5685,
      "concern": 5686,
      "colleague": 5687,
      "beliefs": 5688,
      "incentives": 5689,
      "flexible": 5690,
      "granted": 5691,
      "scott": 5692,
      "phrase": 5693,
      "ignorance": 5694,
      "diabetes": 5695,
      "700": 5696,
      "bond": 5697,
      "kar": 5698,
      "mum": 5699,
      "sid": 5700,
      "sket": 5701,
      "ws": 5702,
      "ensure": 5703,
      "entered": 5704,
      "amed": 5705,
      "ateful": 5706,
      "agon": 5707,
      "agger": 5708,
      "tired": 5709,
      "brave": 5710,
      "bug": 5711,
      "parties": 5712,
      "prescri": 5713,
      "aws": 5714,
      "lecture": 5715,
      "instinct": 5716,
      "visited": 5717,
      "exped": 5718,
      "expans": 5719,
      "hardware": 5720,
      "animation": 5721,
      "depending": 5722,
      "silent": 5723,
      "transparent": 5724,
      "constructed": 5725,
      "mechanisms": 5726,
      "agram": 5727,
      "sticks": 5728,
      "psychology": 5729,
      "habitat": 5730,
      "frozen": 5731,
      "club": 5732,
      "shadow": 5733,
      "attached": 5734,
      "entertainment": 5735,
      "cous": 5736,
      "iro": 5737,
      "smar": 5738,
      "beer": 5739,
      "bered": 5740,
      "unclear": 5741,
      "manif": 5742,
      "agencies": 5743,
      "grat": 5744,
      "shri": 5745,
      "fool": 5746,
      "printer": 5747,
      "willi": 5748,
      "disability": 5749,
      "genoc": 5750,
      "obes": 5751,
      "obst": 5752,
      "capita": 5753,
      "lovely": 5754,
      "objective": 5755,
      "universities": 5756,
      "flows": 5757,
      "conflicts": 5758,
      "ghana": 5759,
      "crucial": 5760,
      "bombs": 5761,
      "nurses": 5762,
      "academic": 5763,
      "laser": 5764,
      "thirds": 5765,
      "elder": 5766,
      "evalu": 5767,
      "twenty": 5768,
      "agenda": 5769,
      "smarter": 5770,
      "hig": 5771,
      "ience": 5772,
      "lone": 5773,
      "sink": 5774,
      "iny": 5775,
      "inch": 5776,
      "theless": 5777,
      "eric": 5778,
      "veter": 5779,
      "bears": 5780,
      "chest": 5781,
      "ula": 5782,
      "iving": 5783,
      "bob": 5784,
      "hire": 5785,
      "writ": 5786,
      "imaging": 5787,
      "publish": 5788,
      "governance": 5789,
      "hardly": 5790,
      "shore": 5791,
      "burst": 5792,
      "grandchildren": 5793,
      "mainly": 5794,
      "sisters": 5795,
      "pushed": 5796,
      "variation": 5797,
      "vertical": 5798,
      "infection": 5799,
      "route": 5800,
      "repeat": 5801,
      "pilot": 5802,
      "picking": 5803,
      "announced": 5804,
      "flip": 5805,
      "isolated": 5806,
      "sculpture": 5807,
      "earthquake": 5808,
      "hren": 5809,
      "jen": 5810,
      "lind": 5811,
      "lished": 5812,
      "mall": 5813,
      "pile": 5814,
      "uri": 5815,
      "republic": 5816,
      "alpha": 5817,
      "beet": 5818,
      "hait": 5819,
      "lla": 5820,
      "lims": 5821,
      "neck": 5822,
      "iment": 5823,
      "amy": 5824,
      "adjust": 5825,
      "herit": 5826,
      "underground": 5827,
      "choo": 5828,
      "instant": 5829,
      "muslims": 5830,
      "linear": 5831,
      "continues": 5832,
      "distur": 5833,
      "investing": 5834,
      "responses": 5835,
      "touched": 5836,
      "narrow": 5837,
      "psychological": 5838,
      "glasses": 5839,
      "focusing": 5840,
      "bags": 5841,
      "crops": 5842,
      "chimpanzees": 5843,
      "dedicated": 5844,
      "wikip": 5845,
      "29": 5846,
      "aer": 5847,
      "bust": 5848,
      "gaz": 5849,
      "nick": 5850,
      "naked": 5851,
      "ooh": 5852,
      "inations": 5853,
      "atr": 5854,
      "encounter": 5855,
      "icop": 5856,
      "lift": 5857,
      "heal": 5858,
      "forgotten": 5859,
      "neural": 5860,
      "unbeliev": 5861,
      "trag": 5862,
      "grateful": 5863,
      "tied": 5864,
      "rence": 5865,
      "bub": 5866,
      "ishment": 5867,
      "biodi": 5868,
      "incident": 5869,
      "regis": 5870,
      "2004": 5871,
      "stere": 5872,
      "protecting": 5873,
      "digit": 5874,
      "breakthrough": 5875,
      "purch": 5876,
      "slides": 5877,
      "christian": 5878,
      "reminded": 5879,
      "struggling": 5880,
      "garbage": 5881,
      "resistant": 5882,
      "sharks": 5883,
      "satellites": 5884,
      "paraly": 5885,
      "martin": 5886,
      "philanth": 5887,
      "advertising": 5888,
      "stanford": 5889,
      "ethiopia": 5890,
      "legisl": 5891,
      "obesity": 5892,
      "wikipedia": 5893,
      "26": 5894,
      "fought": 5895,
      "jelly": 5896,
      "punch": 5897,
      "rage": 5898,
      "wol": 5899,
      "returned": 5900,
      "tops": 5901,
      "enabled": 5902,
      "armed": 5903,
      "oty": 5904,
      "external": 5905,
      "resto": 5906,
      "coach": 5907,
      "bold": 5908,
      "boss": 5909,
      "strict": 5910,
      "backwards": 5911,
      "intent": 5912,
      "marily": 5913,
      "flor": 5914,
      "inven": 5915,
      "helicop": 5916,
      "simplicity": 5917,
      "glad": 5918,
      "funded": 5919,
      "meetings": 5920,
      "circles": 5921,
      "breaks": 5922,
      "printed": 5923,
      "telephone": 5924,
      "synthetic": 5925,
      "provides": 5926,
      "narrator": 5927,
      "improvement": 5928,
      "diagnosis": 5929,
      "officer": 5930,
      "arabic": 5931,
      "rarely": 5932,
      "consume": 5933,
      "slavery": 5934,
      "antarctica": 5935,
      "parallel": 5936,
      "guarante": 5937,
      "algae": 5938,
      "higgs": 5939,
      "bind": 5940,
      "sau": 5941,
      "skept": 5942,
      "wet": 5943,
      "haust": 5944,
      "output": 5945,
      "opens": 5946,
      "opposed": 5947,
      "permission": 5948,
      "exhaust": 5949,
      "sheet": 5950,
      "stores": 5951,
      "invas": 5952,
      "designs": 5953,
      "matri": 5954,
      "paras": 5955,
      "capability": 5956,
      "uganda": 5957,
      "subtle": 5958,
      "identified": 5959,
      "legit": 5960,
      "regime": 5961,
      "recovery": 5962,
      "includes": 5963,
      "richer": 5964,
      "photography": 5965,
      "impacts": 5966,
      "sales": 5967,
      "located": 5968,
      "terrorists": 5969,
      "homo": 5970,
      "daughters": 5971,
      "engagement": 5972,
      "hanging": 5973,
      "trends": 5974,
      "observation": 5975,
      "tragedy": 5976,
      "pione": 5977,
      "dump": 5978,
      "fest": 5979,
      "hh": 5980,
      "len": 5981,
      "pse": 5982,
      "pound": 5983,
      "rings": 5984,
      "tics": 5985,
      "voting": 5986,
      "inves": 5987,
      "ache": 5988,
      "likes": 5989,
      "rolling": 5990,
      "peter": 5991,
      "teries": 5992,
      "conve": 5993,
      "confront": 5994,
      "persu": 5995,
      "ultra": 5996,
      "uration": 5997,
      "aggress": 5998,
      "shout": 5999,
      "yours": 6000,
      "bull": 6001,
      "blame": 6002,
      "earn": 6003,
      "founded": 6004,
      "parado": 6005,
      "2012": 6006,
      "greg": 6007,
      "headed": 6008,
      "views": 6009,
      "shooting": 6010,
      "arrange": 6011,
      "bono": 6012,
      "domain": 6013,
      "jewish": 6014,
      "secrets": 6015,
      "exception": 6016,
      "discoveries": 6017,
      "catal": 6018,
      "boundaries": 6019,
      "refugee": 6020,
      "fiber": 6021,
      "knee": 6022,
      "jeff": 6023,
      "paradox": 6024,
      "120": 6025,
      "bure": 6026,
      "mig": 6027,
      "stun": 6028,
      "icel": 6029,
      "robert": 6030,
      "pel": 6031,
      "tray": 6032,
      "poster": 6033,
      "poison": 6034,
      "bron": 6035,
      "thane": 6036,
      "bucks": 6037,
      "disagree": 6038,
      "stranger": 6039,
      "mud": 6040,
      "turing": 6041,
      "awk": 6042,
      "sciences": 6043,
      "afterwards": 6044,
      "viral": 6045,
      "sett": 6046,
      "depth": 6047,
      "burg": 6048,
      "mingly": 6049,
      "innovations": 6050,
      "religions": 6051,
      "affects": 6052,
      "genetically": 6053,
      "surprisingly": 6054,
      "originally": 6055,
      "texas": 6056,
      "criminals": 6057,
      "repeated": 6058,
      "arctic": 6059,
      "briefly": 6060,
      "dictionary": 6061,
      "chapter": 6062,
      "rhythm": 6063,
      "choosing": 6064,
      "bureau": 6065,
      "28": 6066,
      "bum": 6067,
      "wound": 6068,
      "threw": 6069,
      "ende": 6070,
      "stations": 6071,
      "rose": 6072,
      "gods": 6073,
      "contemporary": 6074,
      "tears": 6075,
      "suffe": 6076,
      "sage": 6077,
      "grace": 6078,
      "render": 6079,
      "spots": 6080,
      "phili": 6081,
      "disappeared": 6082,
      "holo": 6083,
      "county": 6084,
      "highway": 6085,
      "avor": 6086,
      "organizing": 6087,
      "begun": 6088,
      "labs": 6089,
      "biologists": 6090,
      "octo": 6091,
      "killer": 6092,
      "microsoft": 6093,
      "speakers": 6094,
      "predicted": 6095,
      "smoke": 6096,
      "susp": 6097,
      "campus": 6098,
      "manufacture": 6099,
      "hackers": 6100,
      "fabulous": 6101,
      "storm": 6102,
      "inevitable": 6103,
      "scholars": 6104,
      "rwanda": 6105,
      "lifestyle": 6106,
      "chocolate": 6107,
      "biodiversity": 6108,
      "bye": 6109,
      "imeter": 6110,
      "rang": 6111,
      "wich": 6112,
      "ario": 6113,
      "whis": 6114,
      "geome": 6115,
      "loan": 6116,
      "prose": 6117,
      "apor": 6118,
      "coin": 6119,
      "disap": 6120,
      "strand": 6121,
      "forming": 6122,
      "195": 6123,
      "metabol": 6124,
      "painted": 6125,
      "engineered": 6126,
      "radically": 6127,
      "microbi": 6128,
      "emphas": 6129,
      "fastest": 6130,
      "cliff": 6131,
      "terrorist": 6132,
      "threats": 6133,
      "links": 6134,
      "bola": 6135,
      "neuroscience": 6136,
      "assumptions": 6137,
      "consistent": 6138,
      "symmetry": 6139,
      "lawyer": 6140,
      "vessels": 6141,
      "tackle": 6142,
      "ingredients": 6143,
      "anonymous": 6144,
      "bicycle": 6145,
      "ridiculous": 6146,
      "gulf": 6147,
      "bars": 6148,
      "cence": 6149,
      "ebola": 6150,
      "ogue": 6151,
      "tank": 6152,
      "inherent": 6153,
      "aris": 6154,
      "stages": 6155,
      "static": 6156,
      "defe": 6157,
      "ceiling": 6158,
      "prince": 6159,
      "owner": 6160,
      "diver": 6161,
      "sons": 6162,
      "archy": 6163,
      "194": 6164,
      "prim": 6165,
      "elected": 6166,
      "figuring": 6167,
      "facility": 6168,
      "treatments": 6169,
      "excite": 6170,
      "winning": 6171,
      "furnit": 6172,
      "psychi": 6173,
      "combat": 6174,
      "confused": 6175,
      "participation": 6176,
      "immediate": 6177,
      "competitive": 6178,
      "geographic": 6179,
      "prepare": 6180,
      "institutional": 6181,
      "robust": 6182,
      "prosperity": 6183,
      "regret": 6184,
      "database": 6185,
      "pyramid": 6186,
      "reputation": 6187,
      "haiti": 6188,
      "suffered": 6189,
      "33": 6190,
      "ological": 6191,
      "attribut": 6192,
      "eradic": 6193,
      "iso": 6194,
      "ingu": 6195,
      "itate": 6196,
      "assets": 6197,
      "lored": 6198,
      "golf": 6199,
      "grave": 6200,
      "chances": 6201,
      "assess": 6202,
      "letting": 6203,
      "fulfill": 6204,
      "marry": 6205,
      "mini": 6206,
      "settle": 6207,
      "italy": 6208,
      "nerve": 6209,
      "trail": 6210,
      "2006": 6211,
      "photographer": 6212,
      "reliable": 6213,
      "silly": 6214,
      "particle": 6215,
      "emerged": 6216,
      "ethnic": 6217,
      "oxford": 6218,
      "reports": 6219,
      "targets": 6220,
      "smoking": 6221,
      "shops": 6222,
      "jumped": 6223,
      "physicist": 6224,
      "agricultural": 6225,
      "additional": 6226,
      "symbols": 6227,
      "extended": 6228,
      "sacred": 6229,
      "sacrif": 6230,
      "assembly": 6231,
      "determined": 6232,
      "qualities": 6233,
      "frustrated": 6234,
      "waters": 6235,
      "dolphins": 6236,
      "uncertainty": 6237,
      "spoken": 6238,
      "shrimp": 6239,
      "genocide": 6240,
      "writers": 6241,
      "october": 6242,
      "furniture": 6243,
      "ek": 6244,
      "file": 6245,
      "jet": 6246,
      "tast": 6247,
      "zes": 6248,
      "inhabit": 6249,
      "refri": 6250,
      "enforce": 6251,
      "enables": 6252,
      "leaf": 6253,
      "stones": 6254,
      "entry": 6255,
      "meal": 6256,
      "utical": 6257,
      "chat": 6258,
      "ota": 6259,
      "iders": 6260,
      "unable": 6261,
      "rivers": 6262,
      "ceo": 6263,
      "aint": 6264,
      "civic": 6265,
      "brut": 6266,
      "brick": 6267,
      "bos": 6268,
      "sheep": 6269,
      "partly": 6270,
      "syl": 6271,
      "diam": 6272,
      "chosen": 6273,
      "carol": 6274,
      "stops": 6275,
      "basket": 6276,
      "handed": 6277,
      "mato": 6278,
      "translate": 6279,
      "farming": 6280,
      "warning": 6281,
      "athlet": 6282,
      "array": 6283,
      "failing": 6284,
      "explosion": 6285,
      "promote": 6286,
      "boards": 6287,
      "darkness": 6288,
      "panic": 6289,
      "characteristics": 6290,
      "smooth": 6291,
      "collaborative": 6292,
      "baseball": 6293,
      "initial": 6294,
      "initially": 6295,
      "romantic": 6296,
      "scenario": 6297,
      "branch": 6298,
      "adventure": 6299,
      "rescue": 6300,
      "nutrients": 6301,
      "refriger": 6302,
      "boun": 6303,
      "iety": 6304,
      "lun": 6305,
      "mri": 6306,
      "sin": 6307,
      "tong": 6308,
      "ua": 6309,
      "thumb": 6310,
      "remem": 6311,
      "edges": 6312,
      "weed": 6313,
      "seats": 6314,
      "acies": 6315,
      "llo": 6316,
      "contrad": 6317,
      "fract": 6318,
      "fraction": 6319,
      "safer": 6320,
      "brush": 6321,
      "observe": 6322,
      "humanitarian": 6323,
      "imagery": 6324,
      "parli": 6325,
      "landed": 6326,
      "posal": 6327,
      "primarily": 6328,
      "limb": 6329,
      "burden": 6330,
      "typing": 6331,
      "photographed": 6332,
      "analog": 6333,
      "scores": 6334,
      "ecosystems": 6335,
      "tuna": 6336,
      "throwing": 6337,
      "physician": 6338,
      "mysterious": 6339,
      "anthro": 6340,
      "promised": 6341,
      "established": 6342,
      "feminist": 6343,
      "instructions": 6344,
      "exponential": 6345,
      "precedented": 6346,
      "85": 6347,
      "gory": 6348,
      "hitting": 6349,
      "pon": 6350,
      "wand": 6351,
      "informed": 6352,
      "theories": 6353,
      "onaut": 6354,
      "alco": 6355,
      "asha": 6356,
      "kel": 6357,
      "mood": 6358,
      "unprecedented": 6359,
      "delight": 6360,
      "expo": 6361,
      "artistic": 6362,
      "odds": 6363,
      "quad": 6364,
      "aceutical": 6365,
      "clay": 6366,
      "differenti": 6367,
      "finds": 6368,
      "smith": 6369,
      "attitude": 6370,
      "mindset": 6371,
      "traje": 6372,
      "aircraft": 6373,
      "drivers": 6374,
      "probability": 6375,
      "passwords": 6376,
      "invested": 6377,
      "mult": 6378,
      "suggesting": 6379,
      "widely": 6380,
      "folding": 6381,
      "deliber": 6382,
      "calculate": 6383,
      "tumors": 6384,
      "expanding": 6385,
      "analyze": 6386,
      "historic": 6387,
      "mixed": 6388,
      "routine": 6389,
      "inspiring": 6390,
      "trigger": 6391,
      "alcohol": 6392,
      "trajec": 6393,
      "bats": 6394,
      "dd": 6395,
      "fires": 6396,
      "gand": 6397,
      "jun": 6398,
      "pand": 6399,
      "sna": 6400,
      "theore": 6401,
      "reck": 6402,
      "orous": 6403,
      "omin": 6404,
      "lium": 6405,
      "neat": 6406,
      "iring": 6407,
      "butter": 6408,
      "reduced": 6409,
      "reduction": 6410,
      "discrimin": 6411,
      "blah": 6412,
      "talent": 6413,
      "holy": 6414,
      "prem": 6415,
      "intervention": 6416,
      "corals": 6417,
      "lighting": 6418,
      "parks": 6419,
      "1990s": 6420,
      "vene": 6421,
      "scales": 6422,
      "magical": 6423,
      "fathers": 6424,
      "measures": 6425,
      "sentences": 6426,
      "footprint": 6427,
      "terrifying": 6428,
      "predictions": 6429,
      "clients": 6430,
      "delivery": 6431,
      "persist": 6432,
      "simulation": 6433,
      "compete": 6434,
      "chairs": 6435,
      "demonstrate": 6436,
      "embrac": 6437,
      "dialogue": 6438,
      "constitution": 6439,
      "resilience": 6440,
      "matrix": 6441,
      "bf": 6442,
      "bam": 6443,
      "glow": 6444,
      "ku": 6445,
      "ply": 6446,
      "rebuild": 6447,
      "enthus": 6448,
      "archa": 6449,
      "acid": 6450,
      "methane": 6451,
      "lihood": 6452,
      "unlikely": 6453,
      "opard": 6454,
      "ador": 6455,
      "advis": 6456,
      "ulating": 6457,
      "sail": 6458,
      "diagram": 6459,
      "obli": 6460,
      "hier": 6461,
      "marks": 6462,
      "bible": 6463,
      "muscles": 6464,
      "tooth": 6465,
      "capes": 6466,
      "2001": 6467,
      "successfully": 6468,
      "listened": 6469,
      "accidents": 6470,
      "sensory": 6471,
      "gradually": 6472,
      "ethical": 6473,
      "arguments": 6474,
      "panel": 6475,
      "index": 6476,
      "participants": 6477,
      "separated": 6478,
      "sleeping": 6479,
      "placing": 6480,
      "teenagers": 6481,
      "session": 6482,
      "conservative": 6483,
      "chips": 6484,
      "professionals": 6485,
      "spanish": 6486,
      "arrested": 6487,
      "stairs": 6488,
      "autonomous": 6489,
      "categories": 6490,
      "recommend": 6491,
      "expansion": 6492,
      "investors": 6493,
      "anthropo": 6494,
      "aqu": 6495,
      "lg": 6496,
      "mt": 6497,
      "mone": 6498,
      "nu": 6499,
      "sest": 6500,
      "sca": 6501,
      "uity": 6502,
      "inson": 6503,
      "recon": 6504,
      "august": 6505,
      "ife": 6506,
      "gras": 6507,
      "umes": 6508,
      "realistic": 6509,
      "fles": 6510,
      "capabilities": 6511,
      "economist": 6512,
      "phosp": 6513,
      "connectivity": 6514,
      "factories": 6515,
      "scop": 6516,
      "industries": 6517,
      "supported": 6518,
      "involve": 6519,
      "prediction": 6520,
      "activists": 6521,
      "strike": 6522,
      "texts": 6523,
      "lifes": 6524,
      "greek": 6525,
      "deserve": 6526,
      "dynamics": 6527,
      "shelter": 6528,
      "pige": 6529,
      "gathering": 6530,
      "hypothesis": 6531,
      "injury": 6532,
      "regardless": 6533,
      "revenue": 6534,
      "mobility": 6535,
      "district": 6536,
      "parliament": 6537,
      "biz": 6538,
      "cable": 6539,
      "dor": 6540,
      "jon": 6541,
      "jar": 6542,
      "lau": 6543,
      "ogy": 6544,
      "enna": 6545,
      "leon": 6546,
      "leverage": 6547,
      "bei": 6548,
      "deaf": 6549,
      "rio": 6550,
      "usions": 6551,
      "spill": 6552,
      "shots": 6553,
      "answered": 6554,
      "buried": 6555,
      "seless": 6556,
      "tribes": 6557,
      "transmission": 6558,
      "closing": 6559,
      "controls": 6560,
      "physio": 6561,
      "badly": 6562,
      "innocent": 6563,
      "excuse": 6564,
      "circul": 6565,
      "traditions": 6566,
      "architectural": 6567,
      "experimental": 6568,
      "representation": 6569,
      "suggested": 6570,
      "damn": 6571,
      "strip": 6572,
      "sandwich": 6573,
      "miracle": 6574,
      "shopping": 6575,
      "rays": 6576,
      "tricks": 6577,
      "contains": 6578,
      "corporations": 6579,
      "laughing": 6580,
      "heaven": 6581,
      "category": 6582,
      "intuition": 6583,
      "shelf": 6584,
      "pigs": 6585,
      "extinction": 6586,
      "lord": 6587,
      "accounts": 6588,
      "currency": 6589,
      "anxiety": 6590,
      "orchestra": 6591,
      "shrink": 6592,
      "pharmaceutical": 6593,
      "friday": 6594,
      "manifest": 6595,
      "cig": 6596,
      "dent": 6597,
      "eleg": 6598,
      "fits": 6599,
      "sne": 6600,
      "vity": 6601,
      "zan": 6602,
      "independence": 6603,
      "rey": 6604,
      "ert": 6605,
      "seal": 6606,
      "beating": 6607,
      "metr": 6608,
      "liar": 6609,
      "aby": 6610,
      "adm": 6611,
      "export": 6612,
      "articles": 6613,
      "reson": 6614,
      "ups": 6615,
      "upset": 6616,
      "spi": 6617,
      "shit": 6618,
      "elite": 6619,
      "blank": 6620,
      "crush": 6621,
      "preh": 6622,
      "intri": 6623,
      "server": 6624,
      "mining": 6625,
      "correspond": 6626,
      "cert": 6627,
      "condom": 6628,
      "versions": 6629,
      "storytelling": 6630,
      "transmit": 6631,
      "ception": 6632,
      "pretend": 6633,
      "reasonable": 6634,
      "2003": 6635,
      "trucks": 6636,
      "30s": 6637,
      "barrel": 6638,
      "steal": 6639,
      "cambridge": 6640,
      "forestation": 6641,
      "balls": 6642,
      "besides": 6643,
      "emerge": 6644,
      "loaded": 6645,
      "immense": 6646,
      "wildlife": 6647,
      "schiz": 6648,
      "covering": 6649,
      "optimism": 6650,
      "blowing": 6651,
      "propag": 6652,
      "expertise": 6653,
      "magnitude": 6654,
      "disrupt": 6655,
      "december": 6656,
      "portrait": 6657,
      "occasionally": 6658,
      "mimic": 6659,
      "jihad": 6660,
      "primitive": 6661,
      "jok": 6662,
      "kin": 6663,
      "wan": 6664,
      "wider": 6665,
      "yo": 6666,
      "atar": 6667,
      "atric": 6668,
      "altru": 6669,
      "soviet": 6670,
      "tras": 6671,
      "trace": 6672,
      "perm": 6673,
      "igen": 6674,
      "shine": 6675,
      "dish": 6676,
      "realm": 6677,
      "flour": 6678,
      "fined": 6679,
      "cycles": 6680,
      "computation": 6681,
      "openness": 6682,
      "insist": 6683,
      "bangl": 6684,
      "musicians": 6685,
      "brook": 6686,
      "nights": 6687,
      "opera": 6688,
      "distingu": 6689,
      "collectively": 6690,
      "strongly": 6691,
      "approaches": 6692,
      "statist": 6693,
      "recep": 6694,
      "soldier": 6695,
      "threatened": 6696,
      "acceptable": 6697,
      "authorities": 6698,
      "nano": 6699,
      "academy": 6700,
      "fragile": 6701,
      "somed": 6702,
      "skeleton": 6703,
      "initiative": 6704,
      "vietnam": 6705,
      "palestin": 6706,
      "unbelievable": 6707,
      "microbial": 6708,
      "banglades": 6709,
      "crop": 6710,
      "gases": 6711,
      "jug": 6712,
      "nsa": 6713,
      "encoun": 6714,
      "align": 6715,
      "ardo": 6716,
      "icting": 6717,
      "soever": 6718,
      "lia": 6719,
      "loans": 6720,
      "ril": 6721,
      "whatsoever": 6722,
      "canopy": 6723,
      "cosm": 6724,
      "drum": 6725,
      "aks": 6726,
      "pulling": 6727,
      "visions": 6728,
      "attend": 6729,
      "leged": 6730,
      "grams": 6731,
      "fortune": 6732,
      "climbing": 6733,
      "trains": 6734,
      "drew": 6735,
      "supporting": 6736,
      "drawings": 6737,
      "survived": 6738,
      "similarly": 6739,
      "pale": 6740,
      "palm": 6741,
      "destro": 6742,
      "mechanics": 6743,
      "nucle": 6744,
      "adoles": 6745,
      "sufficient": 6746,
      "included": 6747,
      "strugg": 6748,
      "sharp": 6749,
      "arrive": 6750,
      "conclude": 6751,
      "russian": 6752,
      "dragon": 6753,
      "islamic": 6754,
      "hypothe": 6755,
      "perceive": 6756,
      "replicate": 6757,
      "renewable": 6758,
      "neutral": 6759,
      "penguins": 6760,
      "elderly": 6761,
      "bubbles": 6762,
      "iceland": 6763,
      "awkward": 6764,
      "excitement": 6765,
      "remembered": 6766,
      "bizar": 6767,
      "schizop": 6768,
      "someday": 6769,
      "bump": 6770,
      "dal": 6771,
      "daw": 6772,
      "gers": 6773,
      "jaz": 6774,
      "mun": 6775,
      "pam": 6776,
      "tone": 6777,
      "tam": 6778,
      "wings": 6779,
      "toys": 6780,
      "oma": 6781,
      "entering": 6782,
      "heres": 6783,
      "rover": 6784,
      "augment": 6785,
      "convert": 6786,
      "iveness": 6787,
      "bored": 6788,
      "sheets": 6789,
      "guil": 6790,
      "realizing": 6791,
      "selfish": 6792,
      "caring": 6793,
      "mono": 6794,
      "uctor": 6795,
      "agos": 6796,
      "pointing": 6797,
      "closest": 6798,
      "generous": 6799,
      "mentor": 6800,
      "cheese": 6801,
      "charged": 6802,
      "educate": 6803,
      "angles": 6804,
      "twist": 6805,
      "zeal": 6806,
      "explaining": 6807,
      "improving": 6808,
      "posted": 6809,
      "diving": 6810,
      "garage": 6811,
      "broadcast": 6812,
      "simultaneously": 6813,
      "nurse": 6814,
      "motivated": 6815,
      "assumption": 6816,
      "translated": 6817,
      "preserve": 6818,
      "perceived": 6819,
      "volunteers": 6820,
      "shifting": 6821,
      "knife": 6822,
      "barrier": 6823,
      "tragic": 6824,
      "convey": 6825,
      "fancy": 6826,
      "gab": 6827,
      "oven": 6828,
      "sits": 6829,
      "tick": 6830,
      "uous": 6831,
      "ubi": 6832,
      "zones": 6833,
      "replaced": 6834,
      "ata": 6835,
      "eda": 6836,
      "depressed": 6837,
      "extension": 6838,
      "tier": 6839,
      "dilem": 6840,
      "mature": 6841,
      "numer": 6842,
      "captain": 6843,
      "planetary": 6844,
      "metro": 6845,
      "soup": 6846,
      "yorker": 6847,
      "tends": 6848,
      "purposes": 6849,
      "silver": 6850,
      "footage": 6851,
      "responds": 6852,
      "detailed": 6853,
      "crossing": 6854,
      "achievement": 6855,
      "precious": 6856,
      "customer": 6857,
      "colonies": 6858,
      "estimates": 6859,
      "column": 6860,
      "stroke": 6861,
      "otechno": 6862,
      "guilty": 6863,
      "apers": 6864,
      "bass": 6865,
      "ores": 6866,
      "sized": 6867,
      "wage": 6868,
      "yan": 6869,
      "thur": 6870,
      "asian": 6871,
      "icit": 6872,
      "belt": 6873,
      "ller": 6874,
      "ares": 6875,
      "kevin": 6876,
      "loving": 6877,
      "febr": 6878,
      "worms": 6879,
      "mapping": 6880,
      "proposed": 6881,
      "indones": 6882,
      "seeking": 6883,
      "wheat": 6884,
      "reducing": 6885,
      "bris": 6886,
      "empowered": 6887,
      "caves": 6888,
      "tsun": 6889,
      "hips": 6890,
      "tribe": 6891,
      "offers": 6892,
      "surfaces": 6893,
      "helpful": 6894,
      "norway": 6895,
      "homeless": 6896,
      "airplanes": 6897,
      "profits": 6898,
      "cuts": 6899,
      "improved": 6900,
      "brian": 6901,
      "nearby": 6902,
      "origami": 6903,
      "astronaut": 6904,
      "ticket": 6905,
      "woods": 6906,
      "ville": 6907,
      "cision": 6908,
      "senior": 6909,
      "copyright": 6910,
      "cartoons": 6911,
      "conducted": 6912,
      "demonstration": 6913,
      "adopted": 6914,
      "administration": 6915,
      "derek": 6916,
      "excellent": 6917,
      "florida": 6918,
      "schizophren": 6919,
      "february": 6920,
      "42": 6921,
      "bc": 6922,
      "bac": 6923,
      "bie": 6924,
      "ec": 6925,
      "oo": 6926,
      "rb": 6927,
      "ricul": 6928,
      "tissues": 6929,
      "rein": 6930,
      "reactions": 6931,
      "encry": 6932,
      "itudes": 6933,
      "stability": 6934,
      "stake": 6935,
      "hawa": 6936,
      "defic": 6937,
      "trash": 6938,
      "spat": 6939,
      "woke": 6940,
      "channels": 6941,
      "disabled": 6942,
      "backs": 6943,
      "downtown": 6944,
      "offices": 6945,
      "drought": 6946,
      "award": 6947,
      "instantly": 6948,
      "plank": 6949,
      "2050": 6950,
      "relax": 6951,
      "generating": 6952,
      "charity": 6953,
      "harness": 6954,
      "demographic": 6955,
      "winds": 6956,
      "description": 6957,
      "challenged": 6958,
      "gathered": 6959,
      "panels": 6960,
      "peaceful": 6961,
      "hunting": 6962,
      "sanitation": 6963,
      "mploy": 6964,
      "titude": 6965,
      "cruel": 6966,
      "luckily": 6967,
      "continuous": 6968,
      "association": 6969,
      "claims": 6970,
      "compelling": 6971,
      "honestly": 6972,
      "physicists": 6973,
      "dominant": 6974,
      "previously": 6975,
      "surgeons": 6976,
      "vacu": 6977,
      "mosquitos": 6978,
      "lawyers": 6979,
      "recipe": 6980,
      "navigate": 6981,
      "astonishing": 6982,
      "paralyzed": 6983,
      "sacrifice": 6984,
      "intrigu": 6985,
      "bizarre": 6986,
      "egg": 6987,
      "jing": 6988,
      "oning": 6989,
      "bean": 6990,
      "haw": 6991,
      "chol": 6992,
      "outs": 6993,
      "uno": 6994,
      "dem": 6995,
      "suck": 6996,
      "suits": 6997,
      "estate": 6998,
      "agent": 6999,
      "agents": 7000,
      "torture": 7001,
      "pride": 7002,
      "phony": 7003,
      "crew": 7004,
      "observed": 7005,
      "hired": 7006,
      "mont": 7007,
      "cellular": 7008,
      "1970s": 7009,
      "clothing": 7010,
      "bottles": 7011,
      "lowest": 7012,
      "traits": 7013,
      "subsid": 7014,
      "foods": 7015,
      "controvers": 7016,
      "chains": 7017,
      "continents": 7018,
      "prisons": 7019,
      "camps": 7020,
      "appeal": 7021,
      "empire": 7022,
      "sensor": 7023,
      "defend": 7024,
      "penn": 7025,
      "damaged": 7026,
      "activist": 7027,
      "concert": 7028,
      "chron": 7029,
      "believes": 7030,
      "agreement": 7031,
      "influenced": 7032,
      "reminds": 7033,
      "adapted": 7034,
      "hacking": 7035,
      "correctly": 7036,
      "surrounding": 7037,
      "mike": 7038,
      "newspapers": 7039,
      "circuits": 7040,
      "dressed": 7041,
      "saturn": 7042,
      "cotton": 7043,
      "convenient": 7044,
      "procedure": 7045,
      "preparing": 7046,
      "tattoo": 7047,
      "restore": 7048,
      "bureaucr": 7049,
      "enforcement": 7050,
      "cree": 7051,
      "dive": 7052,
      "glim": 7053,
      "slo": 7054,
      "incar": 7055,
      "injustice": 7056,
      "reinvent": 7057,
      "attem": 7058,
      "itzer": 7059,
      "staring": 7060,
      "hai": 7061,
      "merely": 7062,
      "chor": 7063,
      "chile": 7064,
      "hemis": 7065,
      "neys": 7066,
      "deforestation": 7067,
      "mainst": 7068,
      "fox": 7069,
      "cake": 7070,
      "interior": 7071,
      "vial": 7072,
      "gang": 7073,
      "subway": 7074,
      "label": 7075,
      "angible": 7076,
      "household": 7077,
      "approxim": 7078,
      "burned": 7079,
      "grandparents": 7080,
      "ordinarily": 7081,
      "extrem": 7082,
      "grades": 7083,
      "rainforest": 7084,
      "eaten": 7085,
      "pene": 7086,
      "flowing": 7087,
      "striking": 7088,
      "chronic": 7089,
      "judgment": 7090,
      "ecological": 7091,
      "officials": 7092,
      "demands": 7093,
      "reflection": 7094,
      "selected": 7095,
      "profoundly": 7096,
      "motivation": 7097,
      "murder": 7098,
      "vacation": 7099,
      "magnific": 7100,
      "monitoring": 7101,
      "accomplish": 7102,
      "dolphin": 7103,
      "encouraged": 7104,
      "asteroids": 7105,
      "comparison": 7106,
      "saharan": 7107,
      "jesus": 7108,
      "expedition": 7109,
      "jellyfish": 7110,
      "trajectory": 7111,
      "otechnology": 7112,
      "vacuum": 7113,
      "47": 7114,
      "bend": 7115,
      "dum": 7116,
      "duck": 7117,
      "jane": 7118,
      "lum": 7119,
      "sche": 7120,
      "uine": 7121,
      "vary": 7122,
      "zi": 7123,
      "zip": 7124,
      "thread": 7125,
      "intr": 7126,
      "theast": 7127,
      "semin": 7128,
      "stad": 7129,
      "melt": 7130,
      "otion": 7131,
      "hea": 7132,
      "healing": 7133,
      "rogen": 7134,
      "wires": 7135,
      "neo": 7136,
      "deter": 7137,
      "females": 7138,
      "ambig": 7139,
      "aded": 7140,
      "fraud": 7141,
      "comments": 7142,
      "prostate": 7143,
      "propose": 7144,
      "indigen": 7145,
      "nove": 7146,
      "manner": 7147,
      "spain": 7148,
      "cath": 7149,
      "precision": 7150,
      "uctive": 7151,
      "stored": 7152,
      "curricul": 7153,
      "natives": 7154,
      "completed": 7155,
      "transcend": 7156,
      "healthier": 7157,
      "homework": 7158,
      "ski": 7159,
      "banking": 7160,
      "structural": 7161,
      "facilities": 7162,
      "applying": 7163,
      "hydr": 7164,
      "funds": 7165,
      "bedroom": 7166,
      "sunday": 7167,
      "bene": 7168,
      "breakfast": 7169,
      "analogy": 7170,
      "terribly": 7171,
      "july": 7172,
      "tracks": 7173,
      "client": 7174,
      "concerns": 7175,
      "leather": 7176,
      "compassionate": 7177,
      "bai": 7178,
      "unemploy": 7179,
      "pairs": 7180,
      "performed": 7181,
      "teenage": 7182,
      "nelson": 7183,
      "gaps": 7184,
      "cooperate": 7185,
      "missions": 7186,
      "scenes": 7187,
      "bathroom": 7188,
      "estimated": 7189,
      "interpretation": 7190,
      "olympics": 7191,
      "glacier": 7192,
      "mushroom": 7193,
      "retirement": 7194,
      "anatomy": 7195,
      "helicopter": 7196,
      "36": 7197,
      "ais": 7198,
      "hors": 7199,
      "mics": 7200,
      "osome": 7201,
      "pants": 7202,
      "rick": 7203,
      "uel": 7204,
      "inches": 7205,
      "infant": 7206,
      "repor": 7207,
      "reactor": 7208,
      "tox": 7209,
      "tocin": 7210,
      "stig": 7211,
      "entropy": 7212,
      "outer": 7213,
      "loves": 7214,
      "neu": 7215,
      "gore": 7216,
      "iff": 7217,
      "urge": 7218,
      "rescu": 7219,
      "upside": 7220,
      "tips": 7221,
      "seemingly": 7222,
      "spher": 7223,
      "cafe": 7224,
      "happier": 7225,
      "blown": 7226,
      "huh": 7227,
      "craw": 7228,
      "margin": 7229,
      "stomach": 7230,
      "2015": 7231,
      "possess": 7232,
      "headlines": 7233,
      "italian": 7234,
      "spacecraft": 7235,
      "hardest": 7236,
      "cub": 7237,
      "beautifully": 7238,
      "burgh": 7239,
      "potato": 7240,
      "sexy": 7241,
      "failures": 7242,
      "explains": 7243,
      "staying": 7244,
      "terrified": 7245,
      "medication": 7246,
      "shipping": 7247,
      "division": 7248,
      "syndr": 7249,
      "bulb": 7250,
      "bullet": 7251,
      "infections": 7252,
      "immers": 7253,
      "temperatures": 7254,
      "integration": 7255,
      "royal": 7256,
      "interviewed": 7257,
      "oxytocin": 7258,
      "remaining": 7259,
      "mammal": 7260,
      "historically": 7261,
      "dominated": 7262,
      "insights": 7263,
      "minimum": 7264,
      "trauma": 7265,
      "glamorous": 7266,
      "fibers": 7267,
      "mathematicians": 7268,
      "sketch": 7269,
      "phosphor": 7270,
      "cosmic": 7271,
      "tsunami": 7272,
      "beneath": 7273,
      "pir": 7274,
      "ream": 7275,
      "ati": 7276,
      "enzy": 7277,
      "lego": 7278,
      "acou": 7279,
      "heavi": 7280,
      "dose": 7281,
      "arest": 7282,
      "decor": 7283,
      "cement": 7284,
      "compreh": 7285,
      "proved": 7286,
      "proven": 7287,
      "wore": 7288,
      "disney": 7289,
      "formal": 7290,
      "preval": 7291,
      "turkey": 7292,
      "kidney": 7293,
      "1980s": 7294,
      "nerves": 7295,
      "connects": 7296,
      "profile": 7297,
      "keyboard": 7298,
      "difficulty": 7299,
      "speaks": 7300,
      "fallen": 7301,
      "expecting": 7302,
      "tendency": 7303,
      "measurements": 7304,
      "personalized": 7305,
      "medicines": 7306,
      "genetics": 7307,
      "activate": 7308,
      "discovering": 7309,
      "packed": 7310,
      "package": 7311,
      "journalism": 7312,
      "continuing": 7313,
      "hopes": 7314,
      "atomic": 7315,
      "halluc": 7316,
      "teenager": 7317,
      "snap": 7318,
      "gentleman": 7319,
      "prosthetic": 7320,
      "storage": 7321,
      "wheelchair": 7322,
      "gallery": 7323,
      "branches": 7324,
      "reserve": 7325,
      "elephants": 7326,
      "quitous": 7327,
      "discipline": 7328,
      "phantom": 7329,
      "ambitious": 7330,
      "absence": 7331,
      "passenger": 7332,
      "enhance": 7333,
      "william": 7334,
      "beijing": 7335,
      "cigaret": 7336,
      "ubiquitous": 7337,
      "indigenous": 7338,
      "48": 7339,
      "dough": 7340,
      "fate": 7341,
      "fbi": 7342,
      "ik": 7343,
      "junk": 7344,
      "lion": 7345,
      "pause": 7346,
      "ule": 7347,
      "inery": 7348,
      "ingen": 7349,
      "idi": 7350,
      "ghter": 7351,
      "kee": 7352,
      "moz": 7353,
      "moore": 7354,
      "neander": 7355,
      "deck": 7356,
      "worm": 7357,
      "trapped": 7358,
      "excess": 7359,
      "ustrate": 7360,
      "coat": 7361,
      "shy": 7362,
      "shor": 7363,
      "prev": 7364,
      "diarr": 7365,
      "drones": 7366,
      "wrist": 7367,
      "stopping": 7368,
      "mines": 7369,
      "socially": 7370,
      "calm": 7371,
      "highlight": 7372,
      "meanwhile": 7373,
      "landing": 7374,
      "rape": 7375,
      "password": 7376,
      "machinery": 7377,
      "researcher": 7378,
      "angered": 7379,
      "amazingly": 7380,
      "audiences": 7381,
      "freely": 7382,
      "robotics": 7383,
      "expectancy": 7384,
      "democrat": 7385,
      "stays": 7386,
      "safely": 7387,
      "specialized": 7388,
      "copes": 7389,
      "venture": 7390,
      "pedest": 7391,
      "mandela": 7392,
      "donor": 7393,
      "believing": 7394,
      "lifted": 7395,
      "johnson": 7396,
      "nuts": 7397,
      "accountability": 7398,
      "straightforward": 7399,
      "graduated": 7400,
      "sadly": 7401,
      "fatal": 7402,
      "contrary": 7403,
      "regulation": 7404,
      "kyo": 7405,
      "translation": 7406,
      "attractive": 7407,
      "substance": 7408,
      "limitations": 7409,
      "volunteer": 7410,
      "tanzan": 7411,
      "constraints": 7412,
      "rubber": 7413,
      "tweet": 7414,
      "syria": 7415,
      "ngos": 7416,
      "volcano": 7417,
      "tongue": 7418,
      "wandering": 7419,
      "bangladesh": 7420,
      "hemisp": 7421,
      "mainstream": 7422,
      "phosphorus": 7423,
      "55": 7424,
      "dating": 7425,
      "hm": 7426,
      "jh": 7427,
      "kers": 7428,
      "mously": 7429,
      "piz": 7430,
      "rats": 7431,
      "useless": 7432,
      "anes": 7433,
      "errors": 7434,
      "toes": 7435,
      "alous": 7436,
      "esign": 7437,
      "habits": 7438,
      "chef": 7439,
      "delay": 7440,
      "imper": 7441,
      "canad": 7442,
      "prope": 7443,
      "peoples": 7444,
      "sav": 7445,
      "workforce": 7446,
      "redesign": 7447,
      "phal": 7448,
      "buck": 7449,
      "genuine": 7450,
      "counting": 7451,
      "readers": 7452,
      "miner": 7453,
      "bian": 7454,
      "20s": 7455,
      "1950s": 7456,
      "iban": 7457,
      "summit": 7458,
      "voy": 7459,
      "harbor": 7460,
      "equity": 7461,
      "kills": 7462,
      "stead": 7463,
      "risky": 7464,
      "prints": 7465,
      "attacked": 7466,
      "screening": 7467,
      "transforming": 7468,
      "pollut": 7469,
      "folds": 7470,
      "annual": 7471,
      "responded": 7472,
      "sections": 7473,
      "remarkably": 7474,
      "significantly": 7475,
      "substant": 7476,
      "impressive": 7477,
      "ratio": 7478,
      "strategic": 7479,
      "encouraging": 7480,
      "desperately": 7481,
      "cluster": 7482,
      "ownership": 7483,
      "clarity": 7484,
      "luxury": 7485,
      "athletes": 7486,
      "pandem": 7487,
      "zealand": 7488,
      "indonesia": 7489,
      "magnificent": 7490,
      "mich": 7491,
      "ost": 7492,
      "rh": 7493,
      "rust": 7494,
      "ini": 7495,
      "anni": 7496,
      "revers": 7497,
      "rection": 7498,
      "ongoing": 7499,
      "enlight": 7500,
      "envelo": 7501,
      "alarm": 7502,
      "argent": 7503,
      "stit": 7504,
      "lith": 7505,
      "peers": 7506,
      "motors": 7507,
      "unde": 7508,
      "confron": 7509,
      "supre": 7510,
      "pling": 7511,
      "pless": 7512,
      "compromise": 7513,
      "max": 7514,
      "artif": 7515,
      "olic": 7516,
      "apy": 7517,
      "mann": 7518,
      "manager": 7519,
      "quot": 7520,
      "pox": 7521,
      "colored": 7522,
      "shed": 7523,
      "shang": 7524,
      "newton": 7525,
      "boats": 7526,
      "crast": 7527,
      "despair": 7528,
      "berlin": 7529,
      "intern": 7530,
      "offering": 7531,
      "drone": 7532,
      "contamin": 7533,
      "wrap": 7534,
      "minus": 7535,
      "aven": 7536,
      "smallest": 7537,
      "crimes": 7538,
      "miser": 7539,
      "passes": 7540,
      "glu": 7541,
      "biologist": 7542,
      "hybrid": 7543,
      "devil": 7544,
      "swing": 7545,
      "drops": 7546,
      "relief": 7547,
      "investments": 7548,
      "microscop": 7549,
      "winner": 7550,
      "describing": 7551,
      "tubes": 7552,
      "receiving": 7553,
      "prisoners": 7554,
      "tunnel": 7555,
      "sweat": 7556,
      "belly": 7557,
      "worrying": 7558,
      "israeli": 7559,
      "consult": 7560,
      "assemble": 7561,
      "succeeded": 7562,
      "dutch": 7563,
      "barriers": 7564,
      "squee": 7565,
      "henry": 7566,
      "decrease": 7567,
      "stereoty": 7568,
      "legislation": 7569,
      "syndrome": 7570,
      "bite": 7571,
      "dys": 7572,
      "hated": 7573,
      "hunt": 7574,
      "lting": 7575,
      "mild": 7576,
      "pent": 7577,
      "qa": 7578,
      "thy": 7579,
      "ancing": 7580,
      "reha": 7581,
      "reproduce": 7582,
      "itative": 7583,
      "lee": 7584,
      "acknowledge": 7585,
      "metric": 7586,
      "lize": 7587,
      "forgot": 7588,
      "rolled": 7589,
      "logo": 7590,
      "pets": 7591,
      "nowad": 7592,
      "amate": 7593,
      "congest": 7594,
      "thermal": 7595,
      "plast": 7596,
      "proceed": 7597,
      "urable": 7598,
      "pockets": 7599,
      "covers": 7600,
      "endangered": 7601,
      "spray": 7602,
      "shoc": 7603,
      "yourselves": 7604,
      "bleed": 7605,
      "phy": 7606,
      "disabilities": 7607,
      "blink": 7608,
      "formula": 7609,
      "realities": 7610,
      "intersection": 7611,
      "curves": 7612,
      "1960": 7613,
      "farther": 7614,
      "hometown": 7615,
      "insane": 7616,
      "subur": 7617,
      "2002": 7618,
      "frontal": 7619,
      "evolving": 7620,
      "communicating": 7621,
      "democracies": 7622,
      "screens": 7623,
      "improvis": 7624,
      "approaching": 7625,
      "origins": 7626,
      "juven": 7627,
      "default": 7628,
      "tune": 7629,
      "slip": 7630,
      "folded": 7631,
      "wealthy": 7632,
      "blindness": 7633,
      "taxes": 7634,
      "frog": 7635,
      "ritual": 7636,
      "ignored": 7637,
      "wedding": 7638,
      "vegetables": 7639,
      "grocer": 7640,
      "alexander": 7641,
      "simpler": 7642,
      "glamour": 7643,
      "whistle": 7644,
      "items": 7645,
      "chromosome": 7646,
      "exposure": 7647,
      "discrimination": 7648,
      "controversial": 7649,
      "curriculum": 7650,
      "nowadays": 7651,
      "shocking": 7652,
      "bother": 7653,
      "ego": 7654,
      "gments": 7655,
      "iac": 7656,
      "jose": 7657,
      "kan": 7658,
      "kong": 7659,
      "oy": 7660,
      "recess": 7661,
      "resur": 7662,
      "ester": 7663,
      "arc": 7664,
      "stab": 7665,
      "vet": 7666,
      "soc": 7667,
      "verb": 7668,
      "rog": 7669,
      "loose": 7670,
      "unhappy": 7671,
      "depos": 7672,
      "advoc": 7673,
      "tear": 7674,
      "graf": 7675,
      "tiv": 7676,
      "illustrate": 7677,
      "bruno": 7678,
      "aches": 7679,
      "dispar": 7680,
      "overnight": 7681,
      "taliban": 7682,
      "ensus": 7683,
      "intensity": 7684,
      "interconnected": 7685,
      "epi": 7686,
      "trivial": 7687,
      "courses": 7688,
      "1960s": 7689,
      "attitudes": 7690,
      "uniform": 7691,
      "farms": 7692,
      "passive": 7693,
      "amazed": 7694,
      "momentum": 7695,
      "harmony": 7696,
      "remembering": 7697,
      "tony": 7698,
      "swiss": 7699,
      "advances": 7700,
      "shocked": 7701,
      "consensus": 7702,
      "planted": 7703,
      "pursuit": 7704,
      "sensing": 7705,
      "defining": 7706,
      "territory": 7707,
      "humili": 7708,
      "givers": 7709,
      "locations": 7710,
      "crispr": 7711,
      "cleaning": 7712,
      "subjective": 7713,
      "introduction": 7714,
      "psychologist": 7715,
      "beaten": 7716,
      "protocol": 7717,
      "competing": 7718,
      "alternatives": 7719,
      "remained": 7720,
      "crowds": 7721,
      "philosopher": 7722,
      "expressions": 7723,
      "austral": 7724,
      "collapsed": 7725,
      "observations": 7726,
      "pulse": 7727,
      "insulin": 7728,
      "accomplished": 7729,
      "chimpanzee": 7730,
      "reefs": 7731,
      "recycling": 7732,
      "candidate": 7733,
      "abundance": 7734,
      "minority": 7735,
      "pursue": 7736,
      "labeled": 7737,
      "tropical": 7738,
      "heritage": 7739,
      "spatial": 7740,
      "supreme": 7741,
      "cows": 7742,
      "hans": 7743,
      "hong": 7744,
      "kis": 7745,
      "mk": 7746,
      "ole": 7747,
      "pap": 7748,
      "pens": 7749,
      "sive": 7750,
      "tus": 7751,
      "uh": 7752,
      "inser": 7753,
      "reconstruct": 7754,
      "tomato": 7755,
      "altitude": 7756,
      "leash": 7757,
      "accent": 7758,
      "abling": 7759,
      "gee": 7760,
      "cel": 7761,
      "config": 7762,
      "frames": 7763,
      "procrast": 7764,
      "mented": 7765,
      "wheels": 7766,
      "spark": 7767,
      "brad": 7768,
      "distract": 7769,
      "blur": 7770,
      "criter": 7771,
      "inton": 7772,
      "intimate": 7773,
      "interpre": 7774,
      "calories": 7775,
      "ipod": 7776,
      "warri": 7777,
      "joint": 7778,
      "cuba": 7779,
      "morality": 7780,
      "glue": 7781,
      "denial": 7782,
      "facil": 7783,
      "protests": 7784,
      "classrooms": 7785,
      "stepped": 7786,
      "approved": 7787,
      "bench": 7788,
      "appearing": 7789,
      "literacy": 7790,
      "deepest": 7791,
      "inclusive": 7792,
      "explored": 7793,
      "extraordinarily": 7794,
      "girlfriend": 7795,
      "sooner": 7796,
      "smartphone": 7797,
      "ridge": 7798,
      "bridges": 7799,
      "ecology": 7800,
      "detection": 7801,
      "suspic": 7802,
      "psychologists": 7803,
      "officers": 7804,
      "integrate": 7805,
      "phenomena": 7806,
      "exercis": 7807,
      "accuracy": 7808,
      "pleasant": 7809,
      "priority": 7810,
      "impression": 7811,
      "imagining": 7812,
      "telescopes": 7813,
      "delhi": 7814,
      "revealed": 7815,
      "melting": 7816,
      "binary": 7817,
      "abandoned": 7818,
      "champion": 7819,
      "affairs": 7820,
      "obstacles": 7821,
      "aggressive": 7822,
      "gandhi": 7823,
      "archae": 7824,
      "scaf": 7825,
      "dilemma": 7826,
      "incarcer": 7827,
      "november": 7828,
      "plastics": 7829,
      "bak": 7830,
      "cto": 7831,
      "dung": 7832,
      "gross": 7833,
      "jup": 7834,
      "lions": 7835,
      "nom": 7836,
      "nie": 7837,
      "pad": 7838,
      "sizes": 7839,
      "tact": 7840,
      "tiger": 7841,
      "erg": 7842,
      "toss": 7843,
      "andrew": 7844,
      "acknowled": 7845,
      "oton": 7846,
      "abul": 7847,
      "rill": 7848,
      "sures": 7849,
      "comic": 7850,
      "composition": 7851,
      "expressed": 7852,
      "apore": 7853,
      "managing": 7854,
      "restor": 7855,
      "spheres": 7856,
      "phic": 7857,
      "buff": 7858,
      "clue": 7859,
      "intensive": 7860,
      "obtain": 7861,
      "interrup": 7862,
      "icked": 7863,
      "compli": 7864,
      "compound": 7865,
      "singapore": 7866,
      "memes": 7867,
      "cylind": 7868,
      "heading": 7869,
      "josh": 7870,
      "ugal": 7871,
      "michel": 7872,
      "cheat": 7873,
      "custo": 7874,
      "equations": 7875,
      "stein": 7876,
      "switzer": 7877,
      "exploit": 7878,
      "patho": 7879,
      "paths": 7880,
      "slums": 7881,
      "doubled": 7882,
      "refused": 7883,
      "statistic": 7884,
      "variations": 7885,
      "parkinson": 7886,
      "raped": 7887,
      "immun": 7888,
      "occurs": 7889,
      "automobile": 7890,
      "scanner": 7891,
      "catching": 7892,
      "mutations": 7893,
      "documentary": 7894,
      "gravit": 7895,
      "frequently": 7896,
      "thirty": 7897,
      "injured": 7898,
      "desperate": 7899,
      "candidates": 7900,
      "breeding": 7901,
      "frightening": 7902,
      "millenni": 7903,
      "devastating": 7904,
      "comedy": 7905,
      "delicious": 7906,
      "geometry": 7907,
      "lungs": 7908,
      "flesh": 7909,
      "pigeon": 7910,
      "brooklyn": 7911,
      "destroying": 7912,
      "dawn": 7913,
      "horses": 7914,
      "amateur": 7915,
      "switzerland": 7916,
      "cine": 7917,
      "divid": 7918,
      "figh": 7919,
      "mant": 7920,
      "oe": 7921,
      "pitt": 7922,
      "rican": 7923,
      "saudi": 7924,
      "tas": 7925,
      "uber": 7926,
      "vag": 7927,
      "voted": 7928,
      "yards": 7929,
      "onia": 7930,
      "enem": 7931,
      "enjo": 7932,
      "stics": 7933,
      "chuck": 7934,
      "idal": 7935,
      "rope": 7936,
      "detro": 7937,
      "fever": 7938,
      "tee": 7939,
      "proposition": 7940,
      "grasp": 7941,
      "coc": 7942,
      "endless": 7943,
      "embod": 7944,
      "blew": 7945,
      "asty": 7946,
      "eline": 7947,
      "format": 7948,
      "guards": 7949,
      "prey": 7950,
      "preach": 7951,
      "comet": 7952,
      "turk": 7953,
      "corners": 7954,
      "socio": 7955,
      "190": 7956,
      "transis": 7957,
      "joe": 7958,
      "valid": 7959,
      "musician": 7960,
      "viewer": 7961,
      "signature": 7962,
      "meets": 7963,
      "microphone": 7964,
      "purple": 7965,
      "shortly": 7966,
      "approached": 7967,
      "describes": 7968,
      "landscapes": 7969,
      "slower": 7970,
      "gorge": 7971,
      "consciously": 7972,
      "jealous": 7973,
      "revolutionary": 7974,
      "benefic": 7975,
      "divor": 7976,
      "genesis": 7977,
      "secretary": 7978,
      "hoped": 7979,
      "budd": 7980,
      "welfare": 7981,
      "interviews": 7982,
      "hiding": 7983,
      "brazili": 7984,
      "partnership": 7985,
      "consumed": 7986,
      "belongs": 7987,
      "installed": 7988,
      "poems": 7989,
      "reserves": 7990,
      "atlanta": 7991,
      "assistance": 7992,
      "manipulate": 7993,
      "concentration": 7994,
      "electrodes": 7995,
      "overwhelming": 7996,
      "utterly": 7997,
      "aesthetic": 7998,
      "philanthropy": 7999,
      "guarantee": 8000,
      "legitimate": 8001,
      "keepers": 8002,
      "hemisphere": 8003,
      "underest": 8004,
      "shanghai": 8005,
      "jupiter": 8006,
      "31": 8007,
      "37": 8008,
      "900": 8009,
      "aver": 8010,
      "gif": 8011,
      "gus": 8012,
      "iel": 8013,
      "jur": 8014,
      "mw": 8015,
      "mask": 8016,
      "mama": 8017,
      "nap": 8018,
      "nodes": 8019,
      "tables": 8020,
      "vivid": 8021,
      "zard": 8022,
      "infer": 8023,
      "alty": 8024,
      "oran": 8025,
      "seattle": 8026,
      "meals": 8027,
      "wil": 8028,
      "outrage": 8029,
      "pecu": 8030,
      "opath": 8031,
      "cany": 8032,
      "mapped": 8033,
      "peru": 8034,
      "prostit": 8035,
      "articul": 8036,
      "oked": 8037,
      "april": 8038,
      "quis": 8039,
      "distor": 8040,
      "strings": 8041,
      "specul": 8042,
      "commons": 8043,
      "marvel": 8044,
      "forecast": 8045,
      "fled": 8046,
      "monu": 8047,
      "monte": 8048,
      "builds": 8049,
      "patri": 8050,
      "patents": 8051,
      "relatives": 8052,
      "computational": 8053,
      "buses": 8054,
      "youngest": 8055,
      "teaches": 8056,
      "chee": 8057,
      "hopeful": 8058,
      "glor": 8059,
      "twin": 8060,
      "twins": 8061,
      "steam": 8062,
      "follows": 8063,
      "modeling": 8064,
      "potent": 8065,
      "predators": 8066,
      "marketplace": 8067,
      "marker": 8068,
      "recognizing": 8069,
      "trusted": 8070,
      "touching": 8071,
      "visualize": 8072,
      "synap": 8073,
      "lized": 8074,
      "infectious": 8075,
      "raises": 8076,
      "detector": 8077,
      "sched": 8078,
      "scanning": 8079,
      "crystal": 8080,
      "expanded": 8081,
      "enjoyed": 8082,
      "spinning": 8083,
      "fifty": 8084,
      "bowl": 8085,
      "thrive": 8086,
      "restaurants": 8087,
      "astronomers": 8088,
      "apolog": 8089,
      "survivors": 8090,
      "discussions": 8091,
      "assignment": 8092,
      "width": 8093,
      "eliminate": 8094,
      "lonely": 8095,
      "carolina": 8096,
      "theoretical": 8097,
      "palestinian": 8098,
      "pizza": 8099,
      "detroit": 8100,
      "peculiar": 8101,
      "fus": 8102,
      "fault": 8103,
      "gical": 8104,
      "kit": 8105,
      "kir": 8106,
      "nis": 8107,
      "ored": 8108,
      "paste": 8109,
      "sions": 8110,
      "thetics": 8111,
      "rethink": 8112,
      "restr": 8113,
      "revel": 8114,
      "resem": 8115,
      "tock": 8116,
      "sectors": 8117,
      "beth": 8118,
      "behalf": 8119,
      "acious": 8120,
      "forbid": 8121,
      "wives": 8122,
      "plum": 8123,
      "actively": 8124,
      "indians": 8125,
      "uran": 8126,
      "manual": 8127,
      "yemen": 8128,
      "aggre": 8129,
      "coke": 8130,
      "owning": 8131,
      "kings": 8132,
      "tale": 8133,
      "berry": 8134,
      "tribal": 8135,
      "marg": 8136,
      "offspring": 8137,
      "drunk": 8138,
      "flavor": 8139,
      "shakes": 8140,
      "understands": 8141,
      "handful": 8142,
      "parach": 8143,
      "patch": 8144,
      "1990": 8145,
      "lanes": 8146,
      "supplies": 8147,
      "programmed": 8148,
      "distances": 8149,
      "dropping": 8150,
      "masses": 8151,
      "18th": 8152,
      "nik": 8153,
      "sale": 8154,
      "emergence": 8155,
      "representing": 8156,
      "affecting": 8157,
      "reporting": 8158,
      "functioning": 8159,
      "synthesis": 8160,
      "consuming": 8161,
      "donors": 8162,
      "clinics": 8163,
      "greece": 8164,
      "crossed": 8165,
      "separation": 8166,
      "masters": 8167,
      "geography": 8168,
      "phenomenal": 8169,
      "nanop": 8170,
      "broader": 8171,
      "associate": 8172,
      "corporation": 8173,
      "documented": 8174,
      "thesia": 8175,
      "perceptions": 8176,
      "priorit": 8177,
      "installation": 8178,
      "isolation": 8179,
      "demonstrated": 8180,
      "astronomy": 8181,
      "privileged": 8182,
      "migration": 8183,
      "fisheries": 8184,
      "knock": 8185,
      "absorb": 8186,
      "deployed": 8187,
      "immigration": 8188,
      "dictator": 8189,
      "gabby": 8190,
      "tanzania": 8191,
      "criteria": 8192,
      "38": 8193,
      "cs": 8194,
      "cass": 8195,
      "dated": 8196,
      "fred": 8197,
      "hed": 8198,
      "lists": 8199,
      "pier": 8200,
      "sier": 8201,
      "vy": 8202,
      "thand": 8203,
      "inate": 8204,
      "anno": 8205,
      "rep": 8206,
      "alan": 8207,
      "allies": 8208,
      "escap": 8209,
      "lever": 8210,
      "letal": 8211,
      "entit": 8212,
      "chase": 8213,
      "dopam": 8214,
      "roles": 8215,
      "outbreak": 8216,
      "lobby": 8217,
      "unconscious": 8218,
      "usa": 8219,
      "uscri": 8220,
      "trap": 8221,
      "plas": 8222,
      "perpet": 8223,
      "manuscri": 8224,
      "quate": 8225,
      "gra": 8226,
      "ideology": 8227,
      "arsh": 8228,
      "spar": 8229,
      "cathe": 8230,
      "prevention": 8231,
      "impul": 8232,
      "counsel": 8233,
      "goodbye": 8234,
      "fluct": 8235,
      "smiling": 8236,
      "planned": 8237,
      "foundations": 8238,
      "2020": 8239,
      "1900": 8240,
      "identities": 8241,
      "addy": 8242,
      "incidence": 8243,
      "ilized": 8244,
      "sixth": 8245,
      "classical": 8246,
      "stephen": 8247,
      "alongside": 8248,
      "consent": 8249,
      "supermarket": 8250,
      "hormon": 8251,
      "juries": 8252,
      "refuse": 8253,
      "websites": 8254,
      "destination": 8255,
      "destiny": 8256,
      "bacterial": 8257,
      "narratives": 8258,
      "ministry": 8259,
      "tunis": 8260,
      "appearance": 8261,
      "calculations": 8262,
      "1998": 8263,
      "reflected": 8264,
      "contributed": 8265,
      "boundary": 8266,
      "diameter": 8267,
      "substit": 8268,
      "torian": 8269,
      "promising": 8270,
      "rituals": 8271,
      "watson": 8272,
      "occupy": 8273,
      "empowering": 8274,
      "duty": 8275,
      "mathematician": 8276,
      "veterans": 8277,
      "inherently": 8278,
      "pedestri": 8279,
      "dopamine": 8280,
      "72": 8281,
      "96": 8282,
      "batt": 8283,
      "dumb": 8284,
      "hou": 8285,
      "lined": 8286,
      "ptian": 8287,
      "rof": 8288,
      "sab": 8289,
      "vice": 8290,
      "thres": 8291,
      "thors": 8292,
      "inity": 8293,
      "atter": 8294,
      "isy": 8295,
      "ised": 8296,
      "enrich": 8297,
      "itar": 8298,
      "asi": 8299,
      "arthur": 8300,
      "mex": 8301,
      "gear": 8302,
      "modest": 8303,
      "authors": 8304,
      "probe": 8305,
      "proposal": 8306,
      "artwork": 8307,
      "residents": 8308,
      "mentally": 8309,
      "blast": 8310,
      "crap": 8311,
      "spell": 8312,
      "kindness": 8313,
      "intact": 8314,
      "counted": 8315,
      "choir": 8316,
      "trips": 8317,
      "offshore": 8318,
      "flick": 8319,
      "compounds": 8320,
      "biof": 8321,
      "versary": 8322,
      "1980": 8323,
      "openha": 8324,
      "legally": 8325,
      "vocal": 8326,
      "politically": 8327,
      "nightm": 8328,
      "suppress": 8329,
      "scaling": 8330,
      "namely": 8331,
      "messy": 8332,
      "digest": 8333,
      "simplif": 8334,
      "ogens": 8335,
      "sequences": 8336,
      "petition": 8337,
      "sends": 8338,
      "countless": 8339,
      "raine": 8340,
      "bills": 8341,
      "mount": 8342,
      "humility": 8343,
      "confess": 8344,
      "locally": 8345,
      "enterprise": 8346,
      "catastro": 8347,
      "occurring": 8348,
      "remix": 8349,
      "museums": 8350,
      "platforms": 8351,
      "physicians": 8352,
      "gained": 8353,
      "mesh": 8354,
      "optical": 8355,
      "egyptian": 8356,
      "punishment": 8357,
      "harmful": 8358,
      "incentive": 8359,
      "biomass": 8360,
      "employment": 8361,
      "passage": 8362,
      "memorial": 8363,
      "informal": 8364,
      "portraits": 8365,
      "tolerance": 8366,
      "embarrassing": 8367,
      "pouring": 8368,
      "thood": 8369,
      "beetle": 8370,
      "leonardo": 8371,
      "glimpse": 8372,
      "stadium": 8373,
      "catholic": 8374,
      "canadian": 8375,
      "grocery": 8376,
      "enemies": 8377,
      "98": 8378,
      "cke": 8379,
      "dv": 8380,
      "dread": 8381,
      "dates": 8382,
      "ee": 8383,
      "eigh": 8384,
      "erect": 8385,
      "fence": 8386,
      "jones": 8387,
      "kiss": 8388,
      "lted": 8389,
      "nasty": 8390,
      "rant": 8391,
      "sperm": 8392,
      "tz": 8393,
      "uation": 8394,
      "wrest": 8395,
      "inmates": 8396,
      "rev": 8397,
      "retail": 8398,
      "onstage": 8399,
      "toll": 8400,
      "enabling": 8401,
      "ordered": 8402,
      "iconic": 8403,
      "lip": 8404,
      "hears": 8405,
      "ros": 8406,
      "pee": 8407,
      "pete": 8408,
      "irts": 8409,
      "imes": 8410,
      "ading": 8411,
      "contem": 8412,
      "tel": 8413,
      "friction": 8414,
      "plates": 8415,
      "prospect": 8416,
      "odor": 8417,
      "mankind": 8418,
      "workplace": 8419,
      "spons": 8420,
      "shield": 8421,
      "sheer": 8422,
      "iceberg": 8423,
      "firing": 8424,
      "clinton": 8425,
      "enses": 8426,
      "obsole": 8427,
      "marrow": 8428,
      "vio": 8429,
      "drain": 8430,
      "carries": 8431,
      "stolen": 8432,
      "corrid": 8433,
      "engines": 8434,
      "earned": 8435,
      "playful": 8436,
      "cultiv": 8437,
      "ireland": 8438,
      "storytell": 8439,
      "caps": 8440,
      "capsu": 8441,
      "halfway": 8442,
      "bloom": 8443,
      "uded": 8444,
      "parenting": 8445,
      "greenland": 8446,
      "shoe": 8447,
      "predator": 8448,
      "innovate": 8449,
      "bonds": 8450,
      "symphony": 8451,
      "screaming": 8452,
      "towers": 8453,
      "traditionally": 8454,
      "apartments": 8455,
      "collaborate": 8456,
      "earliest": 8457,
      "accountable": 8458,
      "hurrican": 8459,
      "1999": 8460,
      "targeted": 8461,
      "rotate": 8462,
      "codes": 8463,
      "smells": 8464,
      "nigerian": 8465,
      "indicate": 8466,
      "thrilled": 8467,
      "opinions": 8468,
      "emotionally": 8469,
      "shifts": 8470,
      "vascular": 8471,
      "antibiotic": 8472,
      "skeletal": 8473,
      "retina": 8474,
      "overwhelmed": 8475,
      "ceremony": 8476,
      "genomes": 8477,
      "recruit": 8478,
      "bronx": 8479,
      "elegant": 8480,
      "orescent": 8481,
      "intrins": 8482,
      "diarrhea": 8483,
      "qaeda": 8484,
      "soccer": 8485,
      "obsolete": 8486,
      "bis": 8487,
      "cage": 8488,
      "copenha": 8489,
      "dirt": 8490,
      "eh": 8491,
      "echo": 8492,
      "hc": 8493,
      "jf": 8494,
      "mia": 8495,
      "odo": 8496,
      "pip": 8497,
      "treas": 8498,
      "resolve": 8499,
      "retro": 8500,
      "itating": 8501,
      "asth": 8502,
      "asset": 8503,
      "arbit": 8504,
      "lex": 8505,
      "entr": 8506,
      "het": 8507,
      "forgive": 8508,
      "decent": 8509,
      "rip": 8510,
      "advo": 8511,
      "sulf": 8512,
      "proli": 8513,
      "myce": 8514,
      "apes": 8515,
      "noises": 8516,
      "istine": 8517,
      "spr": 8518,
      "evapor": 8519,
      "ansas": 8520,
      "logging": 8521,
      "happily": 8522,
      "backyard": 8523,
      "holi": 8524,
      "contest": 8525,
      "wrapped": 8526,
      "flaw": 8527,
      "comparing": 8528,
      "conductor": 8529,
      "matt": 8530,
      "2030": 8531,
      "2013": 8532,
      "visiting": 8533,
      "transit": 8534,
      "generates": 8535,
      "venus": 8536,
      "cube": 8537,
      "addressing": 8538,
      "livestock": 8539,
      "charter": 8540,
      "charlie": 8541,
      "waited": 8542,
      "metic": 8543,
      "programmers": 8544,
      "explicit": 8545,
      "dancers": 8546,
      "atories": 8547,
      "millimeter": 8548,
      "40s": 8549,
      "sensation": 8550,
      "sequencing": 8551,
      "adelph": 8552,
      "practically": 8553,
      "riding": 8554,
      "adoption": 8555,
      "totle": 8556,
      "texting": 8557,
      "batteries": 8558,
      "nonetheless": 8559,
      "checked": 8560,
      "calculated": 8561,
      "scans": 8562,
      "contributing": 8563,
      "contribution": 8564,
      "contained": 8565,
      "switched": 8566,
      "assuming": 8567,
      "chickens": 8568,
      "therapies": 8569,
      "determines": 8570,
      "philadelph": 8571,
      "shifted": 8572,
      "apollo": 8573,
      "clubs": 8574,
      "purely": 8575,
      "desktop": 8576,
      "concentrated": 8577,
      "inevitably": 8578,
      "horizontal": 8579,
      "inflation": 8580,
      "implemented": 8581,
      "abundant": 8582,
      "voters": 8583,
      "invasive": 8584,
      "settled": 8585,
      "suspended": 8586,
      "aristotle": 8587,
      "basketball": 8588,
      "hierarchy": 8589,
      "distinguish": 8590,
      "encountered": 8591,
      "hawaii": 8592,
      "approximately": 8593,
      "spheric": 8594,
      "miserable": 8595,
      "rehabil": 8596,
      "gorgeous": 8597,
      "brazilian": 8598,
      "sierra": 8599,
      "violet": 8600,
      "copenhagen": 8601,
      "advocate": 8602,
      "philadelphia": 8603,
      "imeters": 8604,
      "jaw": 8605,
      "kins": 8606,
      "wides": 8607,
      "reclaim": 8608,
      "eries": 8609,
      "isions": 8610,
      "enance": 8611,
      "orphan": 8612,
      "league": 8613,
      "stum": 8614,
      "idering": 8615,
      "abed": 8616,
      "peare": 8617,
      "deals": 8618,
      "usage": 8619,
      "amen": 8620,
      "canvas": 8621,
      "traction": 8622,
      "antenna": 8623,
      "maid": 8624,
      "exceed": 8625,
      "ultras": 8626,
      "olum": 8627,
      "api": 8628,
      "likelihood": 8629,
      "managers": 8630,
      "sake": 8631,
      "cos": 8632,
      "ineff": 8633,
      "boots": 8634,
      "buzz": 8635,
      "pread": 8636,
      "realization": 8637,
      "offs": 8638,
      "carpet": 8639,
      "coln": 8640,
      "biases": 8641,
      "lessness": 8642,
      "earning": 8643,
      "deciding": 8644,
      "2014": 8645,
      "relates": 8646,
      "warmer": 8647,
      "publishing": 8648,
      "graphs": 8649,
      "holders": 8650,
      "electrons": 8651,
      "barbar": 8652,
      "climbed": 8653,
      "considering": 8654,
      "marked": 8655,
      "encyclo": 8656,
      "cardboard": 8657,
      "hippo": 8658,
      "representative": 8659,
      "skilled": 8660,
      "activated": 8661,
      "conceptual": 8662,
      "lamp": 8663,
      "lincoln": 8664,
      "pulls": 8665,
      "streams": 8666,
      "troops": 8667,
      "losses": 8668,
      "emails": 8669,
      "laughed": 8670,
      "aliens": 8671,
      "mixing": 8672,
      "regularly": 8673,
      "priorities": 8674,
      "punct": 8675,
      "pregnancy": 8676,
      "accelerate": 8677,
      "stimul": 8678,
      "korean": 8679,
      "simplest": 8680,
      "anticipate": 8681,
      "censor": 8682,
      "skeptical": 8683,
      "festival": 8684,
      "schizophrenia": 8685,
      "plankton": 8686,
      "pandemic": 8687,
      "argentina": 8688,
      "enjoying": 8689,
      "shakespeare": 8690,
      "widespread": 8691,
      "350": 8692,
      "97": 8693,
      "athe": 8694,
      "dun": 8695,
      "fg": 8696,
      "fon": 8697,
      "fda": 8698,
      "hr": 8699,
      "harsh": 8700,
      "jas": 8701,
      "koran": 8702,
      "sang": 8703,
      "tically": 8704,
      "yog": 8705,
      "iner": 8706,
      "injuries": 8707,
      "atro": 8708,
      "escal": 8709,
      "lethal": 8710,
      "seti": 8711,
      "steven": 8712,
      "acre": 8713,
      "sovere": 8714,
      "melo": 8715,
      "chop": 8716,
      "dood": 8717,
      "roid": 8718,
      "gevity": 8719,
      "wasted": 8720,
      "nearest": 8721,
      "usal": 8722,
      "admitted": 8723,
      "exagger": 8724,
      "ilation": 8725,
      "agan": 8726,
      "whoa": 8727,
      "cav": 8728,
      "obese": 8729,
      "reader": 8730,
      "carri": 8731,
      "systematic": 8732,
      "monster": 8733,
      "findings": 8734,
      "ucers": 8735,
      "creator": 8736,
      "cared": 8737,
      "visually": 8738,
      "1950": 8739,
      "smallpox": 8740,
      "ibm": 8741,
      "headquarters": 8742,
      "energ": 8743,
      "phoen": 8744,
      "publicly": 8745,
      "couch": 8746,
      "spends": 8747,
      "lingu": 8748,
      "arrang": 8749,
      "hormone": 8750,
      "float": 8751,
      "motions": 8752,
      "cardio": 8753,
      "argued": 8754,
      "jewel": 8755,
      "favorites": 8756,
      "visualization": 8757,
      "exceptions": 8758,
      "periods": 8759,
      "laden": 8760,
      "immort": 8761,
      "discussed": 8762,
      "continuously": 8763,
      "sweep": 8764,
      "rolls": 8765,
      "celebrated": 8766,
      "technically": 8767,
      "civilizations": 8768,
      "accelerating": 8769,
      "investigate": 8770,
      "witnessed": 8771,
      "cracks": 8772,
      "achieving": 8773,
      "acquired": 8774,
      "satisfied": 8775,
      "converted": 8776,
      "columns": 8777,
      "survivor": 8778,
      "commodity": 8779,
      "modified": 8780,
      "longevity": 8781,
      "craig": 8782,
      "eyed": 8783,
      "cousin": 8784,
      "embracing": 8785,
      "bamboo": 8786,
      "admire": 8787,
      "jazz": 8788,
      "penetr": 8789,
      "heavily": 8790,
      "congestion": 8791,
      "millennium": 8792,
      "canyon": 8793,
      "monterey": 8794,
      "sovereign": 8795,
      "44": 8796,
      "ethan": 8797,
      "fier": 8798,
      "ipped": 8799,
      "mn": 8800,
      "nons": 8801,
      "pms": 8802,
      "pestic": 8803,
      "vest": 8804,
      "vable": 8805,
      "zim": 8806,
      "inn": 8807,
      "altogether": 8808,
      "albert": 8809,
      "alumin": 8810,
      "armor": 8811,
      "lete": 8812,
      "stunt": 8813,
      "omes": 8814,
      "icking": 8815,
      "beam": 8816,
      "mere": 8817,
      "verbal": 8818,
      "forcing": 8819,
      "unleash": 8820,
      "ifer": 8821,
      "confir": 8822,
      "pler": 8823,
      "coma": 8824,
      "exotic": 8825,
      "nova": 8826,
      "agen": 8827,
      "wells": 8828,
      "lottery": 8829,
      "episo": 8830,
      "turb": 8831,
      "systematically": 8832,
      "biolum": 8833,
      "pathetic": 8834,
      "lasting": 8835,
      "producers": 8836,
      "nevertheless": 8837,
      "decides": 8838,
      "norms": 8839,
      "autistic": 8840,
      "projection": 8841,
      "drif": 8842,
      "summar": 8843,
      "chemother": 8844,
      "checks": 8845,
      "politan": 8846,
      "stepping": 8847,
      "protective": 8848,
      "massively": 8849,
      "universes": 8850,
      "horror": 8851,
      "planting": 8852,
      "reaches": 8853,
      "chemist": 8854,
      "nonprofit": 8855,
      "convicted": 8856,
      "pencil": 8857,
      "deadly": 8858,
      "jews": 8859,
      "princess": 8860,
      "slime": 8861,
      "multiply": 8862,
      "hung": 8863,
      "threatening": 8864,
      "acceptance": 8865,
      "atmospheric": 8866,
      "diagnostic": 8867,
      "brands": 8868,
      "calculus": 8869,
      "graduates": 8870,
      "laptops": 8871,
      "randomly": 8872,
      "laughs": 8873,
      "coastal": 8874,
      "analyzing": 8875,
      "detected": 8876,
      "gardens": 8877,
      "delivering": 8878,
      "1984": 8879,
      "imaginable": 8880,
      "kicked": 8881,
      "stimulation": 8882,
      "macro": 8883,
      "jersey": 8884,
      "traumatic": 8885,
      "olympic": 8886,
      "ambition": 8887,
      "rejected": 8888,
      "mushrooms": 8889,
      "procedures": 8890,
      "tightly": 8891,
      "cosmos": 8892,
      "disturbing": 8893,
      "ultraviolet": 8894,
      "cataly": 8895,
      "brutal": 8896,
      "reconci": 8897,
      "propaganda": 8898,
      "augmented": 8899,
      "cholera": 8900,
      "attempts": 8901,
      "rescued": 8902,
      "anniversary": 8903,
      "encycloped": 8904,
      "phoenix": 8905,
      "aluminum": 8906,
      "episode": 8907,
      "biolumines": 8908,
      "chemotherapy": 8909,
      "130": 8910,
      "bhut": 8911,
      "cort": 8912,
      "cattle": 8913,
      "fired": 8914,
      "hilar": 8915,
      "lp": 8916,
      "pis": 8917,
      "rhe": 8918,
      "raf": 8919,
      "rug": 8920,
      "rides": 8921,
      "rank": 8922,
      "slog": 8923,
      "sadd": 8924,
      "santa": 8925,
      "von": 8926,
      "thro": 8927,
      "inal": 8928,
      "inary": 8929,
      "inction": 8930,
      "returns": 8931,
      "returning": 8932,
      "reactors": 8933,
      "replacing": 8934,
      "oured": 8935,
      "alli": 8936,
      "asters": 8937,
      "ara": 8938,
      "accommod": 8939,
      "entities": 8940,
      "meme": 8941,
      "chasing": 8942,
      "absur": 8943,
      "doom": 8944,
      "keley": 8945,
      "locom": 8946,
      "loses": 8947,
      "peel": 8948,
      "terrain": 8949,
      "trical": 8950,
      "sometime": 8951,
      "whoever": 8952,
      "osex": 8953,
      "blan": 8954,
      "talented": 8955,
      "hug": 8956,
      "crude": 8957,
      "descend": 8958,
      "berkeley": 8959,
      "guer": 8960,
      "prejud": 8961,
      "trium": 8962,
      "surgical": 8963,
      "ictions": 8964,
      "longest": 8965,
      "examine": 8966,
      "famously": 8967,
      "parame": 8968,
      "relat": 8969,
      "cloth": 8970,
      "minded": 8971,
      "rises": 8972,
      "graphical": 8973,
      "osis": 8974,
      "chamber": 8975,
      "temple": 8976,
      "frontier": 8977,
      "distinction": 8978,
      "pays": 8979,
      "circular": 8980,
      "sexually": 8981,
      "dreaming": 8982,
      "travels": 8983,
      "emerges": 8984,
      "slave": 8985,
      "spreads": 8986,
      "recei": 8987,
      "hunter": 8988,
      "perspectives": 8989,
      "principal": 8990,
      "virtue": 8991,
      "judges": 8992,
      "laboratories": 8993,
      "liberty": 8994,
      "mutation": 8995,
      "analyzed": 8996,
      "mastery": 8997,
      "coding": 8998,
      "accurately": 8999,
      "politician": 9000,
      "maintenance": 9001,
      "chimps": 9002,
      "racing": 9003,
      "warehouse": 9004,
      "investigation": 9005,
      "nitrogen": 9006,
      "pills": 9007,
      "empowerment": 9008,
      "dictionaries": 9009,
      "saturday": 9010,
      "gamma": 9011,
      "rigid": 9012,
      "clusters": 9013,
      "preparation": 9014,
      "intimacy": 9015,
      "trailer": 9016,
      "condoms": 9017,
      "mozart": 9018,
      "minerals": 9019,
      "confronted": 9020,
      "recession": 9021,
      "gravitational": 9022,
      "hormones": 9023,
      "awe": 9024,
      "bable": 9025,
      "eliz": 9026,
      "gli": 9027,
      "gill": 9028,
      "hmm": 9029,
      "jc": 9030,
      "liness": 9031,
      "tabo": 9032,
      "wins": 9033,
      "xy": 9034,
      "retain": 9035,
      "onds": 9036,
      "isan": 9037,
      "isha": 9038,
      "tos": 9039,
      "album": 9040,
      "itable": 9041,
      "edit": 9042,
      "editors": 9043,
      "sew": 9044,
      "sting": 9045,
      "liers": 9046,
      "ceos": 9047,
      "fees": 9048,
      "opposition": 9049,
      "igan": 9050,
      "justify": 9051,
      "ideo": 9052,
      "coli": 9053,
      "coverage": 9054,
      "spite": 9055,
      "foster": 9056,
      "blings": 9057,
      "crum": 9058,
      "presum": 9059,
      "observing": 9060,
      "awake": 9061,
      "serves": 9062,
      "corps": 9063,
      "aska": 9064,
      "smash": 9065,
      "singular": 9066,
      "persons": 9067,
      "apples": 9068,
      "cyrus": 9069,
      "avatar": 9070,
      "processed": 9071,
      "topics": 9072,
      "kenned": 9073,
      "checking": 9074,
      "charges": 9075,
      "applies": 9076,
      "costa": 9077,
      "answering": 9078,
      "payment": 9079,
      "benjam": 9080,
      "digging": 9081,
      "fluorescent": 9082,
      "fails": 9083,
      "pathway": 9084,
      "scream": 9085,
      "measurement": 9086,
      "towns": 9087,
      "transformative": 9088,
      "centralized": 9089,
      "collaborators": 9090,
      "respected": 9091,
      "cups": 9092,
      "tuned": 9093,
      "budgets": 9094,
      "demanding": 9095,
      "enormously": 9096,
      "prototypes": 9097,
      "celebrity": 9098,
      "reflects": 9099,
      "crafts": 9100,
      "cooperative": 9101,
      "paralysis": 9102,
      "corrupt": 9103,
      "roman": 9104,
      "attracted": 9105,
      "assumed": 9106,
      "advertise": 9107,
      "reviews": 9108,
      "balloons": 9109,
      "accounting": 9110,
      "weighs": 9111,
      "coordination": 9112,
      "millennia": 9113,
      "virginia": 9114,
      "automated": 9115,
      "strands": 9116,
      "diamonds": 9117,
      "oblig": 9118,
      "lifespan": 9119,
      "sneak": 9120,
      "scheme": 9121,
      "shorter": 9122,
      "configuration": 9123,
      "parachute": 9124,
      "entrance": 9125,
      "bhutan": 9126,
      "eliza": 9127,
      "kennedy": 9128,
      "34": 9129,
      "aunt": 9130,
      "cables": 9131,
      "dare": 9132,
      "ell": 9133,
      "rna": 9134,
      "uff": 9135,
      "inher": 9136,
      "anas": 9137,
      "recall": 9138,
      "reforms": 9139,
      "regenerate": 9140,
      "omag": 9141,
      "whol": 9142,
      "behold": 9143,
      "acres": 9144,
      "soy": 9145,
      "liby": 9146,
      "irony": 9147,
      "ambi": 9148,
      "ambul": 9149,
      "exquis": 9150,
      "ulsion": 9151,
      "oline": 9152,
      "estone": 9153,
      "quo": 9154,
      "gran": 9155,
      "cose": 9156,
      "spare": 9157,
      "redwood": 9158,
      "pleased": 9159,
      "owns": 9160,
      "newly": 9161,
      "guitar": 9162,
      "compat": 9163,
      "colom": 9164,
      "columb": 9165,
      "bikes": 9166,
      "biased": 9167,
      "helmet": 9168,
      "helpless": 9169,
      "poles": 9170,
      "shaking": 9171,
      "networking": 9172,
      "generosity": 9173,
      "mala": 9174,
      "economically": 9175,
      "friendship": 9176,
      "processor": 9177,
      "viewed": 9178,
      "cussion": 9179,
      "lane": 9180,
      "naive": 9181,
      "harry": 9182,
      "electromag": 9183,
      "operated": 9184,
      "biosphere": 9185,
      "recovered": 9186,
      "burger": 9187,
      "grandma": 9188,
      "trading": 9189,
      "supportive": 9190,
      "picks": 9191,
      "multin": 9192,
[...]
