{
  "version": "1.0",
  "truncation": null,
  "padding": null,
  "added_tokens": [
    {
      "id": 0,
      "content": "[UNK]",
      "single_word": false,
      "lstrip": false,
      "rstrip": false,
      "normalized": false,
      "special": true
    },
    {
      "id": 1,
      "content": "[START]",
      "single_word": false,
      "lstrip": false,
      "rstrip": false,
      "normalized": false,
      "special": true
    },
    {
      "id": 2,
      "content": "[NEXT]",
      "single_word": false,
      "lstrip": false,
      "rstrip": false,
      "normalized": false,
      "special": true
    },
    {
      "id": 3,
      "content": "[STOP]",
      "single_word": false,
      "lstrip": false,
      "rstrip": false,
      "normalized": false,
      "special": true
    }
  ],
  "normalizer": {
    "type": "Sequence",
    "normalizers": [
      {
        "type": "Lowercase"
      },
      {
        "type": "Strip",
        "strip_left": true,
        "strip_right": true
      }
    ]
  },
  "pre_tokenizer": {
    "type": "Whitespace"
  },
  "post_processor": null,
  "decoder": null,
  "model": {
    "type": "BPE",
    "dropout": null,
    "unk_token": null,
    "continuing_subword_prefix": null,
    "end_of_word_suffix": null,
    "fuse_unk": false,
    "byte_fallback": false,
    "ignore_merges": false,
    "vocab": {
      "[UNK]": 0,
      "[START]": 1,
      "[NEXT]": 2,
      "[STOP]": 3,
      " ": 4,
      "!": 5,
      "#": 6,
      "$": 7,
      "%": 8,
      "&": 9,
      "'": 10,
      "(": 11,
      ")": 12,
      "*": 13,
      "+": 14,
      ",": 15,
      "-": 16,
      ".": 17,
      "/": 18,
      "0": 19,
      "1": 20,
      "2": 21,
      "3": 22,
      "4": 23,
      "5": 24,
      "6": 25,
      "7": 26,
      "8": 27,
      "9": 28,
      ":": 29,
      ";": 30,
      "=": 31,
      ">": 32,
      "?": 33,
      "@": 34,
      "[": 35,
      "]": 36,
      "^": 37,
      "_": 38,
      "`": 39,
      "a": 40,
      "b": 41,
      "c": 42,
      "d": 43,
      "e": 44,
      "f": 45,
      "g": 46,
      "h": 47,
      "i": 48,
      "j": 49,
      "k": 50,
      "l": 51,
      "m": 52,
      "n": 53,
      "o": 54,
      "p": 55,
      "q": 56,
      "r": 57,
      "s": 58,
      "t": 59,
      "u": 60,
      "v": 61,
      "w": 62,
      "x": 63,
      "y": 64,
      "z": 65,
      "~": 66,
      "": 67,
      "¡": 68,
      "¥": 69,
      "ª": 70,
      "«": 71,
      "®": 72,
      "°": 73,
      "²": 74,
      "´": 75,
      "º": 76,
      "»": 77,
      "¾": 78,
      "¿": 79,
      "à": 80,
      "á": 81,
      "ã": 82,
      "ä": 83,
      "ç": 84,
      "è": 85,
      "é": 86,
      "ê": 87,
      "ì": 88,
      "í": 89,
      "ñ": 90,
      "ó": 91,
      "ö": 92,
      "ø": 93,
      "ú": 94,
      "ü": 95,
      "ā": 96,
      "ń": 97,
      "ō": 98,
      "š": 99,
      "α": 100,
      "ε": 101,
      "η": 102,
      "ι": 103,
      "κ": 104,
      "λ": 105,
      "ν": 106,
      "ρ": 107,
      "σ": 108,
      "τ": 109,
      "υ": 110,
      "χ": 111,
      "ω": 112,
      "с": 113,
      "أ": 114,
      "ؤ": 115,
      "ا": 116,
      "ب": 117,
      "ت": 118,
      "خ": 119,
      "د": 120,
      "ر": 121,
      "س": 122,
      "ط": 123,
      "ع": 124,
      "ك": 125,
      "ل": 126,
      "م": 127,
      "ن": 128,
      "ه": 129,
      "و": 130,
      "ي": 131,
      "ย": 132,
      "ร": 133,
      "อ": 134,
      "่": 135,
      "​": 136,
      "–": 137,
      "—": 138,
      "―": 139,
      "‘": 140,
      "’": 141,
      "“": 142,
      "”": 143,
      "…": 144,
      "€": 145,
      "≈": 146,
      "─": 147,
      "♪": 148,
      "♫": 149,
      "。": 150,
      "一": 151,
      "下": 152,
      "不": 153,
      "世": 154,
      "个": 155,
      "中": 156,
      "了": 157,
      "以": 158,
      "你": 159,
      "出": 160,
      "历": 161,
      "可": 162,
      "唱": 163,
      "啊": 164,
      "喜": 165,
      "声": 166,
      "外": 167,
      "大": 168,
      "太": 169,
      "妈": 170,
      "妨": 171,
      "姐": 172,
      "心": 173,
      "我": 174,
      "教": 175,
      "曲": 176,
      "有": 177,
      "来": 178,
      "歌": 179,
      "洋": 180,
      "游": 181,
      "王": 182,
      "界": 183,
      "的": 184,
      "等": 185,
      "给": 186,
      "阳": 187,
      "面": 188,
      "音": 189,
      "，": 190,
      "es": 191,
      "en": 192,
      "os": 193,
      "de": 194,
      "er": 195,
      "la": 196,
      "qu": 197,
      "ar": 198,
      "as": 199,
      "on": 200,
      "un": 201,
      "an": 202,
      "que": 203,
      "ci": 204,
      "or": 205,
      "al": 206,
      "est": 207,
      "ent": 208,
      "el": 209,
      "ad": 210,
      "re": 211,
      "in": 212,
      "am": 213,
      "do": 214,
      "ti": 215,
      "co": 216,
      "con": 217,
      "tr": 218,
      "di": 219,
      "lo": 220,
      "se": 221,
      "to": 222,
      "em": 223,
      "si": 224,
      "ab": 225,
      "mi": 226,
      "los": 227,
      "cu": 228,
      "pr": 229,
      "no": 230,
      "par": 231,
      "ón": 232,
      "per": 233,
      "''": 234,
      "por": 235,
      "mo": 236,
      "vi": 237,
      "una": 238,
      "ente": 239,
      "ha": 240,
      "te": 241,
      "ía": 242,
      "las": 243,
      "po": 244,
      "le": 245,
      "su": 246,
      "ca": 247,
      "me": 248,
      "ue": 249,
      "ción": 250,
      "so": 251,
      "ta": 252,
      "dad": 253,
      "ri": 254,
      "mu": 255,
      "ra": 256,
      "ma": 257,
      "bi": 258,
      "para": 259,
      "ec": 260,
      "amos": 261,
      "li": 262,
      "ten": 263,
      "da": 264,
      "ás": 265,
      "go": 266,
      "pro": 267,
      "ro": 268,
      "``": 269,
      "ch": 270,
      "ado": 271,
      "tu": 272,
      "des": 273,
      "mos": 274,
      "más": 275,
      "del": 276,
      "era": 277,
      "gu": 278,
      "son": 279,
      "pero": 280,
      "pa": 281,
      "ando": 282,
      "com": 283,
      "pi": 284,
      "cer": 285,
      "im": 286,
      "ver": 287,
      "fi": 288,
      "ter": 289,
      "qui": 290,
      "emos": 291,
      "gr": 292,
      "como": 293,
      "lu": 294,
      "dos": 295,
      "esto": 296,
      "pue": 297,
      "cion": 298,
      "ex": 299,
      "vo": 300,
      "ce": 301,
      "st": 302,
      "aba": 303,
      "pu": 304,
      "man": 305,
      "án": 306,
      "cos": 307,
      "tra": 308,
      "les": 309,
      "cia": 310,
      "nos": 311,
      "us": 312,
      "pe": 313,
      "res": 314,
      "ve": 315,
      "cre": 316,
      "ada": 317,
      "tan": 318,
      "ni": 319,
      "esta": 320,
      "ser": 321,
      "eso": 322,
      "tos": 323,
      "ento": 324,
      "du": 325,
      "así": 326,
      "hab": 327,
      "ambi": 328,
      "tar": 329,
      "ac": 330,
      "ho": 331,
      "pre": 332,
      "añ": 333,
      "ali": 334,
      "ora": 335,
      "nu": 336,
      "este": 337,
      "hi": 338,
      "tien": 339,
      "cas": 340,
      "car": 341,
      "va": 342,
      "for": 343,
      "jo": 344,
      "amente": 345,
      "qué": 346,
      "bre": 347,
      "hay": 348,
      "nuest": 349,
      "ales": 350,
      "gun": 351,
      "otr": 352,
      "den": 353,
      "mente": 354,
      "muy": 355,
      "hacer": 356,
      "ah": 357,
      "za": 358,
      "ens": 359,
      "much": 360,
      "ir": 361,
      "én": 362,
      "der": 363,
      "lar": 364,
      "fu": 365,
      "tes": 366,
      "ori": 367,
      "mis": 368,
      "ero": 369,
      "está": 370,
      "bu": 371,
      "gen": 372,
      "cuando": 373,
      "todo": 374,
      "gar": 375,
      "person": 376,
      "pas": 377,
      "lan": 378,
      "ras": 379,
      "almente": 380,
      "ciones": 381,
      "có": 382,
      "ami": 383,
      "ores": 384,
      "gi": 385,
      "porque": 386,
      "uni": 387,
      "00": 388,
      "ados": 389,
      "ones": 390,
      "mar": 391,
      "mun": 392,
      "endo": 393,
      "fer": 394,
      "años": 395,
      "ante": 396,
      "is": 397,
      "sab": 398,
      "je": 399,
      "pos": 400,
      "..": 401,
      "gran": 402,
      "encia": 403,
      "ba": 404,
      "eces": 405,
      "can": 406,
      "ces": 407,
      "algo": 408,
      "tas": 409,
      "entes": 410,
      "das": 411,
      "ne": 412,
      "na": 413,
      "sus": 414,
      "sin": 415,
      "ahora": 416,
      "ari": 417,
      "puede": 418,
      "ob": 419,
      "és": 420,
      "lem": 421,
      "quí": 422,
      "pod": 423,
      "todos": 424,
      "cómo": 425,
      "mundo": 426,
      "lí": 427,
      "ven": 428,
      "inter": 429,
      "medi": 430,
      "sobre": 431,
      "yo": 432,
      "lla": 433,
      "uno": 434,
      "fue": 435,
      "lle": 436,
      "forma": 437,
      "min": 438,
      "pres": 439,
      "contr": 440,
      "ían": 441,
      "men": 442,
      "ros": 443,
      "deci": 444,
      "demos": 445,
      "gente": 446,
      "hu": 447,
      "tambi": 448,
      "también": 449,
      "cor": 450,
      "aquí": 451,
      "ris": 452,
      "pon": 453,
      "tiene": 454,
      "ese": 455,
      "traba": 456,
      "dar": 457,
      "buen": 458,
      "ga": 459,
      "tal": 460,
      "bo": 461,
      "nue": 462,
      "ru": 463,
      "ej": 464,
      "au": 465,
      "personas": 466,
      "tenemos": 467,
      "prob": 468,
      "cada": 469,
      "fun": 470,
      "bien": 471,
      "otros": 472,
      "esa": 473,
      "gan": 474,
      "prim": 475,
      "pueden": 476,
      "cambi": 477,
      "pens": 478,
      "vez": 479,
      "eron": 480,
      "cono": 481,
      "están": 482,
      "zar": 483,
      "cosas": 484,
      "pren": 485,
      "gra": 486,
      "ll": 487,
      "cen": 488,
      "tiem": 489,
      "cias": 490,
      "estos": 491,
      "mas": 492,
      "emp": 493,
      "estas": 494,
      "ido": 495,
      "podemos": 496,
      "alidad": 497,
      "risas": 498,
      "vida": 499,
      "ble": 500,
      "neces": 501,
      "enta": 502,
      "mej": 503,
      "solo": 504,
      "gía": 505,
      "dis": 506,
      "tiempo": 507,
      "cri": 508,
      "hace": 509,
      "ap": 510,
      "hec": 511,
      "señ": 512,
      "don": 513,
      "mucho": 514,
      "quier": 515,
      "ya": 516,
      "segu": 517,
      "ina": 518,
      "dades": 519,
      "ún": 520,
      "antes": 521,
      "tec": 522,
      "ber": 523,
      "tener": 524,
      "fin": 525,
      "podr": 526,
      "cio": 527,
      "entos": 528,
      "tienen": 529,
      "ías": 530,
      "posi": 531,
      "ud": 532,
      "str": 533,
      "cam": 534,
      "onces": 535,
      "entonces": 536,
      "ima": 537,
      "difer": 538,
      "algun": 539,
      "impor": 540,
      "pregun": 541,
      "necesi": 542,
      "día": 543,
      "lugar": 544,
      "ol": 545,
      "sta": 546,
      "tri": 547,
      "estu": 548,
      "hecho": 549,
      "sal": 550,
      "ide": 551,
      "sión": 552,
      "ple": 553,
      "estaba": 554,
      "eb": 555,
      "íamos": 556,
      "sig": 557,
      "hist": 558,
      "tor": 559,
      "adas": 560,
      "sent": 561,
      "ís": 562,
      "adi": 563,
      "tura": 564,
      "han": 565,
      "sí": 566,
      "fr": 567,
      "tante": 568,
      "realmente": 569,
      "decir": 570,
      "bas": 571,
      "he": 572,
      "entre": 573,
      "uego": 574,
      "niñ": 575,
      "histori": 576,
      "mento": 577,
      "gui": 578,
      "...": 579,
      "rar": 580,
      "stru": 581,
      "fí": 582,
      "mejor": 583,
      "tiv": 584,
      "había": 585,
      "tica": 586,
      "creo": 587,
      "estamos": 588,
      "fici": 589,
      "ólo": 590,
      "donde": 591,
      "tem": 592,
      "zo": 593,
      "ul": 594,
      "ión": 595,
      "parte": 596,
      "año": 597,
      "sa": 598,
      "yor": 599,
      "poco": 600,
      "fica": 601,
      "miento": 602,
      "problem": 603,
      "eli": 604,
      "quer": 605,
      "tir": 606,
      "bueno": 607,
      "cla": 608,
      "tro": 609,
      "jer": 610,
      "human": 611,
      "cción": 612,
      "pli": 613,
      "escu": 614,
      "clu": 615,
      "nuestra": 616,
      "cur": 617,
      "int": 618,
      "ja": 619,
      "encontr": 620,
      "cuer": 621,
      "has": 622,
      "van": 623,
      "jar": 624,
      "ador": 625,
      "hoy": 626,
      "fo": 627,
      "aban": 628,
      "mismo": 629,
      "realidad": 630,
      "fec": 631,
      "lab": 632,
      "peque": 633,
      "pequeñ": 634,
      "bar": 635,
      "desde": 636,
      "jos": 637,
      "able": 638,
      "ia": 639,
      "luego": 640,
      "mill": 641,
      "constru": 642,
      "otra": 643,
      "stem": 644,
      "cha": 645,
      "gos": 646,
      "cil": 647,
      "sólo": 648,
      "tamente": 649,
      "toda": 650,
      "cal": 651,
      "tran": 652,
      "nosotros": 653,
      "soci": 654,
      "mí": 655,
      "ay": 656,
      "ejemp": 657,
      "manera": 658,
      "bri": 659,
      "apren": 660,
      "tur": 661,
      "lemente": 662,
      "ación": 663,
      "produ": 664,
      "despu": 665,
      "después": 666,
      "quiero": 667,
      "estudi": 668,
      "nuestro": 669,
      "hemos": 670,
      "ellos": 671,
      "parec": 672,
      "tipo": 673,
      "vir": 674,
      "ing": 675,
      "tico": 676,
      "ino": 677,
      "mayor": 678,
      "sistem": 679,
      "lti": 680,
      "pec": 681,
      "eran": 682,
      "tecno": 683,
      "plan": 684,
      "propi": 685,
      "hasta": 686,
      "her": 687,
      "sim": 688,
      "tenía": 689,
      "exper": 690,
      "xi": 691,
      "menos": 692,
      "logía": 693,
      "tamos": 694,
      "estar": 695,
      "millones": 696,
      "llam": 697,
      "empe": 698,
      "funcion": 699,
      "inclu": 700,
      "momento": 701,
      "trabajo": 702,
      "idea": 703,
      "esti": 704,
      "ella": 705,
      "mb": 706,
      "él": 707,
      "todas": 708,
      "historia": 709,
      "otro": 710,
      "cul": 711,
      "país": 712,
      "paci": 713,
      "deb": 714,
      "tiva": 715,
      "dur": 716,
      "ejemplo": 717,
      "rá": 718,
      "teri": 719,
      "tivo": 720,
      "gua": 721,
      "mon": 722,
      "espe": 723,
      "vol": 724,
      "cual": 725,
      "elo": 726,
      "unto": 727,
      "mujer": 728,
      "ren": 729,
      "vamos": 730,
      "comple": 731,
      "formación": 732,
      "poder": 733,
      "dor": 734,
      "muchos": 735,
      "amiento": 736,
      "nun": 737,
      "entro": 738,
      "nunca": 739,
      "muchas": 740,
      "mal": 741,
      "cier": 742,
      "trans": 743,
      "escri": 744,
      "esos": 745,
      "esper": 746,
      "tad": 747,
      "ér": 748,
      "problema": 749,
      "pan": 750,
      "estoy": 751,
      "apla": 752,
      "primer": 753,
      "signi": 754,
      "especi": 755,
      "bli": 756,
      "din": 757,
      "durante": 758,
      "siem": 759,
      "podría": 760,
      "gin": 761,
      "siempre": 762,
      "usos": 763,
      "nuestros": 764,
      "ment": 765,
      "cé": 766,
      "ciendo": 767,
      "val": 768,
      "000": 769,
      "idad": 770,
      "dijo": 771,
      "cereb": 772,
      "enten": 773,
      "lado": 774,
      "algunos": 775,
      "mé": 776,
      "últi": 777,
      "ario": 778,
      "veces": 779,
      "fa": 780,
      "var": 781,
      "sistema": 782,
      "gas": 783,
      "ele": 784,
      "reci": 785,
      "aplausos": 786,
      "resul": 787,
      "rec": 788,
      "alg": 789,
      "bus": 790,
      "raz": 791,
      "má": 792,
      "pla": 793,
      "comuni": 794,
      "mer": 795,
      "información": 796,
      "niños": 797,
      "edad": 798,
      "erra": 799,
      "diseñ": 800,
      "importante": 801,
      "vas": 802,
      "estado": 803,
      "inci": 804,
      "tori": 805,
      "dan": 806,
      "tengo": 807,
      "cho": 808,
      "arro": 809,
      "sea": 810,
      "parti": 811,
      "cación": 812,
      "mbre": 813,
      "pensar": 814,
      "lor": 815,
      "ciu": 816,
      "allí": 817,
      "suce": 818,
      "cep": 819,
      "unos": 820,
      "chi": 821,
      "eza": 822,
      "tado": 823,
      "adores": 824,
      "gracias": 825,
      "20": 826,
      "ge": 827,
      "indi": 828,
      "pen": 829,
      "ano": 830,
      "cado": 831,
      "nor": 832,
      "incluso": 833,
      "camente": 834,
      "nuevo": 835,
      "port": 836,
      "otras": 837,
      "lib": 838,
      "ayu": 839,
      "tres": 840,
      "aron": 841,
      "cuenta": 842,
      "medio": 843,
      "cin": 844,
      "univer": 845,
      "comi": 846,
      "sica": 847,
      "hablar": 848,
      "lación": 849,
      "soy": 850,
      "tecnología": 851,
      "cont": 852,
      "interes": 853,
      "esas": 854,
      "io": 855,
      "tí": 856,
      "nuestras": 857,
      "elec": 858,
      "persona": 859,
      "ju": 860,
      "inv": 861,
      "lidad": 862,
      "segun": 863,
      "ensa": 864,
      "ana": 865,
      "fuer": 866,
      "sino": 867,
      "ur": 868,
      "algui": 869,
      "stas": 870,
      "alguien": 871,
      "10": 872,
      "sos": 873,
      "volu": 874,
      "mir": 875,
      "nada": 876,
      "lares": 877,
      "adre": 878,
      "cerca": 879,
      "har": 880,
      "nú": 881,
      "usar": 882,
      "pañ": 883,
      "significa": 884,
      "permi": 885,
      "hacerlo": 886,
      "fami": 887,
      "mostr": 888,
      "dí": 889,
      "princi": 890,
      "super": 891,
      "comen": 892,
      "fri": 893,
      "famili": 894,
      "yec": 895,
      "ener": 896,
      "ticas": 897,
      "len": 898,
      "trabaj": 899,
      "puesto": 900,
      "aún": 901,
      "nueva": 902,
      "hacia": 903,
      "ins": 904,
      "termin": 905,
      "casi": 906,
      "mes": 907,
      "cios": 908,
      "pri": 909,
      "cir": 910,
      "mujeres": 911,
      "fá": 912,
      "voy": 913,
      "ahí": 914,
      "uds": 915,
      "datos": 916,
      "primera": 917,
      "escue": 918,
      "deber": 919,
      "char": 920,
      "tó": 921,
      "cuán": 922,
      "auto": 923,
      "estru": 924,
      "dice": 925,
      "cerebro": 926,
      "desarro": 927,
      "casa": 928,
      "che": 929,
      "gru": 930,
      "natur": 931,
      "conoci": 932,
      "tam": 933,
      "fal": 934,
      "enfer": 935,
      "via": 936,
      "saben": 937,
      "equi": 938,
      "difí": 939,
      "hac": 940,
      "tanto": 941,
      "dé": 942,
      "té": 943,
      "ár": 944,
      "sido": 945,
      "simp": 946,
      "ena": 947,
      "cab": 948,
      "incre": 949,
      "algunas": 950,
      "sor": 951,
      "agua": 952,
      "mor": 953,
      "ciencia": 954,
      "palab": 955,
      "extra": 956,
      "encontrar": 957,
      "proyec": 958,
      "fuera": 959,
      "ría": 960,
      "anti": 961,
      "solu": 962,
      "llo": 963,
      "tras": 964,
      "respu": 965,
      "cambiar": 966,
      "igu": 967,
      "vía": 968,
      "gener": 969,
      "dón": 970,
      "vu": 971,
      "ee": 972,
      "contra": 973,
      "puedo": 974,
      "exis": 975,
      "19": 976,
      "ífi": 977,
      "úni": 978,
      "quiz": 979,
      "diferentes": 980,
      "cional": 981,
      "imagin": 982,
      "futu": 983,
      "descu": 984,
      "parece": 985,
      "encias": 986,
      "polí": 987,
      "hici": 988,
      "entar": 989,
      "obje": 990,
      "cualquier": 991,
      "titu": 992,
      "quién": 993,
      "tivos": 994,
      "stan": 995,
      "grandes": 996,
      "zación": 997,
      "bles": 998,
      "ló": 999,
      "cidad": 1000,
      "pare": 1001,
      "desa": 1002,
      "misma": 1003,
      "enci": 1004,
      "cambio": 1005,
      "ban": 1006,
      "hor": 1007,
      "energía": 1008,
      "cent": 1009,
      "mil": 1010,
      "hacen": 1011,
      "bajo": 1012,
      "ocur": 1013,
      "ama": 1014,
      "sé": 1015,
      "punto": 1016,
      "crear": 1017,
      "rápi": 1018,
      "vis": 1019,
      "actu": 1020,
      "pú": 1021,
      "aría": 1022,
      "futuro": 1023,
      "pel": 1024,
      "tores": 1025,
      "san": 1026,
      "dió": 1027,
      "progr": 1028,
      "cosa": 1029,
      "dónde": 1030,
      "ade": 1031,
      "sigui": 1032,
      "trata": 1033,
      "llos": 1034,
      "ene": 1035,
      "pacio": 1036,
      "verdad": 1037,
      "días": 1038,
      "imos": 1039,
      "dio": 1040,
      "respon": 1041,
      "difícil": 1042,
      "compu": 1043,
      "sería": 1044,
      "pregunta": 1045,
      "increí": 1046,
      "ceso": 1047,
      "edi": 1048,
      "untos": 1049,
      "confi": 1050,
      "vide": 1051,
      "uu": 1052,
      "bier": 1053,
      "posible": 1054,
      "empez": 1055,
      "cient": 1056,
      "entras": 1057,
      "ran": 1058,
      "compar": 1059,
      "cto": 1060,
      "espacio": 1061,
      "id": 1062,
      "ál": 1063,
      "oso": 1064,
      "natural": 1065,
      "rí": 1066,
      "vos": 1067,
      "tomar": 1068,
      "somos": 1069,
      "genes": 1070,
      "ciudad": 1071,
      "ton": 1072,
      "tom": 1073,
      "edu": 1074,
      "conver": 1075,
      "haciendo": 1076,
      "50": 1077,
      "sali": 1078,
      "uti": 1079,
      "tando": 1080,
      "mú": 1081,
      "bos": 1082,
      "mientras": 1083,
      "necesitamos": 1084,
      "dó": 1085,
      "caso": 1086,
      "lá": 1087,
      "públi": 1088,
      "cli": 1089,
      "muer": 1090,
      "diferente": 1091,
      "vel": 1092,
      "anza": 1093,
      "grande": 1094,
      "salud": 1095,
      "vuel": 1096,
      "tre": 1097,
      "dere": 1098,
      "eta": 1099,
      "sabemos": 1100,
      "ger": 1101,
      "dido": 1102,
      "pasado": 1103,
      "mode": 1104,
      "tación": 1105,
      "mayoría": 1106,
      "cierto": 1107,
      "be": 1108,
      "vari": 1109,
      "pin": 1110,
      "muest": 1111,
      "luz": 1112,
      "seguir": 1113,
      "tel": 1114,
      "tados": 1115,
      "inf": 1116,
      "tierra": 1117,
      "poner": 1118,
      "mero": 1119,
      "dedor": 1120,
      "anim": 1121,
      "reg": 1122,
      "compañ": 1123,
      "simplemente": 1124,
      "llegar": 1125,
      "bastante": 1126,
      "consi": 1127,
      "fes": 1128,
      "haber": 1129,
      "experi": 1130,
      "dinero": 1131,
      "ag": 1132,
      "construir": 1133,
      "escuela": 1134,
      "conec": 1135,
      "bir": 1136,
      "enferme": 1137,
      "ví": 1138,
      "trav": 1139,
      "experim": 1140,
      "200": 1141,
      "ño": 1142,
      "piens": 1143,
      "respuesta": 1144,
      "enseñ": 1145,
      "cular": 1146,
      "net": 1147,
      "cel": 1148,
      "vemos": 1149,
      "ticos": 1150,
      "embar": 1151,
      "alim": 1152,
      "enti": 1153,
      "logr": 1154,
      "vivi": 1155,
      "nivel": 1156,
      "minu": 1157,
      "abi": 1158,
      "mbres": 1159,
      "investi": 1160,
      "empres": 1161,
      "gani": 1162,
      "dentro": 1163,
      "nadi": 1164,
      "razón": 1165,
      "mano": 1166,
      "entender": 1167,
      "número": 1168,
      "mostrar": 1169,
      "utili": 1170,
      "nadie": 1171,
      "cán": 1172,
      "cole": 1173,
      "pob": 1174,
      "hombre": 1175,
      "mara": 1176,
      "alre": 1177,
      "modo": 1178,
      "supuesto": 1179,
      "fácil": 1180,
      "dir": 1181,
      "visi": 1182,
      "hizo": 1183,
      "lando": 1184,
      "primero": 1185,
      "ig": 1186,
      "ocu": 1187,
      "mucha": 1188,
      "uste": 1189,
      "rela": 1190,
      "condu": 1191,
      "países": 1192,
      "fon": 1193,
      "quería": 1194,
      "música": 1195,
      "bal": 1196,
      "dr": 1197,
      "hos": 1198,
      "geni": 1199,
      "obser": 1200,
      "alrededor": 1201,
      "sur": 1202,
      "ase": 1203,
      "recuer": 1204,
      "seman": 1205,
      "ridad": 1206,
      "podía": 1207,
      "célu": 1208,
      "estruc": 1209,
      "video": 1210,
      "arte": 1211,
      "ablemente": 1212,
      "proyecto": 1213,
      "atro": 1214,
      "evi": 1215,
      "ind": 1216,
      "movi": 1217,
      "quien": 1218,
      "expli": 1219,
      "quiere": 1220,
      "imagen": 1221,
      "foto": 1222,
      "empezar": 1223,
      "científi": 1224,
      "líne": 1225,
      "lleg": 1226,
      "masi": 1227,
      "bamos": 1228,
      "ning": 1229,
      "pal": 1230,
      "habi": 1231,
      "ellas": 1232,
      "real": 1233,
      "aliz": 1234,
      "bá": 1235,
      "red": 1236,
      "vivir": 1237,
      "pio": 1238,
      "través": 1239,
      "econo": 1240,
      "efec": 1241,
      "quiera": 1242,
      "sentido": 1243,
      "todavía": 1244,
      "quizá": 1245,
      "blo": 1246,
      "tros": 1247,
      "mic": 1248,
      "culo": 1249,
      "dado": 1250,
      "gobier": 1251,
      "tuvi": 1252,
      "amigos": 1253,
      "mó": 1254,
      "dej": 1255,
      "capaci": 1256,
      "cuerpo": 1257,
      "unas": 1258,
      "siones": 1259,
      "internet": 1260,
      "esca": 1261,
      "vista": 1262,
      "canti": 1263,
      "cial": 1264,
      "profes": 1265,
      "30": 1266,
      "glo": 1267,
      "stin": 1268,
      "fre": 1269,
      "zas": 1270,
      "encu": 1271,
      "problemas": 1272,
      "médi": 1273,
      "ayudar": 1274,
      "interesante": 1275,
      "madre": 1276,
      "err": 1277,
      "estaban": 1278,
      "contar": 1279,
      "emo": 1280,
      "emente": 1281,
      "sol": 1282,
      "apli": 1283,
      "arse": 1284,
      "sec": 1285,
      "materi": 1286,
      "ki": 1287,
      "lante": 1288,
      "pequeño": 1289,
      "funciona": 1290,
      "dente": 1291,
      "ini": 1292,
      "dije": 1293,
      "trabajar": 1294,
      "hacemos": 1295,
      "embargo": 1296,
      "idos": 1297,
      "gust": 1298,
      "igual": 1299,
      "uro": 1300,
      "palabras": 1301,
      "aun": 1302,
      "jes": 1303,
      "mía": 1304,
      "cina": 1305,
      "descubri": 1306,
      "anos": 1307,
      "ley": 1308,
      "pudi": 1309,
      "contin": 1310,
      "pró": 1311,
      "dese": 1312,
      "hombres": 1313,
      "temá": 1314,
      "cle": 1315,
      "eros": 1316,
      "digo": 1317,
      "sidad": 1318,
      "pasa": 1319,
      "queremos": 1320,
      "alguna": 1321,
      "exp": 1322,
      "vidas": 1323,
      "humano": 1324,
      "sorpren": 1325,
      "experiencia": 1326,
      "abri": 1327,
      "pie": 1328,
      "usa": 1329,
      "saber": 1330,
      "eras": 1331,
      "aso": 1332,
      "col": 1333,
      "sis": 1334,
      "estr": 1335,
      "capa": 1336,
      "matemá": 1337,
      "exac": 1338,
      "aprender": 1339,
      "ion": 1340,
      "direc": 1341,
      "torio": 1342,
      "encan": 1343,
      "ello": 1344,
      "segundo": 1345,
      "cula": 1346,
      "ries": 1347,
      "puedes": 1348,
      "debe": 1349,
      "pes": 1350,
      "dejar": 1351,
      "llevar": 1352,
      "grupo": 1353,
      "cía": 1354,
      "jus": 1355,
      "crea": 1356,
      "volver": 1357,
      "familia": 1358,
      "oport": 1359,
      "entas": 1360,
      "liber": 1361,
      "tantes": 1362,
      "buena": 1363,
      "gación": 1364,
      "humanos": 1365,
      "algún": 1366,
      "ustedes": 1367,
      "jas": 1368,
      "tera": 1369,
      "cimiento": 1370,
      "organi": 1371,
      "ea": 1372,
      "pá": 1373,
      "ables": 1374,
      "sociedad": 1375,
      "miles": 1376,
      "tales": 1377,
      "cuatro": 1378,
      "proceso": 1379,
      "turas": 1380,
      "pequeña": 1381,
      "oportuni": 1382,
      "ai": 1383,
      "claro": 1384,
      "meses": 1385,
      "zon": 1386,
      "ómi": 1387,
      "óni": 1388,
      "exi": 1389,
      "habla": 1390,
      "bási": 1391,
      "profun": 1392,
      "fueron": 1393,
      "lugares": 1394,
      "máqu": 1395,
      "sex": 1396,
      "niño": 1397,
      "labora": 1398,
      "cantidad": 1399,
      "aten": 1400,
      "ior": 1401,
      "uso": 1402,
      "trás": 1403,
      "comer": 1404,
      "agu": 1405,
      "cido": 1406,
      "dios": 1407,
      "fui": 1408,
      "media": 1409,
      "tivas": 1410,
      "feli": 1411,
      "visto": 1412,
      "fe": 1413,
      "recor": 1414,
      "bido": 1415,
      "nas": 1416,
      "rami": 1417,
      "ác": 1418,
      "bio": 1419,
      "pasar": 1420,
      "aria": 1421,
      "probablemente": 1422,
      "historias": 1423,
      "fav": 1424,
      "viol": 1425,
      "gro": 1426,
      "taba": 1427,
      "alizar": 1428,
      "frica": 1429,
      "100": 1430,
      "pó": 1431,
      "tex": 1432,
      "camino": 1433,
      "herrami": 1434,
      "llamado": 1435,
      "libro": 1436,
      "et": 1437,
      "demasi": 1438,
      "tido": 1439,
      "diver": 1440,
      "terr": 1441,
      "arios": 1442,
      "distin": 1443,
      "llama": 1444,
      "sala": 1445,
      "áfrica": 1446,
      "cuál": 1447,
      "correc": 1448,
      "pecto": 1449,
      "increíble": 1450,
      "gamos": 1451,
      "mejores": 1452,
      "quieren": 1453,
      "ideas": 1454,
      "estudiantes": 1455,
      "comunidad": 1456,
      "siguiente": 1457,
      "indus": 1458,
      "acerca": 1459,
      "mensa": 1460,
      "depen": 1461,
      "adres": 1462,
      "partes": 1463,
      "simple": 1464,
      "dólares": 1465,
      "dam": 1466,
      "fra": 1467,
      "oí": 1468,
      "redu": 1469,
      "noche": 1470,
      "mol": 1471,
      "vio": 1472,
      "llev": 1473,
      "nuevas": 1474,
      "final": 1475,
      "comien": 1476,
      "línea": 1477,
      "bon": 1478,
      "econ": 1479,
      "junto": 1480,
      "adamente": 1481,
      "dimos": 1482,
      "vidu": 1483,
      "ted": 1484,
      "será": 1485,
      "individu": 1486,
      "aunque": 1487,
      "defin": 1488,
      "tivi": 1489,
      "voz": 1490,
      "preguntas": 1491,
      "económi": 1492,
      "inver": 1493,
      "viene": 1494,
      "compren": 1495,
      "hijos": 1496,
      "formas": 1497,
      "universo": 1498,
      "células": 1499,
      "presión": 1500,
      "valor": 1501,
      "tón": 1502,
      "zado": 1503,
      "adu": 1504,
      "dial": 1505,
      "sufici": 1506,
      "compr": 1507,
      "fran": 1508,
      "produc": 1509,
      "industri": 1510,
      "cí": 1511,
      "flu": 1512,
      "mentos": 1513,
      "ts": 1514,
      "culos": 1515,
      "visión": 1516,
      "hice": 1517,
      "propia": 1518,
      "modelo": 1519,
      "exactamente": 1520,
      "zan": 1521,
      "osa": 1522,
      "mie": 1523,
      "ración": 1524,
      "pul": 1525,
      "preci": 1526,
      "empec": 1527,
      "ocurri": 1528,
      "gustaría": 1529,
      "15": 1530,
      "cali": 1531,
      "arti": 1532,
      "consu": 1533,
      "tró": 1534,
      "tenido": 1535,
      "xito": 1536,
      "volución": 1537,
      "economía": 1538,
      "gri": 1539,
      "oper": 1540,
      "sucede": 1541,
      "comida": 1542,
      "gías": 1543,
      "juntos": 1544,
      "tú": 1545,
      "entemente": 1546,
      "inas": 1547,
      "bol": 1548,
      "inteli": 1549,
      "especie": 1550,
      "hicimos": 1551,
      "horas": 1552,
      "avan": 1553,
      "ck": 1554,
      "op": 1555,
      "tán": 1556,
      "tador": 1557,
      "ña": 1558,
      "leo": 1559,
      "preocu": 1560,
      "dencia": 1561,
      "br": 1562,
      "ental": 1563,
      "tencia": 1564,
      "papel": 1565,
      "gres": 1566,
      "educación": 1567,
      "maravi": 1568,
      "capacidad": 1569,
      "ata": 1570,
      "hon": 1571,
      "podríamos": 1572,
      "diferencia": 1573,
      "miedo": 1574,
      "jó": 1575,
      "padre": 1576,
      "udo": 1577,
      "repres": 1578,
      "sabe": 1579,
      "éramos": 1580,
      "atra": 1581,
      "regi": 1582,
      "inno": 1583,
      "amor": 1584,
      "secu": 1585,
      "prue": 1586,
      "sub": 1587,
      "prote": 1588,
      "guerra": 1589,
      "tratar": 1590,
      "hablando": 1591,
      "social": 1592,
      "debemos": 1593,
      "diseño": 1594,
      "damente": 1595,
      "radi": 1596,
      "metros": 1597,
      "tenían": 1598,
      "tarde": 1599,
      "mismos": 1600,
      "demasiado": 1601,
      "aque": 1602,
      "dia": 1603,
      "diendo": 1604,
      "sue": 1605,
      "ficios": 1606,
      "clase": 1607,
      "debería": 1608,
      "ágenes": 1609,
      "inar": 1610,
      "mala": 1611,
      "imágenes": 1612,
      "eligi": 1613,
      "planeta": 1614,
      "euro": 1615,
      "enor": 1616,
      "entan": 1617,
      "toma": 1618,
      "gusta": 1619,
      "at": 1620,
      "remos": 1621,
      "menudo": 1622,
      "público": 1623,
      "cru": 1624,
      "centro": 1625,
      "tuvo": 1626,
      "patr": 1627,
      "mundial": 1628,
      "pensé": 1629,
      "tamaño": 1630,
      "única": 1631,
      "gobierno": 1632,
      "apo": 1633,
      "fle": 1634,
      "lon": 1635,
      "ves": 1636,
      "situ": 1637,
      "noti": 1638,
      "control": 1639,
      "cultura": 1640,
      "particular": 1641,
      "lógi": 1642,
      "atención": 1643,
      "cando": 1644,
      "gir": 1645,
      "ner": 1646,
      "pieza": 1647,
      "ayuda": 1648,
      "existe": 1649,
      "iz": 1650,
      "estados": 1651,
      "graf": 1652,
      "siglo": 1653,
      "último": 1654,
      "naturaleza": 1655,
      "afec": 1656,
      "gre": 1657,
      "adn": 1658,
      "mirar": 1659,
      "ficar": 1660,
      "paso": 1661,
      "ciudades": 1662,
      "muestra": 1663,
      "yendo": 1664,
      "tuve": 1665,
      "neur": 1666,
      "seguridad": 1667,
      "escuch": 1668,
      "compartir": 1669,
      "enfermedad": 1670,
      "cados": 1671,
      "padres": 1672,
      "envi": 1673,
      "erte": 1674,
      "til": 1675,
      "dij": 1676,
      "dieron": 1677,
      "siti": 1678,
      "sola": 1679,
      "contro": 1680,
      "finalmente": 1681,
      "campo": 1682,
      "necesita": 1683,
      "culas": 1684,
      "publi": 1685,
      "largo": 1686,
      "comenz": 1687,
      "institu": 1688,
      "cá": 1689,
      "religi": 1690,
      "tis": 1691,
      "cons": 1692,
      "prác": 1693,
      "maest": 1694,
      "pien": 1695,
      "nego": 1696,
      "podrían": 1697,
      "posición": 1698,
      "sociales": 1699,
      "og": 1700,
      "ció": 1701,
      "pital": 1702,
      "seguro": 1703,
      "físi": 1704,
      "estructura": 1705,
      "cciones": 1706,
      "tot": 1707,
      "perfec": 1708,
      "viendo": 1709,
      "servi": 1710,
      "escala": 1711,
      "aire": 1712,
      "básicamente": 1713,
      "empecé": 1714,
      "iba": 1715,
      "ok": 1716,
      "pat": 1717,
      "verda": 1718,
      "tema": 1719,
      "política": 1720,
      "cr": 1721,
      "sac": 1722,
      "osos": 1723,
      "ques": 1724,
      "comport": 1725,
      "genera": 1726,
      "cinco": 1727,
      "desarrollo": 1728,
      "conocimiento": 1729,
      "global": 1730,
      "neuron": 1731,
      "dores": 1732,
      "ojos": 1733,
      "absolu": 1734,
      "extre": 1735,
      "geno": 1736,
      "completamente": 1737,
      "general": 1738,
      "rápido": 1739,
      "animales": 1740,
      "investigación": 1741,
      "nar": 1742,
      "allá": 1743,
      "hubi": 1744,
      "pequeños": 1745,
      "arlo": 1746,
      "tradi": 1747,
      "dicen": 1748,
      "ejas": 1749,
      "conocer": 1750,
      "tividad": 1751,
      "40": 1752,
      "nombre": 1753,
      "tienes": 1754,
      "fundam": 1755,
      "pensamos": 1756,
      "propio": 1757,
      "últimos": 1758,
      "cora": 1759,
      "oscu": 1760,
      "confianza": 1761,
      "violencia": 1762,
      "cra": 1763,
      "oh": 1764,
      "espec": 1765,
      "dolor": 1766,
      "lidades": 1767,
      "resol": 1768,
      "bur": 1769,
      "resulta": 1770,
      "lengua": 1771,
      "máquina": 1772,
      "hora": 1773,
      "ral": 1774,
      "sen": 1775,
      "eres": 1776,
      "mitad": 1777,
      "ficio": 1778,
      "cionales": 1779,
      "cara": 1780,
      "vación": 1781,
      "sabía": 1782,
      "principio": 1783,
      "acep": 1784,
      "blan": 1785,
      "camos": 1786,
      "wi": 1787,
      "ciru": 1788,
      "recur": 1789,
      "teor": 1790,
      "bilidad": 1791,
      "intera": 1792,
      "único": 1793,
      "minutos": 1794,
      "edades": 1795,
      "alcan": 1796,
      "grá": 1797,
      "medida": 1798,
      "york": 1799,
      "program": 1800,
      "pienso": 1801,
      "apro": 1802,
      "bor": 1803,
      "gina": 1804,
      "cientos": 1805,
      "estión": 1806,
      "cuidad": 1807,
      "manos": 1808,
      "además": 1809,
      "móvi": 1810,
      "60": 1811,
      "vac": 1812,
      "áre": 1813,
      "poli": 1814,
      "mantener": 1815,
      "humana": 1816,
      "segunda": 1817,
      "población": 1818,
      "oportunidad": 1819,
      "beb": 1820,
      "ctor": 1821,
      "ío": 1822,
      "colo": 1823,
      "ahor": 1824,
      "minis": 1825,
      "partici": 1826,
      "trabajando": 1827,
      "equipo": 1828,
      "continu": 1829,
      "acer": 1830,
      "logías": 1831,
      "moder": 1832,
      "venes": 1833,
      "piensen": 1834,
      "científicos": 1835,
      "totalmente": 1836,
      "tér": 1837,
      "ús": 1838,
      "debido": 1839,
      "ancia": 1840,
      "teni": 1841,
      "chos": 1842,
      "sonido": 1843,
      "pone": 1844,
      "poni": 1845,
      "encontramos": 1846,
      "hermos": 1847,
      "consider": 1848,
      "semana": 1849,
      "jóvenes": 1850,
      "ios": 1851,
      "ps": 1852,
      "psi": 1853,
      "sens": 1854,
      "tió": 1855,
      "dida": 1856,
      "pueda": 1857,
      "acción": 1858,
      "audi": 1859,
      "universidad": 1860,
      "maravillos": 1861,
      "18": 1862,
      "az": 1863,
      "cadas": 1864,
      "enfr": 1865,
      "sion": 1866,
      "cuad": 1867,
      "parar": 1868,
      "tend": 1869,
      "sentir": 1870,
      "mercado": 1871,
      "permite": 1872,
      "lin": 1873,
      "demo": 1874,
      "color": 1875,
      "digi": 1876,
      "robo": 1877,
      "común": 1878,
      "dose": 1879,
      "importa": 1880,
      "clear": 1881,
      "herramientas": 1882,
      "bra": 1883,
      "ín": 1884,
      "siquiera": 1885,
      "acab": 1886,
      "libros": 1887,
      "fuerza": 1888,
      "damos": 1889,
      "table": 1890,
      "éxito": 1891,
      "ñas": 1892,
      "detec": 1893,
      "concep": 1894,
      "mientos": 1895,
      "abajo": 1896,
      "nacional": 1897,
      "importantes": 1898,
      "tivamente": 1899,
      "llamada": 1900,
      "fas": 1901,
      "oc": 1902,
      "esco": 1903,
      "entren": 1904,
      "emi": 1905,
      "teníamos": 1906,
      "tus": 1907,
      "nuclear": 1908,
      "tecnologías": 1909,
      "relación": 1910,
      "simi": 1911,
      "mica": 1912,
      "descri": 1913,
      "puer": 1914,
      "ambiente": 1915,
      "pasión": 1916,
      "palabra": 1917,
      "texto": 1918,
      "acuer": 1919,
      "seri": 1920,
      "estudio": 1921,
      "última": 1922,
      "resultados": 1923,
      "charla": 1924,
      "imaginen": 1925,
      "micro": 1926,
      "izquier": 1927,
      "ale": 1928,
      "gol": 1929,
      "tual": 1930,
      "impa": 1931,
      "disposi": 1932,
      "preguntar": 1933,
      "cáncer": 1934,
      "laboratorio": 1935,
      "bro": 1936,
      "ses": 1937,
      "dera": 1938,
      "queda": 1939,
      "entu": 1940,
      "pron": 1941,
      "pier": 1942,
      "escribir": 1943,
      "inspi": 1944,
      "computador": 1945,
      "fras": 1946,
      "ilu": 1947,
      "redes": 1948,
      "visu": 1949,
      "medios": 1950,
      "lleva": 1951,
      "física": 1952,
      "cabeza": 1953,
      "movimiento": 1954,
      "ños": 1955,
      "estás": 1956,
      "adora": 1957,
      "ingeni": 1958,
      "conven": 1959,
      "cionar": 1960,
      "talla": 1961,
      "pacientes": 1962,
      "coraz": 1963,
      "25": 1964,
      "fan": 1965,
      "eno": 1966,
      "leer": 1967,
      "ria": 1968,
      "lim": 1969,
      "haya": 1970,
      "tadora": 1971,
      "meros": 1972,
      "empezamos": 1973,
      "ninguna": 1974,
      "gal": 1975,
      "usando": 1976,
      "crecimiento": 1977,
      "formar": 1978,
      "obtener": 1979,
      "terior": 1980,
      "terminar": 1981,
      "situación": 1982,
      "fac": 1983,
      "anci": 1984,
      "rios": 1985,
      "teria": 1986,
      "maneras": 1987,
      "unidos": 1988,
      "fotos": 1989,
      "salir": 1990,
      "ningún": 1991,
      "12": 1992,
      "bel": 1993,
      "destru": 1994,
      "ofici": 1995,
      "ye": 1996,
      "lados": 1997,
      "condi": 1998,
      "joven": 1999,
      "parecer": 2000,
      "sistemas": 2001,
      "defini": 2002,
      "resolver": 2003,
      "peli": 2004,
      "resto": 2005,
      "enfo": 2006,
      "inos": 2007,
      "invi": 2008,
      "siento": 2009,
      "comb": 2010,
      "hijo": 2011,
      "sigue": 2012,
      "frente": 2013,
      "buscar": 2014,
      "grupos": 2015,
      "stancia": 2016,
      "empresas": 2017,
      "escen": 2018,
      "inte": 2019,
      "porte": 2020,
      "caciones": 2021,
      "rica": 2022,
      "compro": 2023,
      "pide": 2024,
      "nuevos": 2025,
      "solución": 2026,
      "desafí": 2027,
      "responsab": 2028,
      "enfermedades": 2029,
      "abier": 2030,
      "acu": 2031,
      "velo": 2032,
      "ordin": 2033,
      "rección": 2034,
      "regres": 2035,
      "docu": 2036,
      "riba": 2037,
      "ándo": 2038,
      "intent": 2039,
      "suficiente": 2040,
      "aciones": 2041,
      "of": 2042,
      "vamente": 2043,
      "cuan": 2044,
      "trat": 2045,
      "personal": 2046,
      "amigo": 2047,
      "telé": 2048,
      "explicar": 2049,
      "enorme": 2050,
      "comportamiento": 2051,
      "acuerdo": 2052,
      "atrás": 2053,
      "jen": 2054,
      "mam": 2055,
      "puntos": 2056,
      "espos": 2057,
      "alta": 2058,
      "china": 2059,
      "quisi": 2060,
      "respecto": 2061,
      "necesitan": 2062,
      "números": 2063,
      "programa": 2064,
      "juego": 2065,
      "ampli": 2066,
      "siendo": 2067,
      "poten": 2068,
      "rom": 2069,
      "fico": 2070,
      "aument": 2071,
      "efecto": 2072,
      "términ": 2073,
      "jun": 2074,
      "ste": 2075,
      "tá": 2076,
      "entr": 2077,
      "cum": 2078,
      "cap": 2079,
      "ches": 2080,
      "fir": 2081,
      "veamos": 2082,
      "mediante": 2083,
      "entación": 2084,
      "electr": 2085,
      "viaje": 2086,
      "mensaje": 2087,
      "teléfon": 2088,
      "blemente": 2089,
      "cales": 2090,
      "ida": 2091,
      "tin": 2092,
      "war": 2093,
      "diri": 2094,
      "ismo": 2095,
      "contrase": 2096,
      "primeros": 2097,
      "resultado": 2098,
      "normal": 2099,
      "imaginar": 2100,
      "semanas": 2101,
      "70": 2102,
      "cni": 2103,
      "dro": 2104,
      "jero": 2105,
      "mue": 2106,
      "web": 2107,
      "arqui": 2108,
      "entra": 2109,
      "sean": 2110,
      "abe": 2111,
      "tej": 2112,
      "expan": 2113,
      "superfici": 2114,
      "edificios": 2115,
      "muerte": 2116,
      "riesgo": 2117,
      "arquitec": 2118,
      "90": 2119,
      "ica": 2120,
      "mem": 2121,
      "arriba": 2122,
      "recu": 2123,
      "terri": 2124,
      "carbon": 2125,
      "pasó": 2126,
      "obvi": 2127,
      "tribu": 2128,
      "fron": 2129,
      "llamamos": 2130,
      "técni": 2131,
      "edificio": 2132,
      "derecho": 2133,
      "teoría": 2134,
      "af": 2135,
      "apar": 2136,
      "gado": 2137,
      "tele": 2138,
      "und": 2139,
      "civi": 2140,
      "alto": 2141,
      "rep": 2142,
      "ticamente": 2143,
      "liter": 2144,
      "casos": 2145,
      "mejorar": 2146,
      "clave": 2147,
      "comenzar": 2148,
      "objeto": 2149,
      "empresa": 2150,
      "libertad": 2151,
      "grafía": 2152,
      "sitio": 2153,
      "11": 2154,
      "il": 2155,
      "seis": 2156,
      "mañ": 2157,
      "bió": 2158,
      "grado": 2159,
      "tratando": 2160,
      "bril": 2161,
      "india": 2162,
      "justo": 2163,
      "europa": 2164,
      "80": 2165,
      "cad": 2166,
      "clar": 2167,
      "gor": 2168,
      "smo": 2169,
      "orden": 2170,
      "ambos": 2171,
      "tipos": 2172,
      "pers": 2173,
      "mover": 2174,
      "usan": 2175,
      "amientos": 2176,
      "uniden": 2177,
      "calle": 2178,
      "especies": 2179,
      "estadouniden": 2180,
      "deberíamos": 2181,
      "rápidamente": 2182,
      "mostrarles": 2183,
      "material": 2184,
      "corazón": 2185,
      "bene": 2186,
      "demás": 2187,
      "ería": 2188,
      "alma": 2189,
      "gros": 2190,
      "puestos": 2191,
      "eja": 2192,
      "pequeñas": 2193,
      "hicieron": 2194,
      "pelí": 2195,
      "convertir": 2196,
      "emocion": 2197,
      "asomb": 2198,
      "prueba": 2199,
      "tada": 2200,
      "um": 2201,
      "conseguir": 2202,
      "dirección": 2203,
      "puedan": 2204,
      "petró": 2205,
      "taron": 2206,
      "interior": 2207,
      "emple": 2208,
      "estuvi": 2209,
      "base": 2210,
      "completo": 2211,
      "cuánto": 2212,
      "frecu": 2213,
      "neuronas": 2214,
      "petróleo": 2215,
      "cemos": 2216,
      "hal": 2217,
      "infor": 2218,
      "cola": 2219,
      "hago": 2220,
      "rio": 2221,
      "hubo": 2222,
      "esperanza": 2223,
      "escuelas": 2224,
      "falta": 2225,
      "quizás": 2226,
      "materiales": 2227,
      "favor": 2228,
      "productos": 2229,
      "pronto": 2230,
      "mañana": 2231,
      "ev": 2232,
      "ham": 2233,
      "refle": 2234,
      "conf": 2235,
      "dicho": 2236,
      "miren": 2237,
      "multi": 2238,
      "gia": 2239,
      "jeros": 2240,
      "producción": 2241,
      "computadora": 2242,
      "recuper": 2243,
      "carbono": 2244,
      "bras": 2245,
      "zos": 2246,
      "ógi": 2247,
      "ara": 2248,
      "convir": 2249,
      "pobre": 2250,
      "suerte": 2251,
      "fil": 2252,
      "habría": 2253,
      "hogar": 2254,
      "estábamos": 2255,
      "obra": 2256,
      "demostr": 2257,
      "fren": 2258,
      "bara": 2259,
      "montón": 2260,
      "extraordin": 2261,
      "piensan": 2262,
      "entien": 2263,
      "lograr": 2264,
      "relaciones": 2265,
      "tuvimos": 2266,
      "industria": 2267,
      "recursos": 2268,
      "izquierda": 2269,
      "17": 2270,
      "aver": 2271,
      "océ": 2272,
      "sto": 2273,
      "elem": 2274,
      "difi": 2275,
      "pocos": 2276,
      "lejos": 2277,
      "muse": 2278,
      "cero": 2279,
      "usamos": 2280,
      "veo": 2281,
      "aprendi": 2282,
      "dijeron": 2283,
      "rado": 2284,
      "zada": 2285,
      "éc": 2286,
      "ética": 2287,
      "ór": 2288,
      "espaci": 2289,
      "inmedia": 2290,
      "domin": 2291,
      "dimen": 2292,
      "cuestión": 2293,
      "limi": 2294,
      "tengan": 2295,
      "goog": 2296,
      "proces": 2297,
      "pios": 2298,
      "autos": 2299,
      "escuchar": 2300,
      "desarrol": 2301,
      "colec": 2302,
      "noticias": 2303,
      "ete": 2304,
      "efici": 2305,
      "fabri": 2306,
      "jue": 2307,
      "revolución": 2308,
      "abejas": 2309,
      "poca": 2310,
      "resi": 2311,
      "habían": 2312,
      "zaje": 2313,
      "llamar": 2314,
      "corre": 2315,
      "construcción": 2316,
      "sociedades": 2317,
      "norm": 2318,
      "desarrolla": 2319,
      "ignor": 2320,
      "encanta": 2321,
      "terrori": 2322,
      "molé": 2323,
      "ben": 2324,
      "eo": 2325,
      "fen": 2326,
      "eles": 2327,
      "diciendo": 2328,
      "secre": 2329,
      "tendr": 2330,
      "tui": 2331,
      "pagar": 2332,
      "gencia": 2333,
      "pasando": 2334,
      "ficación": 2335,
      "producir": 2336,
      "deben": 2337,
      "princip": 2338,
      "abilidad": 2339,
      "impacto": 2340,
      "google": 2341,
      "hí": 2342,
      "iones": 2343,
      "vino": 2344,
      "bai": 2345,
      "disponi": 2346,
      "ológi": 2347,
      "curso": 2348,
      "sucedió": 2349,
      "fuerte": 2350,
      "objetivo": 2351,
      "pobres": 2352,
      "científico": 2353,
      "capaz": 2354,
      "velocidad": 2355,
      "literalmente": 2356,
      "gentes": 2357,
      "quedar": 2358,
      "instru": 2359,
      "coche": 2360,
      "compe": 2361,
      "compli": 2362,
      "impres": 2363,
      "acceso": 2364,
      "código": 2365,
      "medicina": 2366,
      "pensando": 2367,
      "mático": 2368,
      "quienes": 2369,
      "pesar": 2370,
      "favori": 2371,
      "malaria": 2372,
      "perspec": 2373,
      "cti": 2374,
      "ico": 2375,
      "pun": 2376,
      "empieza": 2377,
      "abu": 2378,
      "piensa": 2379,
      "creen": 2380,
      "corri": 2381,
      "bom": 2382,
      "razones": 2383,
      "antigu": 2384,
      "ocurre": 2385,
      "médico": 2386,
      "deseo": 2387,
      "explor": 2388,
      "correcto": 2389,
      "sueño": 2390,
      "patrones": 2391,
      "gni": 2392,
      "pl": 2393,
      "tina": 2394,
      "usu": 2395,
      "vin": 2396,
      "eng": 2397,
      "enas": 2398,
      "materia": 2399,
      "pues": 2400,
      "éndo": 2401,
      "negro": 2402,
      "labor": 2403,
      "ayud": 2404,
      "paciente": 2405,
      "utilizar": 2406,
      "genial": 2407,
      "recuerdo": 2408,
      "sorprendente": 2409,
      "obviamente": 2410,
      "ira": 2411,
      "opin": 2412,
      "venta": 2413,
      "espero": 2414,
      "estra": 2415,
      "perman": 2416,
      "libre": 2417,
      "verán": 2418,
      "seres": 2419,
      "alización": 2420,
      "éste": 2421,
      "cambia": 2422,
      "virus": 2423,
      "sangre": 2424,
      "animal": 2425,
      "nervi": 2426,
      "términos": 2427,
      "bús": 2428,
      "caba": 2429,
      "decía": 2430,
      "arañ": 2431,
      "asi": 2432,
      "esté": 2433,
      "estable": 2434,
      "cuar": 2435,
      "perio": 2436,
      "suelo": 2437,
      "causa": 2438,
      "promedio": 2439,
      "stán": 2440,
      "costo": 2441,
      "acci": 2442,
      "invent": 2443,
      "década": 2444,
      "actual": 2445,
      "vuelve": 2446,
      "enseñar": 2447,
      "justi": 2448,
      "superficie": 2449,
      "crí": 2450,
      "idio": 2451,
      "ofre": 2452,
      "entrar": 2453,
      "insta": 2454,
      "conciencia": 2455,
      "dibu": 2456,
      "partir": 2457,
      "exten": 2458,
      "prepar": 2459,
      "cambios": 2460,
      "crisis": 2461,
      "humanidad": 2462,
      "encontré": 2463,
      "mental": 2464,
      "vícti": 2465,
      "aprendizaje": 2466,
      "vado": 2467,
      "cie": 2468,
      "inten": 2469,
      "mico": 2470,
      "litar": 2471,
      "lista": 2472,
      "signifi": 2473,
      "familiar": 2474,
      "existen": 2475,
      "varios": 2476,
      "hospital": 2477,
      "registr": 2478,
      "golpe": 2479,
      "electróni": 2480,
      "13": 2481,
      "ez": 2482,
      "pí": 2483,
      "pér": 2484,
      "vali": 2485,
      "dero": 2486,
      "deres": 2487,
      "detrás": 2488,
      "siete": 2489,
      "levan": 2490,
      "solar": 2491,
      "rode": 2492,
      "pueblo": 2493,
      "stante": 2494,
      "creer": 2495,
      "precio": 2496,
      "contrario": 2497,
      "olvi": 2498,
      "senti": 2499,
      "conocido": 2500,
      "tampoco": 2501,
      "error": 2502,
      "feliz": 2503,
      "innovación": 2504,
      "interac": 2505,
      "cuidado": 2506,
      "democra": 2507,
      "eje": 2508,
      "th": 2509,
      "tab": 2510,
      "detal": 2511,
      "silen": 2512,
      "mosqui": 2513,
      "comparti": 2514,
      "pia": 2515,
      "corte": 2516,
      "buenos": 2517,
      "cierta": 2518,
      "comunicación": 2519,
      "paña": 2520,
      "principal": 2521,
      "conversa": 2522,
      "compañía": 2523,
      "médicos": 2524,
      "zona": 2525,
      "llevó": 2526,
      "instituciones": 2527,
      "sensación": 2528,
      "alo": 2529,
      "reco": 2530,
      "uela": 2531,
      "muri": 2532,
      "guar": 2533,
      "verde": 2534,
      "cionado": 2535,
      "fort": 2536,
      "tesis": 2537,
      "venir": 2538,
      "empezó": 2539,
      "modelos": 2540,
      "matemáticas": 2541,
      "comenzó": 2542,
      "14": 2543,
      "evolu": 2544,
      "fru": 2545,
      "jan": 2546,
      "esenci": 2547,
      "reuni": 2548,
      "ingr": 2549,
      "amena": 2550,
      "dientes": 2551,
      "sito": 2552,
      "caja": 2553,
      "impul": 2554,
      "expres": 2555,
      "pusi": 2556,
      "costos": 2557,
      "vean": 2558,
      "face": 2559,
      "toria": 2560,
      "alimentos": 2561,
      "evitar": 2562,
      "comprar": 2563,
      "aquellos": 2564,
      "lenguaje": 2565,
      "audiencia": 2566,
      "serie": 2567,
      "cuanto": 2568,
      "repente": 2569,
      "avi": 2570,
      "calidad": 2571,
      "dentes": 2572,
      "gs": 2573,
      "alter": 2574,
      "entales": 2575,
      "insec": 2576,
      "come": 2577,
      "convi": 2578,
      "confer": 2579,
      "dimiento": 2580,
      "pera": 2581,
      "lesc": 2582,
      "pedir": 2583,
      "tiendo": 2584,
      "necesario": 2585,
      "volvi": 2586,
      "deberían": 2587,
      "derechos": 2588,
      "reglas": 2589,
      "experimento": 2590,
      "próxi": 2591,
      "hablamos": 2592,
      "económico": 2593,
      "digital": 2594,
      "computadoras": 2595,
      "contraseñas": 2596,
      "aje": 2597,
      "sar": 2598,
      "eléc": 2599,
      "conmi": 2600,
      "total": 2601,
      "partí": 2602,
      "vivo": 2603,
      "sui": 2604,
      "adolesc": 2605,
      "combus": 2606,
      "stos": 2607,
      "adap": 2608,
      "sabes": 2609,
      "buenas": 2610,
      "ejemplos": 2611,
      "pantalla": 2612,
      "equivo": 2613,
      "hacía": 2614,
      "objetos": 2615,
      "asegu": 2616,
      "sexo": 2617,
      "sexu": 2618,
      "etc": 2619,
      "generación": 2620,
      "museo": 2621,
      "eléctri": 2622,
      "conmigo": 2623,
      "combusti": 2624,
      "dest": 2625,
      "tás": 2626,
      "zando": 2627,
      "ído": 2628,
      "deja": 2629,
      "infec": 2630,
      "tradu": 2631,
      "diría": 2632,
      "may": 2633,
      "guen": 2634,
      "creemos": 2635,
      "duda": 2636,
      "acti": 2637,
      "carac": 2638,
      "gio": 2639,
      "baja": 2640,
      "corpor": 2641,
      "transporte": 2642,
      "norte": 2643,
      "electri": 2644,
      "familias": 2645,
      "respuestas": 2646,
      "recordar": 2647,
      "absolutamente": 2648,
      "confli": 2649,
      "bac": 2650,
      "jam": 2651,
      "llas": 2652,
      "tadas": 2653,
      "determin": 2654,
      "ases": 2655,
      "elim": 2656,
      "regu": 2657,
      "refu": 2658,
      "conjunto": 2659,
      "metro": 2660,
      "bios": 2661,
      "tud": 2662,
      "arias": 2663,
      "rup": 2664,
      "parecen": 2665,
      "especial": 2666,
      "adelante": 2667,
      "vivimos": 2668,
      "capaces": 2669,
      "página": 2670,
      "negocios": 2671,
      "desafío": 2672,
      "16": 2673,
      "evolución": 2674,
      "esfuer": 2675,
      "asu": 2676,
      "invisi": 2677,
      "local": 2678,
      "mecán": 2679,
      "rael": 2680,
      "mapa": 2681,
      "israel": 2682,
      "ésta": 2683,
      "líderes": 2684,
      "decisiones": 2685,
      "book": 2686,
      "discu": 2687,
      "aprendí": 2688,
      "producto": 2689,
      "volun": 2690,
      "transmi": 2691,
      "frican": 2692,
      "profesores": 2693,
      "móvil": 2694,
      "áreas": 2695,
      "occi": 2696,
      "teléfono": 2697,
      "asombros": 2698,
      "dando": 2699,
      "lés": 2700,
      "ocho": 2701,
      "vec": 2702,
      "yan": 2703,
      "adul": 2704,
      "paración": 2705,
      "resu": 2706,
      "form": 2707,
      "medir": 2708,
      "present": 2709,
      "cambiado": 2710,
      "señal": 2711,
      "salvar": 2712,
      "estudiar": 2713,
      "inglés": 2714,
      "reno": 2715,
      "plazo": 2716,
      "cámara": 2717,
      "fascin": 2718,
      "memori": 2719,
      "desarrollar": 2720,
      "bí": 2721,
      "cál": 2722,
      "ke": 2723,
      "ró": 2724,
      "dec": 2725,
      "aspecto": 2726,
      "reac": 2727,
      "conex": 2728,
      "seda": 2729,
      "bill": 2730,
      "ece": 2731,
      "teras": 2732,
      "mani": 2733,
      "tario": 2734,
      "interpre": 2735,
      "masa": 2736,
      "campaña": 2737,
      "plante": 2738,
      "esperar": 2739,
      "micros": 2740,
      "biología": 2741,
      "ocurrió": 2742,
      "práctica": 2743,
      "cirugía": 2744,
      "similar": 2745,
      "dispositivo": 2746,
      "perspectiva": 2747,
      "conexión": 2748,
      "ken": 2749,
      "rue": 2750,
      "sas": 2751,
      "zamos": 2752,
      "ós": 2753,
      "dedi": 2754,
      "laciones": 2755,
      "ciles": 2756,
      "ciales": 2757,
      "remo": 2758,
      "amar": 2759,
      "tru": 2760,
      "trá": 2761,
      "miem": 2762,
      "supon": 2763,
      "puse": 2764,
      "manej": 2765,
      "peor": 2766,
      "podían": 2767,
      "conoz": 2768,
      "cerebros": 2769,
      "permitir": 2770,
      "varias": 2771,
      "bloque": 2772,
      "comprender": 2773,
      "enfoque": 2774,
      "dy": 2775,
      "egi": 2776,
      "epide": 2777,
      "rera": 2778,
      "yó": 2779,
      "yen": 2780,
      "óli": 2781,
      "debajo": 2782,
      "ladas": 2783,
      "unir": 2784,
      "conta": 2785,
      "distancia": 2786,
      "seg": 2787,
      "mira": 2788,
      "cui": 2789,
      "pocas": 2790,
      "propor": 2791,
      "adop": 2792,
      "exam": 2793,
      "nia": 2794,
      "carne": 2795,
      "fuente": 2796,
      "origin": 2797,
      "cesi": 2798,
      "gala": 2799,
      "propias": 2800,
      "monta": 2801,
      "derecha": 2802,
      "gobiernos": 2803,
      "kiló": 2804,
      "riesgos": 2805,
      "comienzo": 2806,
      "consci": 2807,
      "maestros": 2808,
      "servicios": 2809,
      "azul": 2810,
      "cadena": 2811,
      "facebook": 2812,
      "insectos": 2813,
      "epidemi": 2814,
      "aus": 2815,
      "african": 2816,
      "cami": 2817,
      "rados": 2818,
      "eri": 2819,
      "ará": 2820,
      "cito": 2821,
      "alem": 2822,
      "alej": 2823,
      "estad": 2824,
      "reales": 2825,
      "involu": 2826,
      "tiles": 2827,
      "consecu": 2828,
      "abor": 2829,
      "viven": 2830,
      "mez": 2831,
      "paz": 2832,
      "carre": 2833,
      "marca": 2834,
      "canción": 2835,
      "presente": 2836,
      "decisión": 2837,
      "boles": 2838,
      "inación": 2839,
      "sentía": 2840,
      "millón": 2841,
      "cualquiera": 2842,
      "vale": 2843,
      "comunidades": 2844,
      "miran": 2845,
      "influ": 2846,
      "organización": 2847,
      "aprovec": 2848,
      "concepto": 2849,
      "averigu": 2850,
      "democracia": 2851,
      "electricidad": 2852,
      "bla": 2853,
      "eco": 2854,
      "etas": 2855,
      "há": 2856,
      "ético": 2857,
      "conse": 2858,
      "permí": 2859,
      "suena": 2860,
      "gué": 2861,
      "impli": 2862,
      "premi": 2863,
      "iste": 2864,
      "posibi": 2865,
      "intentar": 2866,
      "complejo": 2867,
      "elección": 2868,
      "sosteni": 2869,
      "principios": 2870,
      "cuándo": 2871,
      "potencial": 2872,
      "océano": 2873,
      "egip": 2874,
      "dra": 2875,
      "gü": 2876,
      "gps": 2877,
      "tora": 2878,
      "osas": 2879,
      "diag": 2880,
      "rico": 2881,
      "tenga": 2882,
      "luch": 2883,
      "creamos": 2884,
      "tarios": 2885,
      "irán": 2886,
      "podamos": 2887,
      "fuego": 2888,
      "llega": 2889,
      "nuevamente": 2890,
      "probar": 2891,
      "distribu": 2892,
      "ísticas": 2893,
      "tempor": 2894,
      "propios": 2895,
      "malo": 2896,
      "chicos": 2897,
      "comencé": 2898,
      "árboles": 2899,
      "políticas": 2900,
      "tomamos": 2901,
      "pintura": 2902,
      "compañías": 2903,
      "célula": 2904,
      "contarles": 2905,
      "físico": 2906,
      "ware": 2907,
      "fé": 2908,
      "km": 2909,
      "pelo": 2910,
      "ífica": 2911,
      "útil": 2912,
      "debo": 2913,
      "artí": 2914,
      "ciar": 2915,
      "reve": 2916,
      "coches": 2917,
      "pros": 2918,
      "cate": 2919,
      "sof": 2920,
      "taciones": 2921,
      "rob": 2922,
      "tanme": 2923,
      "acel": 2924,
      "carb": 2925,
      "lími": 2926,
      "menes": 2927,
      "decidí": 2928,
      "cambió": 2929,
      "financi": 2930,
      "mío": 2931,
      "diseñar": 2932,
      "increíblemente": 2933,
      "leyes": 2934,
      "exist": 2935,
      "oído": 2936,
      "artista": 2937,
      "hubiera": 2938,
      "blanco": 2939,
      "aprox": 2940,
      "bebé": 2941,
      "tratamiento": 2942,
      "película": 2943,
      "justicia": 2944,
      "500": 2945,
      "cable": 2946,
      "eas": 2947,
      "mesa": 2948,
      "zados": 2949,
      "enen": 2950,
      "reto": 2951,
      "micos": 2952,
      "somb": 2953,
      "compasión": 2954,
      "excep": 2955,
      "ándose": 2956,
      "alia": 2957,
      "mismas": 2958,
      "conocemos": 2959,
      "señales": 2960,
      "segura": 2961,
      "calles": 2962,
      "produce": 2963,
      "parecía": 2964,
      "cultur": 2965,
      "chica": 2966,
      "déjen": 2967,
      "199": 2968,
      "adecu": 2969,
      "responder": 2970,
      "identi": 2971,
      "río": 2972,
      "pública": 2973,
      "colegas": 2974,
      "fondo": 2975,
      "matemática": 2976,
      "comienza": 2977,
      "proteí": 2978,
      "escenario": 2979,
      "arquitectura": 2980,
      "permítanme": 2981,
      "agr": 2982,
      "ibu": 2983,
      "ábamos": 2984,
      "arma": 2985,
      "onar": 2986,
      "anas": 2987,
      "ander": 2988,
      "adminis": 2989,
      "requiere": 2990,
      "vid": 2991,
      "vive": 2992,
      "vienen": 2993,
      "sul": 2994,
      "capi": 2995,
      "capital": 2996,
      "proto": 2997,
      "piel": 2998,
      "imposible": 2999,
      "gras": 3000,
      "respe": 3001,
      "creado": 3002,
      "ista": 3003,
      "interés": 3004,
      "llamo": 3005,
      "conocen": 3006,
      "hechos": 3007,
      "seguimos": 3008,
      "torno": 3009,
      "niña": 3010,
      "queríamos": 3011,
      "estudios": 3012,
      "mirando": 3013,
      "simples": 3014,
      "pared": 3015,
      "empezando": 3016,
      "errores": 3017,
      "mensajes": 3018,
      "policía": 3019,
      "hn": 3020,
      "tmo": 3021,
      "rey": 3022,
      "contexto": 3023,
      "militar": 3024,
      "nove": 3025,
      "viv": 3026,
      "desper": 3027,
      "vehí": 3028,
      "tarse": 3029,
      "tarea": 3030,
      "medicam": 3031,
      "camin": 3032,
      "buscando": 3033,
      "superior": 3034,
      "llegó": 3035,
      "descubrir": 3036,
      "oportunidades": 3037,
      "agujero": 3038,
      "religión": 3039,
      "fortun": 3040,
      "caracter": 3041,
      "posibilidades": 3042,
      "carbón": 3043,
      "acos": 3044,
      "cera": 3045,
      "efica": 3046,
      "llu": 3047,
      "nano": 3048,
      "sel": 3049,
      "tter": 3050,
      "esque": 3051,
      "entran": 3052,
      "emer": 3053,
      "cuá": 3054,
      "hagan": 3055,
      "chris": 3056,
      "imon": 3057,
      "puso": 3058,
      "carga": 3059,
      "contribu": 3060,
      "pensamiento": 3061,
      "funcionar": 3062,
      "segundos": 3063,
      "décadas": 3064,
      "extraño": 3065,
      "conduc": 3066,
      "conducir": 3067,
      "secund": 3068,
      "controlar": 3069,
      "integr": 3070,
      "responsabi": 3071,
      "esposa": 3072,
      "frecuencia": 3073,
      "víctimas": 3074,
      "mayores": 3075,
      "kilómetros": 3076,
      "déjenme": 3077,
      "agra": 3078,
      "clas": 3079,
      "talidad": 3080,
      "zadas": 3081,
      "lada": 3082,
      "aspec": 3083,
      "entidad": 3084,
      "timos": 3085,
      "conclu": 3086,
      "ecos": 3087,
      "coment": 3088,
      "john": 3089,
      "darles": 3090,
      "ejos": 3091,
      "probable": 3092,
      "importan": 3093,
      "necesidad": 3094,
      "ística": 3095,
      "abandon": 3096,
      "herman": 3097,
      "interesantes": 3098,
      "profesor": 3099,
      "pudiera": 3100,
      "pósito": 3101,
      "inteligente": 3102,
      "lógica": 3103,
      "móviles": 3104,
      "bebés": 3105,
      "quisiera": 3106,
      "opinión": 3107,
      "búsqueda": 3108,
      "cuáles": 3109,
      "aspectos": 3110,
      "ler": 3111,
      "cocin": 3112,
      "conser": 3113,
      "diar": 3114,
      "simu": 3115,
      "popu": 3116,
      "ecer": 3117,
      "verlo": 3118,
      "crecer": 3119,
      "serán": 3120,
      "habrá": 3121,
      "forme": 3122,
      "oriente": 3123,
      "función": 3124,
      "pregunté": 3125,
      "sentí": 3126,
      "decirles": 3127,
      "calor": 3128,
      "especialmente": 3129,
      "mercados": 3130,
      "vuelta": 3131,
      "experiment": 3132,
      "estructuras": 3133,
      "reducir": 3134,
      "individuos": 3135,
      "radio": 3136,
      "apoyo": 3137,
      "sencil": 3138,
      "según": 3139,
      "centa": 3140,
      "cadores": 3141,
      "eti": 3142,
      "eval": 3143,
      "pía": 3144,
      "zó": 3145,
      "época": 3146,
      "ísi": 3147,
      "estén": 3148,
      "doble": 3149,
      "dic": 3150,
      "prima": 3151,
      "provo": 3152,
      "protec": 3153,
      "comun": 3154,
      "grab": 3155,
      "hablan": 3156,
      "nave": 3157,
      "ganar": 3158,
      "conocí": 3159,
      "quieres": 3160,
      "recientemente": 3161,
      "geo": 3162,
      "actualmente": 3163,
      "celeb": 3164,
      "relacion": 3165,
      "líneas": 3166,
      "directamente": 3167,
      "inteligentes": 3168,
      "enviar": 3169,
      "verdader": 3170,
      "genoma": 3171,
      "área": 3172,
      "fantás": 3173,
      "comprome": 3174,
      "convirtió": 3175,
      "fenó": 3176,
      "principales": 3177,
      "pérdida": 3178,
      "memoria": 3179,
      "fl": 3180,
      "gn": 3181,
      "tones": 3182,
      "xima": 3183,
      "ere": 3184,
      "lamos": 3185,
      "cielo": 3186,
      "estre": 3187,
      "sir": 3188,
      "perder": 3189,
      "momentos": 3190,
      "viejos": 3191,
      "sufri": 3192,
      "taria": 3193,
      "fuimos": 3194,
      "bate": 3195,
      "negros": 3196,
      "ruido": 3197,
      "aprendido": 3198,
      "jui": 3199,
      "fábri": 3200,
      "descub": 3201,
      "políticos": 3202,
      "minuto": 3203,
      "estrella": 3204,
      "profundo": 3205,
      "herramienta": 3206,
      "distintas": 3207,
      "depende": 3208,
      "fundamental": 3209,
      "específi": 3210,
      "hermoso": 3211,
      "maravilloso": 3212,
      "almacen": 3213,
      "suici": 3214,
      "aproxim": 3215,
      "24": 3216,
      "fera": 3217,
      "gue": 3218,
      "luna": 3219,
      "ram": 3220,
      "áli": 3221,
      "enve": 3222,
      "archi": 3223,
      "anun": 3224,
      "ciencias": 3225,
      "reconocer": 3226,
      "sienten": 3227,
      "cuesti": 3228,
      "curios": 3229,
      "moda": 3230,
      "viento": 3231,
      "mecan": 3232,
      "compon": 3233,
      "tercer": 3234,
      "hacerse": 3235,
      "tasa": 3236,
      "presid": 3237,
      "darle": 3238,
      "pensaba": 3239,
      "conoce": 3240,
      "funcionan": 3241,
      "terio": 3242,
      "miramos": 3243,
      "pareci": 3244,
      "experiencias": 3245,
      "alizado": 3246,
      "encuentra": 3247,
      "enfrent": 3248,
      "belle": 3249,
      "estadounidense": 3250,
      "300": 3251,
      "bros": 3252,
      "gh": 3253,
      "lé": 3254,
      "menta": 3255,
      "ocul": 3256,
      "tt": 3257,
      "arreg": 3258,
      "cien": 3259,
      "realizar": 3260,
      "intro": 3261,
      "digamos": 3262,
      "bimos": 3263,
      "piso": 3264,
      "grados": 3265,
      "usd": 3266,
      "peti": 3267,
      "taría": 3268,
      "nación": 3269,
      "decidimos": 3270,
      "cenas": 3271,
      "rarse": 3272,
      "valores": 3273,
      "elegir": 3274,
      "cuántos": 3275,
      "proyectos": 3276,
      "muestran": 3277,
      "experimentos": 3278,
      "investig": 3279,
      "máquinas": 3280,
      "europe": 3281,
      "perfecto": 3282,
      "servicio": 3283,
      "oscura": 3284,
      "programas": 3285,
      "robot": 3286,
      "puerta": 3287,
      "visual": 3288,
      "condiciones": 3289,
      "brillante": 3290,
      "partículas": 3291,
      "av": 3292,
      "clí": 3293,
      "cris": 3294,
      "fem": 3295,
      "flor": 3296,
      "hé": 3297,
      "jap": 3298,
      "stra": 3299,
      "retro": 3300,
      "siente": 3301,
      "vieron": 3302,
      "cau": 3303,
      "proce": 3304,
      "cercan": 3305,
      "tería": 3306,
      "respi": 3307,
      "creación": 3308,
      "unidad": 3309,
      "new": 3310,
      "diferencias": 3311,
      "suceder": 3312,
      "educa": 3313,
      "bosque": 3314,
      "agri": 3315,
      "celu": 3316,
      "ganistán": 3317,
      "recuerden": 3318,
      "profesion": 3319,
      "opti": 3320,
      "pruebas": 3321,
      "tendría": 3322,
      "cumpli": 3323,
      "afganistán": 3324,
      "elementos": 3325,
      "silencio": 3326,
      "averiguar": 3327,
      "clases": 3328,
      "daba": 3329,
      "ed": 3330,
      "rer": 3331,
      "argu": 3332,
      "tida": 3333,
      "semos": 3334,
      "empren": 3335,
      "empie": 3336,
      "propósito": 3337,
      "chas": 3338,
      "pude": 3339,
      "hola": 3340,
      "hija": 3341,
      "carse": 3342,
      "carrera": 3343,
      "neuro": 3344,
      "química": 3345,
      "apenas": 3346,
      "seguros": 3347,
      "posibilidad": 3348,
      "transformar": 3349,
      "método": 3350,
      "busca": 3351,
      "plata": 3352,
      "parecido": 3353,
      "mostraré": 3354,
      "hospi": 3355,
      "llegado": 3356,
      "aplicación": 3357,
      "abrir": 3358,
      "estrellas": 3359,
      "creatividad": 3360,
      "oír": 3361,
      "preocup": 3362,
      "proteger": 3363,
      "patrón": 3364,
      "noticia": 3365,
      "gráfica": 3366,
      "robots": 3367,
      "frase": 3368,
      "pobreza": 3369,
      "estrate": 3370,
      "hábi": 3371,
      "responsabilidad": 3372,
      "clíni": 3373,
      "cador": 3374,
      "gada": 3375,
      "ip": 3376,
      "ka": 3377,
      "peso": 3378,
      "escar": 3379,
      "deman": 3380,
      "delante": 3381,
      "quen": 3382,
      "arena": 3383,
      "ani": 3384,
      "amé": 3385,
      "caí": 3386,
      "ritu": 3387,
      "lización": 3388,
      "chino": 3389,
      "despla": 3390,
      "pación": 3391,
      "certi": 3392,
      "cree": 3393,
      "crean": 3394,
      "nutri": 3395,
      "muchísi": 3396,
      "disfru": 3397,
      "tempera": 3398,
      "escrito": 3399,
      "chicas": 3400,
      "árabe": 3401,
      "salió": 3402,
      "llegamos": 3403,
      "habitación": 3404,
      "glob": 3405,
      "felicidad": 3406,
      "representa": 3407,
      "negocio": 3408,
      "absoluto": 3409,
      "ilumin": 3410,
      "regresar": 3411,
      "órgan": 3412,
      "correo": 3413,
      "impresion": 3414,
      "aproximadamente": 3415,
      "cés": 3416,
      "hem": 3417,
      "mm": 3418,
      "rían": 3419,
      "tali": 3420,
      "vul": 3421,
      "analizar": 3422,
      "org": 3423,
      "codi": 3424,
      "cuesta": 3425,
      "pot": 3426,
      "caus": 3427,
      "tercera": 3428,
      "voces": 3429,
      "tarje": 3430,
      "éndose": 3431,
      "autor": 3432,
      "apun": 3433,
      "sale": 3434,
      "tempr": 3435,
      "estudiante": 3436,
      "permiten": 3437,
      "morir": 3438,
      "quiénes": 3439,
      "encima": 3440,
      "central": 3441,
      "increíbles": 3442,
      "identidad": 3443,
      "clientes": 3444,
      "niveles": 3445,
      "evidencia": 3446,
      "tuvieron": 3447,
      "cré": 3448,
      "extremo": 3449,
      "gráfico": 3450,
      "oficina": 3451,
      "tejido": 3452,
      "claramente": 3453,
      "barato": 3454,
      "moléculas": 3455,
      "sentimiento": 3456,
      "combustible": 3457,
      "microsco": 3458,
      "evalu": 3459,
      "ear": 3460,
      "ego": 3461,
      "ejo": 3462,
      "ggs": 3463,
      "ier": 3464,
      "imi": 3465,
      "jamos": 3466,
      "mbo": 3467,
      "nes": 3468,
      "nac": 3469,
      "ré": 3470,
      "resta": 3471,
      "the": 3472,
      "taban": 3473,
      "vent": 3474,
      "ciento": 3475,
      "entor": 3476,
      "reconstruir": 3477,
      "loco": 3478,
      "percep": 3479,
      "vimos": 3480,
      "lec": 3481,
      "sugi": 3482,
      "matar": 3483,
      "listo": 3484,
      "pais": 3485,
      "versión": 3486,
      "exterior": 3487,
      "higgs": 3488,
      "casas": 3489,
      "ford": 3490,
      "forman": 3491,
      "fusión": 3492,
      "ismos": 3493,
      "bajos": 3494,
      "ariamente": 3495,
      "sobrevivir": 3496,
      "ejér": 3497,
      "grave": 3498,
      "bern": 3499,
      "caminar": 3500,
      "humanas": 3501,
      "virtual": 3502,
      "plantas": 3503,
      "xico": 3504,
      "estilo": 3505,
      "elev": 3506,
      "jugar": 3507,
      "circ": 3508,
      "difíciles": 3509,
      "stancias": 3510,
      "climático": 3511,
      "infra": 3512,
      "región": 3513,
      "ingeniería": 3514,
      "peligr": 3515,
      "mamá": 3516,
      "normalmente": 3517,
      "adolescentes": 3518,
      "esfuerzo": 3519,
      "soft": 3520,
      "lluvia": 3521,
      "ais": 3522,
      "clo": 3523,
      "ctos": 3524,
      "dental": 3525,
      "ile": 3526,
      "jidad": 3527,
      "ry": 3528,
      "ense": 3529,
      "cita": 3530,
      "oro": 3531,
      "reemp": 3532,
      "conexi": 3533,
      "sias": 3534,
      "motor": 3535,
      "matr": 3536,
      "biendo": 3537,
      "propa": 3538,
      "gradu": 3539,
      "lucha": 3540,
      "pudo": 3541,
      "oración": 3542,
      "hipó": 3543,
      "larga": 3544,
      "pasi": 3545,
      "obli": 3546,
      "aumento": 3547,
      "positiva": 3548,
      "imagina": 3549,
      "sín": 3550,
      "temente": 3551,
      "planta": 3552,
      "cultad": 3553,
      "escribió": 3554,
      "mentir": 3555,
      "universi": 3556,
      "haría": 3557,
      "mortalidad": 3558,
      "soluciones": 3559,
      "clic": 3560,
      "infanti": 3561,
      "explo": 3562,
      "colon": 3563,
      "colores": 3564,
      "consumo": 3565,
      "apoy": 3566,
      "comenzamos": 3567,
      "ciruj": 3568,
      "abierto": 3569,
      "documentos": 3570,
      "disponible": 3571,
      "araña": 3572,
      "cuarto": 3573,
      "ingresos": 3574,
      "bacteri": 3575,
      "aleman": 3576,
      "secundaria": 3577,
      "belleza": 3578,
      "conexiones": 3579,
      "icos": 3580,
      "ubi": 3581,
      "yeron": 3582,
      "encar": 3583,
      "encen": 3584,
      "arme": 3585,
      "admi": 3586,
      "colabora": 3587,
      "cogni": 3588,
      "diá": 3589,
      "divi": 3590,
      "rique": 3591,
      "rojo": 3592,
      "tración": 3593,
      "veci": 3594,
      "tanta": 3595,
      "estación": 3596,
      "serio": 3597,
      "zaciones": 3598,
      "ensay": 3599,
      "origen": 3600,
      "querían": 3601,
      "transi": 3602,
      "complejidad": 3603,
      "diná": 3604,
      "típi": 3605,
      "compañeros": 3606,
      "conectar": 3607,
      "habilidades": 3608,
      "zonas": 3609,
      "cír": 3610,
      "precisión": 3611,
      "sitios": 3612,
      "aceptar": 3613,
      "participar": 3614,
      "terrible": 3615,
      "emocionante": 3616,
      "presidente": 3617,
      "ejército": 3618,
      "reempla": 3619,
      "bab": 3620,
      "gén": 3621,
      "jud": 3622,
      "ms": 3623,
      "ura": 3624,
      "def": 3625,
      "deli": 3626,
      "erras": 3627,
      "estan": 3628,
      "indepen": 3629,
      "amo": 3630,
      "logo": 3631,
      "tomé": 3632,
      "portar": 3633,
      "lección": 3634,
      "ritmo": 3635,
      "dañ": 3636,
      "dación": 3637,
      "resis": 3638,
      "pasan": 3639,
      "pasamos": 3640,
      "podíamos": 3641,
      "ponen": 3642,
      "señor": 3643,
      "ólogos": 3644,
      "propiedad": 3645,
      "espera": 3646,
      "titud": 3647,
      "actuar": 3648,
      "muerto": 3649,
      "utiliza": 3650,
      "descubrimos": 3651,
      "próxima": 3652,
      "piezas": 3653,
      "felices": 3654,
      "ataque": 3655,
      "sacar": 3656,
      "teniendo": 3657,
      "microbios": 3658,
      "dispositivos": 3659,
      "desarrollado": 3660,
      "conversación": 3661,
      "decían": 3662,
      "miembros": 3663,
      "límites": 3664,
      "imonio": 3665,
      "álisis": 3666,
      "software": 3667,
      "aves": 3668,
      "cencia": 3669,
      "gando": 3670,
      "geles": 3671,
      "ramos": 3672,
      "rales": 3673,
      "sti": 3674,
      "asis": 3675,
      "alu": 3676,
      "coti": 3677,
      "cooper": 3678,
      "tomas": 3679,
      "siguen": 3680,
      "abuela": 3681,
      "peri": 3682,
      "perdido": 3683,
      "ricos": 3684,
      "desas": 3685,
      "greso": 3686,
      "expresión": 3687,
      "acto": 3688,
      "activ": 3689,
      "actividad": 3690,
      "presentar": 3691,
      "imag": 3692,
      "temas": 3693,
      "completa": 3694,
      "recibir": 3695,
      "diseñadores": 3696,
      "torios": 3697,
      "pena": 3698,
      "árbol": 3699,
      "cabal": 3700,
      "videos": 3701,
      "pudiéramos": 3702,
      "estrés": 3703,
      "distintos": 3704,
      "narra": 3705,
      "alegr": 3706,
      "entusias": 3707,
      "beneficios": 3708,
      "ignorancia": 3709,
      "ventaja": 3710,
      "mosquitos": 3711,
      "alterna": 3712,
      "ruedas": 3713,
      "epidemia": 3714,
      "afuera": 3715,
      "afortun": 3716,
      "ias": 3717,
      "istem": 3718,
      "oxito": 3719,
      "rada": 3720,
      "esencia": 3721,
      "asig": 3722,
      "orgu": 3723,
      "organ": 3724,
      "alde": 3725,
      "alum": 3726,
      "rea": 3727,
      "repu": 3728,
      "ambas": 3729,
      "colabor": 3730,
      "locales": 3731,
      "tocar": 3732,
      "supone": 3733,
      "metá": 3734,
      "malas": 3735,
      "magia": 3736,
      "bil": 3737,
      "bici": 3738,
      "biológi": 3739,
      "tulo": 3740,
      "tratamos": 3741,
      "habíamos": 3742,
      "acciones": 3743,
      "cartas": 3744,
      "baj": 3745,
      "menor": 3746,
      "decimos": 3747,
      "darse": 3748,
      "disminu": 3749,
      "cama": 3750,
      "estuve": 3751,
      "ólogo": 3752,
      "construimos": 3753,
      "britán": 3754,
      "resultó": 3755,
      "placer": 3756,
      "contam": 3757,
      "hará": 3758,
      "trabajadores": 3759,
      "surgi": 3760,
      "empezaron": 3761,
      "efectos": 3762,
      "médica": 3763,
      "emocional": 3764,
      "igualdad": 3765,
      "artistas": 3766,
      "consumi": 3767,
      "constitu": 3768,
      "mueve": 3769,
      "brasil": 3770,
      "espacios": 3771,
      "dimension": 3772,
      "secreto": 3773,
      "conferencia": 3774,
      "asombroso": 3775,
      "fascinante": 3776,
      "ecosistem": 3777,
      "descubrí": 3778,
      "hipótesis": 3779,
      "oxitocina": 3780,
      "hh": 3781,
      "ito": 3782,
      "nós": 3783,
      "samente": 3784,
      "anterior": 3785,
      "cine": 3786,
      "enter": 3787,
      "refi": 3788,
      "tieron": 3789,
      "cura": 3790,
      "suma": 3791,
      "suger": 3792,
      "bibli": 3793,
      "daño": 3794,
      "pira": 3795,
      "verti": 3796,
      "veremos": 3797,
      "costa": 3798,
      "peda": 3799,
      "nie": 3800,
      "hielo": 3801,
      "mista": 3802,
      "podremos": 3803,
      "corto": 3804,
      "llena": 3805,
      "finan": 3806,
      "satis": 3807,
      "hermano": 3808,
      "llamó": 3809,
      "ciertas": 3810,
      "elegi": 3811,
      "chico": 3812,
      "energ": 3813,
      "naturales": 3814,
      "bang": 3815,
      "científica": 3816,
      "observamos": 3817,
      "fotografía": 3818,
      "encuentran": 3819,
      "continú": 3820,
      "agujeros": 3821,
      "inteligencia": 3822,
      "solamente": 3823,
      "verdadera": 3824,
      "estadounidenses": 3825,
      "accidente": 3826,
      "interactu": 3827,
      "tráfico": 3828,
      "cultural": 3829,
      "medicamentos": 3830,
      "esquele": 3831,
      "entorno": 3832,
      "3d": 3833,
      "bes": 3834,
      "flo": 3835,
      "famos": 3836,
      "plo": 3837,
      "esía": 3838,
      "esqui": 3839,
      "espí": 3840,
      "lador": 3841,
      "asunto": 3842,
      "reino": 3843,
      "ine": 3844,
      "infer": 3845,
      "conten": 3846,
      "concent": 3847,
      "diente": 3848,
      "separ": 3849,
      "sil": 3850,
      "migra": 3851,
      "cubri": 3852,
      "practi": 3853,
      "perten": 3854,
      "perío": 3855,
      "haga": 3856,
      "tein": 3857,
      "magn": 3858,
      "ropa": 3859,
      "tum": 3860,
      "desier": 3861,
      "verano": 3862,
      "puesta": 3863,
      "reser": 3864,
      "tantos": 3865,
      "duro": 3866,
      "hablo": 3867,
      "vaciones": 3868,
      "zapa": 3869,
      "obses": 3870,
      "vención": 3871,
      "interna": 3872,
      "grafi": 3873,
      "tiempos": 3874,
      "dispar": 3875,
      "seña": 3876,
      "donos": 3877,
      "importar": 3878,
      "necesito": 3879,
      "rarnos": 3880,
      "escul": 3881,
      "curva": 3882,
      "estaría": 3883,
      "transpar": 3884,
      "elef": 3885,
      "haré": 3886,
      "cioso": 3887,
      "primi": 3888,
      "pareció": 3889,
      "2008": 3890,
      "exitos": 3891,
      "diversidad": 3892,
      "divertido": 3893,
      "artifici": 3894,
      "innov": 3895,
      "verdadero": 3896,
      "tradicionales": 3897,
      "colocar": 3898,
      "juntas": 3899,
      "punta": 3900,
      "explorar": 3901,
      "remoto": 3902,
      "consejo": 3903,
      "güen": 3904,
      "proteínas": 3905,
      "américa": 3906,
      "temperatura": 3907,
      "infantil": 3908,
      "cotidi": 3909,
      "aparece": 3910,
      "dres": 3911,
      "gados": 3912,
      "oo": 3913,
      "ox": 3914,
      "tía": 3915,
      "twi": 3916,
      "ático": 3917,
      "estres": 3918,
      "adir": 3919,
      "colu": 3920,
      "sección": 3921,
      "descar": 3922,
      "volar": 3923,
      "alista": 3924,
      "dencias": 3925,
      "fuentes": 3926,
      "land": 3927,
      "lantes": 3928,
      "canciones": 3929,
      "darme": 3930,
      "cambiando": 3931,
      "gratui": 3932,
      "llen": 3933,
      "empleo": 3934,
      "campos": 3935,
      "salvo": 3936,
      "histó": 3937,
      "aprenden": 3938,
      "complejos": 3939,
      "mentar": 3940,
      "198": 3941,
      "horri": 3942,
      "alimento": 3943,
      "fácilmente": 3944,
      "usted": 3945,
      "dejó": 3946,
      "asoci": 3947,
      "inversión": 3948,
      "londres": 3949,
      "alcanzar": 3950,
      "considerar": 3951,
      "tendremos": 3952,
      "aumentar": 3953,
      "inmediato": 3954,
      "pusimos": 3955,
      "próximos": 3956,
      "refugi": 3957,
      "contacto": 3958,
      "austr": 3959,
      "abordar": 3960,
      "premio": 3961,
      "aceler": 3962,
      "sencillo": 3963,
      "verdaderamente": 3964,
      "introdu": 3965,
      "aventu": 3966,
      "alegría": 3967,
      "twitter": 3968,
      "baño": 3969,
      "eins": 3970,
      "gó": 3971,
      "gestión": 3972,
      "odi": 3973,
      "pé": 3974,
      "rán": 3975,
      "sco": 3976,
      "senci": 3977,
      "wal": 3978,
      "armas": 3979,
      "reti": 3980,
      "ameri": 3981,
      "dom": 3982,
      "doctor": 3983,
      "toman": 3984,
      "silla": 3985,
      "abog": 3986,
      "perci": 3987,
      "legi": 3988,
      "soli": 3989,
      "bia": 3990,
      "tendencia": 3991,
      "desesper": 3992,
      "trato": 3993,
      "usado": 3994,
      "creando": 3995,
      "tareas": 3996,
      "hotel": 3997,
      "carta": 3998,
      "pasion": 3999,
      "unido": 4000,
      "sabíamos": 4001,
      "interesa": 4002,
      "internacional": 4003,
      "gracia": 4004,
      "mejora": 4005,
      "estuvo": 4006,
      "encontrado": 4007,
      "urban": 4008,
      "trabajan": 4009,
      "cuántas": 4010,
      "tamento": 4011,
      "millas": 4012,
      "tone": 4013,
      "convertido": 4014,
      "clima": 4015,
      "vuelto": 4016,
      "experimentar": 4017,
      "observ": 4018,
      "bloques": 4019,
      "dejamos": 4020,
      "aplicar": 4021,
      "aplicaciones": 4022,
      "profundi": 4023,
      "individuo": 4024,
      "opciones": 4025,
      "hubiese": 4026,
      "tradicional": 4027,
      "similares": 4028,
      "definición": 4029,
      "empleados": 4030,
      "molécula": 4031,
      "complicado": 4032,
      "significado": 4033,
      "detalles": 4034,
      "volvió": 4035,
      "invisible": 4036,
      "adultos": 4037,
      "artículo": 4038,
      "prosper": 4039,
      "protección": 4040,
      "comunes": 4041,
      "japón": 4042,
      "circun": 4043,
      "einstein": 4044,
      "sencilla": 4045,
      "acompañ": 4046,
      "cár": 4047,
      "ecu": 4048,
      "fó": 4049,
      "gante": 4050,
      "ivos": 4051,
      "íos": 4052,
      "ash": 4053,
      "cidos": 4054,
      "ell": 4055,
      "refer": 4056,
      "revis": 4057,
      "constante": 4058,
      "dici": 4059,
      "miso": 4060,
      "culares": 4061,
      "prensa": 4062,
      "pol": 4063,
      "tumb": 4064,
      "despe": 4065,
      "eración": 4066,
      "vergüen": 4067,
      "tero": 4068,
      "puente": 4069,
      "dura": 4070,
      "gené": 4071,
      "pasé": 4072,
      "llegué": 4073,
      "presu": 4074,
      "meno": 4075,
      "ponemos": 4076,
      "ejer": 4077,
      "aula": 4078,
      "gratis": 4079,
      "llor": 4080,
      "necesidades": 4081,
      "tornos": 4082,
      "sentado": 4083,
      "intelec": 4084,
      "mone": 4085,
      "entropía": 4086,
      "ginas": 4087,
      "sucediendo": 4088,
      "dín": 4089,
      "falsi": 4090,
      "sorpres": 4091,
      "generar": 4092,
      "político": 4093,
      "muestras": 4094,
      "celos": 4095,
      "mós": 4096,
      "solía": 4097,
      "inicia": 4098,
      "comercial": 4099,
      "califor": 4100,
      "afecta": 4101,
      "moderna": 4102,
      "psico": 4103,
      "limpi": 4104,
      "compromiso": 4105,
      "civil": 4106,
      "sexual": 4107,
      "conflicto": 4108,
      "jamás": 4109,
      "cálculo": 4110,
      "conozco": 4111,
      "mezcla": 4112,
      "fenómeno": 4113,
      "fábrica": 4114,
      "femen": 4115,
      "empiezan": 4116,
      "alemania": 4117,
      "reputación": 4118,
      "período": 4119,
      "apropi": 4120,
      "apasion": 4121,
      "by": 4122,
      "bru": 4123,
      "gris": 4124,
      "nin": 4125,
      "omin": 4126,
      "pam": 4127,
      "pele": 4128,
      "plen": 4129,
      "tz": 4130,
      "vini": 4131,
      "esqu": 4132,
      "erno": 4133,
      "later": 4134,
      "ciro": 4135,
      "alea": 4136,
      "recolec": 4137,
      "contenido": 4138,
      "sep": 4139,
      "mide": 4140,
      "cuales": 4141,
      "parque": 4142,
      "hagamos": 4143,
      "suel": 4144,
      "libri": 4145,
      "listos": 4146,
      "moslo": 4147,
      "sonidos": 4148,
      "pati": 4149,
      "luchar": 4150,
      "veía": 4151,
      "accesi": 4152,
      "personalidad": 4153,
      "pasos": 4154,
      "isla": 4155,
      "boca": 4156,
      "podrán": 4157,
      "necesitaba": 4158,
      "símbo": 4159,
      "niñas": 4160,
      "xias": 4161,
      "funcionamiento": 4162,
      "volví": 4163,
      "escritura": 4164,
      "tadores": 4165,
      "hablarles": 4166,
      "elecciones": 4167,
      "primo": 4168,
      "rápida": 4169,
      "viviendo": 4170,
      "económica": 4171,
      "flujo": 4172,
      "flexi": 4173,
      "particularmente": 4174,
      "continuar": 4175,
      "brazo": 4176,
      "destrucción": 4177,
      "dirigi": 4178,
      "expansión": 4179,
      "inmediatamente": 4180,
      "eficiente": 4181,
      "terrorismo": 4182,
      "engañ": 4183,
      "eliminar": 4184,
      "kenia": 4185,
      "galaxias": 4186,
      "carretera": 4187,
      "diagnós": 4188,
      "curiosidad": 4189,
      "lectura": 4190,
      "infraestructura": 4191,
      "vergüenza": 4192,
      "california": 4193,
      "apara": 4194,
      "gon": 4195,
      "ita": 4196,
      "rador": 4197,
      "sú": 4198,
      "zca": 4199,
      "áto": 4200,
      "detener": 4201,
      "depresión": 4202,
      "quedan": 4203,
      "reacción": 4204,
      "infin": 4205,
      "amari": 4206,
      "coca": 4207,
      "coli": 4208,
      "cocina": 4209,
      "didas": 4210,
      "diario": 4211,
      "curi": 4212,
      "poesía": 4213,
      "tuber": 4214,
      "pista": 4215,
      "tano": 4216,
      "prefer": 4217,
      "pasaría": 4218,
      "obras": 4219,
      "llaman": 4220,
      "llevan": 4221,
      "daré": 4222,
      "aumenta": 4223,
      "ganan": 4224,
      "sentimos": 4225,
      "ington": 4226,
      "cultiv": 4227,
      "poderoso": 4228,
      "primeras": 4229,
      "prisión": 4230,
      "equilibri": 4231,
      "antigua": 4232,
      "siguiendo": 4233,
      "encuentro": 4234,
      "pudieran": 4235,
      "páginas": 4236,
      "correcta": 4237,
      "industrial": 4238,
      "sueños": 4239,
      "religiones": 4240,
      "patía": 4241,
      "vacunas": 4242,
      "ahorro": 4243,
      "enfrentar": 4244,
      "demostrar": 4245,
      "espacial": 4246,
      "idioma": 4247,
      "murió": 4248,
      "consciente": 4249,
      "consecuencias": 4250,
      "importancia": 4251,
      "hospitales": 4252,
      "bacterias": 4253,
      "bicicle": 4254,
      "espíritu": 4255,
      "american": 4256,
      "ningun": 4257,
      "equilibrio": 4258,
      "2000": 4259,
      "aa": 4260,
      "eva": 4261,
      "it": 4262,
      "kg": 4263,
      "selec": 4264,
      "temp": 4265,
      "vera": 4266,
      "ventan": 4267,
      "wa": 4268,
      "espi": 4269,
      "enemi": 4270,
      "aste": 4271,
      "asia": 4272,
      "ciber": 4273,
      "copi": 4274,
      "mistas": 4275,
      "vih": 4276,
      "hai": 4277,
      "meta": 4278,
      "mul": 4279,
      "gustan": 4280,
      "fila": 4281,
      "cartel": 4282,
      "you": 4283,
      "nueve": 4284,
      "lleno": 4285,
      "seguido": 4286,
      "caminos": 4287,
      "necesitar": 4288,
      "frío": 4289,
      "humani": 4290,
      "jardín": 4291,
      "construido": 4292,
      "construyendo": 4293,
      "expertos": 4294,
      "volvamos": 4295,
      "ensayo": 4296,
      "fuerzas": 4297,
      "priva": 4298,
      "viajar": 4299,
      "objetivos": 4300,
      "bierto": 4301,
      "salida": 4302,
      "públicos": 4303,
      "colección": 4304,
      "suficientemente": 4305,
      "opción": 4306,
      "represent": 4307,
      "atmós": 4308,
      "lógico": 4309,
      "publicar": 4310,
      "extrem": 4311,
      "hermosa": 4312,
      "ancianos": 4313,
      "desafíos": 4314,
      "tejidos": 4315,
      "técnica": 4316,
      "estuviera": 4317,
      "abuelo": 4318,
      "ofrecer": 4319,
      "amenaza": 4320,
      "original": 4321,
      "aprovechar": 4322,
      "hermana": 4323,
      "plataforma": 4324,
      "orgán": 4325,
      "imaginación": 4326,
      "atmósfera": 4327,
      "21": 4328,
      "75": 4329,
      "ago": 4330,
      "azar": 4331,
      "afir": 4332,
      "ko": 4333,
      "lemos": 4334,
      "mt": 4335,
      "mentes": 4336,
      "pado": 4337,
      "xx": 4338,
      "útiles": 4339,
      "art": 4340,
      "análisis": 4341,
      "cialmente": 4342,
      "estri": 4343,
      "recom": 4344,
      "realiz": 4345,
      "conforme": 4346,
      "micas": 4347,
      "park": 4348,
      "potencia": 4349,
      "sust": 4350,
      "caer": 4351,
      "café": 4352,
      "rido": 4353,
      "musul": 4354,
      "chim": 4355,
      "ángeles": 4356,
      "trau": 4357,
      "predi": 4358,
      "alistas": 4359,
      "denomin": 4360,
      "marte": 4361,
      "sabi": 4362,
      "nació": 4363,
      "obtiene": 4364,
      "venido": 4365,
      "seguí": 4366,
      "pregunto": 4367,
      "triz": 4368,
      "intest": 4369,
      "encontró": 4370,
      "cuerpos": 4371,
      "tranqui": 4372,
      "esperaba": 4373,
      "máticos": 4374,
      "torias": 4375,
      "áramos": 4376,
      "trastornos": 4377,
      "siguientes": 4378,
      "ciudadanos": 4379,
      "tomó": 4380,
      "recuerdan": 4381,
      "explicación": 4382,
      "emociones": 4383,
      "explos": 4384,
      "asocia": 4385,
      "profundamente": 4386,
      "individuales": 4387,
      "gripe": 4388,
      "radiación": 4389,
      "enormes": 4390,
      "grafías": 4391,
      "dijimos": 4392,
      "perfectamente": 4393,
      "burbu": 4394,
      "ministro": 4395,
      "moderno": 4396,
      "describir": 4397,
      "extraordinario": 4398,
      "bailar": 4399,
      "disponibles": 4400,
      "corriente": 4401,
      "ejecu": 4402,
      "convierte": 4403,
      "próximo": 4404,
      "manipu": 4405,
      "egipto": 4406,
      "robó": 4407,
      "vehículo": 4408,
      "selva": 4409,
      "fantástico": 4410,
      "paisaje": 4411,
      "biblio": 4412,
      "toneladas": 4413,
      "ninguno": 4414,
      "400": 4415,
      "aero": 4416,
      "fase": 4417,
      "gli": 4418,
      "idas": 4419,
      "plu": 4420,
      "plem": 4421,
      "pint": 4422,
      "ual": 4423,
      "ende": 4424,
      "deo": 4425,
      "lament": 4426,
      "arm": 4427,
      "arnos": 4428,
      "ona": 4429,
      "and": 4430,
      "cidas": 4431,
      "ciclo": 4432,
      "adá": 4433,
      "concre": 4434,
      "difun": 4435,
      "empu": 4436,
      "nota": 4437,
      "vistas": 4438,
      "techo": 4439,
      "raí": 4440,
      "desgracia": 4441,
      "filos": 4442,
      "expon": 4443,
      "traer": 4444,
      "crece": 4445,
      "precios": 4446,
      "garaba": 4447,
      "jefe": 4448,
      "bajar": 4449,
      "canadá": 4450,
      "líder": 4451,
      "vender": 4452,
      "ganado": 4453,
      "cena": 4454,
      "podrá": 4455,
      "planetas": 4456,
      "algori": 4457,
      "razos": 4458,
      "razon": 4459,
      "2010": 4460,
      "pene": 4461,
      "judi": 4462,
      "volumen": 4463,
      "trabajado": 4464,
      "priv": 4465,
      "moral": 4466,
      "existencia": 4467,
      "confiar": 4468,
      "agre": 4469,
      "alimentación": 4470,
      "vivido": 4471,
      "descubrimiento": 4472,
      "director": 4473,
      "terapia": 4474,
      "organizar": 4475,
      "individual": 4476,
      "precisamente": 4477,
      "bolsi": 4478,
      "fundament": 4479,
      "oscuro": 4480,
      "oscuridad": 4481,
      "sensi": 4482,
      "vacío": 4483,
      "drogas": 4484,
      "técnicas": 4485,
      "benefici": 4486,
      "recuperar": 4487,
      "juegos": 4488,
      "antiguo": 4489,
      "arañas": 4490,
      "ciegos": 4491,
      "evolucion": 4492,
      "conflictos": 4493,
      "billones": 4494,
      "categor": 4495,
      "etique": 4496,
      "héro": 4497,
      "demanda": 4498,
      "vulner": 4499,
      "narrativa": 4500,
      "cárcel": 4501,
      "1000": 4502,
      "150": 4503,
      "45": 4504,
      "cente": 4505,
      "crá": 4506,
      "fora": 4507,
      "gl": 4508,
      "istas": 4509,
      "jado": 4510,
      "relev": 4511,
      "wash": 4512,
      "decenas": 4513,
      "elos": 4514,
      "recha": 4515,
      "infi": 4516,
      "constan": 4517,
      "tron": 4518,
      "tram": 4519,
      "mit": 4520,
      "nombres": 4521,
      "pareja": 4522,
      "tela": 4523,
      "sud": 4524,
      "med": 4525,
      "ecen": 4526,
      "ástico": 4527,
      "gote": 4528,
      "chu": 4529,
      "tube": 4530,
      "papá": 4531,
      "pidió": 4532,
      "terremoto": 4533,
      "excel": 4534,
      "trataba": 4535,
      "creó": 4536,
      "activi": 4537,
      "predecir": 4538,
      "hayan": 4539,
      "iría": 4540,
      "sabían": 4541,
      "aulas": 4542,
      "discapacidad": 4543,
      "basura": 4544,
      "ficaciones": 4545,
      "adoras": 4546,
      "hermanos": 4547,
      "funcionó": 4548,
      "volviendo": 4549,
      "esperan": 4550,
      "esperando": 4551,
      "faci": 4552,
      "comunicar": 4553,
      "diseñado": 4554,
      "urb": 4555,
      "configu": 4556,
      "idén": 4557,
      "tomando": 4558,
      "bosques": 4559,
      "vuelven": 4560,
      "llegaron": 4561,
      "básica": 4562,
      "comprensión": 4563,
      "maestro": 4564,
      "alcance": 4565,
      "line": 4566,
      "peligro": 4567,
      "responsable": 4568,
      "moverse": 4569,
      "películas": 4570,
      "entiende": 4571,
      "bomba": 4572,
      "usuarios": 4573,
      "engaño": 4574,
      "éndolo": 4575,
      "nervios": 4576,
      "periodis": 4577,
      "detalle": 4578,
      "corteza": 4579,
      "conversaciones": 4580,
      "acostumb": 4581,
      "flores": 4582,
      "juicio": 4583,
      "caída": 4584,
      "vecinos": 4585,
      "orgullos": 4586,
      "aldea": 4587,
      "colum": 4588,
      "ventanas": 4589,
      "youtube": 4590,
      "privacidad": 4591,
      "extremadamente": 4592,
      "agen": 4593,
      "cro": 4594,
      "cante": 4595,
      "due": 4596,
      "dri": 4597,
      "hen": 4598,
      "ld": 4599,
      "ly": 4600,
      "mado": 4601,
      "ny": 4602,
      "ocasi": 4603,
      "ty": 4604,
      "testi": 4605,
      "woo": 4606,
      "escon": 4607,
      "debate": 4608,
      "cida": 4609,
      "altos": 4610,
      "adver": 4611,
      "adable": 4612,
      "diga": 4613,
      "sida": 4614,
      "pares": 4615,
      "parís": 4616,
      "porta": 4617,
      "vier": 4618,
      "viejo": 4619,
      "tear": 4620,
      "teca": 4621,
      "supi": 4622,
      "muro": 4623,
      "big": 4624,
      "pib": 4625,
      "cerdo": 4626,
      "verse": 4627,
      "star": 4628,
      "traje": 4629,
      "tantas": 4630,
      "hablado": 4631,
      "tarlo": 4632,
      "carri": 4633,
      "granjeros": 4634,
      "neander": 4635,
      "obvio": 4636,
      "llegan": 4637,
      "bola": 4638,
      "autori": 4639,
      "funciones": 4640,
      "tiembre": 4641,
      "crip": 4642,
      "hecha": 4643,
      "bert": 4644,
      "temor": 4645,
      "querer": 4646,
      "clara": 4647,
      "llamé": 4648,
      "rendimiento": 4649,
      "méxico": 4650,
      "chip": 4651,
      "haremos": 4652,
      "cabo": 4653,
      "paredes": 4654,
      "variación": 4655,
      "2009": 4656,
      "tuviera": 4657,
      "cantidades": 4658,
      "sector": 4659,
      "matemático": 4660,
      "organizaciones": 4661,
      "llevado": 4662,
      "francia": 4663,
      "preocupar": 4664,
      "brin": 4665,
      "escuchado": 4666,
      "institución": 4667,
      "prácticas": 4668,
      "físicos": 4669,
      "generaciones": 4670,
      "poniendo": 4671,
      "psiqui": 4672,
      "detectar": 4673,
      "escolar": 4674,
      "entrenamiento": 4675,
      "emisiones": 4676,
      "puerto": 4677,
      "factores": 4678,
      "escena": 4679,
      "teléfonos": 4680,
      "civilización": 4681,
      "hambre": 4682,
      "demostrado": 4683,
      "elemento": 4684,
      "dimensiones": 4685,
      "principalmente": 4686,
      "esencial": 4687,
      "avión": 4688,
      "montaña": 4689,
      "estadísticas": 4690,
      "sombra": 4691,
      "arreglar": 4692,
      "crispr": 4693,
      "tarjetas": 4694,
      "nací": 4695,
      "percepción": 4696,
      "transición": 4697,
      "dimensional": 4698,
      "ejerci": 4699,
      "intelectual": 4700,
      "septiembre": 4701,
      "haití": 4702,
      "musulman": 4703,
      "clá": 4704,
      "gam": 4705,
      "gma": 4706,
      "hori": 4707,
      "ji": 4708,
      "lli": 4709,
      "mad": 4710,
      "múlti": 4711,
      "om": 4712,
      "oye": 4713,
      "sk": 4714,
      "sr": 4715,
      "tén": 4716,
      "xia": 4717,
      "escal": 4718,
      "dedos": 4719,
      "quin": 4720,
      "analiz": 4721,
      "alf": 4722,
      "alqui": 4723,
      "estima": 4724,
      "recep": 4725,
      "inesper": 4726,
      "abre": 4727,
      "misión": 4728,
      "podido": 4729,
      "supe": 4730,
      "subir": 4731,
      "cae": 4732,
      "solos": 4733,
      "mur": 4734,
      "musi": 4735,
      "mutu": 4736,
      "lizar": 4737,
      "prome": 4738,
      "prove": 4739,
      "delin": 4740,
      "guía": 4741,
      "pies": 4742,
      "pilo": 4743,
      "ficción": 4744,
      "stal": 4745,
      "creía": 4746,
      "crecí": 4747,
      "dupli": 4748,
      "habido": 4749,
      "hablemos": 4750,
      "fueran": 4751,
      "misterio": 4752,
      "canal": 4753,
      "químicos": 4754,
      "intercambio": 4755,
      "presentes": 4756,
      "correr": 4757,
      "fundación": 4758,
      "pensado": 4759,
      "basa": 4760,
      "cuerdas": 4761,
      "inglater": 4762,
      "propiedades": 4763,
      "incluyendo": 4764,
      "moni": 4765,
      "monos": 4766,
      "mági": 4767,
      "intereses": 4768,
      "jubi": 4769,
      "extraños": 4770,
      "vuelo": 4771,
      "banco": 4772,
      "hormon": 4773,
      "tomemos": 4774,
      "infancia": 4775,
      "vín": 4776,
      "aliment": 4777,
      "observar": 4778,
      "habilidad": 4779,
      "efectivamente": 4780,
      "creativo": 4781,
      "comercio": 4782,
      "económicos": 4783,
      "invertir": 4784,
      "caliente": 4785,
      "consul": 4786,
      "preocupa": 4787,
      "representan": 4788,
      "secuencia": 4789,
      "tismo": 4790,
      "tradición": 4791,
      "cuidados": 4792,
      "participación": 4793,
      "maravillosa": 4794,
      "piernas": 4795,
      "inspiración": 4796,
      "ingenieros": 4797,
      "convencer": 4798,
      "fantas": 4799,
      "acumu": 4800,
      "fronteras": 4801,
      "televisión": 4802,
      "comenzaron": 4803,
      "reflexi": 4804,
      "tendrán": 4805,
      "competi": 4806,
      "antiguos": 4807,
      "electrónico": 4808,
      "voluntad": 4809,
      "occidental": 4810,
      "cálculos": 4811,
      "supongo": 4812,
      "conscientes": 4813,
      "involuc": 4814,
      "implica": 4815,
      "comentarios": 4816,
      "enveje": 4817,
      "mecanismo": 4818,
      "estrategia": 4819,
      "órganos": 4820,
      "crédi": 4821,
      "microscopio": 4822,
      "restaur": 4823,
      "peligroso": 4824,
      "matrimonio": 4825,
      "elefante": 4826,
      "domés": 4827,
      "esquina": 4828,
      "constantemente": 4829,
      "horizon": 4830,
      "inglaterra": 4831,
      "ak": 4832,
      "ctores": 4833,
      "ey": 4834,
      "gla": 4835,
      "mías": 4836,
      "wk": 4837,
      "win": 4838,
      "íti": 4839,
      "ódi": 4840,
      "esen": 4841,
      "dedores": 4842,
      "eren": 4843,
      "anc": 4844,
      "alá": 4845,
      "altura": 4846,
      "estim": 4847,
      "revolu": 4848,
      "incerti": 4849,
      "ambu": 4850,
      "codifi": 4851,
      "contamos": 4852,
      "didos": 4853,
      "ema": 4854,
      "abra": 4855,
      "notable": 4856,
      "motiva": 4857,
      "viva": 4858,
      "solí": 4859,
      "pido": 4860,
      "teros": 4861,
      "extran": 4862,
      "trai": 4863,
      "serían": 4864,
      "dula": 4865,
      "acaba": 4866,
      "nube": 4867,
      "caras": 4868,
      "cargo": 4869,
      "irse": 4870,
      "genética": 4871,
      "pasada": 4872,
      "unidades": 4873,
      "naciones": 4874,
      "decidir": 4875,
      "ruta": 4876,
      "gana": 4877,
      "cambian": 4878,
      "disci": 4879,
      "cria": 4880,
      "alguno": 4881,
      "preguntamos": 4882,
      "stata": 4883,
      "salva": 4884,
      "basado": 4885,
      "barco": 4886,
      "inodor": 4887,
      "estarán": 4888,
      "funcione": 4889,
      "mono": 4890,
      "escribí": 4891,
      "sucedido": 4892,
      "normas": 4893,
      "circui": 4894,
      "desafi": 4895,
      "progres": 4896,
      "responde": 4897,
      "conectoma": 4898,
      "igles": 4899,
      "observen": 4900,
      "alizada": 4901,
      "próstata": 4902,
      "piedra": 4903,
      "pájar": 4904,
      "franci": 4905,
      "avanzar": 4906,
      "patentes": 4907,
      "comportamientos": 4908,
      "fundamentales": 4909,
      "gráfi": 4910,
      "cuadrado": 4911,
      "mueven": 4912,
      "evento": 4913,
      "entienden": 4914,
      "dificultad": 4915,
      "residu": 4916,
      "idiomas": 4917,
      "familiares": 4918,
      "registro": 4919,
      "compartimos": 4920,
      "renov": 4921,
      "manejar": 4922,
      "involucr": 4923,
      "distribución": 4924,
      "vidrio": 4925,
      "agradeci": 4926,
      "cocinar": 4927,
      "popular": 4928,
      "investigadores": 4929,
      "celular": 4930,
      "cumplir": 4931,
      "género": 4932,
      "imagín": 4933,
      "alumnos": 4934,
      "esquizo": 4935,
      "inferior": 4936,
      "artificial": 4937,
      "australia": 4938,
      "sorpresa": 4939,
      "incertidu": 4940,
      "ajes": 4941,
      "brazos": 4942,
      "drá": 4943,
      "ezas": 4944,
      "fres": 4945,
      "lento": 4946,
      "muni": 4947,
      "oeste": 4948,
      "reras": 4949,
      "sh": 4950,
      "temos": 4951,
      "tún": 4952,
      "vías": 4953,
      "zum": 4954,
      "éstas": 4955,
      "íes": 4956,
      "ñar": 4957,
      "dela": 4958,
      "defen": 4959,
      "arco": 4960,
      "artes": 4961,
      "adé": 4962,
      "repi": 4963,
      "revista": 4964,
      "repeti": 4965,
      "incómo": 4966,
      "inevi": 4967,
      "tigo": 4968,
      "trar": 4969,
      "triste": 4970,
      "diez": 4971,
      "embre": 4972,
      "sia": 4973,
      "sivo": 4974,
      "milla": 4975,
      "cuentas": 4976,
      "suje": 4977,
      "sofi": 4978,
      "richar": 4979,
      "roja": 4980,
      "verdes": 4981,
      "fibras": 4982,
      "grama": 4983,
      "luces": 4984,
      "exclu": 4985,
      "pedí": 4986,
      "duras": 4987,
      "acor": 4988,
      "acadé": 4989,
      "vayan": 4990,
      "largas": 4991,
      "amiga": 4992,
      "marco": 4993,
      "marcha": 4994,
      "gantes": 4995,
      "lly": 4996,
      "posibles": 4997,
      "raro": 4998,
      "raron": 4999,
      "escucha": 5000,
      "intento": 5001,
      "encontraron": 5002,
      "calcular": 5003,
      "poderosa": 5004,
      "malos": 5005,
      "transformación": 5006,
      "cerebral": 5007,
      "reciente": 5008,
      "geor": 5009,
      "tío": 5010,
      "viajes": 5011,
      "hacían": 5012,
      "cables": 5013,
      "extraer": 5014,
      "tono": 5015,
      "pintar": 5016,
      "telesco": 5017,
      "regalo": 5018,
      "logramos": 5019,
      "lograrlo": 5020,
      "recuerda": 5021,
      "movimientos": 5022,
      "encuesta": 5023,
      "pudimos": 5024,
      "ónico": 5025,
      "frag": 5026,
      "aquel": 5027,
      "escuché": 5028,
      "interacción": 5029,
      "digitales": 5030,
      "detección": 5031,
      "conceptos": 5032,
      "nucleares": 5033,
      "combin": 5034,
      "cumple": 5035,
      "brillantes": 5036,
      "eficiencia": 5037,
      "normales": 5038,
      "competencia": 5039,
      "sentimientos": 5040,
      "pusieron": 5041,
      "sostenible": 5042,
      "vivencia": 5043,
      "potente": 5044,
      "periódi": 5045,
      "metáfora": 5046,
      "refugiados": 5047,
      "átomos": 5048,
      "chimpan": 5049,
      "richard": 5050,
      "my": 5051,
      "madres": 5052,
      "ojo": 5053,
      "rero": 5054,
      "sensa": 5055,
      "tv": 5056,
      "tho": 5057,
      "vían": 5058,
      "xión": 5059,
      "yas": 5060,
      "depar": 5061,
      "arries": 5062,
      "ong": 5063,
      "ansi": 5064,
      "reunir": 5065,
      "inmun": 5066,
      "incent": 5067,
      "incorpor": 5068,
      "conci": 5069,
      "contiene": 5070,
      "conge": 5071,
      "conseguimos": 5072,
      "seamos": 5073,
      "perro": 5074,
      "modos": 5075,
      "vivía": 5076,
      "haz": 5077,
      "leg": 5078,
      "rir": 5079,
      "ratas": 5080,
      "lidiar": 5081,
      "gulo": 5082,
      "fili": 5083,
      "quitar": 5084,
      "extin": 5085,
      "stente": 5086,
      "veter": 5087,
      "activo": 5088,
      "añadir": 5089,
      "tienden": 5090,
      "fuese": 5091,
      "pasaba": 5092,
      "lanzar": 5093,
      "granja": 5094,
      "bage": 5095,
      "batalla": 5096,
      "rum": 5097,
      "bienes": 5098,
      "dispuestos": 5099,
      "crimin": 5100,
      "seguras": 5101,
      "fox": 5102,
      "cilind": 5103,
      "turno": 5104,
      "simpli": 5105,
      "teriores": 5106,
      "ciertos": 5107,
      "recibí": 5108,
      "mática": 5109,
      "danza": 5110,
      "título": 5111,
      "inventar": 5112,
      "fuertes": 5113,
      "supervivencia": 5114,
      "terminado": 5115,
      "privi": 5116,
      "extraña": 5117,
      "eeuu": 5118,
      "centros": 5119,
      "siguió": 5120,
      "consiste": 5121,
      "conectado": 5122,
      "dirán": 5123,
      "recuerdos": 5124,
      "palest": 5125,
      "fracaso": 5126,
      "ocurrir": 5127,
      "tróno": 5128,
      "avance": 5129,
      "hone": 5130,
      "ilusión": 5131,
      "romper": 5132,
      "dirigir": 5133,
      "multipli": 5134,
      "baile": 5135,
      "irak": 5136,
      "nervioso": 5137,
      "rodea": 5138,
      "esencialmente": 5139,
      "asesin": 5140,
      "transmitir": 5141,
      "cuidar": 5142,
      "proporcion": 5143,
      "eficaz": 5144,
      "enfrentamos": 5145,
      "agricultura": 5146,
      "ventana": 5147,
      "círculo": 5148,
      "babbage": 5149,
      "obsesion": 5150,
      "horrible": 5151,
      "exponenci": 5152,
      "agregar": 5153,
      "washington": 5154,
      "imagínense": 5155,
      "23": 5156,
      "far": 5157,
      "ghan": 5158,
      "iban": 5159,
      "mada": 5160,
      "pados": 5161,
      "rón": 5162,
      "sá": 5163,
      "enla": 5164,
      "osti": 5165,
      "deri": 5166,
      "cieron": 5167,
      "estal": 5168,
      "entamiento": 5169,
      "regreso": 5170,
      "intui": 5171,
      "coinci": 5172,
      "tren": 5173,
      "locura": 5174,
      "empatía": 5175,
      "siles": 5176,
      "siva": 5177,
      "cuentes": 5178,
      "parado": 5179,
      "porcenta": 5180,
      "vic": 5181,
      "haces": 5182,
      "taña": 5183,
      "dados": 5184,
      "riendo": 5185,
      "mación": 5186,
      "bieron": 5187,
      "lio": 5188,
      "liar": 5189,
      "cher": 5190,
      "guerras": 5191,
      "pato": 5192,
      "ficado": 5193,
      "ceder": 5194,
      "trae": 5195,
      "tangi": 5196,
      "preparar": 5197,
      "hier": 5198,
      "tienda": 5199,
      "breve": 5200,
      "bretaña": 5201,
      "pase": 5202,
      "obst": 5203,
      "decidió": 5204,
      "corta": 5205,
      "corrup": 5206,
      "darnos": 5207,
      "cambiamos": 5208,
      "estándar": 5209,
      "necesariamente": 5210,
      "decirle": 5211,
      "rara": 5212,
      "virtu": 5213,
      "pecta": 5214,
      "recibe": 5215,
      "2011": 5216,
      "actuales": 5217,
      "actualidad": 5218,
      "muertos": 5219,
      "muertes": 5220,
      "variedad": 5221,
      "conectados": 5222,
      "piensas": 5223,
      "diré": 5224,
      "conductor": 5225,
      "directo": 5226,
      "ónica": 5227,
      "aguja": 5228,
      "fracas": 5229,
      "oídos": 5230,
      "adura": 5231,
      "atrac": 5232,
      "diapositiva": 5233,
      "sacri": 5234,
      "psicó": 5235,
      "tendrá": 5236,
      "frases": 5237,
      "mamí": 5238,
      "contraseña": 5239,
      "recuperación": 5240,
      "procesos": 5241,
      "convier": 5242,
      "conferencias": 5243,
      "refugio": 5244,
      "asust": 5245,
      "mecánica": 5246,
      "africanos": 5247,
      "consecuencia": 5248,
      "existía": 5249,
      "cirujano": 5250,
      "riqueza": 5251,
      "consumidores": 5252,
      "esqueleto": 5253,
      "desierto": 5254,
      "diagnóstico": 5255,
      "musulmanes": 5256,
      "iglesia": 5257,
      "francisco": 5258,
      "incertidumbre": 5259,
      "zumbido": 5260,
      "35": 5261,
      "air": 5262,
      "cy": 5263,
      "cú": 5264,
      "ctu": 5265,
      "dge": 5266,
      "evan": 5267,
      "edores": 5268,
      "fla": 5269,
      "gab": 5270,
      "gadas": 5271,
      "ie": 5272,
      "jor": 5273,
      "kan": 5274,
      "rab": 5275,
      "sóli": 5276,
      "wn": 5277,
      "wan": 5278,
      "yos": 5279,
      "enda": 5280,
      "dez": 5281,
      "lari": 5282,
      "arque": 5283,
      "quedó": 5284,
      "cimos": 5285,
      "cifras": 5286,
      "rev": 5287,
      "reconocimiento": 5288,
      "instan": 5289,
      "instancia": 5290,
      "tic": 5291,
      "tiera": 5292,
      "diplo": 5293,
      "toca": 5294,
      "cuero": 5295,
      "perfor": 5296,
      "porqué": 5297,
      "mole": 5298,
      "vidad": 5299,
      "vivos": 5300,
      "hat": 5301,
      "tea": 5302,
      "teatro": 5303,
      "letras": 5304,
      "leonar": 5305,
      "metal": 5306,
      "socio": 5307,
      "proviene": 5308,
      "pac": 5309,
      "paga": 5310,
      "pico": 5311,
      "fiesta": 5312,
      "filó": 5313,
      "tercio": 5314,
      "terreno": 5315,
      "pueb": 5316,
      "exter": 5317,
      "creciendo": 5318,
      "habrían": 5319,
      "actú": 5320,
      "personales": 5321,
      "marcar": 5322,
      "neu": 5323,
      "nega": 5324,
      "obtienen": 5325,
      "líqui": 5326,
      "llevamos": 5327,
      "decidieron": 5328,
      "huesos": 5329,
      "pensó": 5330,
      "pensaban": 5331,
      "fines": 5332,
      "finales": 5333,
      "salí": 5334,
      "salen": 5335,
      "salón": 5336,
      "decirlo": 5337,
      "culp": 5338,
      "cultores": 5339,
      "ciertamente": 5340,
      "médula": 5341,
      "vard": 5342,
      "pensemos": 5343,
      "sospec": 5344,
      "permiso": 5345,
      "descubierto": 5346,
      "tomado": 5347,
      "ponerse": 5348,
      "alimentar": 5349,
      "investigar": 5350,
      "visible": 5351,
      "palo": 5352,
      "economías": 5353,
      "dejé": 5354,
      "expl": 5355,
      "creativa": 5356,
      "profunda": 5357,
      "frank": 5358,
      "culosis": 5359,
      "ocurrido": 5360,
      "situaciones": 5361,
      "vacuna": 5362,
      "ahorrar": 5363,
      "puertas": 5364,
      "peligros": 5365,
      "intentamos": 5366,
      "océanos": 5367,
      "fabricación": 5368,
      "instrucciones": 5369,
      "favorito": 5370,
      "permanente": 5371,
      "electrónicos": 5372,
      "eléctrico": 5373,
      "corporal": 5374,
      "discusión": 5375,
      "occidente": 5376,
      "agrí": 5377,
      "anderson": 5378,
      "prototipo": 5379,
      "vehículos": 5380,
      "características": 5381,
      "componentes": 5382,
      "educativo": 5383,
      "profesionales": 5384,
      "codificar": 5385,
      "gravedad": 5386,
      "diálogo": 5387,
      "desastre": 5388,
      "ecosistemas": 5389,
      "financier": 5390,
      "interactuar": 5391,
      "zapatos": 5392,
      "moneda": 5393,
      "súper": 5394,
      "tuberculosis": 5395,
      "robótica": 5396,
      "biblioteca": 5397,
      "periodista": 5398,
      "viernes": 5399,
      "mutuamente": 5400,
      "sofisti": 5401,
      "cilindro": 5402,
      "ghana": 5403,
      "agar": 5404,
      "agi": 5405,
      "aparecer": 5406,
      "cl": 5407,
      "cem": 5408,
      "dían": 5409,
      "hue": 5410,
      "món": 5411,
      "nó": 5412,
      "olu": 5413,
      "rando": 5414,
      "sy": 5415,
      "tmos": 5416,
      "we": 5417,
      "enero": 5418,
      "quía": 5419,
      "altas": 5420,
      "altamente": 5421,
      "estó": 5422,
      "entamente": 5423,
      "repli": 5424,
      "retina": 5425,
      "intr": 5426,
      "invas": 5427,
      "instante": 5428,
      "aman": 5429,
      "conden": 5430,
      "dig": 5431,
      "abur": 5432,
      "notas": 5433,
      "motores": 5434,
      "haci": 5435,
      "meter": 5436,
      "dada": 5437,
      "mago": 5438,
      "litera": 5439,
      "tendencias": 5440,
      "prot": 5441,
      "tumor": 5442,
      "comparación": 5443,
      "pistas": 5444,
      "cerrar": 5445,
      "verme": 5446,
      "fibra": 5447,
      "quito": 5448,
      "cionamiento": 5449,
      "expecta": 5450,
      "manus": 5451,
      "áneo": 5452,
      "trayec": 5453,
      "crees": 5454,
      "hol": 5455,
      "caro": 5456,
      "cardía": 5457,
      "vaya": 5458,
      "forzar": 5459,
      "lance": 5460,
      "mark": 5461,
      "maras": 5462,
      "cantes": 5463,
      "ney": 5464,
      "sustitu": 5465,
      "interrup": 5466,
      "pongo": 5467,
      "trabajos": 5468,
      "gato": 5469,
      "pensa": 5470,
      "conocía": 5471,
      "berg": 5472,
      "preguntó": 5473,
      "necesitas": 5474,
      "salv": 5475,
      "ultras": 5476,
      "barrio": 5477,
      "calcula": 5478,
      "míni": 5479,
      "bridge": 5480,
      "aprendiendo": 5481,
      "producen": 5482,
      "llamadas": 5483,
      "debía": 5484,
      "complejas": 5485,
      "transfer": 5486,
      "pantal": 5487,
      "mentales": 5488,
      "métodos": 5489,
      "plano": 5490,
      "plani": 5491,
      "universal": 5492,
      "mirada": 5493,
      "harvard": 5494,
      "usarse": 5495,
      "primir": 5496,
      "conocida": 5497,
      "débil": 5498,
      "cabello": 5499,
      "generalmente": 5500,
      "197": 5501,
      "sani": 5502,
      "mueren": 5503,
      "etapa": 5504,
      "regla": 5505,
      "agreg": 5506,
      "fotografías": 5507,
      "desean": 5508,
      "crucial": 5509,
      "lógicos": 5510,
      "cámaras": 5511,
      "físicamente": 5512,
      "particip": 5513,
      "acero": 5514,
      "acabar": 5515,
      "izquierdo": 5516,
      "impac": 5517,
      "factor": 5518,
      "combinación": 5519,
      "abierta": 5520,
      "intentando": 5521,
      "amplia": 5522,
      "entrada": 5523,
      "frontera": 5524,
      "terroristas": 5525,
      "quedarse": 5526,
      "bombas": 5527,
      "ayudan": 5528,
      "ingreso": 5529,
      "examen": 5530,
      "temporal": 5531,
      "identificar": 5532,
      "respeto": 5533,
      "caminando": 5534,
      "dinámica": 5535,
      "caballo": 5536,
      "tumba": 5537,
      "delincuentes": 5538,
      "envejecimiento": 5539,
      "obstá": 5540,
      "instantán": 5541,
      "pueblos": 5542,
      "literatura": 5543,
      "manuscri": 5544,
      "36": 5545,
      "ave": 5546,
      "desta": 5547,
      "dora": 5548,
      "eter": 5549,
      "eamente": 5550,
      "iores": 5551,
      "jeron": 5552,
      "ples": 5553,
      "restri": 5554,
      "sho": 5555,
      "wor": 5556,
      "yac": 5557,
      "ática": 5558,
      "escla": 5559,
      "undan": 5560,
      "anima": 5561,
      "cima": 5562,
      "entero": 5563,
      "adentro": 5564,
      "repe": 5565,
      "reproducir": 5566,
      "ingres": 5567,
      "tian": 5568,
      "tima": 5569,
      "ticar": 5570,
      "tría": 5571,
      "diera": 5572,
      "dices": 5573,
      "digni": 5574,
      "absor": 5575,
      "noches": 5576,
      "perdió": 5577,
      "motiv": 5578,
      "popó": 5579,
      "letra": 5580,
      "sum": 5581,
      "descan": 5582,
      "desay": 5583,
      "pade": 5584,
      "patas": 5585,
      "paki": 5586,
      "impresión": 5587,
      "cedentes": 5588,
      "stre": 5589,
      "puestas": 5590,
      "mandela": 5591,
      "servir": 5592,
      "fortal": 5593,
      "hacernos": 5594,
      "unión": 5595,
      "mencion": 5596,
      "cortar": 5597,
      "trabaja": 5598,
      "botón": 5599,
      "alidades": 5600,
      "discurso": 5601,
      "siglos": 5602,
      "entregar": 5603,
      "claridad": 5604,
      "plane": 5605,
      "estimu": 5606,
      "monu": 5607,
      "transform": 5608,
      "métri": 5609,
      "recién": 5610,
      "buscamos": 5611,
      "portá": 5612,
      "personaje": 5613,
      "personajes": 5614,
      "just": 5615,
      "núcle": 5616,
      "permitido": 5617,
      "trabajamos": 5618,
      "privado": 5619,
      "cuánta": 5620,
      "trastorno": 5621,
      "desaparecer": 5622,
      "amazon": 5623,
      "progreso": 5624,
      "computación": 5625,
      "empezado": 5626,
      "pinturas": 5627,
      "vídeo": 5628,
      "utilizando": 5629,
      "visitar": 5630,
      "micró": 5631,
      "dejado": 5632,
      "vistazo": 5633,
      "prótesis": 5634,
      "profundas": 5635,
      "textos": 5636,
      "frac": 5637,
      "fluores": 5638,
      "empecemos": 5639,
      "ocurriendo": 5640,
      "interacciones": 5641,
      "polio": 5642,
      "democrá": 5643,
      "acabo": 5644,
      "oficial": 5645,
      "condición": 5646,
      "definitiva": 5647,
      "amplio": 5648,
      "eventos": 5649,
      "corriendo": 5650,
      "ayudó": 5651,
      "permanecer": 5652,
      "murieron": 5653,
      "resuel": 5654,
      "galaxia": 5655,
      "africano": 5656,
      "camiones": 5657,
      "carreteras": 5658,
      "diagnos": 5659,
      "artículos": 5660,
      "militares": 5661,
      "conclusión": 5662,
      "centavos": 5663,
      "envej": 5664,
      "argumento": 5665,
      "escarabajo": 5666,
      "impresionante": 5667,
      "colaboración": 5668,
      "afortunadamente": 5669,
      "refiero": 5670,
      "energético": 5671,
      "cotidiana": 5672,
      "prosperidad": 5673,
      "circunstancias": 5674,
      "bolsillo": 5675,
      "fundamentalmente": 5676,
      "alfabe": 5677,
      "doméstica": 5678,
      "cumpleaños": 5679,
      "porcentaje": 5680,
      "exploración": 5681,
      "dignidad": 5682,
      "micrófon": 5683,
      "alar": 5684,
      "atribu": 5685,
      "bran": 5686,
      "eh": 5687,
      "eu": 5688,
      "icas": 5689,
      "lás": 5690,
      "ling": 5691,
      "mc": 5692,
      "nan": 5693,
      "peces": 5694,
      "só": 5695,
      "she": 5696,
      "tables": 5697,
      "vor": 5698,
      "vuela": 5699,
      "zz": 5700,
      "deba": 5701,
      "defec": 5702,
      "lago": 5703,
      "ascen": 5704,
      "onal": 5705,
      "onda": 5706,
      "cié": 5707,
      "rece": 5708,
      "insul": 5709,
      "amb": 5710,
      "tidos": 5711,
      "cohe": 5712,
      "logra": 5713,
      "sedu": 5714,
      "tomo": 5715,
      "tomen": 5716,
      "empa": 5717,
      "mila": 5718,
      "notar": 5719,
      "nobel": 5720,
      "poema": 5721,
      "sufren": 5722,
      "capas": 5723,
      "cajas": 5724,
      "tatu": 5725,
      "ricas": 5726,
      "mapas": 5727,
      "bit": 5728,
      "bigote": 5729,
      "tengamos": 5730,
      "gobern": 5731,
      "implem": 5732,
      "terías": 5733,
      "excre": 5734,
      "mantiene": 5735,
      "resal": 5736,
      "resolu": 5737,
      "estaciones": 5738,
      "dudas": 5739,
      "acá": 5740,
      "activa": 5741,
      "homb": 5742,
      "iran": 5743,
      "larse": 5744,
      "tesla": 5745,
      "genio": 5746,
      "pasaron": 5747,
      "lanz": 5748,
      "mari": 5749,
      "post": 5750,
      "minas": 5751,
      "talento": 5752,
      "bienestar": 5753,
      "olor": 5754,
      "frus": 5755,
      "bases": 5756,
      "saté": 5757,
      "barri": 5758,
      "aprende": 5759,
      "estará": 5760,
      "culturas": 5761,
      "esperamos": 5762,
      "entendimiento": 5763,
      "reciben": 5764,
      "playa": 5765,
      "meras": 5766,
      "diseños": 5767,
      "mostró": 5768,
      "mostrando": 5769,
      "viaj": 5770,
      "equival": 5771,
      "iguales": 5772,
      "existir": 5773,
      "ífico": 5774,
      "sanos": 5775,
      "logrado": 5776,
      "fondos": 5777,
      "surge": 5778,
      "alizados": 5779,
      "tuvieran": 5780,
      "capacidades": 5781,
      "profesión": 5782,
      "reduce": 5783,
      "llevaba": 5784,
      "económicas": 5785,
      "industrias": 5786,
      "operaciones": 5787,
      "afectan": 5788,
      "instituto": 5789,
      "perfecta": 5790,
      "neurona": 5791,
      "blanca": 5792,
      "borde": 5793,
      "modernos": 5794,
      "cuadro": 5795,
      "visuales": 5796,
      "limpio": 5797,
      "tábamos": 5798,
      "telef": 5799,
      "convertirse": 5800,
      "hogares": 5801,
      "frenia": 5802,
      "tendríamos": 5803,
      "instrumentos": 5804,
      "plástico": 5805,
      "dibujar": 5806,
      "recoger": 5807,
      "asegurar": 5808,
      "destino": 5809,
      "bacteria": 5810,
      "asesina": 5811,
      "invisibles": 5812,
      "reaccion": 5813,
      "miembro": 5814,
      "conozcan": 5815,
      "ecología": 5816,
      "excepto": 5817,
      "abandonar": 5818,
      "cuestion": 5819,
      "retroalimentación": 5820,
      "globalización": 5821,
      "mentiras": 5822,
      "admitir": 5823,
      "ensayos": 5824,
      "defensa": 5825,
      "continúa": 5826,
      "cubrir": 5827,
      "escultura": 5828,
      "transparencia": 5829,
      "aventura": 5830,
      "accesible": 5831,
      "explosión": 5832,
      "relevante": 5833,
      "múltiples": 5834,
      "analizamos": 5835,
      "crédito": 5836,
      "ítimo": 5837,
      "discipl": 5838,
      "esquizofrenia": 5839,
      "george": 5840,
      "departamento": 5841,
      "veteranos": 5842,
      "resolución": 5843,
      "satéli": 5844,
      "22": 5845,
      "26": 5846,
      "agru": 5847,
      "bg": 5848,
      "bl": 5849,
      "bun": 5850,
      "bob": 5851,
      "centes": 5852,
      "daban": 5853,
      "fabu": 5854,
      "farma": 5855,
      "gim": 5856,
      "hero": 5857,
      "ker": 5858,
      "lentamente": 5859,
      "mel": 5860,
      "mbri": 5861,
      "nt": 5862,
      "nel": 5863,
      "ou": 5864,
      "pm": 5865,
      "sado": 5866,
      "ster": 5867,
      "use": 5868,
      "vemente": 5869,
      "zcan": 5870,
      "ámenes": 5871,
      "depor": 5872,
      "dele": 5873,
      "decla": 5874,
      "devas": 5875,
      "determinar": 5876,
      "latina": 5877,
      "ondas": 5878,
      "anteriores": 5879,
      "ciente": 5880,
      "estabilidad": 5881,
      "ines": 5882,
      "instin": 5883,
      "doy": 5884,
      "confun": 5885,
      "contigo": 5886,
      "digan": 5887,
      "división": 5888,
      "sicos": 5889,
      "midad": 5890,
      "micha": 5891,
      "poquito": 5892,
      "leído": 5893,
      "sucesi": 5894,
      "rió": 5895,
      "madera": 5896,
      "licencia": 5897,
      "david": 5898,
      "turar": 5899,
      "descen": 5900,
      "gues": 5901,
      "pausa": 5902,
      "cerdos": 5903,
      "verso": 5904,
      "lujo": 5905,
      "dosis": 5906,
      "exámenes": 5907,
      "ántico": 5908,
      "tratan": 5909,
      "tratado": 5910,
      "trage": 5911,
      "usó": 5912,
      "pegar": 5913,
      "vela": 5914,
      "creencia": 5915,
      "crearon": 5916,
      "activos": 5917,
      "aliza": 5918,
      "hibi": 5919,
      "tiendas": 5920,
      "gigante": 5921,
      "gigantes": 5922,
      "marcas": 5923,
      "marido": 5924,
      "islas": 5925,
      "cantar": 5926,
      "preser": 5927,
      "hura": 5928,
      "hueso": 5929,
      "daría": 5930,
      "ganda": 5931,
      "disco": 5932,
      "disposición": 5933,
      "quieran": 5934,
      "segui": 5935,
      "preguntan": 5936,
      "ideal": 5937,
      "basada": 5938,
      "saque": 5939,
      "club": 5940,
      "construida": 5941,
      "construyeron": 5942,
      "calentamiento": 5943,
      "aprendemos": 5944,
      "aprendimos": 5945,
      "xix": 5946,
      "cultivos": 5947,
      "dormi": 5948,
      "escribiendo": 5949,
      "especiales": 5950,
      "entendemos": 5951,
      "suceda": 5952,
      "universos": 5953,
      "jugue": 5954,
      "permitió": 5955,
      "comenzado": 5956,
      "trabajé": 5957,
      "termina": 5958,
      "cabezas": 5959,
      "solucionar": 5960,
      "parezca": 5961,
      "banda": 5962,
      "ciudadano": 5963,
      "saliendo": 5964,
      "utilidad": 5965,
      "agentes": 5966,
      "traves": 5967,
      "enseña": 5968,
      "observación": 5969,
      "explica": 5970,
      "dejen": 5971,
      "errón": 5972,
      "erradi": 5973,
      "matemáticos": 5974,
      "básico": 5975,
      "terrestres": 5976,
      "operación": 5977,
      "honor": 5978,
      "cruzar": 5979,
      "tillas": 5980,
      "prácticamente": 5981,
      "maestra": 5982,
      "físicas": 5983,
      "continuación": 5984,
      "convencido": 5985,
      "integra": 5986,
      "ándome": 5987,
      "esposo": 5988,
      "apari": 5989,
      "extraordinaria": 5990,
      "tendrían": 5991,
      "favoritas": 5992,
      "éndome": 5993,
      "inventó": 5994,
      "crítica": 5995,
      "víctima": 5996,
      "ciego": 5997,
      "reunión": 5998,
      "impulso": 5999,
      "adolescente": 6000,
      "eléctrica": 6001,
      "esfuerzos": 6002,
      "truco": 6003,
      "examin": 6004,
      "influencia": 6005,
      "eficaces": 6006,
      "conductores": 6007,
      "europea": 6008,
      "celulares": 6009,
      "hábita": 6010,
      "clínica": 6011,
      "iphone": 6012,
      "muchísimo": 6013,
      "evaluación": 6014,
      "ilegal": 6015,
      "organismos": 6016,
      "falsifi": 6017,
      "amarillo": 6018,
      "intestino": 6019,
      "lineal": 6020,
      "wood": 6021,
      "circuitos": 6022,
      "pájaros": 6023,
      "telescopio": 6024,
      "convierten": 6025,
      "leonardo": 6026,
      "ultrason": 6027,
      "pakistán": 6028,
      "fabulos": 6029,
      "declaración": 6030,
      "27": 6031,
      "ace": 6032,
      "aterr": 6033,
      "agres": 6034,
      "atraves": 6035,
      "dent": 6036,
      "dario": 6037,
      "iva": 6038,
      "nad": 6039,
      "ola": 6040,
      "oto": 6041,
      "rus": 6042,
      "sores": 6043,
      "sau": 6044,
      "test": 6045,
      "ting": 6046,
      "tár": 6047,
      "ze": 6048,
      "zaba": 6049,
      "ñado": 6050,
      "óp": 6051,
      "esidad": 6052,
      "enca": 6053,
      "arras": 6054,
      "arreci": 6055,
      "onu": 6056,
      "une": 6057,
      "anía": 6058,
      "anda": 6059,
      "citas": 6060,
      "estando": 6061,
      "reclu": 6062,
      "inun": 6063,
      "inti": 6064,
      "times": 6065,
      "copia": 6066,
      "conce": 6067,
      "diab": 6068,
      "dist": 6069,
      "locos": 6070,
      "sico": 6071,
      "sienta": 6072,
      "mia": 6073,
      "miro": 6074,
      "cuanti": 6075,
      "novi": 6076,
      "pará": 6077,
      "teo": 6078,
      "lee": 6079,
      "leí": 6080,
      "mape": 6081,
      "tensión": 6082,
      "guas": 6083,
      "guera": 6084,
      "comba": 6085,
      "cerve": 6086,
      "impre": 6087,
      "impuestos": 6088,
      "fijamos": 6089,
      "gram": 6090,
      "mandar": 6091,
      "ándonos": 6092,
      "pedimos": 6093,
      "pedia": 6094,
      "reson": 6095,
      "vege": 6096,
      "tara": 6097,
      "hojas": 6098,
      "cari": 6099,
      "vapor": 6100,
      "brecha": 6101,
      "gias": 6102,
      "mart": 6103,
      "pose": 6104,
      "nacimiento": 6105,
      "obesidad": 6106,
      "químico": 6107,
      "vengan": 6108,
      "sobrevivi": 6109,
      "rostro": 6110,
      "huella": 6111,
      "humil": 6112,
      "bienven": 6113,
      "posiciones": 6114,
      "diferenci": 6115,
      "ístico": 6116,
      "bastian": 6117,
      "fecha": 6118,
      "barrios": 6119,
      "ximo": 6120,
      "llamados": 6121,
      "últimas": 6122,
      "recibió": 6123,
      "recibimos": 6124,
      "máximo": 6125,
      "comiendo": 6126,
      "hablaré": 6127,
      "miró": 6128,
      "primos": 6129,
      "priori": 6130,
      "conocimientos": 6131,
      "stanford": 6132,
      "tomaron": 6133,
      "educar": 6134,
      "infla": 6135,
      "compañero": 6136,
      "conecta": 6137,
      "2007": 6138,
      "enseñanza": 6139,
      "relativamente": 6140,
      "estructur": 6141,
      "fotografi": 6142,
      "contaré": 6143,
      "descubrió": 6144,
      "sorprender": 6145,
      "sorprendió": 6146,
      "saberlo": 6147,
      "liberar": 6148,
      "hablaba": 6149,
      "aguas": 6150,
      "distinto": 6151,
      "comienzan": 6152,
      "suficientes": 6153,
      "maravilla": 6154,
      "atacar": 6155,
      "ataques": 6156,
      "aquellas": 6157,
      "lógicas": 6158,
      "wiki": 6159,
      "oficinas": 6160,
      "invierno": 6161,
      "documento": 6162,
      "ándolos": 6163,
      "ofreci": 6164,
      "término": 6165,
      "eventu": 6166,
      "eficientes": 6167,
      "fabricar": 6168,
      "favorita": 6169,
      "usuario": 6170,
      "electrónica": 6171,
      "sexuales": 6172,
      "james": 6173,
      "epidemias": 6174,
      "chicago": 6175,
      "proteína": 6176,
      "agradable": 6177,
      "administración": 6178,
      "nanopat": 6179,
      "concluir": 6180,
      "optimista": 6181,
      "iluminación": 6182,
      "síntomas": 6183,
      "asistencia": 6184,
      "activar": 6185,
      "alternativa": 6186,
      "contaminación": 6187,
      "símbolo": 6188,
      "aparato": 6189,
      "ganancias": 6190,
      "bicicleta": 6191,
      "ciberdelincuentes": 6192,
      "trauma": 6193,
      "burbuja": 6194,
      "héroes": 6195,
      "trampa": 6196,
      "actividades": 6197,
      "neandertales": 6198,
      "vínculo": 6199,
      "glaciar": 6200,
      "inodoro": 6201,
      "residuos": 6202,
      "expectativas": 6203,
      "street": 6204,
      "excremento": 6205,
      "nelson": 6206,
      "sucesivamente": 6207,
      "cerveza": 6208,
      "apa": 6209,
      "aprob": 6210,
      "apreci": 6211,
      "aterri": 6212,
      "dal": 6213,
      "dras": 6214,
      "episo": 6215,
      "gí": 6216,
      "gaba": 6217,
      "hin": 6218,
      "ii": 6219,
      "iro": 6220,
      "jada": 6221,
      "opar": 6222,
      "phi": 6223,
      "rma": 6224,
      "radores": 6225,
      "reros": 6226,
      "sch": 6227,
      "sano": 6228,
      "ventas": 6229,
      "xvi": 6230,
      "xxi": 6231,
      "ésemos": 6232,
      "escan": 6233,
      "escán": 6234,
      "enco": 6235,
      "demon": 6236,
      "lagos": 6237,
      "are": 6238,
      "arr": 6239,
      "aspi": 6240,
      "asuntos": 6241,
      "quedé": 6242,
      "alber": 6243,
      "estí": 6244,
      "adam": 6245,
      "reí": 6246,
      "rever": 6247,
      "inson": 6248,
      "indu": 6249,
      "inusu": 6250,
      "dob": 6251,
      "sebastian": 6252,
      "sigo": 6253,
      "abes": 6254,
      "abstra": 6255,
      "milen": 6256,
      "cuento": 6257,
      "cuyo": 6258,
      "culti": 6259,
      "parejas": 6260,
      "perros": 6261,
      "perdí": 6262,
      "leche": 6263,
      "lecciones": 6264,
      "legal": 6265,
      "cayó": 6266,
      "mexi": 6267,
      "sole": 6268,
      "sopa": 6269,
      "dador": 6270,
      "ratón": 6271,
      "echar": 6272,
      "roto": 6273,
      "tubos": 6274,
      "pion": 6275,
      "graba": 6276,
      "votantes": 6277,
      "stentes": 6278,
      "pur": 6279,
      "pura": 6280,
      "pega": 6281,
      "homo": 6282,
      "prefi": 6283,
      "añadi": 6284,
      "tiende": 6285,
      "formu": 6286,
      "laron": 6287,
      "garanti": 6288,
      "landia": 6289,
      "feros": 6290,
      "grantes": 6291,
      "obtenemos": 6292,
      "lema": 6293,
      "lín": 6294,
      "crimen": 6295,
      "hechas": 6296,
      "seguía": 6297,
      "podrías": 6298,
      "campam": 6299,
      "salto": 6300,
      "sentidos": 6301,
      "adicionales": 6302,
      "querido": 6303,
      "tropi": 6304,
      "cursos": 6305,
      "fotó": 6306,
      "paciencia": 6307,
      "renun": 6308,
      "poderosos": 6309,
      "mentado": 6310,
      "arroz": 6311,
      "2050": 6312,
      "libres": 6313,
      "cinas": 6314,
      "cinta": 6315,
      "interesado": 6316,
      "superar": 6317,
      "terminé": 6318,
      "terminó": 6319,
      "fáciles": 6320,
      "conocidos": 6321,
      "falsos": 6322,
      "equipos": 6323,
      "árabes": 6324,
      "únicos": 6325,
      "comparten": 6326,
      "tony": 6327,
      "tomía": 6328,
      "convertí": 6329,
      "dólar": 6330,
      "2005": 6331,
      "entiendo": 6332,
      "logró": 6333,
      "utilizan": 6334,
      "colega": 6335,
      "ballen": 6336,
      "masiva": 6337,
      "alizadas": 6338,
      "dejando": 6339,
      "aplica": 6340,
      "comerci": 6341,
      "violenta": 6342,
      "diversión": 6343,
      "francamente": 6344,
      "fluctu": 6345,
      "preciso": 6346,
      "calificaciones": 6347,
      "avanzada": 6348,
      "bron": 6349,
      "representar": 6350,
      "innovaciones": 6351,
      "secuenci": 6352,
      "radical": 6353,
      "lonia": 6354,
      "girar": 6355,
      "recurso": 6356,
      "sensores": 6357,
      "azu": 6358,
      "preguntarnos": 6359,
      "broma": 6360,
      "pierden": 6361,
      "limpia": 6362,
      "definitivamente": 6363,
      "combina": 6364,
      "potencialmente": 6365,
      "civiles": 6366,
      "colap": 6367,
      "multiverso": 6368,
      "procesar": 6369,
      "secretos": 6370,
      "antiguas": 6371,
      "accidentes": 6372,
      "instalaciones": 6373,
      "aviones": 6374,
      "equivocado": 6375,
      "combustibles": 6376,
      "activista": 6377,
      "asumir": 6378,
      "pelota": 6379,
      "excepción": 6380,
      "novedos": 6381,
      "relacionadas": 6382,
      "sufrimiento": 6383,
      "cuestiones": 6384,
      "mecanismos": 6385,
      "parecieron": 6386,
      "ttle": 6387,
      "agricultores": 6388,
      "emprendedores": 6389,
      "nutrición": 6390,
      "órgano": 6391,
      "temprana": 6392,
      "colonia": 6393,
      "típico": 6394,
      "reemplazar": 6395,
      "judíos": 6396,
      "defens": 6397,
      "resistencia": 6398,
      "organismo": 6399,
      "británico": 6400,
      "contenidos": 6401,
      "oxí": 6402,
      "gratuita": 6403,
      "legis": 6404,
      "sencillamente": 6405,
      "ecuación": 6406,
      "fósiles": 6407,
      "polini": 6408,
      "recompensa": 6409,
      "concreto": 6410,
      "algoritmos": 6411,
      "sudáfrica": 6412,
      "sky": 6413,
      "murcié": 6414,
      "musical": 6415,
      "dificultades": 6416,
      "túnel": 6417,
      "incentivos": 6418,
      "molecular": 6419,
      "michael": 6420,
      "tragedia": 6421,
      "ultrasonido": 6422,
      "mexican": 6423,
      "250": 6424,
      "99": 6425,
      "aca": 6426,
      "aparte": 6427,
      "bp": 6428,
      "dría": 6429,
      "fero": 6430,
      "gg": 6431,
      "juni": 6432,
      "ks": 6433,
      "mados": 6434,
      "nari": 6435,
      "scra": 6436,
      "sms": 6437,
      "tch": 6438,
      "uda": 6439,
      "ualidad": 6440,
      "wat": 6441,
      "yamos": 6442,
      "ámoslo": 6443,
      "envía": 6444,
      "enrique": 6445,
      "debi": 6446,
      "degr": 6447,
      "lamento": 6448,
      "arteri": 6449,
      "estemos": 6450,
      "entable": 6451,
      "rez": 6452,
      "reple": 6453,
      "inta": 6454,
      "tización": 6455,
      "consentimiento": 6456,
      "distas": 6457,
      "logro": 6458,
      "sepan": 6459,
      "sili": 6460,
      "abeja": 6461,
      "migrantes": 6462,
      "novia": 6463,
      "persis": 6464,
      "portan": 6465,
      "mov": 6466,
      "vital": 6467,
      "vieja": 6468,
      "teó": 6469,
      "poeta": 6470,
      "caos": 6471,
      "solares": 6472,
      "ridí": 6473,
      "raza": 6474,
      "ech": 6475,
      "lido": 6476,
      "rojos": 6477,
      "tubo": 6478,
      "desorden": 6479,
      "votar": 6480,
      "ángulo": 6481,
      "traído": 6482,
      "usta": 6483,
      "creencias": 6484,
      "tanos": 6485,
      "dul": 6486,
      "ambiental": 6487,
      "actitud": 6488,
      "hidro": 6489,
      "gida": 6490,
      "jeopar": 6491,
      "vene": 6492,
      "presencia": 6493,
      "presion": 6494,
      "contradi": 6495,
      "mencionar": 6496,
      "demostración": 6497,
      "correg": 6498,
      "risa": 6499,
      "autén": 6500,
      "pensamientos": 6501,
      "positivo": 6502,
      "cambridge": 6503,
      "importaba": 6504,
      "preguntaba": 6505,
      "tridimensional": 6506,
      "basta": 6507,
      "salas": 6508,
      "parecían": 6509,
      "plantar": 6510,
      "debes": 6511,
      "compleja": 6512,
      "significar": 6513,
      "elevar": 6514,
      "diseñador": 6515,
      "chips": 6516,
      "contó": 6517,
      "miré": 6518,
      "familiari": 6519,
      "charlas": 6520,
      "cuántico": 6521,
      "automóvil": 6522,
      "desarroll": 6523,
      "centí": 6524,
      "ocurren": 6525,
      "sangu": 6526,
      "cliente": 6527,
      "muerta": 6528,
      "considera": 6529,
      "enseñó": 6530,
      "enseñan": 6531,
      "embaraz": 6532,
      "empresari": 6533,
      "relacionado": 6534,
      "evidente": 6535,
      "movili": 6536,
      "inicio": 6537,
      "descubrieron": 6538,
      "laboratorios": 6539,
      "correctamente": 6540,
      "reducido": 6541,
      "inversa": 6542,
      "escuchando": 6543,
      "envió": 6544,
      "doloroso": 6545,
      "hermosas": 6546,
      "acabamos": 6547,
      "octa": 6548,
      "combinar": 6549,
      "capí": 6550,
      "informática": 6551,
      "extraordinarias": 6552,
      "laboral": 6553,
      "establecer": 6554,
      "crítico": 6555,
      "instalación": 6556,
      "dibujo": 6557,
      "significaba": 6558,
      "compartido": 6559,
      "impulsar": 6560,
      "partícula": 6561,
      "infección": 6562,
      "interpretar": 6563,
      "ólica": 6564,
      "financiera": 6565,
      "adecuado": 6566,
      "grasa": 6567,
      "novela": 6568,
      "vivían": 6569,
      "conducta": 6570,
      "conserv": 6571,
      "primavera": 6572,
      "sirve": 6573,
      "juicios": 6574,
      "específico": 6575,
      "específicamente": 6576,
      "profesional": 6577,
      "globales": 6578,
      "hembra": 6579,
      "causas": 6580,
      "sugiere": 6581,
      "alternativas": 6582,
      "pedazo": 6583,
      "internacionales": 6584,
      "solici": 6585,
      "genéticas": 6586,
      "iniciativa": 6587,
      "enemigo": 6588,
      "asociación": 6589,
      "lamentablemente": 6590,
      "raíces": 6591,
      "judicial": 6592,
      "excelente": 6593,
      "receptor": 6594,
      "criaturas": 6595,
      "defender": 6596,
      "sensaciones": 6597,
      "mamíferos": 6598,
      "financieros": 6599,
      "equivalente": 6600,
      "integración": 6601,
      "eventualmente": 6602,
      "nanopatch": 6603,
      "reír": 6604,
      "oxígeno": 6605,
      "scratch": 6606,
      "jeopardy": 6607,
      "5000": 6608,
      "acon": 6609,
      "afi": 6610,
      "apre": 6611,
      "apareció": 6612,
      "bán": 6613,
      "babi": 6614,
      "cón": 6615,
      "cta": 6616,
      "ds": 6617,
      "dentemente": 6618,
      "gesti": 6619,
      "hun": 6620,
      "lun": 6621,
      "lera": 6622,
      "mera": 6623,
      "mando": 6624,
      "ph": 6625,
      "plas": 6626,
      "rama": 6627,
      "sario": 6628,
      "xido": 6629,
      "yente": 6630,
      "éis": 6631,
      "íne": 6632,
      "espar": 6633,
      "escé": 6634,
      "osidad": 6635,
      "devolver": 6636,
      "ladores": 6637,
      "arg": 6638,
      "arquí": 6639,
      "astron": 6640,
      "astróno": 6641,
      "one": 6642,
      "anal": 6643,
      "analo": 6644,
      "cifr": 6645,
      "estir": 6646,
      "repar": 6647,
      "reparación": 6648,
      "recau": 6649,
      "recolección": 6650,
      "inmen": 6651,
      "co2": 6652,
      "coma": 6653,
      "congreso": 6654,
      "congestión": 6655,
      "diales": 6656,
      "difusión": 6657,
      "semillas": 6658,
      "ember": 6659,
      "embaj": 6660,
      "abar": 6661,
      "abuso": 6662,
      "mili": 6663,
      "curar": 6664,
      "paradi": 6665,
      "perdiendo": 6666,
      "motivo": 6667,
      "vial": 6668,
      "polari": 6669,
      "caz": 6670,
      "medes": 6671,
      "metab": 6672,
      "metano": 6673,
      "sou": 6674,
      "sovi": 6675,
      "matan": 6676,
      "propuse": 6677,
      "promesa": 6678,
      "rol": 6679,
      "despier": 6680,
      "gubern": 6681,
      "sonar": 6682,
      "pisto": 6683,
      "tercero": 6684,
      "exposición": 6685,
      "abajos": 6686,
      "manu": 6687,
      "usen": 6688,
      "habrán": 6689,
      "hoja": 6690,
      "prema": 6691,
      "hipo": 6692,
      "cargar": 6693,
      "hacerla": 6694,
      "derro": 6695,
      "derram": 6696,
      "misteri": 6697,
      "rastre": 6698,
      "sabor": 6699,
      "tasas": 6700,
      "intervención": 6701,
      "presenta": 6702,
      "presentación": 6703,
      "dará": 6704,
      "ruidos": 6705,
      "rural": 6706,
      "auda": 6707,
      "audio": 6708,
      "grafo": 6709,
      "mascul": 6710,
      "necesaria": 6711,
      "disper": 6712,
      "apple": 6713,
      "tecnia": 6714,
      "positivas": 6715,
      "posiblemente": 6716,
      "camina": 6717,
      "sentados": 6718,
      "adivin": 6719,
      "fría": 6720,
      "entrevi": 6721,
      "jardin": 6722,
      "laban": 6723,
      "barcos": 6724,
      "construí": 6725,
      "produjo": 6726,
      "ingre": 6727,
      "llamaba": 6728,
      "funcional": 6729,
      "debían": 6730,
      "duría": 6731,
      "doras": 6732,
      "transforma": 6733,
      "escritos": 6734,
      "panor": 6735,
      "cerebrales": 6736,
      "facultad": 6737,
      "indica": 6738,
      "contando": 6739,
      "interesados": 6740,
      "harán": 6741,
      "mostrado": 6742,
      "tamentos": 6743,
      "falsa": 6744,
      "enfermeras": 6745,
      "antici": 6746,
      "igualmente": 6747,
      "194": 6748,
      "comparar": 6749,
      "ríos": 6750,
      "deremos": 6751,
      "2001": 6752,
      "2004": 6753,
      "enseñando": 6754,
      "observa": 6755,
      "ayudaron": 6756,
      "directa": 6757,
      "encantaría": 6758,
      "llevaron": 6759,
      "ónimo": 6760,
      "diversas": 6761,
      "salario": 6762,
      "reducen": 6763,
      "frances": 6764,
      "productividad": 6765,
      "secuencias": 6766,
      "patente": 6767,
      "cron": 6768,
      "espectro": 6769,
      "burgu": 6770,
      "maravillosas": 6771,
      "cuadrados": 6772,
      "sentirse": 6773,
      "mercadotecnia": 6774,
      "descrip": 6775,
      "pierde": 6776,
      "pierna": 6777,
      "destruir": 6778,
      "abiertos": 6779,
      "ampliar": 6780,
      "juntar": 6781,
      "capturar": 6782,
      "técnico": 6783,
      "undante": 6784,
      "repent": 6785,
      "procesamiento": 6786,
      "colectiva": 6787,
      "favoritos": 6788,
      "inventado": 6789,
      "ofrecen": 6790,
      "preparados": 6791,
      "pérdidas": 6792,
      "valioso": 6793,
      "olvidado": 6794,
      "evolucionado": 6795,
      "expresar": 6796,
      "traducción": 6797,
      "voluntarios": 6798,
      "premios": 6799,
      "güedad": 6800,
      "luchando": 6801,
      "límite": 6802,
      "adecuada": 6803,
      "identifi": 6804,
      "medicamento": 6805,
      "comentario": 6806,
      "hermanas": 6807,
      "diarrea": 6808,
      "primates": 6809,
      "fenómenos": 6810,
      "archivo": 6811,
      "componente": 6812,
      "procedimiento": 6813,
      "cercano": 6814,
      "escarabajos": 6815,
      "muchísimas": 6816,
      "disfrutar": 6817,
      "evaluar": 6818,
      "cirujanos": 6819,
      "ecosistema": 6820,
      "migración": 6821,
      "limpiar": 6822,
      "suelen": 6823,
      "predicciones": 6824,
      "sabiduría": 6825,
      "garabatos": 6826,
      "categoría": 6827,
      "glori": 6828,
      "urbana": 6829,
      "configuración": 6830,
      "dueños": 6831,
      "clásico": 6832,
      "monitor": 6833,
      "gráficos": 6834,
      "inevitable": 6835,
      "foxo": 6836,
      "asesinadas": 6837,
      "corrupción": 6838,
      "atractivo": 6839,
      "jordan": 6840,
      "líquido": 6841,
      "repetir": 6842,
      "desayuno": 6843,
      "portátil": 6844,
      "micrófono": 6845,
      "otoño": 6846,
      "estímu": 6847,
      "junio": 6848,
      "movember": 6849,
      "corregir": 6850,
      "sanguíne": 6851,
      "arquímedes": 6852,
      "gubernam": 6853,
      "120": 6854,
      "65": 6855,
      "600": 6856,
      "72": 6857,
      "aper": 6858,
      "alas": 6859,
      "ach": 6860,
      "bera": 6861,
      "bble": 6862,
      "edor": 6863,
      "ff": 6864,
      "gador": 6865,
      "jac": 6866,
      "king": 6867,
      "melo": 6868,
      "ología": 6869,
      "pán": 6870,
      "pones": 6871,
      "rm": 6872,
      "smi": 6873,
      "sah": 6874,
      "selo": 6875,
      "sana": 6876,
      "selección": 6877,
      "tbol": 6878,
      "ure": 6879,
      "ust": 6880,
      "venti": 6881,
      "yentes": 6882,
      "“¿": 6883,
      "españ": 6884,
      "espal": 6885,
      "deraz": 6886,
      "delidad": 6887,
      "demia": 6888,
      "laba": 6889,
      "anu": 6890,
      "anes": 6891,
      "citos": 6892,
      "city": 6893,
      "estro": 6894,
      "entera": 6895,
      "enterr": 6896,
      "retra": 6897,
      "reparar": 6898,
      "reconci": 6899,
      "insis": 6900,
      "tierras": 6901,
      "comedia": 6902,
      "congo": 6903,
      "convin": 6904,
      "siria": 6905,
      "absur": 6906,
      "abundan": 6907,
      "notado": 6908,
      "motriz": 6909,
      "visor": 6910,
      "viejas": 6911,
      "pop": 6912,
      "polen": 6913,
      "potable": 6914,
      "sumar": 6915,
      "suministro": 6916,
      "metas": 6917,
      "sobr": 6918,
      "tai": 6919,
      "matado": 6920,
      "bille": 6921,
      "bits": 6922,
      "lie": 6923,
      "lico": 6924,
      "livi": 6925,
      "lideraz": 6926,
      "robar": 6927,
      "chinos": 6928,
      "descon": 6929,
      "gusanos": 6930,
      "comemos": 6931,
      "piz": 6932,
      "picos": 6933,
      "cerrado": 6934,
      "vería": 6935,
      "versiones": 6936,
      "figu": 6937,
      "quie": 6938,
      "cionario": 6939,
      "stes": 6940,
      "stad": 6941,
      "mann": 6942,
      "manz": 6943,
      "usaba": 6944,
      "ped": 6945,
      "pez": 6946,
      "respal": 6947,
      "crecido": 6948,
      "creciente": 6949,
      "nidad": 6950,
      "durar": 6951,
      "tari": 6952,
      "tarias": 6953,
      "prepara": 6954,
      "oraciones": 6955,
      "vayamos": 6956,
      "joel": 6957,
      "irri": 6958,
      "oriental": 6959,
      "bum": 6960,
      "genu": 6961,
      "personalmente": 6962,
      "landa": 6963,
      "gido": 6964,
      "giendo": 6965,
      "marzo": 6966,
      "jean": 6967,
      "suspen": 6968,
      "vende": 6969,
      "venía": 6970,
      "venga": 6971,
      "mini": 6972,
      "cortes": 6973,
      "pongan": 6974,
      "gates": 6975,
      "bot": 6976,
      "probamos": 6977,
      "probabilidad": 6978,
      "zaron": 6979,
      "distri": 6980,
      "discul": 6981,
      "cristal": 6982,
      "triun": 6983,
      "heim": 6984,
      "ultra": 6985,
      "trozo": 6986,
      "trozos": 6987,
      "construyó": 6988,
      "ayer": 6989,
      "estudié": 6990,
      "estudiado": 6991,
      "planes": 6992,
      "montar": 6993,
      "dormir": 6994,
      "aplauso": 6995,
      "faz": 6996,
      "diseñados": 6997,
      "partido": 6998,
      "2015": 6999,
      "2012": 7000,
      "tín": 7001,
      "elector": 7002,
      "usarlo": 7003,
      "energías": 7004,
      "trabajaba": 7005,
      "terminan": 7006,
      "terminamos": 7007,
      "charles": 7008,
      "automóviles": 7009,
      "conocidas": 7010,
      "equilib": 7011,
      "1990": 7012,
      "desaparece": 7013,
      "ocurra": 7014,
      "pelu": 7015,
      "confiabilidad": 7016,
      "mús": 7017,
      "tremen": 7018,
      "conectadas": 7019,
      "2006": 7020,
      "utilizamos": 7021,
      "conducción": 7022,
      "dró": 7023,
      "llegando": 7024,
      "habitantes": 7025,
      "economistas": 7026,
      "efectiva": 7027,
      "emoción": 7028,
      "continente": 7029,
      "direcciones": 7030,
      "encantan": 7031,
      "dejaron": 7032,
      "volverse": 7033,
      "recorrer": 7034,
      "terror": 7035,
      "distinta": 7036,
      "fracción": 7037,
      "molde": 7038,
      "inversores": 7039,
      "calización": 7040,
      "opera": 7041,
      "bolsa": 7042,
      "avances": 7043,
      "tándo": 7044,
      "atraer": 7045,
      "suecia": 7046,
      "longi": 7047,
      "longe": 7048,
      "comenzando": 7049,
      "maestría": 7050,
      "neuronal": 7051,
      "extremos": 7052,
      "narrador": 7053,
      "tradiciones": 7054,
      "willi": 7055,
      "sensor": 7056,
      "enfrentan": 7057,
      "colore": 7058,
      "inspirar": 7059,
      "conveni": 7060,
      "corazones": 7061,
      "tratamientos": 7062,
      "rompi": 7063,
      "captur": 7064,
      "tinta": 7065,
      "arquitectos": 7066,
      "apartamento": 7067,
      "informe": 7068,
      "hamburgu": 7069,
      "museos": 7070,
      "ológico": 7071,
      "complicada": 7072,
      "perspectivas": 7073,
      "opiniones": 7074,
      "ofrece": 7075,
      "instalar": 7076,
      "extender": 7077,
      "reunimos": 7078,
      "eléctricos": 7079,
      "destro": 7080,
      "elimin": 7081,
      "regular": 7082,
      "mecánico": 7083,
      "amarre": 7084,
      "adopción": 7085,
      "examinar": 7086,
      "montañas": 7087,
      "estadística": 7088,
      "populares": 7089,
      "navegar": 7090,
      "fábricas": 7091,
      "almacenar": 7092,
      "suicidio": 7093,
      "ramas": 7094,
      "petición": 7095,
      "estrategias": 7096,
      "talibán": 7097,
      "tarjeta": 7098,
      "ileg": 7099,
      "surgió": 7100,
      "sugerir": 7101,
      "pertenece": 7102,
      "wall": 7103,
      "doctorado": 7104,
      "apropiado": 7105,
      "vinieron": 7106,
      "patio": 7107,
      "símbolos": 7108,
      "flexible": 7109,
      "curioso": 7110,
      "aeropuerto": 7111,
      "piloto": 7112,
      "involucrar": 7113,
      "ambulan": 7114,
      "renovables": 7115,
      "incómodo": 7116,
      "chimpancés": 7117,
      "thomas": 7118,
      "culpable": 7119,
      "obstáculos": 7120,
      "monumento": 7121,
      "núcleo": 7122,
      "aconte": 7123,
      "apertura": 7124,
      "smith": 7125,
      "liderazgo": 7126,
      "william": 7127,
      "55": 7128,
      "64": 7129,
      "800": 7130,
      "api": 7131,
      "ader": 7132,
      "atas": 7133,
      "apare": 7134,
      "bali": 7135,
      "clan": 7136,
      "dv": 7137,
      "gón": 7138,
      "glas": 7139,
      "ivo": 7140,
      "itas": 7141,
      "ización": 7142,
      "jera": 7143,
      "jones": 7144,
      "lero": 7145,
      "memente": 7146,
      "nb": 7147,
      "oi": 7148,
      "ron": 7149,
      "raba": 7150,
      "rones": 7151,
      "sha": 7152,
      "tác": 7153,
      "ws": 7154,
      "whi": 7155,
      "zim": 7156,
      "íbamos": 7157,
      "esp": 7158,
      "enamor": 7159,
      "declar": 7160,
      "laridad": 7161,
      "armar": 7162,
      "angu": 7163,
      "anfi": 7164,
      "antár": 7165,
      "cirá": 7166,
      "alent": 7167,
      "ester": 7168,
      "adqui": 7169,
      "repor": 7170,
      "reza": 7171,
      "reina": 7172,
      "retir": 7173,
      "recla": 7174,
      "inm": 7175,
      "injusticia": 7176,
      "tim": 7177,
      "tilla": 7178,
      "colas": 7179,
      "conqui": 7180,
      "tral": 7181,
      "trina": 7182,
      "dición": 7183,
      "dimientos": 7184,
      "log": 7185,
      "loca": 7186,
      "logos": 7187,
      "lobos": 7188,
      "seca": 7189,
      "sever": 7190,
      "separación": 7191,
      "mire": 7192,
      "mito": 7193,
      "milí": 7194,
      "cuya": 7195,
      "cubier": 7196,
      "cuentan": 7197,
      "prin": 7198,
      "nodos": 7199,
      "suave": 7200,
      "mee": 7201,
      "mega": 7202,
      "metría": 7203,
      "sob": 7204,
      "solly": 7205,
      "daf": 7206,
      "rojas": 7207,
      "chor": 7208,
      "descifr": 7209,
      "gusto": 7210,
      "paque": 7211,
      "pagan": 7212,
      "patri": 7213,
      "paul": 7214,
      "pita": 7215,
      "pisos": 7216,
      "impro": 7217,
      "mantienen": 7218,
      "pecu": 7219,
      "vecin": 7220,
      "creció": 7221,
      "nico": 7222,
      "preten": 7223,
      "hilo": 7224,
      "hiper": 7225,
      "casualidad": 7226,
      "carol": 7227,
      "vaca": 7228,
      "densidad": 7229,
      "hacerlos": 7230,
      "hacerle": 7231,
      "derri": 7232,
      "orientación": 7233,
      "buce": 7234,
      "bután": 7235,
      "gira": 7236,
      "marrón": 7237,
      "marítimo": 7238,
      "feras": 7239,
      "grano": 7240,
      "bay": 7241,
      "baterías": 7242,
      "canales": 7243,
      "negra": 7244,
      "sincer": 7245,
      "sinap": 7246,
      "obreros": 7247,
      "venían": 7248,
      "coral": 7249,
      "darwin": 7250,
      "gay": 7251,
      "ruanda": 7252,
      "cambiaron": 7253,
      "necesarios": 7254,
      "necesarias": 7255,
      "señora": 7256,
      "senté": 7257,
      "sentarse": 7258,
      "ísticos": 7259,
      "entrevista": 7260,
      "clasi": 7261,
      "plie": 7262,
      "barreras": 7263,
      "estudiando": 7264,
      "viral": 7265,
      "virgin": 7266,
      "tecnológica": 7267,
      "monía": 7268,
      "espejo": 7269,
      "escribe": 7270,
      "mentira": 7271,
      "entendí": 7272,
      "mética": 7273,
      "gasol": 7274,
      "recicla": 7275,
      "recta": 7276,
      "plato": 7277,
      "pensaron": 7278,
      "libera": 7279,
      "liberación": 7280,
      "juz": 7281,
      "fueras": 7282,
      "sostiene": 7283,
      "sostener": 7284,
      "mostré": 7285,
      "mostramos": 7286,
      "lenguas": 7287,
      "inspec": 7288,
      "prision": 7289,
      "naturalmente": 7290,
      "falle": 7291,
      "falso": 7292,
      "hiciera": 7293,
      "dióxido": 7294,
      "computadores": 7295,
      "salimos": 7296,
      "salieron": 7297,
      "músicos": 7298,
      "beber": 7299,
      "muestro": 7300,
      "consigo": 7301,
      "alimenti": 7302,
      "entenderlo": 7303,
      "visita": 7304,
      "observan": 7305,
      "observaciones": 7306,
      "masivo": 7307,
      "blog": 7308,
      "dejan": 7309,
      "escalar": 7310,
      "sectores": 7311,
      "inici": 7312,
      "pudieron": 7313,
      "sorprende": 7314,
      "abrimos": 7315,
      "encantó": 7316,
      "ónicas": 7317,
      "comerciales": 7318,
      "nasa": 7319,
      "terrestre": 7320,
      "reducción": 7321,
      "definir": 7322,
      "francés": 7323,
      "innovar": 7324,
      "subyac": 7325,
      "aquello": 7326,
      "escuchamos": 7327,
      "controver": 7328,
      "práctico": 7329,
      "genomas": 7330,
      "específica": 7331,
      "blancos": 7332,
      "teorías": 7333,
      "programación": 7334,
      "ahorran": 7335,
      "continuamente": 7336,
      "cuadros": 7337,
      "emite": 7338,
      "describe": 7339,
      "ilustra": 7340,
      "visualizar": 7341,
      "responsables": 7342,
      "entró": 7343,
      "terribles": 7344,
      "beneficio": 7345,
      "estuvieron": 7346,
      "halla": 7347,
      "dominante": 7348,
      "juez": 7349,
      "instrumento": 7350,
      "ventajas": 7351,
      "tabla": 7352,
      "esenciales": 7353,
      "cometer": 7354,
      "equivocada": 7355,
      "traducir": 7356,
      "determinado": 7357,
      "discutir": 7358,
      "reacciones": 7359,
      "plantea": 7360,
      "trági": 7361,
      "proporcionar": 7362,
      "camión": 7363,
      "sostenibilidad": 7364,
      "egipcios": 7365,
      "culturales": 7366,
      "administra": 7367,
      "caracteres": 7368,
      "grabado": 7369,
      "celebrar": 7370,
      "europeos": 7371,
      "emprendedor": 7372,
      "desplazar": 7373,
      "explotar": 7374,
      "independencia": 7375,
      "resistir": 7376,
      "contamin": 7377,
      "esqueletos": 7378,
      "famoso": 7379,
      "practicar": 7380,
      "reserva": 7381,
      "profundidad": 7382,
      "referencia": 7383,
      "presupuesto": 7384,
      "aparatos": 7385,
      "bicicletas": 7386,
      "americano": 7387,
      "orgánica": 7388,
      "filosof": 7389,
      "categorías": 7390,
      "restaurante": 7391,
      "palestina": 7392,
      "tangible": 7393,
      "kansas": 7394,
      "restricciones": 7395,
      "tatuajes": 7396,
      "frustr": 7397,
      "disciplina": 7398,
      "satélites": 7399,
      "saudí": 7400,
      "combatir": 7401,
      "wikipedia": 7402,
      "campamento": 7403,
      "nariz": 7404,
      "paradigma": 7405,
      "abundancia": 7406,
      "botella": 7407,
      "sinapsis": 7408,
      "28": 7409,
      "95": 7410,
      "aj": 7411,
      "aé": 7412,
      "ala": 7413,
      "aco": 7414,
      "ate": 7415,
      "afron": 7416,
      "aparecen": 7417,
      "ajust": 7418,
      "bía": 7419,
      "brar": 7420,
      "cm": 7421,
      "cén": 7422,
      "centen": 7423,
      "dones": 7424,
      "dari": 7425,
      "fú": 7426,
      "fór": 7427,
      "gama": 7428,
      "jon": 7429,
      "jab": 7430,
      "jalá": 7431,
      "nena": 7432,
      "odio": 7433,
      "ojalá": 7434,
      "ramente": 7435,
      "uber": 7436,
      "yn": 7437,
      "zheim": 7438,
      "úpi": 7439,
      "enan": 7440,
      "enví": 7441,
      "osau": 7442,
      "decer": 7443,
      "detiene": 7444,
      "detuvo": 7445,
      "ladri": 7446,
      "arab": 7447,
      "asfal": 7448,
      "uní": 7449,
      "ancho": 7450,
      "anual": 7451,
      "aler": 7452,
      "alex": 7453,
      "alzheim": 7454,
      "reo": 7455,
      "reper": 7456,
      "retos": 7457,
      "retras": 7458,
      "rebel": 7459,
      "reproducción": 7460,
      "realista": 7461,
      "inser": 7462,
      "incen": 7463,
      "intri": 7464,
      "infr": 7465,
      "inútil": 7466,
      "invención": 7467,
      "inalá": 7468,
      "docena": 7469,
      "doctores": 7470,
      "tidas": 7471,
      "coch": 7472,
      "confin": 7473,
      "diaria": 7474,
      "seo": 7475,
      "tol": 7476,
      "empi": 7477,
      "abas": 7478,
      "cuid": 7479,
      "prestar": 7480,
      "noción": 7481,
      "parlamento": 7482,
      "perdón": 7483,
      "perdieron": 7484,
      "vigi": 7485,
      "leta": 7486,
      "sumer": 7487,
      "caen": 7488,
      "soñ": 7489,
      "taza": 7490,
      "ritual": 7491,
      "muñ": 7492,
      "ratones": 7493,
      "liz": 7494,
      "lien": 7495,
      "little": 7496,
      "dato": 7497,
      "desempe": 7498,
      "desconocido": 7499,
      "desigualdad": 7500,
      "pica": 7501,
      "pirá": 7502,
      "pidieron": 7503,
      "versario": 7504,
      "fibon": 7505,
      "puedas": 7506,
      "exce": 7507,
      "costar": 7508,
      "lesiones": 7509,
      "nosotras": 7510,
      "usha": 7511,
      "usaron": 7512,
      "peores": 7513,
      "resid": 7514,
      "tanque": 7515,
      "niger": 7516,
      "estatal": 7517,
      "seria": 7518,
      "hablé": 7519,
      "ambientes": 7520,
      "actor": 7521,
      "acceder": 7522,
      "prevenir": 7523,
      "alien": 7524,
      "nubes": 7525,
      "hidró": 7526,
      "carác": 7527,
      "formó": 7528,
      "brevemente": 7529,
      "fumar": 7530,
      "genético": 7531,
      "amistad": 7532,
      "gió": 7533,
      "islá": 7534,
      "granos": 7535,
      "batería": 7536,
      "venden": 7537,
      "interfaz": 7538,
      "medidas": 7539,
      "rosa": 7540,
      "demostró": 7541,
      "darán": 7542,
      "gaciones": 7543,
      "bolas": 7544,
      "bomb": 7545,
      "rurales": 7546,
      "rusia": 7547,
      "autó": 7548,
      "discapaci": 7549,
      "seguramente": 7550,
      "camar": 7551,
      "necesitaban": 7552,
      "necesitábamos": 7553,
      "sentada": 7554,
      "adio": 7555,
      "adicional": 7556,
      "saturno": 7557,
      "barrera": 7558,
      "tecnológico": 7559,
      "funcionaba": 7560,
      "transportar": 7561,
      "esperen": 7562,
      "panel": 7563,
      "paneles": 7564,
      "gasto": 7565,
      "gastar": 7566,
      "gastamos": 7567,
      "recientes": 7568,
      "planos": 7569,
      "comunicaciones": 7570,
      "diseñamos": 7571,
      "indio": 7572,
      "significativa": 7573,
      "fárma": 7574,
      "autobús": 7575,
      "fallar": 7576,
      "enfermo": 7577,
      "trasla": 7578,
      "generosidad": 7579,
      "desafortun": 7580,
      "enciende": 7581,
      "horr": 7582,
      "hormi": 7583,
      "confir": 7584,
      "rane": 7585,
      "tonto": 7586,
      "tomada": 7587,
      "públicas": 7588,
      "clip": 7589,
      "etapas": 7590,
      "conectan": 7591,
      "vivienda": 7592,
      "utilizado": 7593,
      "colegio": 7594,
      "visiones": 7595,
      "ign": 7596,
      "habitaciones": 7597,
      "escapar": 7598,
      "globo": 7599,
      "encuestas": 7600,
      "ayudarles": 7601,
      "inicial": 7602,
      "gustaba": 7603,
      "leyendo": 7604,
      "sorprendentes": 7605,
      "exacto": 7606,
      "llevará": 7607,
      "justa": 7608,
      "texas": 7609,
      "compra": 7610,
      "fluido": 7611,
      "calificación": 7612,
      "avanzamos": 7613,
      "opía": 7614,
      "diagrama": 7615,
      "afectados": 7616,
      "dijera": 7617,
      "controla": 7618,
      "publicó": 7619,
      "cápita": 7620,
      "religiosas": 7621,
      "hubieran": 7622,
      "especta": 7623,
      "cirugías": 7624,
      "coloca": 7625,
      "psicos": 7626,
      "maravillosos": 7627,
      "acababa": 7628,
      "entrenar": 7629,
      "preguntarse": 7630,
      "ándole": 7631,
      "ándoles": 7632,
      "steve": 7633,
      "entramos": 7634,
      "captar": 7635,
      "aparentemente": 7636,
      "illas": 7637,
      "asombro": 7638,
      "hall": 7639,
      "hallamos": 7640,
      "dimensión": 7641,
      "colectivo": 7642,
      "resistente": 7643,
      "terrorista": 7644,
      "quedaron": 7645,
      "ayudando": 7646,
      "cuarta": 7647,
      "periodistas": 7648,
      "rodean": 7649,
      "reuniones": 7650,
      "costoso": 7651,
      "volvimos": 7652,
      "volvieron": 7653,
      "infecciones": 7654,
      "transmisión": 7655,
      "presentó": 7656,
      "dedicar": 7657,
      "trucos": 7658,
      "originales": 7659,
      "aprovech": 7660,
      "revelación": 7661,
      "catedr": 7662,
      "sofos": 7663,
      "financiero": 7664,
      "existentes": 7665,
      "desperdi": 7666,
      "contribuir": 7667,
      "simulación": 7668,
      "experimentado": 7669,
      "etiopía": 7670,
      "primate": 7671,
      "archie": 7672,
      "héli": 7673,
      "aniversario": 7674,
      "nutrientes": 7675,
      "potentes": 7676,
      "temprano": 7677,
      "propagación": 7678,
      "síndro": 7679,
      "apoyar": 7680,
      "ubicación": 7681,
      "encender": 7682,
      "cognitivo": 7683,
      "colaboradores": 7684,
      "refiere": 7685,
      "elegimos": 7686,
      "exitosa": 7687,
      "oxford": 7688,
      "llenos": 7689,
      "desesperación": 7690,
      "revisar": 7691,
      "femenino": 7692,
      "plena": 7693,
      "multa": 7694,
      "raíz": 7695,
      "etiqueta": 7696,
      "vulnerables": 7697,
      "urbano": 7698,
      "idénticas": 7699,
      "orgullosa": 7700,
      "columna": 7701,
      "agencias": 7702,
      "ocasion": 7703,
      "ocasiones": 7704,
      "testigos": 7705,
      "cuidadosamente": 7706,
      "horizonte": 7707,
      "motivación": 7708,
      "extranjero": 7709,
      "ansiedad": 7710,
      "victori": 7711,
      "diploma": 7712,
      "filósofos": 7713,
      "negativo": 7714,
      "haciéndolo": 7715,
      "meterse": 7716,
      "interruptor": 7717,
      "mínimo": 7718,
      "amazonia": 7719,
      "resuelto": 7720,
      "lingü": 7721,
      "farmacé": 7722,
      "seguimiento": 7723,
      "noviembre": 7724,
      "resonancia": 7725,
      "colapso": 7726,
      "capítulo": 7727,
      "babilonia": 7728,
      "astrónomos": 7729,
      "entrevist": 7730,
      "descripción": 7731,
      "manzana": 7732,
      "peculiar": 7733,
      "fórmu": 7734,
      "alzheimer": 7735,
      "inalámbri": 7736,
      "fibonacci": 7737,
      "carácter": 7738,
      "160": 7739,
      "azo": 7740,
      "afe": 7741,
      "afueras": 7742,
      "bah": 7743,
      "baños": 7744,
      "calmente": 7745,
      "feno": 7746,
      "gel": 7747,
      "gem": 7748,
      "ic": 7749,
      "ite": 7750,
      "iza": 7751,
      "m2": 7752,
      "mali": 7753,
      "olas": 7754,
      "ope": 7755,
      "tían": 7756,
      "vinci": 7757,
      "vinar": 7758,
      "yl": 7759,
      "yu": 7760,
      "zco": 7761,
      "ági": 7762,
      "átri": 7763,
      "éticas": 7764,
      "éticos": 7765,
      "ígenes": 7766,
      "escas": 7767,
      "espon": 7768,
      "espin": 7769,
      "envían": 7770,
      "decep": 7771,
      "lamiento": 7772,
      "queso": 7773,
      "arn": 7774,
      "arán": 7775,
      "arquía": 7776,
      "astro": 7777,
      "asusta": 7778,
      "cidades": 7779,
      "altru": 7780,
      "estamente": 7781,
      "admir": 7782,
      "requer": 7783,
      "refri": 7784,
      "reproduc": 7785,
      "requisi": 7786,
      "amaba": 7787,
      "amante": 7788,
      "docenas": 7789,
      "tios": 7790,
      "tiro": 7791,
      "tieran": 7792,
      "contempor": 7793,
      "trán": 7794,
      "dico": 7795,
      "diminu": 7796,
      "semej": 7797,
      "separar": 7798,
      "sientes": 7799,
      "sientan": 7800,
      "abo": 7801,
      "cubo": 7802,
      "cuello": 7803,
      "perpe": 7804,
      "perfil": 7805,
      "mod": 7806,
      "hag": 7807,
      "polar": 7808,
      "legado": 7809,
      "legio": 7810,
      "catás": 7811,
      "meteor": 7812,
      "soportar": 7813,
      "mutaciones": 7814,
      "raci": 7815,
      "rata": 7816,
      "rayos": 7817,
      "machos": 7818,
      "bie": 7819,
      "liza": 7820,
      "lider": 7821,
      "liger": 7822,
      "roca": 7823,
      "chis": 7824,
      "chiste": 7825,
      "tudes": 7826,
      "desen": 7827,
      "desvan": 7828,
      "guin": 7829,
      "guau": 7830,
      "certe": 7831,
      "imperio": 7832,
      "veri": 7833,
      "verla": 7834,
      "fisi": 7835,
      "ficados": 7836,
      "quise": 7837,
      "quilla": 7838,
      "cionalmente": 7839,
      "manhat": 7840,
      "coste": 7841,
      "creían": 7842,
      "nido": 7843,
      "estatu": 7844,
      "aclar": 7845,
      "alismo": 7846,
      "casti": 7847,
      "cargos": 7848,
      "foro": 7849,
      "denso": 7850,
      "irá": 7851,
      "gencias": 7852,
      "pasados": 7853,
      "lana": 7854,
      "giro": 7855,
      "unidas": 7856,
      "mundos": 7857,
      "ferio": 7858,
      "balance": 7859,
      "candida": 7860,
      "natal": 7861,
      "presi": 7862,
      "presenci": 7863,
      "rostros": 7864,
      "hur": 7865,
      "corea": 7866,
      "daron": 7867,
      "botones": 7868,
      "gand": 7869,
      "aplas": 7870,
      "campan": 7871,
      "saltar": 7872,
      "ebra": 7873,
      "torment": 7874,
      "ísmo": 7875,
      "adivinar": 7876,
      "frági": 7877,
      "basados": 7878,
      "mejoras": 7879,
      "temb": 7880,
      "sacu": 7881,
      "queridos": 7882,
      "cuerda": 7883,
      "foc": 7884,
      "foie": 7885,
      "gosto": 7886,
      "ingles": 7887,
      "propie": 7888,
      "herente": 7889,
      "funcionando": 7890,
      "inclusi": 7891,
      "incluir": 7892,
      "culpa": 7893,
      "rena": 7894,
      "escrita": 7895,
      "máticas": 7896,
      "chocola": 7897,
      "sucedía": 7898,
      "ayudado": 7899,
      "juli": 7900,
      "anatomía": 7901,
      "ciosas": 7902,
      "cuántica": 7903,
      "automa": 7904,
      "autopista": 7905,
      "conocimos": 7906,
      "moralidad": 7907,
      "encontrará": 7908,
      "proyección": 7909,
      "contraer": 7910,
      "contrato": 7911,
      "imaginan": 7912,
      "hiciste": 7913,
      "titulares": 7914,
      "lóbu": 7915,
      "bancos": 7916,
      "rápidos": 7917,
      "sane": 7918,
      "respondió": 7919,
      "confiable": 7920,
      "bosón": 7921,
      "vueltas": 7922,
      "variables": 7923,
      "infle": 7924,
      "ponerlo": 7925,
      "conectada": 7926,
      "enseñaron": 7927,
      "alimenta": 7928,
      "enticidad": 7929,
      "poblaciones": 7930,
      "visitas": 7931,
      "dram": 7932,
      "observado": 7933,
      "llegaba": 7934,
      "llegada": 7935,
      "trospec": 7936,
      "secciones": 7937,
      "piedras": 7938,
      "directora": 7939,
      "creativos": 7940,
      "biodiversidad": 7941,
      "correctas": 7942,
      "dependiendo": 7943,
      "gritando": 7944,
      "operar": 7945,
      "túan": 7946,
      "avanzado": 7947,
      "preocupan": 7948,
      "bró": 7949,
      "atrapar": 7950,
      "atl": 7951,
      "afectar": 7952,
      "grecia": 7953,
      "controlan": 7954,
      "publicidad": 7955,
      "hubiéramos": 7956,
      "coraje": 7957,
      "espectá": 7958,
      "burgo": 7959,
      "programar": 7960,
      "consideramos": 7961,
      "índice": 7962,
      "detector": 7963,
      "seriamente": 7964,
      "ingeniero": 7965,
      "limpieza": 7966,
      "oficiales": 7967,
      "regresó": 7968,
      "intentado": 7969,
      "aumentado": 7970,
      "firma": 7971,
      "gore": 7972,
      "refleja": 7973,
      "reflexión": 7974,
      "multitud": 7975,
      "baratos": 7976,
      "entienda": 7977,
      "domingo": 7978,
      "limitado": 7979,
      "correos": 7980,
      "ignorar": 7981,
      "ciegas": 7982,
      "muriendo": 7983,
      "guardia": 7984,
      "impuls": 7985,
      "determinación": 7986,
      "mecánicos": 7987,
      "israelíes": 7988,
      "resumen": 7989,
      "plantear": 7990,
      "influenci": 7991,
      "black": 7992,
      "prostitu": 7993,
      "capitali": 7994,
      "característica": 7995,
      "emergentes": 7996,
      "conservación": 7997,
      "provocar": 7998,
      "comprometer": 7999,
      "sirven": 8000,
      "anunci": 8001,
      "ocultar": 8002,
      "optimi": 8003,
      "hemis": 8004,
      "créan": 8005,
      "microscopios": 8006,
      "egoí": 8007,
      "régim": 8008,
      "restau": 8009,
      "universitario": 8010,
      "diámetro": 8011,
      "típica": 8012,
      "círculos": 8013,
      "desastres": 8014,
      "imagino": 8015,
      "asign": 8016,
      "británica": 8017,
      "hhhh": 8018,
      "piratería": 8019,
      "vertical": 8020,
      "nieve": 8021,
      "nietos": 8022,
      "contenedores": 8023,
      "señalar": 8024,
      "innovadores": 8025,
      "retirar": 8026,
      "abogado": 8027,
      "diciembre": 8028,
      "polvo": 8029,
      "seleccion": 8030,
      "copiar": 8031,
      "parkinson": 8032,
      "sabiendo": 8033,
      "manipular": 8034,
      "algoritmo": 8035,
      "facilidad": 8036,
      "agenda": 8037,
      "henry": 8038,
      "psiquia": 8039,
      "omni": 8040,
      "escaleras": 8041,
      "jubilación": 8042,
      "reflexion": 8043,
      "solían": 8044,
      "solíamos": 8045,
      "periódico": 8046,
      "privilegi": 8047,
      "privilegio": 8048,
      "gabby": 8049,
      "perforadas": 8050,
      "pacífico": 8051,
      "agrícola": 8052,
      "pantallas": 8053,
      "manuscrito": 8054,
      "huracán": 8055,
      "juguete": 8056,
      "demonios": 8057,
      "murciélagos": 8058,
      "dulce": 8059,
      "venecia": 8060,
      "familiarizados": 8061,
      "desarrolló": 8062,
      "analogía": 8063,
      "panorama": 8064,
      "retratos": 8065,
      "reconcili": 8066,
      "electoral": 8067,
      "longitud": 8068,
      "improvis": 8069,
      "hallaz": 8070,
      "centenar": 8071,
      "fútbol": 8072,
      "arabia": 8073,
      "asfalto": 8074,
      "desafortunadamente": 8075,
      "catedral": 8076,
      "síndrome": 8077,
      "catástro": 8078,
      "manhattan": 8079,
      "régimen": 8080,
      "32": 8081,
      "46": 8082,
      "54": 8083,
      "700": 8084,
      "86": 8085,
      "agente": 8086,
      "apuesto": 8087,
      "ató": 8088,
      "atre": 8089,
      "agosto": 8090,
      "bc": 8091,
      "bañ": 8092,
      "caban": 8093,
      "ctora": 8094,
      "dentales": 8095,
      "evas": 8096,
      "feb": 8097,
      "heli": 8098,
      "ku": 8099,
      "lentes": 8100,
      "mones": 8101,
      "oma": 8102,
      "olí": 8103,
      "pendo": 8104,
      "pesa": 8105,
      "ríamos": 8106,
      "ss": 8107,
      "stu": 8108,
      "tamiento": 8109,
      "tablemente": 8110,
      "tmética": 8111,
      "umb": 8112,
      "ugh": 8113,
      "vest": 8114,
      "vesti": 8115,
      "vál": 8116,
      "well": 8117,
      "ési": 8118,
      "éstos": 8119,
      "escomb": 8120,
      "ence": 8121,
      "lat": 8122,
      "arru": 8123,
      "arran": 8124,
      "quedado": 8125,
      "ald": 8126,
      "elle": 8127,
      "rew": 8128,
      "remon": 8129,
      "recomen": 8130,
      "requieren": 8131,
      "realizado": 8132,
      "inga": 8133,
      "inyec": 8134,
      "amy": 8135,
      "titán": 8136,
      "confes": 8137,
      "die": 8138,
      "dilla": 8139,
      "distancias": 8140,
      "locu": 8141,
      "sem": 8142,
      "seco": 8143,
      "secular": 8144,
      "top": 8145,
      "toler": 8146,
      "siga": 8147,
      "sible": 8148,
      "miremos": 8149,
      "cub": 8150,
      "pré": 8151,
      "parto": 8152,
      "perseguir": 8153,
      "vigor": 8154,
      "let": 8155,
      "lego": 8156,
      "sube": 8157,
      "suprema": 8158,
      "suenan": 8159,
      "cala": 8160,
      "cavar": 8161,
      "causar": 8162,
      "caído": 8163,
      "sofo": 8164,
      "dadores": 8165,
      "racional": 8166,
      "mater": 8167,
      "mayo": 8168,
      "maxi": 8169,
      "magni": 8170,
      "matriz": 8171,
      "daños": 8172,
      "proust": 8173,
      "rocas": 8174,
      "rock": 8175,
      "tulos": 8176,
      "deser": 8177,
      "desec": 8178,
      "patro": 8179,
      "comparte": 8180,
      "compró": 8181,
      "composición": 8182,
      "pic": 8183,
      "pis": 8184,
      "impide": 8185,
      "imanes": 8186,
      "verlos": 8187,
      "fis": 8188,
      "excu": 8189,
      "ceguera": 8190,
      "peter": 8191,
      "pedido": 8192,
      "resca": 8193,
      "crecen": 8194,
      "creador": 8195,
      "estatales": 8196,
      "ductor": 8197,
      "acento": 8198,
      "acaban": 8199,
      "actores": 8200,
      "acaso": 8201,
      "acús": 8202,
      "hidi": 8203,
      "hijas": 8204,
      "carreras": 8205,
      "hacerme": 8206,
      "éndonos": 8207,
      "fuga": 8208,
      "fusion": 8209,
      "bula": 8210,
      "pastel": 8211,
      "lanzamos": 8212,
      "gie": 8213,
      "uniforme": 8214,
      "margen": 8215,
      "margin": 8216,
      "martin": 8217,
      "ferti": 8218,
      "isa": 8219,
      "sabrán": 8220,
      "bajó": 8221,
      "negras": 8222,
      "singa": 8223,
      "ariana": 8224,
      "aritmética": 8225,
      "interro": 8226,
      "intercambiar": 8227,
      "mediados": 8228,
      "medicinas": 8229,
      "llevo": 8230,
      "formato": 8231,
      "mina": 8232,
      "minor": 8233,
      "minia": 8234,
      "minimi": 8235,
      "humo": 8236,
      "core": 8237,
      "corales": 8238,
      "ponía": 8239,
      "pondr": 8240,
      "gatos": 8241,
      "talentos": 8242,
      "boy": 8243,
      "gravi": 8244,
      "lls": 8245,
      "financia": 8246,
      "salía": 8247,
      "sagrado": 8248,
      "jeringa": 8249,
      "cursor": 8250,
      "intentos": 8251,
      "fomentar": 8252,
      "barata": 8253,
      "brian": 8254,
      "virtud": 8255,
      "estidad": 8256,
      "estiér": 8257,
      "monstru": 8258,
      "male": 8259,
      "transductor": 8260,
      "escritores": 8261,
      "esperma": 8262,
      "elegante": 8263,
      "recibi": 8264,
      "recibido": 8265,
      "plaza": 8266,
      "merece": 8267,
      "partida": 8268,
      "pensarlo": 8269,
      "suceden": 8270,
      "univers": 8271,
      "contemp": 8272,
      "electro": 8273,
      "juvent": 8274,
      "harían": 8275,
      "usarla": 8276,
      "usaremos": 8277,
      "significativo": 8278,
      "trabajador": 8279,
      "automático": 8280,
      "falla": 8281,
      "morales": 8282,
      "encontrarán": 8283,
      "hicieran": 8284,
      "bandera": 8285,
      "responden": 8286,
      "compartiendo": 8287,
      "convertimos": 8288,
      "vuelva": 8289,
      "considero": 8290,
      "logré": 8291,
      "logros": 8292,
      "abilidades": 8293,
      "investigaciones": 8294,
      "ocupar": 8295,
      "moviendo": 8296,
      "explicó": 8297,
      "llegue": 8298,
      "habili": 8299,
      "encuentren": 8300,
      "contarle": 8301,
      "soldado": 8302,
      "soldados": 8303,
      "jesús": 8304,
      "prós": 8305,
      "desea": 8306,
      "deseos": 8307,
      "básicos": 8308,
      "damas": 8309,
      "bonito": 8310,
      "tedtal": 8311,
      "define": 8312,
      "invertido": 8313,
      "fluye": 8314,
      "precisa": 8315,
      "caliza": 8316,
      "preocupación": 8317,
      "honesto": 8318,
      "honestidad": 8319,
      "representación": 8320,
      "suben": 8321,
      "aquella": 8322,
      "enviamos": 8323,
      "cábamos": 8324,
      "totalidad": 8325,
      "narración": 8326,
      "404": 8327,
      "mantenerse": 8328,
      "ministerio": 8329,
      "modernas": 8330,
      "hermosos": 8331,
      "lindo": 8332,
      "descrito": 8333,
      "microbi": 8334,
      "visualización": 8335,
      "convencional": 8336,
      "galería": 8337,
      "enfocar": 8338,
      "acus": 8339,
      "intenté": 8340,
      "esposas": 8341,
      "entrando": 8342,
      "electrones": 8343,
      "ward": 8344,
      "arquitecto": 8345,
      "afro": 8346,
      "apartamentos": 8347,
      "convertirme": 8348,
      "estuvieran": 8349,
      "frecuencias": 8350,
      "avergon": 8351,
      "dominio": 8352,
      "limitaciones": 8353,
      "resili": 8354,
      "llamaron": 8355,
      "desarrollamos": 8356,
      "competir": 8357,
      "abuelos": 8358,
      "nerviosos": 8359,
      "periodo": 8360,
      "crímenes": 8361,
      "dibuj": 8362,
      "extensión": 8363,
      "extendido": 8364,
      "intenciones": 8365,
      "levanten": 8366,
      "guardi": 8367,
      "guardar": 8368,
      "amenazas": 8369,
      "expresiones": 8370,
      "pedirles": 8371,
      "asegurarnos": 8372,
      "caracteri": 8373,
      "determinada": 8374,
      "reactor": 8375,
      "manif": 8376,
      "rueda": 8377,
      "supongamos": 8378,
      "proporción": 8379,
      "eric": 8380,
      "consejos": 8381,
      "revela": 8382,
      "existente": 8383,
      "sombras": 8384,
      "emergencia": 8385,
      "johnny": 8386,
      "anuncio": 8387,
      "anuncios": 8388,
      "japones": 8389,
      "sucederá": 8390,
      "educativa": 8391,
      "hábitos": 8392,
      "clínicas": 8393,
      "sugiriendo": 8394,
      "pasivo": 8395,
      "universidades": 8396,
      "explotación": 8397,
      "cognitiva": 8398,
      "vecino": 8399,
      "biológica": 8400,
      "vertidos": 8401,
      "satisfac": 8402,
      "energética": 8403,
      "famosa": 8404,
      "transparente": 8405,
      "primido": 8406,
      "exitoso": 8407,
      "histórica": 8408,
      "aventuras": 8409,
      "odiseo": 8410,
      "abogados": 8411,
      "hoteles": 8412,
      "presupuestos": 8413,
      "llorando": 8414,
      "pelea": 8415,
      "recolectar": 8416,
      "dirigimos": 8417,
      "cultivar": 8418,
      "bailarines": 8419,
      "pluma": 8420,
      "privada": 8421,
      "héroe": 8422,
      "vulnerable": 8423,
      "infierno": 8424,
      "testigo": 8425,
      "carriles": 8426,
      "ejercicio": 8427,
      "hormonas": 8428,
      "fantasía": 8429,
      "reflexionar": 8430,
      "ancestr": 8431,
      "fragmentos": 8432,
      "ostiones": 8433,
      "intuición": 8434,
      "cheryl": 8435,
      "revés": 8436,
      "cemento": 8437,
      "estómago": 8438,
      "intrín": 8439,
      "show": 8440,
      "world": 8441,
      "hombro": 8442,
      "maripos": 8443,
      "asesinato": 8444,
      "óptica": 8445,
      "arrecife": 8446,
      "diablos": 8447,
      "inusual": 8448,
      "cultivo": 8449,
      "grabación": 8450,
      "legislación": 8451,
      "academia": 8452,
      "watson": 8453,
      "sahariana": 8454,
      "desconcer": 8455,
      "figura": 8456,
      "preparatoria": 8457,
      "ilegales": 8458,
      "glass": 8459,
      "gasolina": 8460,
      "filosofía": 8461,
      "lienzo": 8462,
      "hidrógeno": 8463,
      "autóno": 8464,
      "hagámoslo": 8465,
      "certeza": 8466,
      "gandhi": 8467,
      "saneamiento": 8468,
      "inflexión": 8469,
      "hemisferio": 8470,
      "febrero": 8471,
      "válvu": 8472,
      "escombros": 8473,
      "singapur": 8474,
      "financiación": 8475,
      "estiércol": 8476,
      "juventud": 8477,
      "31": 8478,
      "47": 8479,
      "afer": 8480,
      "apos": 8481,
      "acondi": 8482,
      "aterrori": 8483,
      "apagar": 8484,
      "agencia": 8485,
      "blando": 8486,
      "bamb": 8487,
      "béis": 8488,
      "dh": 8489,
      "gér": 8490,
      "hp": 8491,
      "him": 8492,
      "jaula": 8493,
      "kin": 8494,
      "mamos": 8495,
      "males": 8496,
      "pesca": 8497,
      "rb": 8498,
      "rin": 8499,
      "rente": 8500,
      "sara": 8501,
      "tbp": 8502,
      "uganda": 8503,
      "zable": 8504,
      "áticamente": 8505,
      "éticamente": 8506,
      "espan": 8507,
      "endas": 8508,
      "dem": 8509,
      "dedo": 8510,
      "depre": 8511,
      "deposi": 8512,
      "deporte": 8513,
      "lazos": 8514,
      "arre": 8515,
      "onía": 8516,
      "ongs": 8517,
      "unami": 8518,
      "quedaba": 8519,
      "cini": 8520,
      "cigar": 8521,
      "cicli": 8522,
      "cimientos": 8523,
      "orar": 8524,
      "orígenes": 8525,
      "alla": 8526,
      "alén": 8527,
      "alcal": 8528,
      "estes": 8529,
      "estros": 8530,
      "adentrar": 8531,
      "reconoci": 8532,
      "revisión": 8533,
      "reconstrucción": 8534,
      "retorno": 8535,
      "refres": 8536,
      "inamente": 8537,
      "inmer": 8538,
      "inquie": 8539,
      "ampi": 8540,
      "amable": 8541,
      "dol": 8542,
      "tira": 8543,
      "colá": 8544,
      "conor": 8545,
      "confor": 8546,
      "conseguido": 8547,
      "conseguí": 8548,
      "disi": 8549,
      "didatos": 8550,
      "dieta": 8551,
      "loc": 8552,
      "lol": 8553,
      "low": 8554,
      "localización": 8555,
      "sey": 8556,
      "sela": 8557,
      "semi": 8558,
      "tocó": 8559,
      "empoder": 8560,
      "sierra": 8561,
      "miras": 8562,
      "culación": 8563,
      "cualidades": 8564,
      "novio": 8565,
      "parques": 8566,
      "persu": 8567,
      "perdida": 8568,
      "motivos": 8569,
      "vieran": 8570,
      "viet": 8571,
      "vibr": 8572,
      "teti": 8573,
      "polo": 8574,
      "lector": 8575,
      "suya": 8576,
      "suele": 8577,
      "suminis": 8578,
      "sustancia": 8579,
      "som": 8580,
      "solas": 8581,
      "sober": 8582,
      "ricamente": 8583,
      "rain": 8584,
      "rato": 8585,
      "mag": 8586,
      "mata": 8587,
      "bita": 8588,
      "biólogos": 8589,
      "ect": 8590,
      "ecía": 8591,
      "lig": 8592,
      "libia": 8593,
      "proc": 8594,
      "proponer": 8595,
      "prolon": 8596,
      "provienen": 8597,
      "propuesta": 8598,
      "roba": 8599,
      "chan": 8600,
      "chel": 8601,
      "pago": 8602,
      "compara": 8603,
      "cere": 8604,
      "imprimir": 8605,
      "verdades": 8606,
      "terren": 8607,
      "quita": 8608,
      "gramos": 8609,
      "cionados": 8610,
      "cionista": 8611,
      "vocales": 8612,
      "cepi": 8613,
      "pus": 8614,
      "puro": 8615,
      "puentes": 8616,
      "puñado": 8617,
      "mandí": 8618,
      "manzan": 8619,
      "áni": 8620,
      "trajo": 8621,
      "ciación": 8622,
      "usalén": 8623,
      "tanes": 8624,
      "nike": 8625,
      "seremos": 8626,
      "habló": 8627,
      "tarme": 8628,
      "tarra": 8629,
      "tarnos": 8630,
      "homa": 8631,
      "previ": 8632,
      "preparación": 8633,
      "prejuicios": 8634,
      "alivi": 8635,
      "casarse": 8636,
      "carto": 8637,
      "cardio": 8638,
      "vacaciones": 8639,
      "forestación": 8640,
      "hayamos": 8641,
      "iré": 8642,
      "irme": 8643,
      "estático": 8644,
      "buck": 8645,
      "genas": 8646,
      "generan": 8647,
      "lanza": 8648,
      "cóp": 8649,
      "gidos": 8650,
      "mundiales": 8651,
      "sabido": 8652,
      "granjas": 8653,
      "bajas": 8654,
      "candidatos": 8655,
      "nez": 8656,
      "nace": 8657,
      "nacido": 8658,
      "navidad": 8659,
      "sinté": 8660,
      "sinteti": 8661,
      "obe": 8662,
      "obama": 8663,
      "obstante": 8664,
      "obsole": 8665,
      "cómodos": 8666,
      "vengo": 8667,
      "interiores": 8668,
      "menores": 8669,
      "roso": 8670,
      "humilla": 8671,
      "rutas": 8672,
      "aut": 8673,
      "auri": 8674,
      "ganó": 8675,
      "ganamos": 8676,
      "ganadores": 8677,
      "gangli": 8678,
      "cambie": 8679,
      "conoc": 8680,
      "grati": 8681,
      "masco": 8682,
      "discre": 8683,
      "distur": 8684,
      "dispuesto": 8685,
      "pregunten": 8686,
      "preguntando": 8687,
      "olfa": 8688,
      "salvado": 8689,
      "tortu": 8690,
      "entrega": 8691,
      "temo": 8692,
      "jerusalén": 8693,
      "curvas": 8694,
      "intenta": 8695,
      "barras": 8696,
      "millon": 8697,
      "construyen": 8698,
      "calcu": 8699,
      "producido": 8700,
      "estudiamos": 8701,
      "pecho": 8702,
      "erancia": 8703,
      "experto": 8704,
      "estigma": 8705,
      "completos": 8706,
      "escribo": 8707,
      "escritorio": 8708,
      "escrituras": 8709,
      "escritora": 8710,
      "especialistas": 8711,
      "dinosau": 8712,
      "buscan": 8713,
      "buscaba": 8714,
      "már": 8715,
      "vasos": 8716,
      "torial": 8717,
      "partidos": 8718,
      "chile": 8719,
      "ayuden": 8720,
      "tími": 8721,
      "hard": 8722,
      "usarlas": 8723,
      "dígi": 8724,
      "supermercado": 8725,
      "ciosa": 8726,
      "automotriz": 8727,
      "hacíamos": 8728,
      "ártico": 8729,
      "1970": 8730,
      "1980": 8731,
      "imaginemos": 8732,
      "desagr": 8733,
      "horno": 8734,
      "centrí": 8735,
      "siguieron": 8736,
      "álbum": 8737,
      "tonta": 8738,
      "educadores": 8739,
      "lágri": 8740,
      "consis": 8741,
      "enseñado": 8742,
      "ocupa": 8743,
      "ocupado": 8744,
      "drás": 8745,
      "surgen": 8746,
      "evidencias": 8747,
      "científicas": 8748,
      "economista": 8749,
      "efectivo": 8750,
      "profesora": 8751,
      "solemos": 8752,
      "kit": 8753,
      "kilo": 8754,
      "descubrimientos": 8755,
      "deseamos": 8756,
      "deseaba": 8757,
      "sorprendentemente": 8758,
      "básicas": 8759,
      "dioses": 8760,
      "feder": 8761,
      "demasiada": 8762,
      "compré": 8763,
      "cívi": 8764,
      "tsunami": 8765,
      "pulmón": 8766,
      "consumir": 8767,
      "grie": 8768,
      "gritar": 8769,
      "túnez": 8770,
      "atrap": 8771,
      "subsahariana": 8772,
      "radicalmente": 8773,
      "diapositivas": 8774,
      "flecha": 8775,
      "afectadas": 8776,
      "green": 8777,
      "publicado": 8778,
      "religioso": 8779,
      "extrema": 8780,
      "naran": 8781,
      "alcanzado": 8782,
      "bordes": 8783,
      "ahorros": 8784,
      "acercamos": 8785,
      "detectores": 8786,
      "ocde": 8787,
      "brown": 8788,
      "inspiró": 8789,
      "factura": 8790,
      "bell": 8791,
      "pidez": 8792,
      "abiertas": 8793,
      "entré": 8794,
      "televisor": 8795,
      "cadenas": 8796,
      "ordenador": 8797,
      "hallar": 8798,
      "informáticos": 8799,
      "convirtieron": 8800,
      "extraordinarios": 8801,
      "desarrollando": 8802,
      "enseñarles": 8803,
      "intención": 8804,
      "golpea": 8805,
      "píx": 8806,
      "valiosas": 8807,
      "fortuna": 8808,
      "jane": 8809,
      "adaptarse": 8810,
      "asegurarse": 8811,
      "destin": 8812,
      "regulación": 8813,
      "israelí": 8814,
      "occidentales": 8815,
      "asombrosa": 8816,
      "asombrosas": 8817,
      "reaccionar": 8818,
      "permitiría": 8819,
      "contac": 8820,
      "adoptar": 8821,
      "alemán": 8822,
      "implicaciones": 8823,
      "temporada": 8824,
      "revelar": 8825,
      "despertar": 8826,
      "provoca": 8827,
      "específicos": 8828,
      "europeo": 8829,
      "retroce": 8830,
      "cautiv": 8831,
      "respiración": 8832,
      "preocupante": 8833,
      "clínicos": 8834,
      "rituales": 8835,
      "certificado": 8836,
      "percepciones": 8837,
      "universitarios": 8838,
      "encarce": 8839,
      "judío": 8840,
      "dañar": 8841,
      "alucina": 8842,
      "cooperación": 8843,
      "entusiasmo": 8844,
      "biológicos": 8845,
      "finanzas": 8846,
      "landés": 8847,
      "horribles": 8848,
      "desesperadamente": 8849,
      "grises": 8850,
      "accesibles": 8851,
      "infinito": 8852,
      "evacu": 8853,
      "templo": 8854,
      "afirmación": 8855,
      "andrew": 8856,
      "filosó": 8857,
      "razonamiento": 8858,
      "privados": 8859,
      "glán": 8860,
      "activistas": 8861,
      "acostumbrados": 8862,
      "dueño": 8863,
      "esconder": 8864,
      "supimos": 8865,
      "preocuparse": 8866,
      "psiquiátri": 8867,
      "inesperado": 8868,
      "mágico": 8869,
      "desafiar": 8870,
      "renovable": 8871,
      "académico": 8872,
      "periódicos": 8873,
      "chimpancé": 8874,
      "paradoja": 8875,
      "rabbit": 8876,
      "externa": 8877,
      "actúan": 8878,
      "agrícolas": 8879,
      "animación": 8880,
      "envejecer": 8881,
      "receta": 8882,
      "cohete": 8883,
      "seducción": 8884,
      "iraní": 8885,
      "lanzamiento": 8886,
      "barriles": 8887,
      "viajando": 8888,
      "telefónica": 8889,
      "apariencia": 8890,
      "hábitat": 8891,
      "distor": 8892,
      "fotógrafo": 8893,
      "degrad": 8894,
      "inmenso": 8895,
      "ingredientes": 8896,
      "español": 8897,
      "distrito": 8898,
      "rompió": 8899,
      "anfitri": 8900,
      "cubierta": 8901,
      "repercu": 8902,
      "tolerancia": 8903,
      "pirámide": 8904,
      "ushahidi": 8905,
      "residentes": 8906,
      "farmacéu": 8907,
      "fórmula": 8908,
      "bahía": 8909,
      "fenomen": 8910,
      "espinal": 8911,
      "ligeramente": 8912,
      "inclusive": 8913,
      "brócoli": 8914,
      "espectáculo": 8915,
      "capitalismo": 8916,
      "hallazgos": 8917,
      "olím": 8918,
      "prést": 8919,
      "bambú": 8920,
      "béisbol": 8921,
      "gérmenes": 8922,
      "cigarri": 8923,
      "colágeno": 8924,
      "vietn": 8925,
      "manzanas": 8926,
      "lágrimas": 8927,
      "29": 8928,
      "38": 8929,
      "39": 8930,
      "4000": 8931,
      "52": 8932,
      "76": 8933,
      "85": 8934,
      "94": 8935,
      "apor": 8936,
      "bin": 8937,
      "bado": 8938,
      "bnb": 8939,
      "clon": 8940,
      "eca": 8941,
      "elabor": 8942,
      "eólica": 8943,
      "fos": 8944,
      "fli": 8945,
      "fus": 8946,
      "fana": 8947,
      "facción": 8948,
      "gami": 8949,
      "greg": 8950,
      "hú": 8951,
      "ik": 8952,
      "lente": 8953,
      "llan": 8954,
      "mbi": 8955,
      "ng": 8956,
      "nº": 8957,
      "omi": 8958,
      "over": 8959,
      "oce": 8960,
      "ofer": 8961,
      "otor": 8962,
      "oposición": 8963,
      "py": 8964,
      "plin": 8965,
      "rgi": 8966,
      "restos": 8967,
      "sp": 8968,
      "scho": 8969,
      "saudi": 8970,
      "tinas": 8971,
      "vada": 8972,
      "wee": 8973,
      "zi": 8974,
      "zante": 8975,
      "áticos": 8976,
      "ácidos": 8977,
      "étri": 8978,
      "esferas": 8979,
      "enden": 8980,
      "dedu": 8981,
      "deforestación": 8982,
      "erda": 8983,
      "lap": 8984,
      "lavar": 8985,
      "ard": 8986,
      "armonía": 8987,
      "asent": 8988,
      "asta": 8989,
      "asequi": 8990,
      "onia": 8991,
      "oneta": 8992,
      "cino": 8993,
      "cica": 8994,
      "cipe": 8995,
      "cifra": 8996,
      "alturas": 8997,
      "estabi": 8998,
      "estadio": 8999,
      "regr": 9000,
      "remonta": 9001,
      "reinventar": 9002,
      "instal": 9003,
      "inmuni": 9004,
      "inmigrantes": 9005,
      "ingenu": 9006,
      "amado": 9007,
      "amén": 9008,
      "dopam": 9009,
      "tion": 9010,
      "tito": 9011,
      "tiéndose": 9012,
      "consta": 9013,
      "condones": 9014,
      "dica": 9015,
      "dicha": 9016,
      "dieran": 9017,
      "dirá": 9018,
      "dioso": 9019,
      "diarios": 9020,
      "diego": 9021,
      "emai": 9022,
      "sivos": 9023,
      "abaste": 9024,
      "abundante": 9025,
      "mid": 9026,
      "midades": 9027,
      "mierda": 9028,
      "cuo": 9029,
      "cuali": 9030,
      "prín": 9031,
      "nodo": 9032,
      "pari": 9033,
      "paral": 9034,
      "porno": 9035,
      "porción": 9036,
      "portu": 9037,
      "moto": 9038,
      "modifi": 9039,
      "lev": 9040,
      "lean": 9041,
      "letas": 9042,
      "letal": 9043,
      "suyo": 9044,
      "sustan": 9045,
      "cat": 9046,
      "cañ": 9047,
      "cats": 9048,
      "tagon": 9049,
      "mus": 9050,
      "mató": 9051,
      "paraís": 9052,
      "ecemos": 9053,
      "lita": 9054,
      "licen": 9055,
      "listas": 9056,
      "lizado": 9057,
      "tense": 9058,
      "tención": 9059,
      "tendemos": 9060,
      "daciones": 9061,
      "dais": 9062,
      "prohibi": 9063,
      "rodar": 9064,
      "turi": 9065,
      "desnu": 9066,
      "desventaja": 9067,
      "gular": 9068,
      "guste": 9069,
      "gusano": 9070,
      "compi": 9071,
      "pilas": 9072,
      "pizar": 9073,
      "pilares": 9074,
      "imper": 9075,
      "vernos": 9076,
      "versa": 9077,
      "fia": 9078,
      "ficada": 9079,
      "quir": 9080,
      "exci": 9081,
      "extro": 9082,
      "voto": 9083,
      "votación": 9084,
      "manía": 9085,
      "cosmos": 9086,
      "usé": 9087,
      "usada": 9088,
      "usadas": 9089,
      "pegam": 9090,
      "velas": 9091,
      "creí": 9092,
      "credi": 9093,
      "nifer": 9094,
      "estatus": 9095,
      "dure": 9096,
      "duración": 9097,
      "hablaban": 9098,
      "ambientales": 9099,
      "precedentes": 9100,
      "alice": 9101,
      "cash": 9102,
      "vatios": 9103,
      "forshe": 9104,
      "ensamb": 9105,
      "dería": 9106,
      "futura": 9107,
      "origami": 9108,
      "misos": 9109,
      "missou": 9110,
      "garon": 9111,
      "paseo": 9112,
      "mary": 9113,
      "maría": 9114,
      "marcado": 9115,
      "antecedentes": 9116,
      "cesión": 9117,
      "nacionales": 9118,
      "químicas": 9119,
      "veni": 9120,
      "venciones": 9121,
      "interno": 9122,
      "internos": 9123,
      "medimos": 9124,
      "minio": 9125,
      "presento": 9126,
      "decide": 9127,
      "huir": 9128,
      "humor": 9129,
      "coro": 9130,
      "corpó": 9131,
      "corresponde": 9132,
      "autono": 9133,
      "probabilidades": 9134,
      "primaria": 9135,
      "graves": 9136,
      "gratitud": 9137,
      "llé": 9138,
      "ller": 9139,
      "llenas": 9140,
      "posicionamiento": 9141,
[...]
