{
  "version": "1.0",
  "truncation": null,
  "padding": null,
  "added_tokens": [
    {
      "id": 0,
      "content": "[UNK]",
      "single_word": false,
      "lstrip": false,
      "rstrip": false,
      "normalized": false,
      "special": true
    },
    {
      "id": 1,
      "content": "[START]",
      "single_word": false,
      "lstrip": false,
      "rstrip": false,
      "normalized": false,
      "special": true
    },
    {
      "id": 2,
      "content": "[NEXT]",
      "single_word": false,
      "lstrip": false,
      "rstrip": false,
      "normalized": false,
      "special": true
    },
    {
      "id": 3,
      "content": "[STOP]",
      "single_word": false,
      "lstrip": false,
      "rstrip": false,
      "normalized": false,
      "special": true
    }
  ],
  "normalizer": {
    "type": "Sequence",
    "normalizers": [
      {
        "type": "Lowercase"
      },
      {
        "type": "Strip",
        "strip_left": true,
        "strip_right": true
      }
    ]
  },
  "pre_tokenizer": {
    "type": "Whitespace"
  },
  "post_processor": null,
  "decoder": null,
  "model": {
    "type": "BPE",
    "dropout": null,
    "unk_token": null,
    "continuing_subword_prefix": null,
    "end_of_word_suffix": null,
    "fuse_unk": false,
    "byte_fallback": false,
    "ignore_merges": false,
    "vocab": {
      "[UNK]": 0,
      "[START]": 1,
      "[NEXT]": 2,
      "[STOP]": 3,
      " ": 4,
      "!": 5,
      "#": 6,
      "$": 7,
      "%": 8,
      "&": 9,
      "'": 10,
      "(": 11,
      ")": 12,
      "*": 13,
      "+": 14,
      ",": 15,
      "-": 16,
      ".": 17,
      "/": 18,
      "0": 19,
      "1": 20,
      "2": 21,
      "3": 22,
      "4": 23,
      "5": 24,
      "6": 25,
      "7": 26,
      "8": 27,
      "9": 28,
      ":": 29,
      ";": 30,
      "=": 31,
      "?": 32,
      "@": 33,
      "[": 34,
      "]": 35,
      "^": 36,
      "_": 37,
      "`": 38,
      "a": 39,
      "b": 40,
      "c": 41,
      "d": 42,
      "e": 43,
      "f": 44,
      "g": 45,
      "h": 46,
      "i": 47,
      "j": 48,
      "k": 49,
      "l": 50,
      "m": 51,
      "n": 52,
      "o": 53,
      "p": 54,
      "q": 55,
      "r": 56,
      "s": 57,
      "t": 58,
      "u": 59,
      "v": 60,
      "w": 61,
      "x": 62,
      "y": 63,
      "z": 64,
      "": 65,
      "«": 66,
      "°": 67,
      "²": 68,
      "´": 69,
      "»": 70,
      "½": 71,
      "à": 72,
      "á": 73,
      "â": 74,
      "ã": 75,
      "æ": 76,
      "ç": 77,
      "è": 78,
      "é": 79,
      "ê": 80,
      "ë": 81,
      "í": 82,
      "î": 83,
      "ï": 84,
      "ñ": 85,
      "ó": 86,
      "ô": 87,
      "ö": 88,
      "ù": 89,
      "û": 90,
      "ü": 91,
      "ÿ": 92,
      "ā": 93,
      "ī": 94,
      "ō": 95,
      "œ": 96,
      "š": 97,
      "α": 98,
      "ε": 99,
      "η": 100,
      "ι": 101,
      "κ": 102,
      "λ": 103,
      "ν": 104,
      "ρ": 105,
      "σ": 106,
      "τ": 107,
      "υ": 108,
      "χ": 109,
      "ω": 110,
      "ย": 111,
      "ร": 112,
      "อ": 113,
      "่": 114,
      "​": 115,
      "–": 116,
      "—": 117,
      "‘": 118,
      "’": 119,
      "“": 120,
      "”": 121,
      "…": 122,
      "€": 123,
      "™": 124,
      "≈": 125,
      "♪": 126,
      "♫": 127,
      "es": 128,
      "en": 129,
      "on": 130,
      "ou": 131,
      "qu": 132,
      "ai": 133,
      "de": 134,
      "le": 135,
      "re": 136,
      "an": 137,
      "ent": 138,
      "er": 139,
      "et": 140,
      "un": 141,
      "la": 142,
      "que": 143,
      "ous": 144,
      "ti": 145,
      "pa": 146,
      "is": 147,
      "ce": 148,
      "les": 149,
      "il": 150,
      "te": 151,
      "au": 152,
      "in": 153,
      "est": 154,
      "ons": 155,
      "ur": 156,
      "se": 157,
      "ch": 158,
      "om": 159,
      "our": 160,
      "pr": 161,
      "av": 162,
      "or": 163,
      "tr": 164,
      "ment": 165,
      "it": 166,
      "ais": 167,
      "des": 168,
      "me": 169,
      "nous": 170,
      "si": 171,
      "ait": 172,
      "ne": 173,
      "une": 174,
      "oi": 175,
      "ant": 176,
      "par": 177,
      "ans": 178,
      "ont": 179,
      "ar": 180,
      "al": 181,
      "je": 182,
      "com": 183,
      "vous": 184,
      "pour": 185,
      "lu": 186,
      "pas": 187,
      "eu": 188,
      "ét": 189,
      "ci": 190,
      "qui": 191,
      "ri": 192,
      "tre": 193,
      "di": 194,
      "ré": 195,
      "dé": 196,
      "tion": 197,
      "el": 198,
      "du": 199,
      "dans": 200,
      "li": 201,
      "ouv": 202,
      "os": 203,
      "vi": 204,
      "ma": 205,
      "mais": 206,
      "plu": 207,
      "con": 208,
      "ra": 209,
      "res": 210,
      "pro": 211,
      "mp": 212,
      "ez": 213,
      "su": 214,
      "ces": 215,
      "tou": 216,
      "plus": 217,
      "ain": 218,
      "sur": 219,
      "''": 220,
      "ers": 221,
      "ap": 222,
      "vo": 223,
      "té": 224,
      "mes": 225,
      "peu": 226,
      "ils": 227,
      "ec": 228,
      "aire": 229,
      "at": 230,
      "mon": 231,
      "ge": 232,
      "ens": 233,
      "don": 234,
      "elle": 235,
      "end": 236,
      "ab": 237,
      "ex": 238,
      "ac": 239,
      "né": 240,
      "tout": 241,
      "co": 242,
      "sont": 243,
      "as": 244,
      "ité": 245,
      "mo": 246,
      "ère": 247,
      "oir": 248,
      "ter": 249,
      "mi": 250,
      "ff": 251,
      "fait": 252,
      "ès": 253,
      "quel": 254,
      "cet": 255,
      "leur": 256,
      "avec": 257,
      "eau": 258,
      "us": 259,
      "ie": 260,
      "bi": 261,
      "ques": 262,
      "avons": 263,
      "ois": 264,
      "ça": 265,
      "and": 266,
      "pu": 267,
      "tu": 268,
      "aux": 269,
      "és": 270,
      "cette": 271,
      "comme": 272,
      "am": 273,
      "no": 274,
      "gr": 275,
      "po": 276,
      "lement": 277,
      "ation": 278,
      "aient": 279,
      "être": 280,
      "so": 281,
      "pouv": 282,
      "était": 283,
      "lo": 284,
      "jour": 285,
      "lé": 286,
      "``": 287,
      "faire": 288,
      "cu": 289,
      "ir": 290,
      "for": 291,
      "cr": 292,
      "ag": 293,
      "donc": 294,
      "tions": 295,
      "cer": 296,
      "ux": 297,
      "ni": 298,
      "ser": 299,
      "tes": 300,
      "cou": 301,
      "bien": 302,
      "man": 303,
      "ors": 304,
      "ble": 305,
      "dis": 306,
      "ée": 307,
      "ph": 308,
      "fi": 309,
      "peut": 310,
      "mê": 311,
      "main": 312,
      "cela": 313,
      "ins": 314,
      "ca": 315,
      "eux": 316,
      "ort": 317,
      "ér": 318,
      "ten": 319,
      "dev": 320,
      "pe": 321,
      "ence": 322,
      "sa": 323,
      "très": 324,
      "per": 325,
      "ler": 326,
      "comm": 327,
      "cons": 328,
      "même": 329,
      "été": 330,
      "der": 331,
      "hu": 332,
      "pers": 333,
      "che": 334,
      "entre": 335,
      "teur": 336,
      "ense": 337,
      "rai": 338,
      "lis": 339,
      "pé": 340,
      "ve": 341,
      "quand": 342,
      "mé": 343,
      "app": 344,
      "00": 345,
      "ants": 346,
      "ème": 347,
      "ail": 348,
      "cho": 349,
      "monde": 350,
      "tres": 351,
      "person": 352,
      "gens": 353,
      "aus": 354,
      "ance": 355,
      "enti": 356,
      "ang": 357,
      "pi": 358,
      "vrai": 359,
      "mar": 360,
      "ys": 361,
      "notre": 362,
      "ure": 363,
      "puis": 364,
      "coup": 365,
      "alors": 366,
      "ici": 367,
      "ner": 368,
      "nes": 369,
      "ob": 370,
      "chose": 371,
      "trav": 372,
      "fa": 373,
      "son": 374,
      "suis": 375,
      "où": 376,
      "diff": 377,
      "pre": 378,
      "parti": 379,
      "comp": 380,
      "deux": 381,
      "uti": 382,
      "imp": 383,
      "beau": 384,
      "rer": 385,
      "endre": 386,
      "elles": 387,
      "là": 388,
      "aut": 389,
      "ments": 390,
      "moi": 391,
      "sé": 392,
      "op": 393,
      "dit": 394,
      "gé": 395,
      "parce": 396,
      "tous": 397,
      "cé": 398,
      "sion": 399,
      "aussi": 400,
      "mer": 401,
      "mil": 402,
      "gar": 403,
      "eur": 404,
      "vent": 405,
      "vie": 406,
      "voi": 407,
      "ts": 408,
      "temp": 409,
      "car": 410,
      "pris": 411,
      "bl": 412,
      "beaucoup": 413,
      "fin": 414,
      "ction": 415,
      "gu": 416,
      "ver": 417,
      "avoir": 418,
      "dire": 419,
      "voir": 420,
      "utilis": 421,
      "tru": 422,
      "ille": 423,
      "im": 424,
      "ist": 425,
      "trouv": 426,
      "quoi": 427,
      "pos": 428,
      "ine": 429,
      "comment": 430,
      "met": 431,
      "nos": 432,
      "tique": 433,
      "bon": 434,
      "vraiment": 435,
      "seu": 436,
      "ord": 437,
      "jus": 438,
      "vers": 439,
      "cré": 440,
      "log": 441,
      "leurs": 442,
      "autre": 443,
      "pré": 444,
      "age": 445,
      "fon": 446,
      "nu": 447,
      "temps": 448,
      "min": 449,
      "cher": 450,
      "voy": 451,
      "fois": 452,
      "bre": 453,
      "nées": 454,
      "able": 455,
      "avez": 456,
      "ite": 457,
      "mainten": 458,
      "th": 459,
      "orte": 460,
      "va": 461,
      "ro": 462,
      "avait": 463,
      "ique": 464,
      "nouv": 465,
      "ommes": 466,
      "do": 467,
      "autres": 468,
      "premi": 469,
      "emp": 470,
      "cour": 471,
      "oses": 472,
      "rait": 473,
      "nom": 474,
      "choses": 475,
      "em": 476,
      "maintenant": 477,
      "ima": 478,
      "vou": 479,
      "idé": 480,
      "enf": 481,
      "travail": 482,
      "pet": 483,
      "ents": 484,
      "lon": 485,
      "près": 486,
      "quelque": 487,
      "rires": 488,
      "vis": 489,
      "pens": 490,
      "sem": 491,
      "ale": 492,
      "lle": 493,
      "prendre": 494,
      "commen": 495,
      "pense": 496,
      "ven": 497,
      "oire": 498,
      "jet": 499,
      "votre": 500,
      "différ": 501,
      "inter": 502,
      "jours": 503,
      "ig": 504,
      "pl": 505,
      "cha": 506,
      "lui": 507,
      "milli": 508,
      "part": 509,
      "regar": 510,
      "rais": 511,
      "cont": 512,
      "inté": 513,
      "ses": 514,
      "pouvez": 515,
      "cent": 516,
      "ante": 517,
      "ot": 518,
      "vé": 519,
      "tement": 520,
      "bes": 521,
      "its": 522,
      "arri": 523,
      "tant": 524,
      "sou": 525,
      "non": 526,
      "probl": 527,
      "soci": 528,
      "gra": 529,
      "ard": 530,
      "pres": 531,
      "uni": 532,
      "sommes": 533,
      "vais": 534,
      "aine": 535,
      "mu": 536,
      "déc": 537,
      "bu": 538,
      "pend": 539,
      "tri": 540,
      "cert": 541,
      "personnes": 542,
      "hist": 543,
      "ouver": 544,
      "lais": 545,
      "hui": 546,
      "sent": 547,
      "enco": 548,
      "ad": 549,
      "çon": 550,
      "sant": 551,
      "veau": 552,
      "vir": 553,
      "aires": 554,
      "alis": 555,
      "oin": 556,
      "ue": 557,
      "ture": 558,
      "voici": 559,
      "ées": 560,
      "cor": 561,
      "jourd": 562,
      "aujourd": 563,
      "encore": 564,
      "vre": 565,
      "ja": 566,
      "nent": 567,
      "cro": 568,
      "mis": 569,
      "ta": 570,
      "pren": 571,
      "teurs": 572,
      "pla": 573,
      "pouvons": 574,
      "tra": 575,
      "alité": 576,
      "eff": 577,
      "fais": 578,
      "tech": 579,
      "int": 580,
      "sez": 581,
      "import": 582,
      "simp": 583,
      "grand": 584,
      "personne": 585,
      "mont": 586,
      "prés": 587,
      "toutes": 588,
      "all": 589,
      "yst": 590,
      "besoin": 591,
      "br": 592,
      "ange": 593,
      "après": 594,
      "pourquoi": 595,
      "née": 596,
      "cul": 597,
      "ères": 598,
      "produ": 599,
      "gran": 600,
      "pays": 601,
      "avant": 602,
      "sans": 603,
      "ion": 604,
      "étu": 605,
      "tis": 606,
      "enfants": 607,
      "ions": 608,
      "lig": 609,
      "ats": 610,
      "bles": 611,
      "rép": 612,
      "façon": 613,
      "années": 614,
      "pri": 615,
      "imag": 616,
      "veux": 617,
      "constru": 618,
      "jamais": 619,
      "tif": 620,
      "tel": 621,
      "exemp": 622,
      "certain": 623,
      "dont": 624,
      "ga": 625,
      "pendant": 626,
      "bli": 627,
      "forma": 628,
      "fem": 629,
      "conn": 630,
      "trans": 631,
      "bou": 632,
      "lè": 633,
      "oc": 634,
      "chang": 635,
      "amé": 636,
      "ren": 637,
      "chaque": 638,
      "juste": 639,
      "syst": 640,
      "présent": 641,
      "ire": 642,
      "toujours": 643,
      "péri": 644,
      "moins": 645,
      "contr": 646,
      "illes": 647,
      "peuvent": 648,
      "deman": 649,
      "nement": 650,
      "problème": 651,
      "trois": 652,
      "techno": 653,
      "mani": 654,
      "ves": 655,
      "quelques": 656,
      "sig": 657,
      "technolog": 658,
      "port": 659,
      "idée": 660,
      "col": 661,
      "étaient": 662,
      "fr": 663,
      "tiques": 664,
      "lent": 665,
      "dent": 666,
      "ps": 667,
      "exemple": 668,
      "urs": 669,
      "étais": 670,
      "fu": 671,
      "mom": 672,
      "sci": 673,
      "derni": 674,
      "seulement": 675,
      "mal": 676,
      "histoire": 677,
      "cin": 678,
      "lar": 679,
      "lez": 680,
      "rê": 681,
      "tive": 682,
      "tour": 683,
      "avais": 684,
      "parler": 685,
      "voit": 686,
      "chi": 687,
      "dre": 688,
      "nor": 689,
      "ures": 690,
      "différent": 691,
      "envir": 692,
      "sor": 693,
      "écon": 694,
      "nombre": 695,
      "partie": 696,
      "soit": 697,
      "environ": 698,
      "cas": 699,
      "croy": 700,
      "économ": 701,
      "sû": 702,
      "petit": 703,
      "sus": 704,
      "vu": 705,
      "rap": 706,
      "bas": 707,
      "quer": 708,
      "cel": 709,
      "première": 710,
      "sique": 711,
      "moment": 712,
      "can": 713,
      "essa": 714,
      "informa": 715,
      "att": 716,
      "ct": 717,
      "essay": 718,
      "cerveau": 719,
      "..": 720,
      "éle": 721,
      "ences": 722,
      "voyez": 723,
      "système": 724,
      "commencé": 725,
      "fonction": 726,
      "bé": 727,
      "sements": 728,
      "question": 729,
      "000": 730,
      "cri": 731,
      "lau": 732,
      "rou": 733,
      "géné": 734,
      "dez": 735,
      "deven": 736,
      "humain": 737,
      "cation": 738,
      "exp": 739,
      "nouveau": 740,
      "cep": 741,
      "20": 742,
      "souv": 743,
      "médi": 744,
      "sous": 745,
      "quelle": 746,
      "applau": 747,
      "suite": 748,
      "sais": 749,
      "publi": 750,
      "applaudis": 751,
      "gie": 752,
      "jou": 753,
      "change": 754,
      "passe": 755,
      "ger": 756,
      "vel": 757,
      "toute": 758,
      "êtes": 759,
      "semble": 760,
      "nat": 761,
      "st": 762,
      "lors": 763,
      "ches": 764,
      "ôt": 765,
      "eure": 766,
      "poli": 767,
      "dou": 768,
      "ol": 769,
      "applaudissements": 770,
      "mettre": 771,
      "expéri": 772,
      "intéres": 773,
      "crois": 774,
      "ordin": 775,
      "enne": 776,
      "depuis": 777,
      "grande": 778,
      "velop": 779,
      "rique": 780,
      "point": 781,
      "connais": 782,
      "sûr": 783,
      "faut": 784,
      "éco": 785,
      "lation": 786,
      "ché": 787,
      "imagin": 788,
      "manière": 789,
      "étudi": 790,
      "ies": 791,
      "pourrait": 792,
      "cal": 793,
      "titu": 794,
      "phot": 795,
      "ceci": 796,
      "esp": 797,
      "dévelop": 798,
      "appel": 799,
      "cours": 800,
      "ber": 801,
      "rez": 802,
      "jusqu": 803,
      "lution": 804,
      "ainsi": 805,
      "omme": 806,
      "trouver": 807,
      "men": 808,
      "moy": 809,
      "da": 810,
      "iste": 811,
      "ellement": 812,
      "univers": 813,
      "èmes": 814,
      "sui": 815,
      "possi": 816,
      "net": 817,
      "ris": 818,
      "enre": 819,
      "auc": 820,
      "veu": 821,
      "acc": 822,
      "heure": 823,
      "air": 824,
      "voil": 825,
      "important": 826,
      "nature": 827,
      "10": 828,
      "ration": 829,
      "aff": 830,
      "devons": 831,
      "merci": 832,
      "tôt": 833,
      "conti": 834,
      "quelqu": 835,
      "sance": 836,
      "vient": 837,
      "voilà": 838,
      "ls": 839,
      "cité": 840,
      "ène": 841,
      "utiliser": 842,
      "ête": 843,
      "aller": 844,
      "femmes": 845,
      "vos": 846,
      "mala": 847,
      "gent": 848,
      "ty": 849,
      "appelle": 850,
      "cl": 851,
      "chez": 852,
      "thé": 853,
      "cô": 854,
      "fer": 855,
      "sour": 856,
      "éner": 857,
      "itu": 858,
      "org": 859,
      "tent": 860,
      "inf": 861,
      "ras": 862,
      "bo": 863,
      "cla": 864,
      "af": 865,
      "données": 866,
      "capa": 867,
      "roit": 868,
      "long": 869,
      "technologie": 870,
      "éch": 871,
      "travers": 872,
      "cur": 873,
      "lons": 874,
      "unis": 875,
      "ilité": 876,
      "ations": 877,
      "cle": 878,
      "plan": 879,
      "rien": 880,
      "rés": 881,
      "iques": 882,
      "savez": 883,
      "créer": 884,
      "19": 885,
      "sement": 886,
      "por": 887,
      "avaient": 888,
      "espa": 889,
      "posi": 890,
      "font": 891,
      "aines": 892,
      "pouvoir": 893,
      "face": 894,
      "forme": 895,
      "ensem": 896,
      "fam": 897,
      "anti": 898,
      "ites": 899,
      "téri": 900,
      "millions": 901,
      "contre": 902,
      "sions": 903,
      "tin": 904,
      "projet": 905,
      "passé": 906,
      "organ": 907,
      "pec": 908,
      "comprendre": 909,
      "changer": 910,
      "premier": 911,
      "certains": 912,
      "be": 913,
      "rent": 914,
      "donner": 915,
      "écr": 916,
      "eurs": 917,
      "dur": 918,
      "indi": 919,
      "assez": 920,
      "permet": 921,
      "dè": 922,
      "meil": 923,
      "pes": 924,
      "sal": 925,
      "erre": 926,
      "ensemble": 927,
      "ges": 928,
      "ensuite": 929,
      "ables": 930,
      "simplement": 931,
      "signi": 932,
      "fai": 933,
      "ages": 934,
      "ba": 935,
      "prof": 936,
      "rest": 937,
      "qua": 938,
      "terre": 939,
      "let": 940,
      "commun": 941,
      "raison": 942,
      "sens": 943,
      "jà": 944,
      "ple": 945,
      "soi": 946,
      "diffici": 947,
      "bat": 948,
      "tro": 949,
      "déjà": 950,
      "sage": 951,
      "entifi": 952,
      "oui": 953,
      "alement": 954,
      "sy": 955,
      "ton": 956,
      "ess": 957,
      "rions": 958,
      "fut": 959,
      "go": 960,
      "année": 961,
      "peux": 962,
      "vidé": 963,
      "ablement": 964,
      "incroy": 965,
      "serait": 966,
      "nouvelle": 967,
      "sait": 968,
      "répons": 969,
      "cellu": 970,
      "prend": 971,
      "modè": 972,
      "agit": 973,
      "élec": 974,
      "ric": 975,
      "réalis": 976,
      "grou": 977,
      "tez": 978,
      "char": 979,
      "gros": 980,
      "particu": 981,
      "plutôt": 982,
      "pression": 983,
      "truc": 984,
      "50": 985,
      "homme": 986,
      "dét": 987,
      "savoir": 988,
      "but": 989,
      "one": 990,
      "sorte": 991,
      "ième": 992,
      "sons": 993,
      "dus": 994,
      "continu": 995,
      "sau": 996,
      "trouve": 997,
      "ing": 998,
      "corps": 999,
      "sul": 1000,
      "prise": 1001,
      "côté": 1002,
      "arrê": 1003,
      "ali": 1004,
      "maladi": 1005,
      "raient": 1006,
      "hi": 1007,
      "montrer": 1008,
      "mort": 1009,
      "trop": 1010,
      "genre": 1011,
      "qué": 1012,
      "réf": 1013,
      "mment": 1014,
      "allons": 1015,
      "ateur": 1016,
      "gue": 1017,
      "énergie": 1018,
      "bres": 1019,
      "télé": 1020,
      "nour": 1021,
      "ceux": 1022,
      "réalité": 1023,
      "mieux": 1024,
      "doit": 1025,
      "ok": 1026,
      "ager": 1027,
      "phy": 1028,
      "graph": 1029,
      "espace": 1030,
      "tom": 1031,
      "recher": 1032,
      "place": 1033,
      "mor": 1034,
      "ville": 1035,
      "ennent": 1036,
      "ise": 1037,
      "école": 1038,
      "vres": 1039,
      "rése": 1040,
      "conne": 1041,
      "prin": 1042,
      "souvent": 1043,
      "plupart": 1044,
      "santé": 1045,
      "ju": 1046,
      "milliard": 1047,
      "pati": 1048,
      "expérience": 1049,
      "cli": 1050,
      "lex": 1051,
      "neur": 1052,
      "cap": 1053,
      "ète": 1054,
      "tenir": 1055,
      "difficile": 1056,
      "viv": 1057,
      "mondi": 1058,
      "lieu": 1059,
      "propre": 1060,
      "mois": 1061,
      "bonne": 1062,
      "galement": 1063,
      "niveau": 1064,
      "lorsque": 1065,
      "ales": 1066,
      "dol": 1067,
      "gi": 1068,
      "lan": 1069,
      "lit": 1070,
      "trait": 1071,
      "ds": 1072,
      "reven": 1073,
      "rir": 1074,
      "enseig": 1075,
      "gram": 1076,
      "200": 1077,
      "çons": 1078,
      "art": 1079,
      "importe": 1080,
      "fil": 1081,
      "hab": 1082,
      "tiv": 1083,
      "nel": 1084,
      "simple": 1085,
      "aî": 1086,
      "gouver": 1087,
      "mère": 1088,
      "ones": 1089,
      "conf": 1090,
      "penser": 1091,
      "cit": 1092,
      "ami": 1093,
      "également": 1094,
      "dollar": 1095,
      "ines": 1096,
      "faci": 1097,
      "fie": 1098,
      "cau": 1099,
      "oh": 1100,
      "ru": 1101,
      "cra": 1102,
      "rit": 1103,
      "ôle": 1104,
      "passer": 1105,
      "to": 1106,
      "endu": 1107,
      "mots": 1108,
      "différentes": 1109,
      "unes": 1110,
      "petite": 1111,
      "informations": 1112,
      "tard": 1113,
      "celui": 1114,
      "déci": 1115,
      "ention": 1116,
      "photo": 1117,
      "vidéo": 1118,
      "scientifi": 1119,
      "pau": 1120,
      "sec": 1121,
      "chine": 1122,
      "ari": 1123,
      "vivre": 1124,
      "prob": 1125,
      "regardez": 1126,
      "organis": 1127,
      "minu": 1128,
      "musique": 1129,
      "laquelle": 1130,
      "amis": 1131,
      "peur": 1132,
      "voix": 1133,
      "heur": 1134,
      "états": 1135,
      "riez": 1136,
      "seule": 1137,
      "gment": 1138,
      "sol": 1139,
      "commencer": 1140,
      "eh": 1141,
      "lab": 1142,
      "celle": 1143,
      "image": 1144,
      "tés": 1145,
      "femme": 1146,
      "pag": 1147,
      "confi": 1148,
      "compte": 1149,
      "sorti": 1150,
      "olog": 1151,
      "év": 1152,
      "argent": 1153,
      "réponse": 1154,
      "représent": 1155,
      "oires": 1156,
      "mau": 1157,
      "vont": 1158,
      "sembl": 1159,
      "internet": 1160,
      "dom": 1161,
      "lang": 1162,
      "ouvert": 1163,
      "construire": 1164,
      "dollars": 1165,
      "ités": 1166,
      "problèmes": 1167,
      "expli": 1168,
      "possible": 1169,
      "cy": 1170,
      "secon": 1171,
      "coû": 1172,
      "trouvé": 1173,
      "société": 1174,
      "public": 1175,
      "nant": 1176,
      "nie": 1177,
      "ach": 1178,
      "chir": 1179,
      "condu": 1180,
      "particuli": 1181,
      "princi": 1182,
      "résul": 1183,
      "meilleur": 1184,
      "mas": 1185,
      "autour": 1186,
      "tellement": 1187,
      "demandé": 1188,
      "ho": 1189,
      "édu": 1190,
      "program": 1191,
      "seul": 1192,
      "moyen": 1193,
      "signifie": 1194,
      "nation": 1195,
      "test": 1196,
      "évo": 1197,
      "sujet": 1198,
      "appris": 1199,
      "dr": 1200,
      "gag": 1201,
      "train": 1202,
      "lumi": 1203,
      "mag": 1204,
      "rapi": 1205,
      "appar": 1206,
      "abord": 1207,
      "aille": 1208,
      "tifs": 1209,
      "partir": 1210,
      "profes": 1211,
      "maison": 1212,
      "...": 1213,
      "30": 1214,
      "cis": 1215,
      "lant": 1216,
      "vue": 1217,
      "els": 1218,
      "donne": 1219,
      "uses": 1220,
      "presque": 1221,
      "culture": 1222,
      "milliards": 1223,
      "ances": 1224,
      "pensez": 1225,
      "action": 1226,
      "quatre": 1227,
      "cause": 1228,
      "résult": 1229,
      "ha": 1230,
      "équi": 1231,
      "apprendre": 1232,
      "popu": 1233,
      "anim": 1234,
      "augment": 1235,
      "enfant": 1236,
      "clas": 1237,
      "anci": 1238,
      "allez": 1239,
      "donné": 1240,
      "faisons": 1241,
      "veut": 1242,
      "communau": 1243,
      "rend": 1244,
      "exac": 1245,
      "mêmes": 1246,
      "commence": 1247,
      "nourrit": 1248,
      "obser": 1249,
      "clé": 1250,
      "hommes": 1251,
      "mét": 1252,
      "mesure": 1253,
      "ili": 1254,
      "chac": 1255,
      "ass": 1256,
      "effet": 1257,
      "aime": 1258,
      "endroit": 1259,
      "sera": 1260,
      "savons": 1261,
      "début": 1262,
      "famille": 1263,
      "remar": 1264,
      "avions": 1265,
      "sieurs": 1266,
      "parle": 1267,
      "nouvelles": 1268,
      "changement": 1269,
      "aucune": 1270,
      "iez": 1271,
      "spé": 1272,
      "améric": 1273,
      "accord": 1274,
      "rons": 1275,
      "retour": 1276,
      "ori": 1277,
      "arti": 1278,
      "intéri": 1279,
      "bilité": 1280,
      "viennent": 1281,
      "méde": 1282,
      "écrit": 1283,
      "tot": 1284,
      "outi": 1285,
      "dernière": 1286,
      "voiture": 1287,
      "réflé": 1288,
      "énor": 1289,
      "tré": 1290,
      "partout": 1291,
      "ligne": 1292,
      "science": 1293,
      "curité": 1294,
      "fé": 1295,
      "loi": 1296,
      "père": 1297,
      "aider": 1298,
      "ressemble": 1299,
      "différents": 1300,
      "ban": 1301,
      "opé": 1302,
      "siè": 1303,
      "solu": 1304,
      "bar": 1305,
      "han": 1306,
      "antes": 1307,
      "type": 1308,
      "questions": 1309,
      "ement": 1310,
      "pous": 1311,
      "équ": 1312,
      "espr": 1313,
      "pare": 1314,
      "dessus": 1315,
      "cellules": 1316,
      "nourriture": 1317,
      "spéci": 1318,
      "ay": 1319,
      "évi": 1320,
      "faites": 1321,
      "roits": 1322,
      "voulez": 1323,
      "améli": 1324,
      "table": 1325,
      "aide": 1326,
      "super": 1327,
      "complè": 1328,
      "politique": 1329,
      "lumière": 1330,
      "reste": 1331,
      "comporte": 1332,
      "gues": 1333,
      "regarder": 1334,
      "répon": 1335,
      "intéressant": 1336,
      "sin": 1337,
      "unique": 1338,
      "sup": 1339,
      "fini": 1340,
      "parfois": 1341,
      "humains": 1342,
      "ck": 1343,
      "ul": 1344,
      "élé": 1345,
      "rapide": 1346,
      "âce": 1347,
      "écou": 1348,
      "rée": 1349,
      "grâce": 1350,
      "marché": 1351,
      "développe": 1352,
      "confiance": 1353,
      "fab": 1354,
      "aimer": 1355,
      "plusieurs": 1356,
      "ral": 1357,
      "enir": 1358,
      "aurait": 1359,
      "profon": 1360,
      "intérieur": 1361,
      "bâ": 1362,
      "vér": 1363,
      "trai": 1364,
      "èrement": 1365,
      "pouvait": 1366,
      "idées": 1367,
      "arrive": 1368,
      "médica": 1369,
      "pit": 1370,
      "réus": 1371,
      "poin": 1372,
      "appli": 1373,
      "certaines": 1374,
      "afrique": 1375,
      "probablement": 1376,
      "labor": 1377,
      "écri": 1378,
      "objet": 1379,
      "prises": 1380,
      "cinq": 1381,
      "ateurs": 1382,
      "étr": 1383,
      "entendu": 1384,
      "atta": 1385,
      "actu": 1386,
      "petits": 1387,
      "regard": 1388,
      "heures": 1389,
      "allé": 1390,
      "rég": 1391,
      "hon": 1392,
      "off": 1393,
      "arch": 1394,
      "complex": 1395,
      "imaginez": 1396,
      "incroyable": 1397,
      "yeux": 1398,
      "passion": 1399,
      "étudiants": 1400,
      "pay": 1401,
      "ains": 1402,
      "sécurité": 1403,
      "clu": 1404,
      "fonctionne": 1405,
      "espè": 1406,
      "lait": 1407,
      "situ": 1408,
      "villes": 1409,
      "jeunes": 1410,
      "économie": 1411,
      "ordinateur": 1412,
      "capacité": 1413,
      "hô": 1414,
      "we": 1415,
      "épo": 1416,
      "complètement": 1417,
      "id": 1418,
      "çu": 1419,
      "chois": 1420,
      "combien": 1421,
      "mot": 1422,
      "voyons": 1423,
      "travailler": 1424,
      "futur": 1425,
      "maladie": 1426,
      "physique": 1427,
      "exactement": 1428,
      "four": 1429,
      "tête": 1430,
      "ètres": 1431,
      "atte": 1432,
      "vision": 1433,
      "position": 1434,
      "modèle": 1435,
      "100": 1436,
      "lin": 1437,
      "état": 1438,
      "diri": 1439,
      "proch": 1440,
      "cule": 1441,
      "indivi": 1442,
      "doi": 1443,
      "rendre": 1444,
      "indus": 1445,
      "seur": 1446,
      "iter": 1447,
      "new": 1448,
      "proces": 1449,
      "propos": 1450,
      "éro": 1451,
      "séri": 1452,
      "guerre": 1453,
      "effi": 1454,
      "produit": 1455,
      "dition": 1456,
      "démo": 1457,
      "hé": 1458,
      "haut": 1459,
      "rob": 1460,
      "matéri": 1461,
      "concep": 1462,
      "ado": 1463,
      "eil": 1464,
      "piè": 1465,
      "pensé": 1466,
      "suiv": 1467,
      "groupe": 1468,
      "toi": 1469,
      "taille": 1470,
      "resp": 1471,
      "proté": 1472,
      "essayer": 1473,
      "recherche": 1474,
      "esprit": 1475,
      "époque": 1476,
      "hy": 1477,
      "racont": 1478,
      "vois": 1479,
      "existe": 1480,
      "deuxième": 1481,
      "bâti": 1482,
      "isme": 1483,
      "orig": 1484,
      "terr": 1485,
      "amen": 1486,
      "arriver": 1487,
      "information": 1488,
      "aucun": 1489,
      "décidé": 1490,
      "fas": 1491,
      "xe": 1492,
      "pra": 1493,
      "consci": 1494,
      "voulons": 1495,
      "devenir": 1496,
      "aise": 1497,
      "anc": 1498,
      "intel": 1499,
      "mati": 1500,
      "solution": 1501,
      "tribu": 1502,
      "images": 1503,
      "gouvernement": 1504,
      "ly": 1505,
      "servi": 1506,
      "mari": 1507,
      "venir": 1508,
      "histoires": 1509,
      "allait": 1510,
      "environnement": 1511,
      "facile": 1512,
      "centre": 1513,
      "euse": 1514,
      "livre": 1515,
      "devez": 1516,
      "voud": 1517,
      "changé": 1518,
      "vil": 1519,
      "ente": 1520,
      "tex": 1521,
      "inno": 1522,
      "colle": 1523,
      "visi": 1524,
      "prenez": 1525,
      "éducation": 1526,
      "tend": 1527,
      "étés": 1528,
      "considé": 1529,
      "mondiale": 1530,
      "développement": 1531,
      "intellig": 1532,
      "comb": 1533,
      "bru": 1534,
      "15": 1535,
      "fs": 1536,
      "senti": 1537,
      "cir": 1538,
      "marche": 1539,
      "mul": 1540,
      "réseau": 1541,
      "tivité": 1542,
      "cteur": 1543,
      "trou": 1544,
      "site": 1545,
      "rière": 1546,
      "extr": 1547,
      "salle": 1548,
      "ront": 1549,
      "sie": 1550,
      "créé": 1551,
      "chiff": 1552,
      "chacun": 1553,
      "gle": 1554,
      "gis": 1555,
      "prê": 1556,
      "prennent": 1557,
      "viol": 1558,
      "téléph": 1559,
      "communauté": 1560,
      "use": 1561,
      "usement": 1562,
      "ted": 1563,
      "déf": 1564,
      "voitures": 1565,
      "aître": 1566,
      "pan": 1567,
      "tal": 1568,
      "lations": 1569,
      "ork": 1570,
      "sub": 1571,
      "loin": 1572,
      "fier": 1573,
      "devrait": 1574,
      "processus": 1575,
      "droit": 1576,
      "ore": 1577,
      "œu": 1578,
      "tives": 1579,
      "parents": 1580,
      "planète": 1581,
      "feu": 1582,
      "sep": 1583,
      "compris": 1584,
      "quelles": 1585,
      "obtenir": 1586,
      "siècle": 1587,
      "ég": 1588,
      "inves": 1589,
      "nements": 1590,
      "proche": 1591,
      "néces": 1592,
      "voulais": 1593,
      "fille": 1594,
      "val": 1595,
      "ènes": 1596,
      "remp": 1597,
      "vies": 1598,
      "pouvais": 1599,
      "institu": 1600,
      "impression": 1601,
      "découvert": 1602,
      "occu": 1603,
      "demander": 1604,
      "technologies": 1605,
      "naturel": 1606,
      "cam": 1607,
      "dan": 1608,
      "jec": 1609,
      "abe": 1610,
      "géni": 1611,
      "dernier": 1612,
      "40": 1613,
      "sta": 1614,
      "seurs": 1615,
      "radi": 1616,
      "tée": 1617,
      "communi": 1618,
      "milliers": 1619,
      "arriv": 1620,
      "importante": 1621,
      "prix": 1622,
      "meille": 1623,
      "dieu": 1624,
      "dernières": 1625,
      "mauvais": 1626,
      "principa": 1627,
      "équipe": 1628,
      "meilleure": 1629,
      "cre": 1630,
      "dois": 1631,
      "york": 1632,
      "lage": 1633,
      "selon": 1634,
      "rencontr": 1635,
      "connec": 1636,
      "bal": 1637,
      "noir": 1638,
      "envoy": 1639,
      "grands": 1640,
      "explo": 1641,
      "photos": 1642,
      "démocra": 1643,
      "mée": 1644,
      "avent": 1645,
      "réellement": 1646,
      "concer": 1647,
      "disent": 1648,
      "érence": 1649,
      "souff": 1650,
      "montre": 1651,
      "devenu": 1652,
      "artis": 1653,
      "allu": 1654,
      "former": 1655,
      "hum": 1656,
      "échelle": 1657,
      "population": 1658,
      "afin": 1659,
      "révo": 1660,
      "finalement": 1661,
      "fabri": 1662,
      "tons": 1663,
      "istes": 1664,
      "indre": 1665,
      "sible": 1666,
      "dés": 1667,
      "dépend": 1668,
      "matique": 1669,
      "fonda": 1670,
      "mons": 1671,
      "aig": 1672,
      "relig": 1673,
      "ill": 1674,
      "connu": 1675,
      "entreprise": 1676,
      "scientifiques": 1677,
      "médec": 1678,
      "fac": 1679,
      "étions": 1680,
      "lequel": 1681,
      "ouvrir": 1682,
      "vite": 1683,
      "mie": 1684,
      "laissez": 1685,
      "appelé": 1686,
      "prom": 1687,
      "pourtant": 1688,
      "demande": 1689,
      "fran": 1690,
      "imaginer": 1691,
      "veulent": 1692,
      "na": 1693,
      "sante": 1694,
      "âge": 1695,
      "oix": 1696,
      "entreprises": 1697,
      "fo": 1698,
      "mouv": 1699,
      "tte": 1700,
      "ets": 1701,
      "tié": 1702,
      "chau": 1703,
      "défi": 1704,
      "biolog": 1705,
      "fond": 1706,
      "prenons": 1707,
      "tivement": 1708,
      "longtemps": 1709,
      "essenti": 1710,
      "points": 1711,
      "18": 1712,
      "ajou": 1713,
      "cat": 1714,
      "œur": 1715,
      "isation": 1716,
      "issent": 1717,
      "invent": 1718,
      "chance": 1719,
      "propri": 1720,
      "endroits": 1721,
      "abilité": 1722,
      "fort": 1723,
      "précis": 1724,
      "partager": 1725,
      "comportement": 1726,
      "appr": 1727,
      "devant": 1728,
      "arrivé": 1729,
      "cancer": 1730,
      "théor": 1731,
      "tructure": 1732,
      "achet": 1733,
      "résultats": 1734,
      "énorme": 1735,
      "eng": 1736,
      "quanti": 1737,
      "quels": 1738,
      "amour": 1739,
      "perdu": 1740,
      "différence": 1741,
      "pect": 1742,
      "base": 1743,
      "modèles": 1744,
      "nécess": 1745,
      "hors": 1746,
      "ieu": 1747,
      "pie": 1748,
      "porte": 1749,
      "tron": 1750,
      "rédu": 1751,
      "micr": 1752,
      "pose": 1753,
      "utilisé": 1754,
      "premiers": 1755,
      "animaux": 1756,
      "vari": 1757,
      "devient": 1758,
      "rec": 1759,
      "tie": 1760,
      "time": 1761,
      "pourrions": 1762,
      "sole": 1763,
      "impli": 1764,
      "autant": 1765,
      "direc": 1766,
      "certaine": 1767,
      "adn": 1768,
      "rapport": 1769,
      "rapidement": 1770,
      "sc": 1771,
      "vation": 1772,
      "chant": 1773,
      "six": 1774,
      "compag": 1775,
      "airement": 1776,
      "amment": 1777,
      "grav": 1778,
      "loy": 1779,
      "attention": 1780,
      "sang": 1781,
      "choix": 1782,
      "jeune": 1783,
      "extra": 1784,
      "attend": 1785,
      "nouveaux": 1786,
      "mand": 1787,
      "avenir": 1788,
      "nelle": 1789,
      "entier": 1790,
      "valeur": 1791,
      "psy": 1792,
      "cos": 1793,
      "cture": 1794,
      "dû": 1795,
      "gau": 1796,
      "vain": 1797,
      "cident": 1798,
      "lire": 1799,
      "lée": 1800,
      "nuclé": 1801,
      "centaines": 1802,
      "film": 1803,
      "minutes": 1804,
      "situation": 1805,
      "hôpit": 1806,
      "effica": 1807,
      "respons": 1808,
      "gré": 1809,
      "poi": 1810,
      "vas": 1811,
      "quit": 1812,
      "iner": 1813,
      "lim": 1814,
      "pot": 1815,
      "grandes": 1816,
      "possibilité": 1817,
      "arrêter": 1818,
      "outils": 1819,
      "mbre": 1820,
      "sort": 1821,
      "isent": 1822,
      "ome": 1823,
      "avan": 1824,
      "meur": 1825,
      "atoire": 1826,
      "accep": 1827,
      "instant": 1828,
      "merve": 1829,
      "créa": 1830,
      "sociétés": 1831,
      "collè": 1832,
      "université": 1833,
      "archite": 1834,
      "soleil": 1835,
      "um": 1836,
      "èse": 1837,
      "êtres": 1838,
      "oubli": 1839,
      "anal": 1840,
      "unité": 1841,
      "oite": 1842,
      "lir": 1843,
      "appare": 1844,
      "sortes": 1845,
      "patients": 1846,
      "ry": 1847,
      "résou": 1848,
      "mathé": 1849,
      "force": 1850,
      "dispar": 1851,
      "contrôle": 1852,
      "classe": 1853,
      "60": 1854,
      "fou": 1855,
      "iser": 1856,
      "réel": 1857,
      "ray": 1858,
      "vol": 1859,
      "forê": 1860,
      "croissance": 1861,
      "source": 1862,
      "particulier": 1863,
      "gauche": 1864,
      "cès": 1865,
      "hor": 1866,
      "étant": 1867,
      "molé": 1868,
      "puisse": 1869,
      "posé": 1870,
      "réseaux": 1871,
      "multi": 1872,
      "gri": 1873,
      "mous": 1874,
      "som": 1875,
      "reux": 1876,
      "papi": 1877,
      "omma": 1878,
      "livres": 1879,
      "sud": 1880,
      "devrions": 1881,
      "voie": 1882,
      "carte": 1883,
      "nuit": 1884,
      "étude": 1885,
      "construit": 1886,
      "économique": 1887,
      "plein": 1888,
      "électri": 1889,
      "doivent": 1890,
      "humaine": 1891,
      "mus": 1892,
      "orer": 1893,
      "ron": 1894,
      "émo": 1895,
      "enfin": 1896,
      "machine": 1897,
      "moder": 1898,
      "journ": 1899,
      "derrière": 1900,
      "semaine": 1901,
      "produits": 1902,
      "capable": 1903,
      "violence": 1904,
      "25": 1905,
      "gles": 1906,
      "kil": 1907,
      "entis": 1908,
      "human": 1909,
      "march": 1910,
      "impos": 1911,
      "utilise": 1912,
      "mission": 1913,
      "produire": 1914,
      "systèmes": 1915,
      "rapp": 1916,
      "réussi": 1917,
      "har": 1918,
      "lou": 1919,
      "sil": 1920,
      "nés": 1921,
      "bout": 1922,
      "aliment": 1923,
      "maladies": 1924,
      "habitu": 1925,
      "révolution": 1926,
      "ope": 1927,
      "déte": 1928,
      "rale": 1929,
      "journée": 1930,
      "entrer": 1931,
      "obten": 1932,
      "partici": 1933,
      "techni": 1934,
      "petites": 1935,
      "aimerais": 1936,
      "voudrais": 1937,
      "résoudre": 1938,
      "gla": 1939,
      "gènes": 1940,
      "vit": 1941,
      "qualité": 1942,
      "cules": 1943,
      "objec": 1944,
      "voyage": 1945,
      "visu": 1946,
      "sociaux": 1947,
      "gaz": 1948,
      "neurones": 1949,
      "scientifique": 1950,
      "fourn": 1951,
      "bri": 1952,
      "ode": 1953,
      "tation": 1954,
      "tirer": 1955,
      "suff": 1956,
      "absolu": 1957,
      "inspi": 1958,
      "chemin": 1959,
      "poser": 1960,
      "préci": 1961,
      "regarde": 1962,
      "nombreuses": 1963,
      "morce": 1964,
      "fondament": 1965,
      "extraordin": 1966,
      "bras": 1967,
      "dy": 1968,
      "rè": 1969,
      "aie": 1970,
      "cevoir": 1971,
      "trie": 1972,
      "propres": 1973,
      "impa": 1974,
      "souh": 1975,
      "sym": 1976,
      "chirur": 1977,
      "améliorer": 1978,
      "70": 1979,
      "90": 1980,
      "bla": 1981,
      "gor": 1982,
      "ke": 1983,
      "oph": 1984,
      "parer": 1985,
      "ralement": 1986,
      "ressembl": 1987,
      "message": 1988,
      "associ": 1989,
      "terri": 1990,
      "termes": 1991,
      "champ": 1992,
      "décis": 1993,
      "sign": 1994,
      "heureusement": 1995,
      "groupes": 1996,
      "sortir": 1997,
      "raconter": 1998,
      "cs": 1999,
      "aura": 2000,
      "orter": 2001,
      "terme": 2002,
      "formes": 2003,
      "fique": 2004,
      "laisser": 2005,
      "faite": 2006,
      "litté": 2007,
      "apprentis": 2008,
      "11": 2009,
      "inde": 2010,
      "lég": 2011,
      "cru": 2012,
      "cations": 2013,
      "numé": 2014,
      "matière": 2015,
      "apprentissage": 2016,
      "12": 2017,
      "gne": 2018,
      "sac": 2019,
      "taux": 2020,
      "èrent": 2021,
      "ément": 2022,
      "quent": 2023,
      "telle": 2024,
      "pros": 2025,
      "jeu": 2026,
      "lie": 2027,
      "const": 2028,
      "mécan": 2029,
      "moitié": 2030,
      "vécu": 2031,
      "amérique": 2032,
      "risque": 2033,
      "sources": 2034,
      "conférence": 2035,
      "expliquer": 2036,
      "extrê": 2037,
      "ah": 2038,
      "neu": 2039,
      "pourraient": 2040,
      "éton": 2041,
      "mode": 2042,
      "personn": 2043,
      "milieu": 2044,
      "effec": 2045,
      "rendu": 2046,
      "capit": 2047,
      "seconde": 2048,
      "bac": 2049,
      "blo": 2050,
      "rus": 2051,
      "savent": 2052,
      "relation": 2053,
      "illu": 2054,
      "montré": 2055,
      "termin": 2056,
      "bonnes": 2057,
      "pensons": 2058,
      "raisons": 2059,
      "contrô": 2060,
      "troisième": 2061,
      "différente": 2062,
      "expériences": 2063,
      "déter": 2064,
      "évolution": 2065,
      "individu": 2066,
      "ctions": 2067,
      "épi": 2068,
      "ond": 2069,
      "page": 2070,
      "aper": 2071,
      "construction": 2072,
      "titude": 2073,
      "accès": 2074,
      "durant": 2075,
      "meilleurs": 2076,
      "rester": 2077,
      "écrire": 2078,
      "80": 2079,
      "fau": 2080,
      "pou": 2081,
      "ues": 2082,
      "inqui": 2083,
      "étab": 2084,
      "liber": 2085,
      "actions": 2086,
      "cale": 2087,
      "guer": 2088,
      "tradition": 2089,
      "jouer": 2090,
      "espoir": 2091,
      "enregis": 2092,
      "continuer": 2093,
      "évolu": 2094,
      "théorie": 2095,
      "fils": 2096,
      "gène": 2097,
      "structure": 2098,
      "parmi": 2099,
      "parlé": 2100,
      "ressent": 2101,
      "pouvaient": 2102,
      "pétro": 2103,
      "visage": 2104,
      "production": 2105,
      "grandi": 2106,
      "rappe": 2107,
      "celles": 2108,
      "connaissance": 2109,
      "types": 2110,
      "tendance": 2111,
      "nucléaire": 2112,
      "bure": 2113,
      "hau": 2114,
      "laient": 2115,
      "pon": 2116,
      "ette": 2117,
      "semain": 2118,
      "étap": 2119,
      "surtout": 2120,
      "cuis": 2121,
      "agri": 2122,
      "compos": 2123,
      "europe": 2124,
      "carac": 2125,
      "imm": 2126,
      "pensent": 2127,
      "conten": 2128,
      "programme": 2129,
      "web": 2130,
      "téléphone": 2131,
      "semaines": 2132,
      "he": 2133,
      "vites": 2134,
      "devi": 2135,
      "demment": 2136,
      "times": 2137,
      "cemment": 2138,
      "sive": 2139,
      "récemment": 2140,
      "vic": 2141,
      "matiques": 2142,
      "suc": 2143,
      "agir": 2144,
      "seront": 2145,
      "phé": 2146,
      "commer": 2147,
      "compli": 2148,
      "large": 2149,
      "nombreux": 2150,
      "suivre": 2151,
      "assis": 2152,
      "réfléchir": 2153,
      "pratique": 2154,
      "quantité": 2155,
      "bons": 2156,
      "bus": 2157,
      "tas": 2158,
      "tient": 2159,
      "orité": 2160,
      "conséqu": 2161,
      "opport": 2162,
      "prison": 2163,
      "espèces": 2164,
      "conscience": 2165,
      "merveille": 2166,
      "extrême": 2167,
      "vitesse": 2168,
      "jo": 2169,
      "ani": 2170,
      "dimen": 2171,
      "faits": 2172,
      "célé": 2173,
      "formation": 2174,
      "heureux": 2175,
      "affec": 2176,
      "influ": 2177,
      "pauvres": 2178,
      "abeilles": 2179,
      "cée": 2180,
      "cœur": 2181,
      "dents": 2182,
      "lever": 2183,
      "insec": 2184,
      "itaire": 2185,
      "pass": 2186,
      "micro": 2187,
      "agé": 2188,
      "puissance": 2189,
      "istan": 2190,
      "travaille": 2191,
      "politiques": 2192,
      "calcul": 2193,
      "uniquement": 2194,
      "traitement": 2195,
      "mouvement": 2196,
      "absolument": 2197,
      "17": 2198,
      "lois": 2199,
      "rom": 2200,
      "rôle": 2201,
      "chans": 2202,
      "aveu": 2203,
      "raî": 2204,
      "rations": 2205,
      "bio": 2206,
      "pol": 2207,
      "inst": 2208,
      "utilisant": 2209,
      "employ": 2210,
      "faible": 2211,
      "lettes": 2212,
      "réaliser": 2213,
      "détail": 2214,
      "médicaments": 2215,
      "dirige": 2216,
      "texte": 2217,
      "scène": 2218,
      "faux": 2219,
      "glo": 2220,
      "ghan": 2221,
      "stu": 2222,
      "cependant": 2223,
      "montr": 2224,
      "consomma": 2225,
      "preu": 2226,
      "études": 2227,
      "béné": 2228,
      "route": 2229,
      "démocratie": 2230,
      "filles": 2231,
      "chis": 2232,
      "disait": 2233,
      "ailleurs": 2234,
      "carbon": 2235,
      "utilisent": 2236,
      "ign": 2237,
      "plais": 2238,
      "intérê": 2239,
      "personnel": 2240,
      "essayé": 2241,
      "syn": 2242,
      "métho": 2243,
      "investis": 2244,
      "hér": 2245,
      "aupar": 2246,
      "lions": 2247,
      "expl": 2248,
      "gées": 2249,
      "voulait": 2250,
      "lorsqu": 2251,
      "goo": 2252,
      "totalement": 2253,
      "étrang": 2254,
      "collec": 2255,
      "rencontré": 2256,
      "pétrole": 2257,
      "auparavant": 2258,
      "mètres": 2259,
      "rue": 2260,
      "éloi": 2261,
      "etats": 2262,
      "uns": 2263,
      "dul": 2264,
      "libé": 2265,
      "atten": 2266,
      "eaux": 2267,
      "faisait": 2268,
      "soient": 2269,
      "pauvre": 2270,
      "industrie": 2271,
      "kilom": 2272,
      "impact": 2273,
      "cac": 2274,
      "ède": 2275,
      "rement": 2276,
      "ini": 2277,
      "exist": 2278,
      "fici": 2279,
      "travaillé": 2280,
      "faisant": 2281,
      "complexe": 2282,
      "liberté": 2283,
      "quant": 2284,
      "delà": 2285,
      "pourriez": 2286,
      "vivent": 2287,
      "nies": 2288,
      "regardé": 2289,
      "développer": 2290,
      "porter": 2291,
      "signifi": 2292,
      "réalisé": 2293,
      "physi": 2294,
      "droite": 2295,
      "résultat": 2296,
      "efficace": 2297,
      "potenti": 2298,
      "nais": 2299,
      "vention": 2300,
      "demand": 2301,
      "ret": 2302,
      "chin": 2303,
      "avère": 2304,
      "parlons": 2305,
      "rie": 2306,
      "dépla": 2307,
      "matin": 2308,
      "aban": 2309,
      "couleur": 2310,
      "façons": 2311,
      "arrière": 2312,
      "vérité": 2313,
      "circu": 2314,
      "campag": 2315,
      "papier": 2316,
      "hen": 2317,
      "vée": 2318,
      "oie": 2319,
      "riches": 2320,
      "convain": 2321,
      "mique": 2322,
      "constitu": 2323,
      "chercher": 2324,
      "internation": 2325,
      "ignor": 2326,
      "importance": 2327,
      "lève": 2328,
      "média": 2329,
      "coût": 2330,
      "traite": 2331,
      "hôpital": 2332,
      "mur": 2333,
      "demi": 2334,
      "deviennent": 2335,
      "vio": 2336,
      "exam": 2337,
      "code": 2338,
      "soy": 2339,
      "crise": 2340,
      "autom": 2341,
      "crée": 2342,
      "général": 2343,
      "moyens": 2344,
      "habit": 2345,
      "carbone": 2346,
      "cles": 2347,
      "fus": 2348,
      "mour": 2349,
      "océ": 2350,
      "pain": 2351,
      "éli": 2352,
      "étoi": 2353,
      "manger": 2354,
      "permettre": 2355,
      "cherche": 2356,
      "virus": 2357,
      "connaître": 2358,
      "souvi": 2359,
      "moyenne": 2360,
      "aît": 2361,
      "professeur": 2362,
      "pièce": 2363,
      "fascin": 2364,
      "chiffres": 2365,
      "épidé": 2366,
      "succès": 2367,
      "google": 2368,
      "bur": 2369,
      "dès": 2370,
      "flu": 2371,
      "nan": 2372,
      "savais": 2373,
      "entraî": 2374,
      "tien": 2375,
      "ith": 2376,
      "dia": 2377,
      "ditions": 2378,
      "dési": 2379,
      "lier": 2380,
      "devait": 2381,
      "création": 2382,
      "social": 2383,
      "trice": 2384,
      "adap": 2385,
      "ordinateurs": 2386,
      "patient": 2387,
      "revenir": 2388,
      "évidemment": 2389,
      "laboratoire": 2390,
      "fra": 2391,
      "nons": 2392,
      "oy": 2393,
      "quarti": 2394,
      "relations": 2395,
      "sex": 2396,
      "simil": 2397,
      "rées": 2398,
      "direction": 2399,
      "million": 2400,
      "norma": 2401,
      "recherches": 2402,
      "sentiment": 2403,
      "blement": 2404,
      "laire": 2405,
      "tâ": 2406,
      "zone": 2407,
      "reçu": 2408,
      "tine": 2409,
      "mem": 2410,
      "araig": 2411,
      "tuer": 2412,
      "mains": 2413,
      "génom": 2414,
      "découver": 2415,
      "mise": 2416,
      "rouge": 2417,
      "mener": 2418,
      "tomb": 2419,
      "éléments": 2420,
      "espèce": 2421,
      "terror": 2422,
      "œuvre": 2423,
      "détermin": 2424,
      "14": 2425,
      "cus": 2426,
      "ki": 2427,
      "sh": 2428,
      "vaise": 2429,
      "zones": 2430,
      "dedans": 2431,
      "tiqu": 2432,
      "path": 2433,
      "alu": 2434,
      "sug": 2435,
      "soins": 2436,
      "pire": 2437,
      "séqu": 2438,
      "dites": 2439,
      "finir": 2440,
      "truct": 2441,
      "transformer": 2442,
      "vivons": 2443,
      "mauvaise": 2444,
      "vérit": 2445,
      "visible": 2446,
      "sept": 2447,
      "collègues": 2448,
      "étape": 2449,
      "éloig": 2450,
      "bab": 2451,
      "câ": 2452,
      "nav": 2453,
      "pil": 2454,
      "tures": 2455,
      "ép": 2456,
      "entendre": 2457,
      "lax": 2458,
      "tiers": 2459,
      "défini": 2460,
      "convers": 2461,
      "huit": 2462,
      "péti": 2463,
      "vraie": 2464,
      "thèse": 2465,
      "partage": 2466,
      "décen": 2467,
      "fonctionner": 2468,
      "écoles": 2469,
      "espère": 2470,
      "incroyablement": 2471,
      "langue": 2472,
      "bâtiments": 2473,
      "électricité": 2474,
      "adul": 2475,
      "bour": 2476,
      "has": 2477,
      "ier": 2478,
      "pen": 2479,
      "dessin": 2480,
      "surface": 2481,
      "approche": 2482,
      "extéri": 2483,
      "avantage": 2484,
      "cellule": 2485,
      "continue": 2486,
      "institutions": 2487,
      "biologie": 2488,
      "psycho": 2489,
      "impossible": 2490,
      "extraordinaire": 2491,
      "13": 2492,
      "bous": 2493,
      "fant": 2494,
      "ètre": 2495,
      "appe": 2496,
      "cueil": 2497,
      "marque": 2498,
      "num": 2499,
      "commençons": 2500,
      "clair": 2501,
      "représente": 2502,
      "ayant": 2503,
      "amélior": 2504,
      "fré": 2505,
      "lles": 2506,
      "mos": 2507,
      "nord": 2508,
      "rant": 2509,
      "reç": 2510,
      "isra": 2511,
      "ciens": 2512,
      "diag": 2513,
      "crit": 2514,
      "phil": 2515,
      "puissant": 2516,
      "blanc": 2517,
      "préfé": 2518,
      "venu": 2519,
      "exemples": 2520,
      "froi": 2521,
      "rêve": 2522,
      "génération": 2523,
      "doute": 2524,
      "développé": 2525,
      "connex": 2526,
      "remarqu": 2527,
      "objets": 2528,
      "industri": 2529,
      "acheter": 2530,
      "chinois": 2531,
      "campagne": 2532,
      "belle": 2533,
      "dange": 2534,
      "len": 2535,
      "oti": 2536,
      "xi": 2537,
      "anni": 2538,
      "entend": 2539,
      "avis": 2540,
      "alo": 2541,
      "divers": 2542,
      "ressources": 2543,
      "prote": 2544,
      "coin": 2545,
      "justi": 2546,
      "véhi": 2547,
      "alisation": 2548,
      "infec": 2549,
      "graphie": 2550,
      "domaine": 2551,
      "masse": 2552,
      "profession": 2553,
      "animal": 2554,
      "région": 2555,
      "émotion": 2556,
      "numérique": 2557,
      "insectes": 2558,
      "fe": 2559,
      "ible": 2560,
      "mens": 2561,
      "van": 2562,
      "iso": 2563,
      "desc": 2564,
      "alle": 2565,
      "compar": 2566,
      "éter": 2567,
      "assu": 2568,
      "mid": 2569,
      "croire": 2570,
      "agis": 2571,
      "disant": 2572,
      "cartes": 2573,
      "logique": 2574,
      "gratu": 2575,
      "monter": 2576,
      "transport": 2577,
      "bébé": 2578,
      "second": 2579,
      "orient": 2580,
      "danse": 2581,
      "médecine": 2582,
      "poids": 2583,
      "kilomètres": 2584,
      "bais": 2585,
      "cteurs": 2586,
      "ms": 2587,
      "éra": 2588,
      "etc": 2589,
      "palu": 2590,
      "iller": 2591,
      "itaires": 2592,
      "die": 2593,
      "dipl": 2594,
      "détru": 2595,
      "disposi": 2596,
      "phra": 2597,
      "peine": 2598,
      "anglais": 2599,
      "parties": 2600,
      "the": 2601,
      "empê": 2602,
      "longue": 2603,
      "décla": 2604,
      "collabor": 2605,
      "médias": 2606,
      "suivi": 2607,
      "book": 2608,
      "gouvernements": 2609,
      "innovation": 2610,
      "combin": 2611,
      "directement": 2612,
      "forêt": 2613,
      "caux": 2614,
      "dro": 2615,
      "nants": 2616,
      "vez": 2617,
      "yau": 2618,
      "ander": 2619,
      "prim": 2620,
      "design": 2621,
      "comprend": 2622,
      "dio": 2623,
      "dix": 2624,
      "mat": 2625,
      "exper": 2626,
      "modi": 2627,
      "disons": 2628,
      "disme": 2629,
      "conseil": 2630,
      "angle": 2631,
      "auto": 2632,
      "autor": 2633,
      "primer": 2634,
      "fron": 2635,
      "afric": 2636,
      "écran": 2637,
      "langage": 2638,
      "série": 2639,
      "suivante": 2640,
      "génial": 2641,
      "architecture": 2642,
      "humanité": 2643,
      "hig": 2644,
      "pai": 2645,
      "sti": 2646,
      "sages": 2647,
      "omes": 2648,
      "meu": 2649,
      "rire": 2650,
      "désor": 2651,
      "maj": 2652,
      "asse": 2653,
      "dist": 2654,
      "verse": 2655,
      "utilisons": 2656,
      "courant": 2657,
      "commencent": 2658,
      "galax": 2659,
      "étudier": 2660,
      "appelée": 2661,
      "boî": 2662,
      "facebook": 2663,
      "battre": 2664,
      "réponses": 2665,
      "graphique": 2666,
      "particulièrement": 2667,
      "réfléchis": 2668,
      "payer": 2669,
      "individus": 2670,
      "origine": 2671,
      "terrain": 2672,
      "service": 2673,
      "ryth": 2674,
      "suffis": 2675,
      "littéralement": 2676,
      "bactéri": 2677,
      "paludisme": 2678,
      "16": 2679,
      "bil": 2680,
      "vac": 2681,
      "yp": 2682,
      "entr": 2683,
      "chu": 2684,
      "tran": 2685,
      "compassion": 2686,
      "lien": 2687,
      "acti": 2688,
      "grès": 2689,
      "cris": 2690,
      "dispon": 2691,
      "vieil": 2692,
      "préhen": 2693,
      "pensais": 2694,
      "cerveaux": 2695,
      "changements": 2696,
      "douleur": 2697,
      "clin": 2698,
      "soie": 2699,
      "morts": 2700,
      "organisation": 2701,
      "coûte": 2702,
      "outil": 2703,
      "évident": 2704,
      "choisir": 2705,
      "bâtiment": 2706,
      "tructures": 2707,
      "extérieur": 2708,
      "by": 2709,
      "gh": 2710,
      "gen": 2711,
      "san": 2712,
      "sert": 2713,
      "marcher": 2714,
      "sentir": 2715,
      "effort": 2716,
      "publique": 2717,
      "citoy": 2718,
      "médecin": 2719,
      "répondre": 2720,
      "origin": 2721,
      "services": 2722,
      "règles": 2723,
      "gps": 2724,
      "ira": 2725,
      "joh": 2726,
      "peau": 2727,
      "somme": 2728,
      "ya": 2729,
      "osco": 2730,
      "formé": 2731,
      "apporter": 2732,
      "opie": 2733,
      "prési": 2734,
      "chaî": 2735,
      "faisaient": 2736,
      "ception": 2737,
      "double": 2738,
      "affi": 2739,
      "permettez": 2740,
      "erreurs": 2741,
      "sauver": 2742,
      "vivant": 2743,
      "évalu": 2744,
      "magni": 2745,
      "atteindre": 2746,
      "adoles": 2747,
      "rempla": 2748,
      "chauff": 2749,
      "musée": 2750,
      "victimes": 2751,
      "phénom": 2752,
      "menson": 2753,
      "24": 2754,
      "bord": 2755,
      "caus": 2756,
      "gs": 2757,
      "ole": 2758,
      "soir": 2759,
      "sants": 2760,
      "quoti": 2761,
      "tir": 2762,
      "trom": 2763,
      "phère": 2764,
      "devraient": 2765,
      "perspec": 2766,
      "génie": 2767,
      "vert": 2768,
      "docu": 2769,
      "bran": 2770,
      "occident": 2771,
      "malheureusement": 2772,
      "importantes": 2773,
      "solaire": 2774,
      "gagner": 2775,
      "américains": 2776,
      "opération": 2777,
      "regardons": 2778,
      "pièces": 2779,
      "mathématiques": 2780,
      "multip": 2781,
      "objectif": 2782,
      "souhait": 2783,
      "extrêmement": 2784,
      "fronti": 2785,
      "quotidi": 2786,
      "bro": 2787,
      "dres": 2788,
      "més": 2789,
      "zar": 2790,
      "levé": 2791,
      "nez": 2792,
      "nels": 2793,
      "pourrais": 2794,
      "viens": 2795,
      "amus": 2796,
      "liste": 2797,
      "mark": 2798,
      "adop": 2799,
      "virtu": 2800,
      "prenant": 2801,
      "tradu": 2802,
      "police": 2803,
      "risques": 2804,
      "afghan": 2805,
      "capables": 2806,
      "familles": 2807,
      "charge": 2808,
      "climatique": 2809,
      "mondial": 2810,
      "lancé": 2811,
      "conduire": 2812,
      "élément": 2813,
      "prochaine": 2814,
      "bruit": 2815,
      "prêts": 2816,
      "engage": 2817,
      "moderne": 2818,
      "désormais": 2819,
      "bel": 2820,
      "droits": 2821,
      "fen": 2822,
      "ka": 2823,
      "nait": 2824,
      "pois": 2825,
      "écos": 2826,
      "ël": 2827,
      "dehors": 2828,
      "isé": 2829,
      "arbres": 2830,
      "compréhen": 2831,
      "diminu": 2832,
      "concevoir": 2833,
      "entièrement": 2834,
      "gérer": 2835,
      "soud": 2836,
      "portable": 2837,
      "sciences": 2838,
      "crimin": 2839,
      "devenue": 2840,
      "souris": 2841,
      "électron": 2842,
      "traiter": 2843,
      "professeurs": 2844,
      "ancien": 2845,
      "complexes": 2846,
      "robo": 2847,
      "conception": 2848,
      "panne": 2849,
      "médecins": 2850,
      "membres": 2851,
      "paix": 2852,
      "cents": 2853,
      "camé": 2854,
      "fre": 2855,
      "km": 2856,
      "émer": 2857,
      "esti": 2858,
      "quée": 2859,
      "lam": 2860,
      "teau": 2861,
      "mentale": 2862,
      "ciel": 2863,
      "téris": 2864,
      "ambi": 2865,
      "devoir": 2866,
      "anger": 2867,
      "garder": 2868,
      "financi": 2869,
      "trouvent": 2870,
      "ordre": 2871,
      "minis": 2872,
      "simples": 2873,
      "charbon": 2874,
      "suivant": 2875,
      "toilettes": 2876,
      "marchés": 2877,
      "caractéris": 2878,
      "opportunité": 2879,
      "500": 2880,
      "ctu": 2881,
      "morte": 2882,
      "sen": 2883,
      "tan": 2884,
      "aurais": 2885,
      "inv": 2886,
      "urb": 2887,
      "para": 2888,
      "arr": 2889,
      "cier": 2890,
      "civi": 2891,
      "maî": 2892,
      "mach": 2893,
      "math": 2894,
      "conditions": 2895,
      "exis": 2896,
      "distribu": 2897,
      "conser": 2898,
      "utile": 2899,
      "sépar": 2900,
      "partag": 2901,
      "découvrir": 2902,
      "erreur": 2903,
      "meilleures": 2904,
      "communautés": 2905,
      "étrange": 2906,
      "identifi": 2907,
      "adore": 2908,
      "amener": 2909,
      "neuf": 2910,
      "pauvreté": 2911,
      "ative": 2912,
      "dité": 2913,
      "pont": 2914,
      "trous": 2915,
      "dessous": 2916,
      "arc": 2917,
      "libre": 2918,
      "conclu": 2919,
      "ram": 2920,
      "pén": 2921,
      "court": 2922,
      "pensée": 2923,
      "contac": 2924,
      "sembler": 2925,
      "intéressante": 2926,
      "199": 2927,
      "pleine": 2928,
      "pousser": 2929,
      "regardant": 2930,
      "honn": 2931,
      "morceau": 2932,
      "effectivement": 2933,
      "chanson": 2934,
      "plaisir": 2935,
      "john": 2936,
      "afghanistan": 2937,
      "maths": 2938,
      "ama": 2939,
      "dor": 2940,
      "gre": 2941,
      "gam": 2942,
      "lune": 2943,
      "pent": 2944,
      "ste": 2945,
      "stres": 2946,
      "sites": 2947,
      "encour": 2948,
      "tiens": 2949,
      "inte": 2950,
      "sein": 2951,
      "parlent": 2952,
      "répu": 2953,
      "réser": 2954,
      "apprend": 2955,
      "acte": 2956,
      "activité": 2957,
      "pouvions": 2958,
      "version": 2959,
      "utilisation": 2960,
      "premières": 2961,
      "projets": 2962,
      "facilement": 2963,
      "matériaux": 2964,
      "hypo": 2965,
      "septe": 2966,
      "analy": 2967,
      "chirurgi": 2968,
      "décision": 2969,
      "intérêt": 2970,
      "souviens": 2971,
      "numéro": 2972,
      "protection": 2973,
      "gres": 2974,
      "jap": 2975,
      "my": 2976,
      "stra": 2977,
      "ut": 2978,
      "âgées": 2979,
      "évé": 2980,
      "demain": 2981,
      "illé": 2982,
      "chris": 2983,
      "allais": 2984,
      "départ": 2985,
      "concent": 2986,
      "contribu": 2987,
      "attr": 2988,
      "colon": 2989,
      "soli": 2990,
      "formid": 2991,
      "seuls": 2992,
      "logici": 2993,
      "sociale": 2994,
      "occa": 2995,
      "période": 2996,
      "malgré": 2997,
      "essayons": 2998,
      "élevé": 2999,
      "vidéos": 3000,
      "augmenter": 3001,
      "effets": 3002,
      "profonde": 3003,
      "village": 3004,
      "communication": 3005,
      "artiste": 3006,
      "religion": 3007,
      "volont": 3008,
      "preuve": 3009,
      "diagnos": 3010,
      "majorité": 3011,
      "septembre": 3012,
      "ader": 3013,
      "bés": 3014,
      "dra": 3015,
      "her": 3016,
      "ieux": 3017,
      "land": 3018,
      "ption": 3019,
      "vés": 3020,
      "zéro": 3021,
      "élè": 3022,
      "envers": 3023,
      "ande": 3024,
      "tiré": 3025,
      "pat": 3026,
      "intes": 3027,
      "alie": 3028,
      "euses": 3029,
      "lieux": 3030,
      "osoph": 3031,
      "provo": 3032,
      "donnent": 3033,
      "agne": 3034,
      "entière": 3035,
      "voient": 3036,
      "courir": 3037,
      "venue": 3038,
      "importants": 3039,
      "croyez": 3040,
      "attendre": 3041,
      "revenus": 3042,
      "enseigner": 3043,
      "nelles": 3044,
      "américain": 3045,
      "concept": 3046,
      "protéger": 3047,
      "chiffre": 3048,
      "occuper": 3049,
      "envoyer": 3050,
      "nécessaire": 3051,
      "rappelle": 3052,
      "bureau": 3053,
      "philosoph": 3054,
      "japon": 3055,
      "amp": 3056,
      "blé": 3057,
      "fav": 3058,
      "gou": 3059,
      "ibles": 3060,
      "ident": 3061,
      "sances": 3062,
      "vin": 3063,
      "vant": 3064,
      "uré": 3065,
      "révé": 3066,
      "vieux": 3067,
      "conque": 3068,
      "contexte": 3069,
      "perfor": 3070,
      "brev": 3071,
      "histor": 3072,
      "appelons": 3073,
      "échanti": 3074,
      "mortalité": 3075,
      "remarqué": 3076,
      "américaine": 3077,
      "allée": 3078,
      "statis": 3079,
      "radio": 3080,
      "signal": 3081,
      "consommation": 3082,
      "méthode": 3083,
      "épidémie": 3084,
      "nano": 3085,
      "hasard": 3086,
      "boîte": 3087,
      "machines": 3088,
      "échantil": 3089,
      "brés": 3090,
      "dg": 3091,
      "dence": 3092,
      "fallait": 3093,
      "nar": 3094,
      "ox": 3095,
      "rentrer": 3096,
      "vaut": 3097,
      "yer": 3098,
      "ût": 3099,
      "ouais": 3100,
      "trique": 3101,
      "parten": 3102,
      "ouvre": 3103,
      "mation": 3104,
      "conçu": 3105,
      "cog": 3106,
      "mande": 3107,
      "manque": 3108,
      "garçon": 3109,
      "immédia": 3110,
      "cherch": 3111,
      "ador": 3112,
      "bébés": 3113,
      "cali": 3114,
      "mena": 3115,
      "résist": 3116,
      "rues": 3117,
      "secondes": 3118,
      "chacune": 3119,
      "solutions": 3120,
      "tableau": 3121,
      "actuellement": 3122,
      "arrivée": 3123,
      "envoyé": 3124,
      "concernant": 3125,
      "commerci": 3126,
      "merveilleux": 3127,
      "soyez": 3128,
      "rythme": 3129,
      "écosyst": 3130,
      "dar": 3131,
      "dos": 3132,
      "fos": 3133,
      "icul": 3134,
      "ppe": 3135,
      "stre": 3136,
      "vendre": 3137,
      "ôme": 3138,
      "enci": 3139,
      "erie": 3140,
      "chaus": 3141,
      "dialo": 3142,
      "tées": 3143,
      "excel": 3144,
      "acces": 3145,
      "accélé": 3146,
      "oiseaux": 3147,
      "lot": 3148,
      "disaient": 3149,
      "instru": 3150,
      "camp": 3151,
      "permis": 3152,
      "chef": 3153,
      "puisque": 3154,
      "compét": 3155,
      "prépar": 3156,
      "voulaient": 3157,
      "plant": 3158,
      "musi": 3159,
      "aliser": 3160,
      "ock": 3161,
      "front": 3162,
      "mené": 3163,
      "affaires": 3164,
      "trucs": 3165,
      "médicament": 3166,
      "noirs": 3167,
      "compagnie": 3168,
      "détails": 3169,
      "génome": 3170,
      "assurer": 3171,
      "distance": 3172,
      "ak": 3173,
      "din": 3174,
      "jam": 3175,
      "join": 3176,
      "wi": 3177,
      "ére": 3178,
      "épar": 3179,
      "quête": 3180,
      "unités": 3181,
      "intro": 3182,
      "cien": 3183,
      "régu": 3184,
      "concentre": 3185,
      "procé": 3186,
      "sures": 3187,
      "abs": 3188,
      "tube": 3189,
      "iran": 3190,
      "seraient": 3191,
      "pique": 3192,
      "opti": 3193,
      "céré": 3194,
      "vations": 3195,
      "nombres": 3196,
      "présenter": 3197,
      "tourner": 3198,
      "connect": 3199,
      "enseignants": 3200,
      "certainement": 3201,
      "sombre": 3202,
      "technique": 3203,
      "cacité": 3204,
      "300": 3205,
      "mou": 3206,
      "tor": 3207,
      "zon": 3208,
      "zaines": 3209,
      "qués": 3210,
      "aigu": 3211,
      "ettes": 3212,
      "las": 3213,
      "tration": 3214,
      "dig": 3215,
      "déplace": 3216,
      "vier": 3217,
      "moteur": 3218,
      "miques": 3219,
      "bizar": 3220,
      "lément": 3221,
      "devais": 3222,
      "obes": 3223,
      "célè": 3224,
      "gars": 3225,
      "tempéra": 3226,
      "poss": 3227,
      "boule": 3228,
      "normal": 3229,
      "stock": 3230,
      "expériment": 3231,
      "affir": 3232,
      "famili": 3233,
      "restau": 3234,
      "principe": 3235,
      "répondu": 3236,
      "prêt": 3237,
      "pied": 3238,
      "appareil": 3239,
      "symbo": 3240,
      "contenu": 3241,
      "employés": 3242,
      "fantas": 3243,
      "élèves": 3244,
      "grés": 3245,
      "noire": 3246,
      "nami": 3247,
      "sés": 3248,
      "vag": 3249,
      "wit": 3250,
      "ètes": 3251,
      "entour": 3252,
      "labo": 3253,
      "lesquelles": 3254,
      "iné": 3255,
      "inclu": 3256,
      "aviez": 3257,
      "jeux": 3258,
      "diction": 3259,
      "rat": 3260,
      "supéri": 3261,
      "voler": 3262,
      "mite": 3263,
      "fié": 3264,
      "mars": 3265,
      "minus": 3266,
      "ther": 3267,
      "différences": 3268,
      "missions": 3269,
      "colère": 3270,
      "souvenir": 3271,
      "sty": 3272,
      "étudiant": 3273,
      "calcu": 3274,
      "clairement": 3275,
      "particules": 3276,
      "lancer": 3277,
      "minute": 3278,
      "semblent": 3279,
      "anciens": 3280,
      "offre": 3281,
      "identi": 3282,
      "intelligent": 3283,
      "concerne": 3284,
      "fabriquer": 3285,
      "molécules": 3286,
      "contrôler": 3287,
      "explor": 3288,
      "océan": 3289,
      "élimin": 3290,
      "quartier": 3291,
      "appeler": 3292,
      "justice": 3293,
      "higgs": 3294,
      "straté": 3295,
      "occasion": 3296,
      "bit": 3297,
      "fallu": 3298,
      "los": 3299,
      "sée": 3300,
      "sable": 3301,
      "éri": 3302,
      "leader": 3303,
      "reconnais": 3304,
      "tiennent": 3305,
      "trac": 3306,
      "siez": 3307,
      "park": 3308,
      "pourcent": 3309,
      "récomp": 3310,
      "dée": 3311,
      "maje": 3312,
      "respec": 3313,
      "appréci": 3314,
      "expression": 3315,
      "excit": 3316,
      "activ": 3317,
      "mobi": 3318,
      "amène": 3319,
      "forte": 3320,
      "mémoi": 3321,
      "préf": 3322,
      "correc": 3323,
      "manières": 3324,
      "économies": 3325,
      "fonctionnent": 3326,
      "infras": 3327,
      "échou": 3328,
      "lettres": 3329,
      "essaie": 3330,
      "incroyables": 3331,
      "revenu": 3332,
      "éviter": 3333,
      "profond": 3334,
      "valent": 3335,
      "essentiellement": 3336,
      "microbes": 3337,
      "détec": 3338,
      "dimensions": 3339,
      "conversation": 3340,
      "perspective": 3341,
      "gés": 3342,
      "pér": 3343,
      "toc": 3344,
      "éti": 3345,
      "esse": 3346,
      "isant": 3347,
      "avance": 3348,
      "orté": 3349,
      "rivi": 3350,
      "résu": 3351,
      "réaction": 3352,
      "viend": 3353,
      "progrès": 3354,
      "survivre": 3355,
      "peuple": 3356,
      "accident": 3357,
      "pul": 3358,
      "distin": 3359,
      "perte": 3360,
      "entrepren": 3361,
      "entions": 3362,
      "opin": 3363,
      "cées": 3364,
      "immeu": 3365,
      "logie": 3366,
      "voulions": 3367,
      "pressions": 3368,
      "laissé": 3369,
      "augmente": 3370,
      "observer": 3371,
      "comportements": 3372,
      "doig": 3373,
      "quitter": 3374,
      "créativité": 3375,
      "journalis": 3376,
      "morceaux": 3377,
      "ressemblent": 3378,
      "capital": 3379,
      "naissance": 3380,
      "sexu": 3381,
      "découverte": 3382,
      "immédiatement": 3383,
      "dest": 3384,
      "danger": 3385,
      "hous": 3386,
      "jan": 3387,
      "lité": 3388,
      "mères": 3389,
      "pair": 3390,
      "vons": 3391,
      "aiment": 3392,
      "lages": 3393,
      "sexe": 3394,
      "cham": 3395,
      "parfait": 3396,
      "passait": 3397,
      "dure": 3398,
      "liens": 3399,
      "osité": 3400,
      "proches": 3401,
      "apo": 3402,
      "apprennent": 3403,
      "ates": 3404,
      "mange": 3405,
      "instal": 3406,
      "cami": 3407,
      "utiles": 3408,
      "venait": 3409,
      "venant": 3410,
      "arrivent": 3411,
      "ouverture": 3412,
      "transpar": 3413,
      "bouil": 3414,
      "ocy": 3415,
      "contraire": 3416,
      "fusion": 3417,
      "économiques": 3418,
      "humaines": 3419,
      "étudié": 3420,
      "échec": 3421,
      "durée": 3422,
      "national": 3423,
      "équili": 3424,
      "écouter": 3425,
      "efficacité": 3426,
      "protéines": 3427,
      "alimentaire": 3428,
      "potentiel": 3429,
      "étoiles": 3430,
      "araignée": 3431,
      "véritable": 3432,
      "décennies": 3433,
      "président": 3434,
      "caméra": 3435,
      "stress": 3436,
      "cogni": 3437,
      "optimis": 3438,
      "asie": 3439,
      "cence": 3440,
      "gies": 3441,
      "lâ": 3442,
      "lés": 3443,
      "naire": 3444,
      "structures": 3445,
      "ésie": 3446,
      "deau": 3447,
      "auront": 3448,
      "itation": 3449,
      "aison": 3450,
      "eusement": 3451,
      "civil": 3452,
      "réci": 3453,
      "déses": 3454,
      "liés": 3455,
      "exer": 3456,
      "astro": 3457,
      "bleu": 3458,
      "discus": 3459,
      "fication": 3460,
      "difficul": 3461,
      "cardia": 3462,
      "final": 3463,
      "utilisée": 3464,
      "bonheur": 3465,
      "travaillent": 3466,
      "interpr": 3467,
      "véri": 3468,
      "faisais": 3469,
      "critique": 3470,
      "devenus": 3471,
      "essence": 3472,
      "mesurer": 3473,
      "spécialis": 3474,
      "atteint": 3475,
      "robot": 3476,
      "ajouter": 3477,
      "responsable": 3478,
      "responsabilité": 3479,
      "techniques": 3480,
      "glace": 3481,
      "chirurgie": 3482,
      "évolué": 3483,
      "compréhension": 3484,
      "robots": 3485,
      "formidable": 3486,
      "mémoire": 3487,
      "21": 3488,
      "bos": 3489,
      "cés": 3490,
      "centi": 3491,
      "joie": 3492,
      "ken": 3493,
      "mit": 3494,
      "roi": 3495,
      "spect": 3496,
      "you": 3497,
      "ingénie": 3498,
      "simu": 3499,
      "armée": 3500,
      "lut": 3501,
      "passent": 3502,
      "récu": 3503,
      "dép": 3504,
      "dément": 3505,
      "vide": 3506,
      "maisons": 3507,
      "conç": 3508,
      "rage": 3509,
      "aspect": 3510,
      "forces": 3511,
      "servir": 3512,
      "couche": 3513,
      "couleurs": 3514,
      "discours": 3515,
      "cales": 3516,
      "cadre": 3517,
      "mille": 3518,
      "autrement": 3519,
      "mini": 3520,
      "enfance": 3521,
      "tissus": 3522,
      "génétique": 3523,
      "expan": 3524,
      "souven": 3525,
      "espér": 3526,
      "permettent": 3527,
      "salles": 3528,
      "difficiles": 3529,
      "tomber": 3530,
      "enseignement": 3531,
      "tester": 3532,
      "classique": 3533,
      "sérieux": 3534,
      "forêts": 3535,
      "silence": 3536,
      "fournir": 3537,
      "établir": 3538,
      "fréqu": 3539,
      "vaccin": 3540,
      "identité": 3541,
      "tocine": 3542,
      "destru": 3543,
      "ocytocine": 3544,
      "spectac": 3545,
      "bom": 3546,
      "ed": 3547,
      "mant": 3548,
      "sque": 3549,
      "xique": 3550,
      "œil": 3551,
      "dement": 3552,
      "annon": 3553,
      "tire": 3554,
      "tein": 3555,
      "sif": 3556,
      "algor": 3557,
      "combat": 3558,
      "riques": 3559,
      "dicap": 3560,
      "dépression": 3561,
      "progres": 3562,
      "touch": 3563,
      "appu": 3564,
      "usine": 3565,
      "tué": 3566,
      "discu": 3567,
      "pérer": 3568,
      "mettez": 3569,
      "royau": 3570,
      "lignes": 3571,
      "transformation": 3572,
      "demandez": 3573,
      "manif": 3574,
      "moments": 3575,
      "vul": 3576,
      "informatique": 3577,
      "routes": 3578,
      "connaissances": 3579,
      "fera": 3580,
      "durable": 3581,
      "faitement": 3582,
      "sauf": 3583,
      "secret": 3584,
      "conduit": 3585,
      "écriture": 3586,
      "handicap": 3587,
      "matériel": 3588,
      "institution": 3589,
      "artistes": 3590,
      "inventé": 3591,
      "microsco": 3592,
      "conséquences": 3593,
      "dimension": 3594,
      "physiques": 3595,
      "remarquable": 3596,
      "chaîne": 3597,
      "magnifique": 3598,
      "réputation": 3599,
      "diagnosti": 3600,
      "califor": 3601,
      "algorith": 3602,
      "adé": 3603,
      "bang": 3604,
      "fur": 3605,
      "lance": 3606,
      "lits": 3607,
      "mâ": 3608,
      "murs": 3609,
      "oit": 3610,
      "pom": 3611,
      "tait": 3612,
      "zo": 3613,
      "èque": 3614,
      "écl": 3615,
      "émissions": 3616,
      "ît": 3617,
      "quées": 3618,
      "rela": 3619,
      "reconnaître": 3620,
      "ert": 3621,
      "eting": 3622,
      "ingéni": 3623,
      "parc": 3624,
      "parfaitement": 3625,
      "étend": 3626,
      "divis": 3627,
      "déli": 3628,
      "suici": 3629,
      "volu": 3630,
      "notes": 3631,
      "manu": 3632,
      "érences": 3633,
      "vement": 3634,
      "différe": 3635,
      "précé": 3636,
      "laisse": 3637,
      "plate": 3638,
      "brou": 3639,
      "changent": 3640,
      "espaces": 3641,
      "domaines": 3642,
      "gagné": 3643,
      "artifici": 3644,
      "choisi": 3645,
      "mauvaises": 3646,
      "possibilités": 3647,
      "avancer": 3648,
      "appareils": 3649,
      "horri": 3650,
      "moustiques": 3651,
      "initi": 3652,
      "pétition": 3653,
      "adultes": 3654,
      "israël": 3655,
      "galaxies": 3656,
      "royaume": 3657,
      "différemment": 3658,
      "bale": 3659,
      "davantage": 3660,
      "faus": 3661,
      "gée": 3662,
      "hom": 3663,
      "olo": 3664,
      "oins": 3665,
      "scol": 3666,
      "sms": 3667,
      "vend": 3668,
      "ennes": 3669,
      "quis": 3670,
      "anima": 3671,
      "ara": 3672,
      "riche": 3673,
      "réuni": 3674,
      "débat": 3675,
      "surve": 3676,
      "cool": 3677,
      "mir": 3678,
      "andis": 3679,
      "ford": 3680,
      "coupe": 3681,
      "phone": 3682,
      "lissement": 3683,
      "austr": 3684,
      "mettent": 3685,
      "emb": 3686,
      "besoins": 3687,
      "ada": 3688,
      "rencontre": 3689,
      "présente": 3690,
      "connaissent": 3691,
      "côte": 3692,
      "198": 3693,
      "pects": 3694,
      "quasi": 3695,
      "lette": 3696,
      "jui": 3697,
      "secteur": 3698,
      "sortie": 3699,
      "coûts": 3700,
      "donnez": 3701,
      "remarque": 3702,
      "retourner": 3703,
      "supp": 3704,
      "ralent": 3705,
      "profondément": 3706,
      "application": 3707,
      "précisément": 3708,
      "souhai": 3709,
      "enregistre": 3710,
      "rappeler": 3711,
      "haute": 3712,
      "influen": 3713,
      "terrorisme": 3714,
      "connexion": 3715,
      "bactéries": 3716,
      "phénomène": 3717,
      "document": 3718,
      "compétences": 3719,
      "dons": 3720,
      "dav": 3721,
      "fête": 3722,
      "hol": 3723,
      "jal": 3724,
      "nage": 3725,
      "oeu": 3726,
      "vrais": 3727,
      "wo": 3728,
      "échange": 3729,
      "pages": 3730,
      "sibles": 3731,
      "oivent": 3732,
      "dirais": 3733,
      "dizaines": 3734,
      "déso": 3735,
      "lié": 3736,
      "lique": 3737,
      "pluie": 3738,
      "rateur": 3739,
      "toucher": 3740,
      "surprenant": 3741,
      "coca": 3742,
      "pha": 3743,
      "compter": 3744,
      "verrez": 3745,
      "valeurs": 3746,
      "emploi": 3747,
      "décrire": 3748,
      "alités": 3749,
      "culaire": 3750,
      "produisent": 3751,
      "intéresse": 3752,
      "connaissons": 3753,
      "affaire": 3754,
      "élections": 3755,
      "côtés": 3756,
      "2008": 3757,
      "cyber": 3758,
      "intéressantes": 3759,
      "actuel": 3760,
      "intelligence": 3761,
      "troubles": 3762,
      "communiquer": 3763,
      "pieds": 3764,
      "dynami": 3765,
      "ressemblait": 3766,
      "faute": 3767,
      "dirigeants": 3768,
      "déplacer": 3769,
      "automa": 3770,
      "désir": 3771,
      "similaire": 3772,
      "gratuite": 3773,
      "entropie": 3774,
      "mensonge": 3775,
      "gâ": 3776,
      "gon": 3777,
      "ias": 3778,
      "jard": 3779,
      "loir": 3780,
      "ny": 3781,
      "py": 3782,
      "sp": 3783,
      "tur": 3784,
      "twit": 3785,
      "zz": 3786,
      "aim": 3787,
      "leçon": 3788,
      "lecture": 3789,
      "isons": 3790,
      "auraient": 3791,
      "aissent": 3792,
      "armes": 3793,
      "comprennent": 3794,
      "passage": 3795,
      "étaire": 3796,
      "récent": 3797,
      "viande": 3798,
      "condition": 3799,
      "messages": 3800,
      "atmos": 3801,
      "big": 3802,
      "lées": 3803,
      "certitude": 3804,
      "fiques": 3805,
      "perman": 3806,
      "tempor": 3807,
      "carbur": 3808,
      "versaire": 3809,
      "courbe": 3810,
      "sembla": 3811,
      "tels": 3812,
      "connus": 3813,
      "essaye": 3814,
      "ferme": 3815,
      "gestion": 3816,
      "électrique": 3817,
      "clients": 3818,
      "article": 3819,
      "écoute": 3820,
      "principale": 3821,
      "religions": 3822,
      "décisions": 3823,
      "agriculture": 3824,
      "aveugle": 3825,
      "câble": 3826,
      "dangereux": 3827,
      "véhicule": 3828,
      "phrase": 3829,
      "citoyens": 3830,
      "marketing": 3831,
      "brésil": 3832,
      "excellent": 3833,
      "chambre": 3834,
      "expansion": 3835,
      "californie": 3836,
      "bois": 3837,
      "den": 3838,
      "fl": 3839,
      "hou": 3840,
      "jac": 3841,
      "naires": 3842,
      "saient": 3843,
      "tère": 3844,
      "tort": 3845,
      "çant": 3846,
      "évent": 3847,
      "écar": 3848,
      "écla": 3849,
      "envie": 3850,
      "aidé": 3851,
      "anz": 3852,
      "chances": 3853,
      "oient": 3854,
      "trem": 3855,
      "dirait": 3856,
      "rési": 3857,
      "liées": 3858,
      "sure": 3859,
      "vole": 3860,
      "donnée": 3861,
      "ash": 3862,
      "aspects": 3863,
      "fig": 3864,
      "fix": 3865,
      "beauté": 3866,
      "auton": 3867,
      "gué": 3868,
      "verre": 3869,
      "mettons": 3870,
      "noms": 3871,
      "intég": 3872,
      "découv": 3873,
      "allés": 3874,
      "brû": 3875,
      "bouche": 3876,
      "faibles": 3877,
      "symp": 3878,
      "tombe": 3879,
      "semblait": 3880,
      "explique": 3881,
      "publics": 3882,
      "augmentation": 3883,
      "défis": 3884,
      "précision": 3885,
      "réduire": 3886,
      "rayon": 3887,
      "molécule": 3888,
      "émotions": 3889,
      "silenci": 3890,
      "participer": 3891,
      "signaux": 3892,
      "aveugles": 3893,
      "chercheurs": 3894,
      "tâche": 3895,
      "définition": 3896,
      "stimu": 3897,
      "engagement": 3898,
      "statistiques": 3899,
      "introdu": 3900,
      "rivière": 3901,
      "twitter": 3902,
      "bra": 3903,
      "eg": 3904,
      "ela": 3905,
      "ham": 3906,
      "mine": 3907,
      "sain": 3908,
      "wat": 3909,
      "ley": 3910,
      "retrouver": 3911,
      "remerci": 3912,
      "reconstruire": 3913,
      "indépend": 3914,
      "urg": 3915,
      "chons": 3916,
      "limite": 3917,
      "maman": 3918,
      "tégor": 3919,
      "mesur": 3920,
      "ath": 3921,
      "assur": 3922,
      "astron": 3923,
      "moindre": 3924,
      "catégor": 3925,
      "tension": 3926,
      "devrais": 3927,
      "pein": 3928,
      "satis": 3929,
      "consta": 3930,
      "nerveux": 3931,
      "obs": 3932,
      "carrière": 3933,
      "nutri": 3934,
      "pensait": 3935,
      "soutien": 3936,
      "adres": 3937,
      "adminis": 3938,
      "prenait": 3939,
      "effray": 3940,
      "cultures": 3941,
      "tissu": 3942,
      "rencont": 3943,
      "chimie": 3944,
      "canada": 3945,
      "imagination": 3946,
      "développ": 3947,
      "éduca": 3948,
      "haï": 3949,
      "énormes": 3950,
      "spécifique": 3951,
      "ayons": 3952,
      "répond": 3953,
      "honte": 3954,
      "visibles": 3955,
      "considérer": 3956,
      "catastro": 3957,
      "inventer": 3958,
      "limité": 3959,
      "grippe": 3960,
      "modernes": 3961,
      "journal": 3962,
      "cruci": 3963,
      "richesse": 3964,
      "internationale": 3965,
      "hypothèse": 3966,
      "logiciel": 3967,
      "historique": 3968,
      "concentrer": 3969,
      "catastroph": 3970,
      "bor": 3971,
      "ball": 3972,
      "eins": 3973,
      "gère": 3974,
      "savait": 3975,
      "uil": 3976,
      "vage": 3977,
      "xim": 3978,
      "quet": 3979,
      "degrés": 3980,
      "enthous": 3981,
      "lesquels": 3982,
      "urban": 3983,
      "chets": 3984,
      "prouver": 3985,
      "avion": 3986,
      "sida": 3987,
      "touche": 3988,
      "enses": 3989,
      "exprimer": 3990,
      "puce": 3991,
      "notion": 3992,
      "pib": 3993,
      "europé": 3994,
      "intervention": 3995,
      "vées": 3996,
      "sociales": 3997,
      "presse": 3998,
      "renouv": 3999,
      "ciné": 4000,
      "premièrement": 4001,
      "joue": 4002,
      "connaissez": 4003,
      "énergé": 4004,
      "lettre": 4005,
      "grosse": 4006,
      "continué": 4007,
      "traits": 4008,
      "revenons": 4009,
      "langues": 4010,
      "cyrus": 4011,
      "programmes": 4012,
      "assist": 4013,
      "attaque": 4014,
      "capacités": 4015,
      "matériau": 4016,
      "hôpitaux": 4017,
      "limites": 4018,
      "architec": 4019,
      "obtenez": 4020,
      "mécanique": 4021,
      "montrent": 4022,
      "flux": 4023,
      "diversité": 4024,
      "dispositif": 4025,
      "civile": 4026,
      "contact": 4027,
      "température": 4028,
      "supplément": 4029,
      "dynamique": 4030,
      "atmosphère": 4031,
      "einstein": 4032,
      "enthousias": 4033,
      "2000": 4034,
      "75": 4035,
      "hh": 4036,
      "oth": 4037,
      "pâ": 4038,
      "tap": 4039,
      "ôtre": 4040,
      "degré": 4041,
      "chés": 4042,
      "mexique": 4043,
      "paris": 4044,
      "arme": 4045,
      "alter": 4046,
      "étendu": 4047,
      "rier": 4048,
      "réelle": 4049,
      "régi": 4050,
      "vict": 4051,
      "biens": 4052,
      "cumu": 4053,
      "forcé": 4054,
      "agissent": 4055,
      "tence": 4056,
      "oblig": 4057,
      "finance": 4058,
      "trouvons": 4059,
      "commentaires": 4060,
      "maintenir": 4061,
      "voulu": 4062,
      "plantes": 4063,
      "bulle": 4064,
      "budg": 4065,
      "personnelle": 4066,
      "brit": 4067,
      "primé": 4068,
      "bouger": 4069,
      "tourne": 4070,
      "essayez": 4071,
      "stand": 4072,
      "organes": 4073,
      "tonnes": 4074,
      "arrête": 4075,
      "photograph": 4076,
      "organisations": 4077,
      "ologie": 4078,
      "équivalent": 4079,
      "métap": 4080,
      "ressembler": 4081,
      "prochain": 4082,
      "lycée": 4083,
      "fondation": 4084,
      "films": 4085,
      "habitude": 4086,
      "obtenu": 4087,
      "constamment": 4088,
      "influence": 4089,
      "héros": 4090,
      "violent": 4091,
      "navi": 4092,
      "disponibles": 4093,
      "frontière": 4094,
      "kenya": 4095,
      "axe": 4096,
      "ements": 4097,
      "hos": 4098,
      "mène": 4099,
      "sit": 4100,
      "sco": 4101,
      "scul": 4102,
      "spati": 4103,
      "çais": 4104,
      "ège": 4105,
      "échang": 4106,
      "quons": 4107,
      "rejet": 4108,
      "revient": 4109,
      "reuses": 4110,
      "reuse": 4111,
      "issant": 4112,
      "issons": 4113,
      "intitu": 4114,
      "chas": 4115,
      "chron": 4116,
      "avi": 4117,
      "mention": 4118,
      "pourrons": 4119,
      "lutte": 4120,
      "passant": 4121,
      "cible": 4122,
      "réparer": 4123,
      "débu": 4124,
      "décrit": 4125,
      "lib": 4126,
      "vote": 4127,
      "atom": 4128,
      "abond": 4129,
      "accé": 4130,
      "accueil": 4131,
      "èses": 4132,
      "lose": 4133,
      "croient": 4134,
      "lise": 4135,
      "apport": 4136,
      "puissent": 4137,
      "puissante": 4138,
      "garde": 4139,
      "verti": 4140,
      "pensaient": 4141,
      "universe": 4142,
      "trafi": 4143,
      "préser": 4144,
      "contrairement": 4145,
      "derniers": 4146,
      "vues": 4147,
      "attent": 4148,
      "attenti": 4149,
      "génér": 4150,
      "batter": 4151,
      "conflits": 4152,
      "domin": 4153,
      "cycle": 4154,
      "tests": 4155,
      "populaire": 4156,
      "totale": 4157,
      "ayez": 4158,
      "actuelle": 4159,
      "efficaces": 4160,
      "sympa": 4161,
      "terminer": 4162,
      "grandir": 4163,
      "sivement": 4164,
      "stupi": 4165,
      "attendu": 4166,
      "attendez": 4167,
      "déterminer": 4168,
      "froid": 4169,
      "anniversaire": 4170,
      "descend": 4171,
      "transi": 4172,
      "menace": 4173,
      "bizarre": 4174,
      "leaders": 4175,
      "civilisation": 4176,
      "are": 4177,
      "cens": 4178,
      "cine": 4179,
      "frap": 4180,
      "gner": 4181,
      "pture": 4182,
      "rang": 4183,
      "vacc": 4184,
      "ype": 4185,
      "ze": 4186,
      "ômes": 4187,
      "ong": 4188,
      "ony": 4189,
      "onie": 4190,
      "enten": 4191,
      "ousie": 4192,
      "tier": 4193,
      "auquel": 4194,
      "auteur": 4195,
      "aurions": 4196,
      "invisible": 4197,
      "section": 4198,
      "pru": 4199,
      "pron": 4200,
      "rich": 4201,
      "résolu": 4202,
      "mam": 4203,
      "protot": 4204,
      "subi": 4205,
      "monte": 4206,
      "accro": 4207,
      "néra": 4208,
      "cola": 4209,
      "migr": 4210,
      "bibli": 4211,
      "andre": 4212,
      "soph": 4213,
      "agré": 4214,
      "perdre": 4215,
      "direct": 4216,
      "utilisez": 4217,
      "utilisés": 4218,
      "ortex": 4219,
      "nouvel": 4220,
      "londres": 4221,
      "visite": 4222,
      "interro": 4223,
      "interagir": 4224,
      "intégr": 4225,
      "gration": 4226,
      "corresp": 4227,
      "placer": 4228,
      "telles": 4229,
      "boute": 4230,
      "lentement": 4231,
      "chimiques": 4232,
      "norm": 4233,
      "sûrement": 4234,
      "rouges": 4235,
      "infir": 4236,
      "portée": 4237,
      "nellement": 4238,
      "organiser": 4239,
      "rendent": 4240,
      "fasse": 4241,
      "oreilles": 4242,
      "essentiel": 4243,
      "grave": 4244,
      "vaste": 4245,
      "rappel": 4246,
      "terrible": 4247,
      "compliqué": 4248,
      "roman": 4249,
      "convaincre": 4250,
      "ignorance": 4251,
      "mourir": 4252,
      "étoile": 4253,
      "agissait": 4254,
      "empêcher": 4255,
      "poisson": 4256,
      "maîtr": 4257,
      "identifier": 4258,
      "intestin": 4259,
      "performan": 4260,
      "célèbre": 4261,
      "possède": 4262,
      "équilibre": 4263,
      "youtube": 4264,
      "destruction": 4265,
      "vulnéra": 4266,
      "jalousie": 4267,
      "vaccins": 4268,
      "150": 4269,
      "400": 4270,
      "ate": 4271,
      "clo": 4272,
      "dats": 4273,
      "fleur": 4274,
      "flè": 4275,
      "ition": 4276,
      "of": 4277,
      "pin": 4278,
      "sœur": 4279,
      "tandis": 4280,
      "win": 4281,
      "èle": 4282,
      "éte": 4283,
      "essais": 4284,
      "ouest": 4285,
      "debout": 4286,
      "retrouve": 4287,
      "retraite": 4288,
      "refus": 4289,
      "eté": 4290,
      "auriez": 4291,
      "prouv": 4292,
      "prima": 4293,
      "trau": 4294,
      "cides": 4295,
      "quiconque": 4296,
      "réve": 4297,
      "récol": 4298,
      "conte": 4299,
      "confront": 4300,
      "surpris": 4301,
      "abor": 4302,
      "mira": 4303,
      "forment": 4304,
      "fibres": 4305,
      "instruc": 4306,
      "café": 4307,
      "devriez": 4308,
      "perd": 4309,
      "verte": 4310,
      "chaleur": 4311,
      "allaient": 4312,
      "connait": 4313,
      "fru": 4314,
      "généralement": 4315,
      "2010": 4316,
      "goût": 4317,
      "juge": 4318,
      "représentent": 4319,
      "principes": 4320,
      "magne": 4321,
      "éléph": 4322,
      "applications": 4323,
      "prochaines": 4324,
      "deuxièmement": 4325,
      "pratiques": 4326,
      "explorer": 4327,
      "nécessaires": 4328,
      "compagnies": 4329,
      "accepter": 4330,
      "oublié": 4331,
      "électriques": 4332,
      "visuel": 4333,
      "inspiration": 4334,
      "commerce": 4335,
      "preuves": 4336,
      "explos": 4337,
      "normalement": 4338,
      "pathie": 4339,
      "amélioration": 4340,
      "allemagne": 4341,
      "suffisamment": 4342,
      "activis": 4343,
      "multiples": 4344,
      "chaussures": 4345,
      "fantastique": 4346,
      "correctement": 4347,
      "pairs": 4348,
      "cardiaque": 4349,
      "britanni": 4350,
      "45": 4351,
      "caire": 4352,
      "dî": 4353,
      "dat": 4354,
      "fleurs": 4355,
      "foc": 4356,
      "lour": 4357,
      "mm": 4358,
      "mètre": 4359,
      "naient": 4360,
      "ss": 4361,
      "tar": 4362,
      "wk": 4363,
      "ennu": 4364,
      "rem": 4365,
      "anony": 4366,
      "eri": 4367,
      "lac": 4368,
      "tible": 4369,
      "ticiens": 4370,
      "isez": 4371,
      "serez": 4372,
      "chat": 4373,
      "membre": 4374,
      "diapo": 4375,
      "récon": 4376,
      "ramener": 4377,
      "respi": 4378,
      "atur": 4379,
      "absor": 4380,
      "acteur": 4381,
      "négo": 4382,
      "co2": 4383,
      "copi": 4384,
      "tumeur": 4385,
      "poésie": 4386,
      "soin": 4387,
      "tenu": 4388,
      "cheveux": 4389,
      "mén": 4390,
      "complet": 4391,
      "séle": 4392,
      "gén": 4393,
      "trouvez": 4394,
      "mets": 4395,
      "tiquement": 4396,
      "bonjour": 4397,
      "regardent": 4398,
      "content": 4399,
      "brill": 4400,
      "avantages": 4401,
      "privil": 4402,
      "privée": 4403,
      "contrain": 4404,
      "signe": 4405,
      "color": 4406,
      "rêves": 4407,
      "chien": 4408,
      "croyons": 4409,
      "fonctionnement": 4410,
      "date": 4411,
      "possibles": 4412,
      "arrêté": 4413,
      "climat": 4414,
      "conférences": 4415,
      "organismes": 4416,
      "nationale": 4417,
      "magas": 4418,
      "attaquer": 4419,
      "club": 4420,
      "mariage": 4421,
      "téléphones": 4422,
      "œuvres": 4423,
      "investir": 4424,
      "naturellement": 4425,
      "principalement": 4426,
      "mouvements": 4427,
      "propriété": 4428,
      "meurent": 4429,
      "étonnant": 4430,
      "rappelez": 4431,
      "devions": 4432,
      "chansons": 4433,
      "global": 4434,
      "significa": 4435,
      "convaincu": 4436,
      "comprends": 4437,
      "experts": 4438,
      "fenêtre": 4439,
      "soudain": 4440,
      "existence": 4441,
      "opinion": 4442,
      "transparence": 4443,
      "éclai": 4444,
      "phase": 4445,
      "rencontrer": 4446,
      "haïti": 4447,
      "renouvela": 4448,
      "infirmi": 4449,
      "cen": 4450,
      "gin": 4451,
      "gez": 4452,
      "hori": 4453,
      "ige": 4454,
      "nité": 4455,
      "nations": 4456,
      "pel": 4457,
      "plon": 4458,
      "rur": 4459,
      "savions": 4460,
      "engag": 4461,
      "quart": 4462,
      "isée": 4463,
      "illant": 4464,
      "audi": 4465,
      "aurons": 4466,
      "infini": 4467,
      "chent": 4468,
      "chée": 4469,
      "avoc": 4470,
      "avanc": 4471,
      "orph": 4472,
      "arab": 4473,
      "arbre": 4474,
      "jeun": 4475,
      "comprenez": 4476,
      "rite": 4477,
      "répar": 4478,
      "réunis": 4479,
      "déchets": 4480,
      "déjeun": 4481,
      "magie": 4482,
      "appropri": 4483,
      "abo": 4484,
      "local": 4485,
      "couper": 4486,
      "couches": 4487,
      "peint": 4488,
      "saou": 4489,
      "perception": 4490,
      "voire": 4491,
      "carto": 4492,
      "utilisées": 4493,
      "seules": 4494,
      "empre": 4495,
      "venus": 4496,
      "plante": 4497,
      "trième": 4498,
      "plaît": 4499,
      "trace": 4500,
      "produc": 4501,
      "tisme": 4502,
      "transmettre": 4503,
      "frère": 4504,
      "basé": 4505,
      "douce": 4506,
      "intéressé": 4507,
      "appelait": 4508,
      "échap": 4509,
      "curi": 4510,
      "portion": 4511,
      "quatrième": 4512,
      "nourrir": 4513,
      "évit": 4514,
      "explication": 4515,
      "cylin": 4516,
      "énormé": 4517,
      "pareil": 4518,
      "pointe": 4519,
      "archie": 4520,
      "intelligents": 4521,
      "stade": 4522,
      "principal": 4523,
      "connecté": 4524,
      "fabrication": 4525,
      "analys": 4526,
      "gribouil": 4527,
      "réussir": 4528,
      "cuisine": 4529,
      "agricul": 4530,
      "immense": 4531,
      "opportunités": 4532,
      "intérêts": 4533,
      "océans": 4534,
      "similaires": 4535,
      "séquence": 4536,
      "baby": 4537,
      "connexions": 4538,
      "irak": 4539,
      "adolescent": 4540,
      "échantillon": 4541,
      "écosystème": 4542,
      "connectome": 4543,
      "minuscule": 4544,
      "précédent": 4545,
      "intégrer": 4546,
      "sympt": 4547,
      "egyp": 4548,
      "énergétique": 4549,
      "échanges": 4550,
      "transition": 4551,
      "23": 4552,
      "cortex": 4553,
      "fla": 4554,
      "foi": 4555,
      "kg": 4556,
      "kistan": 4557,
      "mail": 4558,
      "myst": 4559,
      "nante": 4560,
      "rance": 4561,
      "sché": 4562,
      "vait": 4563,
      "wn": 4564,
      "émission": 4565,
      "ître": 4566,
      "envoie": 4567,
      "aimons": 4568,
      "entôt": 4569,
      "titre": 4570,
      "pal": 4571,
      "pation": 4572,
      "intelle": 4573,
      "chr": 4574,
      "archi": 4575,
      "éth": 4576,
      "liez": 4577,
      "liée": 4578,
      "respect": 4579,
      "suit": 4580,
      "survie": 4581,
      "abus": 4582,
      "extré": 4583,
      "accent": 4584,
      "actif": 4585,
      "coeur": 4586,
      "bientôt": 4587,
      "cercle": 4588,
      "manus": 4589,
      "devaient": 4590,
      "pira": 4591,
      "militaire": 4592,
      "voies": 4593,
      "blan": 4594,
      "gueur": 4595,
      "possé": 4596,
      "fonds": 4597,
      "course": 4598,
      "courage": 4599,
      "igno": 4600,
      "centaine": 4601,
      "centrale": 4602,
      "soutenir": 4603,
      "musul": 4604,
      "ouverte": 4605,
      "sentais": 4606,
      "mises": 4607,
      "tate": 4608,
      "tache": 4609,
      "angeles": 4610,
      "oct": 4611,
      "présentation": 4612,
      "médical": 4613,
      "stac": 4614,
      "berg": 4615,
      "netto": 4616,
      "heureuse": 4617,
      "fermi": 4618,
      "planètes": 4619,
      "tropi": 4620,
      "trouverez": 4621,
      "neuro": 4622,
      "niveaux": 4623,
      "ancienne": 4624,
      "diriger": 4625,
      "sérieusement": 4626,
      "amené": 4627,
      "égalité": 4628,
      "occup": 4629,
      "arrivés": 4630,
      "facteurs": 4631,
      "chaud": 4632,
      "gravité": 4633,
      "poig": 4634,
      "fondamentalement": 4635,
      "illusion": 4636,
      "immun": 4637,
      "bénéfici": 4638,
      "investissement": 4639,
      "examiner": 4640,
      "habitants": 4641,
      "normale": 4642,
      "araignées": 4643,
      "épais": 4644,
      "phrases": 4645,
      "crispr": 4646,
      "adolescents": 4647,
      "panneaux": 4648,
      "pénis": 4649,
      "favor": 4650,
      "brevet": 4651,
      "supérieur": 4652,
      "identiques": 4653,
      "stratégie": 4654,
      "désespé": 4655,
      "exerci": 4656,
      "souvenez": 4657,
      "énormément": 4658,
      "dge": 4659,
      "drait": 4660,
      "flui": 4661,
      "frais": 4662,
      "gl": 4663,
      "gal": 4664,
      "gig": 4665,
      "mt": 4666,
      "mans": 4667,
      "mité": 4668,
      "pê": 4669,
      "rentre": 4670,
      "taient": 4671,
      "estime": 4672,
      "ane": 4673,
      "pakistan": 4674,
      "ister": 4675,
      "isés": 4676,
      "chap": 4677,
      "ours": 4678,
      "ores": 4679,
      "sifs": 4680,
      "parole": 4681,
      "argu": 4682,
      "arabe": 4683,
      "passons": 4684,
      "ria": 4685,
      "diver": 4686,
      "résolution": 4687,
      "défaut": 4688,
      "débar": 4689,
      "désert": 4690,
      "atter": 4691,
      "donnant": 4692,
      "exclu": 4693,
      "actifs": 4694,
      "terres": 4695,
      "mide": 4696,
      "tue": 4697,
      "note": 4698,
      "cuir": 4699,
      "mélang": 4700,
      "apporté": 4701,
      "traver": 4702,
      "sond": 4703,
      "gui": 4704,
      "illet": 4705,
      "post": 4706,
      "préparer": 4707,
      "nommé": 4708,
      "longues": 4709,
      "venaient": 4710,
      "manipu": 4711,
      "technologique": 4712,
      "frères": 4713,
      "stat": 4714,
      "station": 4715,
      "naturelle": 4716,
      "contient": 4717,
      "charger": 4718,
      "ington": 4719,
      "hip": 4720,
      "lexion": 4721,
      "conflit": 4722,
      "ologique": 4723,
      "conduite": 4724,
      "programmer": 4725,
      "augmenté": 4726,
      "fémin": 4727,
      "banque": 4728,
      "opérations": 4729,
      "pousse": 4730,
      "spécial": 4731,
      "réussite": 4732,
      "intelligente": 4733,
      "subst": 4734,
      "réduit": 4735,
      "quitté": 4736,
      "instantan": 4737,
      "extraordinaires": 4738,
      "prospér": 4739,
      "prostate": 4740,
      "terminé": 4741,
      "affecte": 4742,
      "passés": 4743,
      "calculs": 4744,
      "caca": 4745,
      "circuits": 4746,
      "quartiers": 4747,
      "décennie": 4748,
      "reçoit": 4749,
      "véhicules": 4750,
      "andertal": 4751,
      "angleterre": 4752,
      "efforts": 4753,
      "quotidienne": 4754,
      "fenêtres": 4755,
      "soudaine": 4756,
      "criminels": 4757,
      "arctique": 4758,
      "chirurgien": 4759,
      "récompense": 4760,
      "étiez": 4761,
      "scolaire": 4762,
      "australie": 4763,
      "oeuvre": 4764,
      "carburant": 4765,
      "alterna": 4766,
      "régime": 4767,
      "biblioth": 4768,
      "mystère": 4769,
      "intellectu": 4770,
      "1000": 4771,
      "belles": 4772,
      "blog": 4773,
      "bage": 4774,
      "dam": 4775,
      "far": 4776,
      "gang": 4777,
      "ia": 4778,
      "ks": 4779,
      "sys": 4780,
      "savaient": 4781,
      "tch": 4782,
      "vête": 4783,
      "yant": 4784,
      "écu": 4785,
      "onde": 4786,
      "recueil": 4787,
      "issez": 4788,
      "illi": 4789,
      "intu": 4790,
      "incertitude": 4791,
      "ester": 4792,
      "chimp": 4793,
      "ombre": 4794,
      "avé": 4795,
      "paral": 4796,
      "arts": 4797,
      "compa": 4798,
      "récit": 4799,
      "réchauff": 4800,
      "dérou": 4801,
      "rare": 4802,
      "procès": 4803,
      "surprise": 4804,
      "peup": 4805,
      "atoires": 4806,
      "monn": 4807,
      "néga": 4808,
      "motiv": 4809,
      "fices": 4810,
      "fibre": 4811,
      "consiste": 4812,
      "obtient": 4813,
      "beaux": 4814,
      "ards": 4815,
      "cordes": 4816,
      "plas": 4817,
      "effond": 4818,
      "montagne": 4819,
      "répan": 4820,
      "transformé": 4821,
      "chia": 4822,
      "candi": 4823,
      "essayant": 4824,
      "publié": 4825,
      "ordinaires": 4826,
      "appellent": 4827,
      "malades": 4828,
      "clés": 4829,
      "sensation": 4830,
      "essai": 4831,
      "lande": 4832,
      "city": 4833,
      "décider": 4834,
      "représenter": 4835,
      "particulière": 4836,
      "hore": 4837,
      "sujets": 4838,
      "métal": 4839,
      "offici": 4840,
      "complexité": 4841,
      "paysage": 4842,
      "connecter": 4843,
      "fox": 4844,
      "implique": 4845,
      "créatif": 4846,
      "rayons": 4847,
      "hormon": 4848,
      "papiers": 4849,
      "ressentir": 4850,
      "bureaux": 4851,
      "victime": 4852,
      "méthodes": 4853,
      "circulation": 4854,
      "constitution": 4855,
      "babbage": 4856,
      "industrielle": 4857,
      "dispositifs": 4858,
      "modifier": 4859,
      "disponible": 4860,
      "évaluer": 4861,
      "frontières": 4862,
      "virtuelle": 4863,
      "invité": 4864,
      "amazon": 4865,
      "excitant": 4866,
      "infrastructure": 4867,
      "détecter": 4868,
      "fréquence": 4869,
      "microscope": 4870,
      "ingénierie": 4871,
      "volume": 4872,
      "désolé": 4873,
      "jardin": 4874,
      "peinture": 4875,
      "constaté": 4876,
      "frappé": 4877,
      "pronon": 4878,
      "saoudi": 4879,
      "vêtements": 4880,
      "chimpanz": 4881,
      "3d": 4882,
      "aa": 4883,
      "bie": 4884,
      "bill": 4885,
      "cab": 4886,
      "gel": 4887,
      "gol": 4888,
      "his": 4889,
      "od": 4890,
      "ril": 4891,
      "sport": 4892,
      "spec": 4893,
      "usion": 4894,
      "wan": 4895,
      "âtre": 4896,
      "épuis": 4897,
      "enlever": 4898,
      "del": 4899,
      "deur": 4900,
      "retrouv": 4901,
      "remettre": 4902,
      "recru": 4903,
      "rejoin": 4904,
      "entrée": 4905,
      "pales": 4906,
      "lesco": 4907,
      "indu": 4908,
      "inva": 4909,
      "iness": 4910,
      "inconnu": 4911,
      "uri": 4912,
      "omni": 4913,
      "trés": 4914,
      "itent": 4915,
      "sier": 4916,
      "ney": 4917,
      "dique": 4918,
      "démar": 4919,
      "défin": 4920,
      "due": 4921,
      "liqui": 4922,
      "magaz": 4923,
      "rats": 4924,
      "raconte": 4925,
      "provis": 4926,
      "voter": 4927,
      "mesures": 4928,
      "expos": 4929,
      "exception": 4930,
      "accumu": 4931,
      "cole": 4932,
      "midi": 4933,
      "ieur": 4934,
      "biom": 4935,
      "tuber": 4936,
      "gris": 4937,
      "culose": 4938,
      "formu": 4939,
      "ago": 4940,
      "disci": 4941,
      "disposition": 4942,
      "cheval": 4943,
      "urer": 4944,
      "partis": 4945,
      "garçons": 4946,
      "créat": 4947,
      "voyager": 4948,
      "courte": 4949,
      "vouloir": 4950,
      "visiter": 4951,
      "pensées": 4952,
      "semb": 4953,
      "venez": 4954,
      "central": 4955,
      "alisme": 4956,
      "monté": 4957,
      "tisation": 4958,
      "rendez": 4959,
      "france": 4960,
      "générale": 4961,
      "générations": 4962,
      "2011": 4963,
      "publicité": 4964,
      "stop": 4965,
      "doulou": 4966,
      "suivent": 4967,
      "typique": 4968,
      "portes": 4969,
      "faim": 4970,
      "tombé": 4971,
      "amie": 4972,
      "domes": 4973,
      "populations": 4974,
      "assise": 4975,
      "esprits": 4976,
      "médicale": 4977,
      "appliquer": 4978,
      "offrir": 4979,
      "tendances": 4980,
      "combus": 4981,
      "défense": 4982,
      "oreille": 4983,
      "psychia": 4984,
      "mathématique": 4985,
      "moustache": 4986,
      "objectifs": 4987,
      "odeur": 4988,
      "mécanisme": 4989,
      "personnalité": 4990,
      "enregistré": 4991,
      "largement": 4992,
      "conséquent": 4993,
      "consommateurs": 4994,
      "personnellement": 4995,
      "soyons": 4996,
      "suggère": 4997,
      "africains": 4998,
      "électronique": 4999,
      "émerg": 5000,
      "caractéristiques": 5001,
      "distribution": 5002,
      "honnête": 5003,
      "événement": 5004,
      "événements": 5005,
      "oxy": 5006,
      "absence": 5007,
      "aiguille": 5008,
      "souvenirs": 5009,
      "style": 5010,
      "mobiles": 5011,
      "doigts": 5012,
      "camion": 5013,
      "ingénieurs": 5014,
      "diagnostic": 5015,
      "algorithme": 5016,
      "souhaite": 5017,
      "fauteuil": 5018,
      "gratuitement": 5019,
      "cinéma": 5020,
      "richard": 5021,
      "tuberculose": 5022,
      "aér": 5023,
      "bun": 5024,
      "brer": 5025,
      "denti": 5026,
      "flex": 5027,
      "ica": 5028,
      "line": 5029,
      "lites": 5030,
      "pm": 5031,
      "sois": 5032,
      "vard": 5033,
      "ventions": 5034,
      "wash": 5035,
      "çait": 5036,
      "édi": 5037,
      "ïque": 5038,
      "onenti": 5039,
      "quait": 5040,
      "leçons": 5041,
      "aurez": 5042,
      "trons": 5043,
      "desti": 5044,
      "neandertal": 5045,
      "parcour": 5046,
      "parlez": 5047,
      "alé": 5048,
      "dions": 5049,
      "diez": 5050,
      "réfu": 5051,
      "dées": 5052,
      "via": 5053,
      "proto": 5054,
      "cesse": 5055,
      "télesco": 5056,
      "attribu": 5057,
      "ensité": 5058,
      "exter": 5059,
      "exig": 5060,
      "accor": 5061,
      "active": 5062,
      "modé": 5063,
      "mif": 5064,
      "mies": 5065,
      "usage": 5066,
      "anda": 5067,
      "auxquelles": 5068,
      "poche": 5069,
      "low": 5070,
      "loge": 5071,
      "locaux": 5072,
      "agent": 5073,
      "niers": 5074,
      "disais": 5075,
      "fiée": 5076,
      "inson": 5077,
      "satel": 5078,
      "chement": 5079,
      "mées": 5080,
      "implant": 5081,
      "utilisateurs": 5082,
      "bret": 5083,
      "emplois": 5084,
      "travaillant": 5085,
      "penses": 5086,
      "venons": 5087,
      "centres": 5088,
      "gras": 5089,
      "vaisse": 5090,
      "jaune": 5091,
      "trajet": 5092,
      "construisent": 5093,
      "connaît": 5094,
      "transforme": 5095,
      "tourné": 5096,
      "sûre": 5097,
      "ctor": 5098,
      "exponenti": 5099,
      "saisir": 5100,
      "énergies": 5101,
      "rassembler": 5102,
      "traverser": 5103,
      "197": 5104,
      "tination": 5105,
      "rentré": 5106,
      "restée": 5107,
      "prends": 5108,
      "ruption": 5109,
      "photographie": 5110,
      "probable": 5111,
      "apparaître": 5112,
      "observation": 5113,
      "américaines": 5114,
      "ulaire": 5115,
      "écoutez": 5116,
      "protéine": 5117,
      "frank": 5118,
      "français": 5119,
      "propriétés": 5120,
      "engager": 5121,
      "numériques": 5122,
      "cuisson": 5123,
      "composants": 5124,
      "deviend": 5125,
      "business": 5126,
      "étranger": 5127,
      "existent": 5128,
      "signifiait": 5129,
      "adapter": 5130,
      "tâches": 5131,
      "câbles": 5132,
      "conversations": 5133,
      "adulte": 5134,
      "bouse": 5135,
      "transports": 5136,
      "anderson": 5137,
      "africain": 5138,
      "réfléchissez": 5139,
      "chute": 5140,
      "vieillissement": 5141,
      "cliniques": 5142,
      "exister": 5143,
      "attraper": 5144,
      "fossi": 5145,
      "street": 5146,
      "épargne": 5147,
      "réguli": 5148,
      "vague": 5149,
      "quasiment": 5150,
      "éventail": 5151,
      "tremblement": 5152,
      "correspond": 5153,
      "sélection": 5154,
      "agriculteurs": 5155,
      "prospérité": 5156,
      "monnaie": 5157,
      "35": 5158,
      "cous": 5159,
      "ll": 5160,
      "mété": 5161,
      "obi": 5162,
      "rar": 5163,
      "scé": 5164,
      "tères": 5165,
      "tali": 5166,
      "ule": 5167,
      "vap": 5168,
      "wa": 5169,
      "épous": 5170,
      "reproduire": 5171,
      "reconnaissance": 5172,
      "entou": 5173,
      "intr": 5174,
      "chers": 5175,
      "ject": 5176,
      "comman": 5177,
      "pourra": 5178,
      "lus": 5179,
      "étendre": 5180,
      "réactions": 5181,
      "démons": 5182,
      "définir": 5183,
      "appro": 5184,
      "apprenons": 5185,
      "témoi": 5186,
      "exposition": 5187,
      "expressions": 5188,
      "acu": 5189,
      "accomp": 5190,
      "pure": 5191,
      "ambu": 5192,
      "grais": 5193,
      "locale": 5194,
      "forcer": 5195,
      "calement": 5196,
      "mémor": 5197,
      "mérite": 5198,
      "pierre": 5199,
      "obstac": 5200,
      "travaux": 5201,
      "diffusion": 5202,
      "géo": 5203,
      "vente": 5204,
      "utilisateur": 5205,
      "poste": 5206,
      "thème": 5207,
      "rose": 5208,
      "travaillons": 5209,
      "alise": 5210,
      "alisés": 5211,
      "plat": 5212,
      "imagine": 5213,
      "présenté": 5214,
      "portables": 5215,
      "colla": 5216,
      "frus": 5217,
      "économiser": 5218,
      "bases": 5219,
      "star": 5220,
      "sûrs": 5221,
      "ferait": 5222,
      "souri": 5223,
      "continuent": 5224,
      "référence": 5225,
      "vivants": 5226,
      "giés": 5227,
      "traité": 5228,
      "2009": 5229,
      "conducteur": 5230,
      "drôle": 5231,
      "lumières": 5232,
      "cisco": 5233,
      "attaques": 5234,
      "honneur": 5235,
      "voisin": 5236,
      "arrivera": 5237,
      "circonst": 5238,
      "extraire": 5239,
      "souffrent": 5240,
      "monsieur": 5241,
      "sangu": 5242,
      "oublier": 5243,
      "analo": 5244,
      "mathémati": 5245,
      "détection": 5246,
      "fondamentale": 5247,
      "légèrement": 5248,
      "personnages": 5249,
      "illustre": 5250,
      "aperçu": 5251,
      "faudrait": 5252,
      "traditionnelles": 5253,
      "hauteur": 5254,
      "hei": 5255,
      "ghana": 5256,
      "stupé": 5257,
      "abandonner": 5258,
      "tombée": 5259,
      "pilo": 5260,
      "reçoivent": 5261,
      "israéli": 5262,
      "blancs": 5263,
      "diplôme": 5264,
      "galaxie": 5265,
      "analyse": 5266,
      "volonté": 5267,
      "goutte": 5268,
      "jambes": 5269,
      "pourcentage": 5270,
      "immeubles": 5271,
      "janvier": 5272,
      "squelette": 5273,
      "artificielle": 5274,
      "métaphore": 5275,
      "sculpture": 5276,
      "mammif": 5277,
      "sophis": 5278,
      "dîner": 5279,
      "cylindre": 5280,
      "bibliothèque": 5281,
      "systé": 5282,
      "discipl": 5283,
      "22": 5284,
      "aler": 5285,
      "bain": 5286,
      "boite": 5287,
      "cras": 5288,
      "dense": 5289,
      "henti": 5290,
      "iphone": 5291,
      "lun": 5292,
      "nd": 5293,
      "nas": 5294,
      "nari": 5295,
      "oli": 5296,
      "sha": 5297,
      "toir": 5298,
      "enquête": 5299,
      "onique": 5300,
      "oncle": 5301,
      "oux": 5302,
      "aident": 5303,
      "rect": 5304,
      "recevoir": 5305,
      "infi": 5306,
      "chan": 5307,
      "chasse": 5308,
      "dess": 5309,
      "sives": 5310,
      "arma": 5311,
      "altru": 5312,
      "commande": 5313,
      "étaires": 5314,
      "dic": 5315,
      "rément": 5316,
      "dégra": 5317,
      "vivi": 5318,
      "conce": 5319,
      "conju": 5320,
      "rales": 5321,
      "ressort": 5322,
      "ater": 5323,
      "atti": 5324,
      "donnons": 5325,
      "abri": 5326,
      "accompag": 5327,
      "biais": 5328,
      "tume": 5329,
      "poème": 5330,
      "logue": 5331,
      "agres": 5332,
      "insé": 5333,
      "cacher": 5334,
      "cadeau": 5335,
      "persu": 5336,
      "ailles": 5337,
      "nerfs": 5338,
      "utilité": 5339,
      "authenti": 5340,
      "options": 5341,
      "view": 5342,
      "directeur": 5343,
      "verser": 5344,
      "créant": 5345,
      "créée": 5346,
      "crédit": 5347,
      "voyant": 5348,
      "thèses": 5349,
      "email": 5350,
      "décès": 5351,
      "déclen": 5352,
      "alisé": 5353,
      "alisée": 5354,
      "présents": 5355,
      "prime": 5356,
      "rapie": 5357,
      "crip": 5358,
      "cription": 5359,
      "générer": 5360,
      "génétiques": 5361,
      "joué": 5362,
      "bert": 5363,
      "thérapie": 5364,
      "infanti": 5365,
      "porté": 5366,
      "positions": 5367,
      "hier": 5368,
      "hiver": 5369,
      "neurone": 5370,
      "citer": 5371,
      "gagne": 5372,
      "ultr": 5373,
      "ultime": 5374,
      "régions": 5375,
      "héli": 5376,
      "toile": 5377,
      "voisins": 5378,
      "considéra": 5379,
      "principales": 5380,
      "aventure": 5381,
      "accepté": 5382,
      "disparu": 5383,
      "journaux": 5384,
      "harvard": 5385,
      "suffit": 5386,
      "personnage": 5387,
      "guerres": 5388,
      "composé": 5389,
      "fascinant": 5390,
      "découvertes": 5391,
      "séquences": 5392,
      "déclaration": 5393,
      "collaboration": 5394,
      "drogue": 5395,
      "autorou": 5396,
      "remplacer": 5397,
      "mensonges": 5398,
      "quotidien": 5399,
      "électroniques": 5400,
      "sensi": 5401,
      "encourager": 5402,
      "attrap": 5403,
      "échantillons": 5404,
      "partenaires": 5405,
      "résistance": 5406,
      "accessible": 5407,
      "activités": 5408,
      "entrepreneurs": 5409,
      "optimiste": 5410,
      "difficulté": 5411,
      "bombe": 5412,
      "zoom": 5413,
      "plateforme": 5414,
      "miroir": 5415,
      "ralentir": 5416,
      "cybercriminels": 5417,
      "stupide": 5418,
      "entendez": 5419,
      "britannique": 5420,
      "avancée": 5421,
      "déjeuner": 5422,
      "empreinte": 5423,
      "échapper": 5424,
      "symptômes": 5425,
      "musulmans": 5426,
      "pêche": 5427,
      "soudainement": 5428,
      "plastique": 5429,
      "liquide": 5430,
      "magazine": 5431,
      "bretagne": 5432,
      "infantile": 5433,
      "bans": 5434,
      "couvert": 5435,
      "flot": 5436,
      "ko": 5437,
      "mè": 5438,
      "mai": 5439,
      "ros": 5440,
      "schi": 5441,
      "tante": 5442,
      "vus": 5443,
      "za": 5444,
      "zoph": 5445,
      "âme": 5446,
      "ève": 5447,
      "émet": 5448,
      "îles": 5449,
      "ouah": 5450,
      "retirer": 5451,
      "remonter": 5452,
      "latine": 5453,
      "queue": 5454,
      "tise": 5455,
      "tibles": 5456,
      "papa": 5457,
      "cement": 5458,
      "inverse": 5459,
      "inconnus": 5460,
      "inévit": 5461,
      "estation": 5462,
      "chère": 5463,
      "orités": 5464,
      "parent": 5465,
      "parfaite": 5466,
      "comprenons": 5467,
      "comparer": 5468,
      "pourrez": 5469,
      "lumin": 5470,
      "rév": 5471,
      "dégâ": 5472,
      "ouvri": 5473,
      "vih": 5474,
      "confort": 5475,
      "rature": 5476,
      "rarement": 5477,
      "provient": 5478,
      "propose": 5479,
      "propul": 5480,
      "proportion": 5481,
      "touché": 5482,
      "tér": 5483,
      "mono": 5484,
      "acquis": 5485,
      "moti": 5486,
      "moelle": 5487,
      "user": 5488,
      "amou": 5489,
      "amin": 5490,
      "léger": 5491,
      "crain": 5492,
      "crits": 5493,
      "serais": 5494,
      "servent": 5495,
      "coupé": 5496,
      "fiction": 5497,
      "instin": 5498,
      "sachant": 5499,
      "consom": 5500,
      "chefs": 5501,
      "métro": 5502,
      "métier": 5503,
      "vraies": 5504,
      "mart": 5505,
      "obsé": 5506,
      "sonore": 5507,
      "séisme": 5508,
      "militaires": 5509,
      "jusque": 5510,
      "créent": 5511,
      "créons": 5512,
      "logiques": 5513,
      "nulle": 5514,
      "docteur": 5515,
      "enfer": 5516,
      "longueur": 5517,
      "interaction": 5518,
      "interactions": 5519,
      "plans": 5520,
      "millier": 5521,
      "contour": 5522,
      "souci": 5523,
      "ouverts": 5524,
      "montée": 5525,
      "culti": 5526,
      "gales": 5527,
      "cinqui": 5528,
      "chimique": 5529,
      "ceptions": 5530,
      "2050": 5531,
      "ordinaire": 5532,
      "malade": 5533,
      "positif": 5534,
      "salaire": 5535,
      "bay": 5536,
      "bala": 5537,
      "profit": 5538,
      "restre": 5539,
      "restent": 5540,
      "bataille": 5541,
      "sauter": 5542,
      "observe": 5543,
      "observé": 5544,
      "évidence": 5545,
      "sinon": 5546,
      "suppose": 5547,
      "régler": 5548,
      "hôtel": 5549,
      "hydro": 5550,
      "talent": 5551,
      "feuille": 5552,
      "feuilles": 5553,
      "égyp": 5554,
      "église": 5555,
      "exploiter": 5556,
      "souffre": 5557,
      "promis": 5558,
      "francisco": 5559,
      "folle": 5560,
      "collègue": 5561,
      "particip": 5562,
      "bridge": 5563,
      "association": 5564,
      "littérature": 5565,
      "enregistr": 5566,
      "montrant": 5567,
      "étrangers": 5568,
      "existait": 5569,
      "automobi": 5570,
      "éloigner": 5571,
      "dessiner": 5572,
      "asseoir": 5573,
      "ght": 5574,
      "citoyen": 5575,
      "amusant": 5576,
      "paradis": 5577,
      "conclusion": 5578,
      "honnê": 5579,
      "brevets": 5580,
      "mandela": 5581,
      "écosystèmes": 5582,
      "instrument": 5583,
      "planter": 5584,
      "cérébr": 5585,
      "majeure": 5586,
      "préfère": 5587,
      "entrepreneur": 5588,
      "immeuble": 5589,
      "journaliste": 5590,
      "discussion": 5591,
      "discussions": 5592,
      "vérifier": 5593,
      "discuter": 5594,
      "suicide": 5595,
      "intitulé": 5596,
      "instructions": 5597,
      "éléphant": 5598,
      "négoci": 5599,
      "orphel": 5600,
      "circonstances": 5601,
      "schizoph": 5602,
      "dégâts": 5603,
      "250": 5604,
      "bol": 5605,
      "cise": 5606,
      "frappe": 5607,
      "foie": 5608,
      "gos": 5609,
      "grec": 5610,
      "iers": 5611,
      "laires": 5612,
      "mér": 5613,
      "sk": 5614,
      "scan": 5615,
      "tun": 5616,
      "tables": 5617,
      "wal": 5618,
      "zi": 5619,
      "zhei": 5620,
      "étiqu": 5621,
      "œurs": 5622,
      "enlevé": 5623,
      "rece": 5624,
      "antique": 5625,
      "unir": 5626,
      "patri": 5627,
      "paquet": 5628,
      "issu": 5629,
      "audio": 5630,
      "chain": 5631,
      "trot": 5632,
      "triste": 5633,
      "parlement": 5634,
      "parlant": 5635,
      "parvenir": 5636,
      "alzhei": 5637,
      "jection": 5638,
      "combattre": 5639,
      "compétition": 5640,
      "récep": 5641,
      "démontré": 5642,
      "mater": 5643,
      "rac": 5644,
      "ressenti": 5645,
      "apparti": 5646,
      "monie": 5647,
      "extrait": 5648,
      "cop": 5649,
      "aspi": 5650,
      "moin": 5651,
      "tuées": 5652,
      "gro": 5653,
      "pouviez": 5654,
      "lots": 5655,
      "crè": 5656,
      "fiant": 5657,
      "fiés": 5658,
      "pertes": 5659,
      "conse": 5660,
      "apple": 5661,
      "apporte": 5662,
      "puissants": 5663,
      "posent": 5664,
      "commentaire": 5665,
      "créateurs": 5666,
      "vateur": 5667,
      "travailleurs": 5668,
      "semblé": 5669,
      "souches": 5670,
      "admi": 5671,
      "corri": 5672,
      "corruption": 5673,
      "croit": 5674,
      "tatou": 5675,
      "intention": 5676,
      "privé": 5677,
      "boucle": 5678,
      "bouton": 5679,
      "portent": 5680,
      "basée": 5681,
      "roulant": 5682,
      "médicaux": 5683,
      "jouent": 5684,
      "politiciens": 5685,
      "menac": 5686,
      "nette": 5687,
      "naturels": 5688,
      "continent": 5689,
      "claire": 5690,
      "plani": 5691,
      "indice": 5692,
      "grosses": 5693,
      "graphiques": 5694,
      "vivaient": 5695,
      "2001": 5696,
      "toit": 5697,
      "secteurs": 5698,
      "rapides": 5699,
      "culturel": 5700,
      "observons": 5701,
      "aimez": 5702,
      "total": 5703,
      "réfléchi": 5704,
      "opérer": 5705,
      "siège": 5706,
      "siècles": 5707,
      "proposé": 5708,
      "textes": 5709,
      "violences": 5710,
      "investi": 5711,
      "naturelles": 5712,
      "nucléaires": 5713,
      "détecteur": 5714,
      "inspiré": 5715,
      "bloc": 5716,
      "blocs": 5717,
      "abandonné": 5718,
      "international": 5719,
      "traitements": 5720,
      "allemand": 5721,
      "réfléchissons": 5722,
      "bactérie": 5723,
      "sommeil": 5724,
      "poissons": 5725,
      "gamme": 5726,
      "encourage": 5727,
      "réserve": 5728,
      "analyser": 5729,
      "mobile": 5730,
      "difficultés": 5731,
      "furent": 5732,
      "horrible": 5733,
      "spir": 5734,
      "silencieux": 5735,
      "effrayant": 5736,
      "trafic": 5737,
      "batterie": 5738,
      "prototype": 5739,
      "maîtrise": 5740,
      "aborder": 5741,
      "babylon": 5742,
      "egypte": 5743,
      "washington": 5744,
      "rares": 5745,
      "scénari": 5746,
      "talibans": 5747,
      "ultras": 5748,
      "alzheimer": 5749,
      "27": 5750,
      "600": 5751,
      "béton": 5752,
      "couverture": 5753,
      "fes": 5754,
      "fous": 5755,
      "fri": 5756,
      "gur": 5757,
      "hit": 5758,
      "opar": 5759,
      "oeil": 5760,
      "sm": 5761,
      "satur": 5762,
      "tle": 5763,
      "twe": 5764,
      "vaient": 5765,
      "willi": 5766,
      "èdent": 5767,
      "égar": 5768,
      "égo": 5769,
      "écra": 5770,
      "élève": 5771,
      "ôles": 5772,
      "quali": 5773,
      "lets": 5774,
      "rets": 5775,
      "relle": 5776,
      "entrai": 5777,
      "eth": 5778,
      "quez": 5779,
      "tile": 5780,
      "tini": 5781,
      "isse": 5782,
      "ismes": 5783,
      "istique": 5784,
      "isées": 5785,
      "inten": 5786,
      "inattendu": 5787,
      "secours": 5788,
      "chim": 5789,
      "chées": 5790,
      "prun": 5791,
      "oré": 5792,
      "med": 5793,
      "anth": 5794,
      "paraît": 5795,
      "parcourir": 5796,
      "ridi": 5797,
      "division": 5798,
      "rédi": 5799,
      "réson": 5800,
      "décol": 5801,
      "liv": 5802,
      "osci": 5803,
      "maxim": 5804,
      "convi": 5805,
      "provenant": 5806,
      "ecou": 5807,
      "ection": 5808,
      "atomes": 5809,
      "excu": 5810,
      "acteurs": 5811,
      "moteurs": 5812,
      "quelconque": 5813,
      "ésité": 5814,
      "nobel": 5815,
      "irani": 5816,
      "agan": 5817,
      "agents": 5818,
      "tesla": 5819,
      "devin": 5820,
      "commune": 5821,
      "péni": 5822,
      "choc": 5823,
      "pile": 5824,
      "marques": 5825,
      "oport": 5826,
      "opposé": 5827,
      "géré": 5828,
      "millé": 5829,
      "vieille": 5830,
      "vieilles": 5831,
      "autrefois": 5832,
      "précise": 5833,
      "nuage": 5834,
      "emprun": 5835,
      "idéal": 5836,
      "travaillait": 5837,
      "jeter": 5838,
      "adam": 5839,
      "james": 5840,
      "prenne": 5841,
      "traî": 5842,
      "traces": 5843,
      "construite": 5844,
      "contrat": 5845,
      "dentaire": 5846,
      "théâtre": 5847,
      "résister": 5848,
      "porc": 5849,
      "indique": 5850,
      "cellulaire": 5851,
      "sauvé": 5852,
      "aliments": 5853,
      "réflexion": 5854,
      "moralité": 5855,
      "vivante": 5856,
      "enseigne": 5857,
      "2007": 5858,
      "rup": 5859,
      "organisme": 5860,
      "magique": 5861,
      "rendait": 5862,
      "commencez": 5863,
      "remarquer": 5864,
      "articles": 5865,
      "bande": 5866,
      "poussé": 5867,
      "physiquement": 5868,
      "concepts": 5869,
      "innovations": 5870,
      "considéré": 5871,
      "brut": 5872,
      "bruits": 5873,
      "sentiments": 5874,
      "défendre": 5875,
      "rempli": 5876,
      "démocratique": 5877,
      "artistique": 5878,
      "illance": 5879,
      "connue": 5880,
      "promesse": 5881,
      "franchement": 5882,
      "essentielle": 5883,
      "chanter": 5884,
      "responsables": 5885,
      "apparemment": 5886,
      "moléculaire": 5887,
      "participation": 5888,
      "constante": 5889,
      "traditionnelle": 5890,
      "passée": 5891,
      "investisseurs": 5892,
      "demandent": 5893,
      "véritablement": 5894,
      "entends": 5895,
      "professionnels": 5896,
      "sagesse": 5897,
      "entrain": 5898,
      "clinique": 5899,
      "magnifiques": 5900,
      "causes": 5901,
      "documents": 5902,
      "occidentale": 5903,
      "diminuer": 5904,
      "panneau": 5905,
      "devoirs": 5906,
      "caractéristique": 5907,
      "urbain": 5908,
      "partagent": 5909,
      "patch": 5910,
      "narration": 5911,
      "dialogue": 5912,
      "dialoguer": 5913,
      "instruments": 5914,
      "wiki": 5915,
      "exploration": 5916,
      "apprécier": 5917,
      "infrastructures": 5918,
      "doigt": 5919,
      "récupérer": 5920,
      "relativement": 5921,
      "réunion": 5922,
      "gonf": 5923,
      "adresse": 5924,
      "crucial": 5925,
      "agréable": 5926,
      "trauma": 5927,
      "gribouillage": 5928,
      "débarras": 5929,
      "aéroport": 5930,
      "entoure": 5931,
      "ultrasons": 5932,
      "william": 5933,
      "bp": 5934,
      "bag": 5935,
      "bob": 5936,
      "dures": 5937,
      "ek": 5938,
      "frapp": 5939,
      "hari": 5940,
      "ji": 5941,
      "jos": 5942,
      "ld": 5943,
      "mun": 5944,
      "mins": 5945,
      "mber": 5946,
      "scra": 5947,
      "tais": 5948,
      "tang": 5949,
      "têtes": 5950,
      "teté": 5951,
      "wall": 5952,
      "étique": 5953,
      "élar": 5954,
      "enlève": 5955,
      "envoient": 5956,
      "ondes": 5957,
      "aid": 5958,
      "aimé": 5959,
      "levez": 5960,
      "rep": 5961,
      "refu": 5962,
      "recy": 5963,
      "ana": 5964,
      "til": 5965,
      "tian": 5966,
      "tiles": 5967,
      "tinent": 5968,
      "paci": 5969,
      "isla": 5970,
      "isait": 5971,
      "isté": 5972,
      "illég": 5973,
      "illages": 5974,
      "invisibles": 5975,
      "prête": 5976,
      "aver": 5977,
      "parcours": 5978,
      "parlait": 5979,
      "jean": 5980,
      "passez": 5981,
      "étage": 5982,
      "ciers": 5983,
      "cieux": 5984,
      "cibles": 5985,
      "diam": 5986,
      "dict": 5987,
      "diarr": 5988,
      "rétro": 5989,
      "réels": 5990,
      "dépenser": 5991,
      "conver": 5992,
      "ressource": 5993,
      "abil": 5994,
      "excité": 5995,
      "mig": 5996,
      "micha": 5997,
      "turer": 5998,
      "pop": 5999,
      "poly": 6000,
      "loint": 6001,
      "légu": 6002,
      "irm": 6003,
      "certi": 6004,
      "mangent": 6005,
      "phab": 6006,
      "puisqu": 6007,
      "obésité": 6008,
      "finan": 6009,
      "utilisaient": 6010,
      "imprimer": 6011,
      "posons": 6012,
      "posée": 6013,
      "préco": 6014,
      "fonctions": 6015,
      "cherché": 6016,
      "thom": 6017,
      "vateurs": 6018,
      "rot": 6019,
      "embras": 6020,
      "empathie": 6021,
      "alex": 6022,
      "interview": 6023,
      "intégré": 6024,
      "session": 6025,
      "union": 6026,
      "mutu": 6027,
      "trices": 6028,
      "faisions": 6029,
      "présence": 6030,
      "bros": 6031,
      "culaires": 6032,
      "transfor": 6033,
      "transporter": 6034,
      "bouge": 6035,
      "boulot": 6036,
      "environnements": 6037,
      "basse": 6038,
      "bassa": 6039,
      "élevée": 6040,
      "élevés": 6041,
      "rouler": 6042,
      "polio": 6043,
      "écologie": 6044,
      "clou": 6045,
      "ferai": 6046,
      "positive": 6047,
      "salut": 6048,
      "soigne": 6049,
      "charles": 6050,
      "sauve": 6051,
      "moral": 6052,
      "juin": 6053,
      "little": 6054,
      "nelson": 6055,
      "confir": 6056,
      "secrets": 6057,
      "ologiques": 6058,
      "conducteurs": 6059,
      "programmation": 6060,
      "payé": 6061,
      "proposer": 6062,
      "raconté": 6063,
      "conscient": 6064,
      "conscients": 6065,
      "ancêtres": 6066,
      "considérons": 6067,
      "occupe": 6068,
      "équipement": 6069,
      "exploit": 6070,
      "souffrance": 6071,
      "devenues": 6072,
      "allumer": 6073,
      "facteur": 6074,
      "acheté": 6075,
      "implications": 6076,
      "sommet": 6077,
      "humanitaire": 6078,
      "fondamental": 6079,
      "champs": 6080,
      "capitalisme": 6081,
      "conséquence": 6082,
      "pollin": 6083,
      "bénéfices": 6084,
      "collective": 6085,
      "libérer": 6086,
      "épidémies": 6087,
      "préféré": 6088,
      "lendemain": 6089,
      "émotionnelle": 6090,
      "baisser": 6091,
      "diplô": 6092,
      "déclaré": 6093,
      "combinaison": 6094,
      "adoption": 6095,
      "virtuel": 6096,
      "financiers": 6097,
      "séparation": 6098,
      "ramène": 6099,
      "contribution": 6100,
      "solide": 6101,
      "pattes": 6102,
      "accélérer": 6103,
      "laborer": 6104,
      "calculer": 6105,
      "camions": 6106,
      "brouil": 6107,
      "fausse": 6108,
      "embau": 6109,
      "juifs": 6110,
      "récente": 6111,
      "urgence": 6112,
      "catégorie": 6113,
      "architectes": 6114,
      "supplémentaires": 6115,
      "infirmières": 6116,
      "ignorer": 6117,
      "fermiers": 6118,
      "exercice": 6119,
      "atterris": 6120,
      "instantanément": 6121,
      "réchauffement": 6122,
      "télescope": 6123,
      "témoig": 6124,
      "mammifères": 6125,
      "scratch": 6126,
      "26": 6127,
      "65": 6128,
      "99": 6129,
      "ao": 6130,
      "aï": 6131,
      "ade": 6132,
      "acier": 6133,
      "bn": 6134,
      "clar": 6135,
      "fli": 6136,
      "flam": 6137,
      "gy": 6138,
      "gét": 6139,
      "gation": 6140,
      "gir": 6141,
      "hall": 6142,
      "héro": 6143,
      "job": 6144,
      "nœu": 6145,
      "nôtre": 6146,
      "pis": 6147,
      "rav": 6148,
      "sar": 6149,
      "tam": 6150,
      "tag": 6151,
      "ttes": 6152,
      "dette": 6153,
      "repas": 6154,
      "retrouvé": 6155,
      "remonte": 6156,
      "annu": 6157,
      "ina": 6158,
      "indé": 6159,
      "insul": 6160,
      "chou": 6161,
      "chage": 6162,
      "omie": 6163,
      "orge": 6164,
      "trine": 6165,
      "tragé": 6166,
      "medi": 6167,
      "mexi": 6168,
      "parado": 6169,
      "arn": 6170,
      "diable": 6171,
      "rétine": 6172,
      "déce": 6173,
      "dépenses": 6174,
      "contra": 6175,
      "congrès": 6176,
      "rab": 6177,
      "racin": 6178,
      "propag": 6179,
      "surpren": 6180,
      "approch": 6181,
      "messieurs": 6182,
      "attirer": 6183,
      "exposé": 6184,
      "acci": 6185,
      "coté": 6186,
      "coins": 6187,
      "coder": 6188,
      "coach": 6189,
      "assemb": 6190,
      "modes": 6191,
      "puces": 6192,
      "not": 6193,
      "polar": 6194,
      "irent": 6195,
      "forum": 6196,
      "serons": 6197,
      "cage": 6198,
      "commis": 6199,
      "hua": 6200,
      "trouvait": 6201,
      "minist": 6202,
      "emmener": 6203,
      "interne": 6204,
      "interface": 6205,
      "chaos": 6206,
      "vélo": 6207,
      "végét": 6208,
      "arrières": 6209,
      "triques": 6210,
      "prenaient": 6211,
      "plage": 6212,
      "effon": 6213,
      "montag": 6214,
      "allant": 6215,
      "bron": 6216,
      "contro": 6217,
      "normes": 6218,
      "suscep": 6219,
      "canal": 6220,
      "saison": 6221,
      "publier": 6222,
      "publiques": 6223,
      "intéressants": 6224,
      "ennemi": 6225,
      "inféri": 6226,
      "1990": 6227,
      "communaut": 6228,
      "arrêtez": 6229,
      "nourris": 6230,
      "clip": 6231,
      "client": 6232,
      "neurosci": 6233,
      "2004": 6234,
      "tolé": 6235,
      "décide": 6236,
      "évacu": 6237,
      "représentation": 6238,
      "magné": 6239,
      "apparence": 6240,
      "classes": 6241,
      "singes": 6242,
      "support": 6243,
      "ultra": 6244,
      "réuss": 6245,
      "passionné": 6246,
      "collection": 6247,
      "combatt": 6248,
      "subs": 6249,
      "cambridge": 6250,
      "rencontrés": 6251,
      "explosion": 6252,
      "exploitation": 6253,
      "biologique": 6254,
      "propriétaires": 6255,
      "perdue": 6256,
      "variations": 6257,
      "attendent": 6258,
      "quitte": 6259,
      "sortent": 6260,
      "avancé": 6261,
      "oubliez": 6262,
      "disparaître": 6263,
      "grimp": 6264,
      "moustiqu": 6265,
      "obtenons": 6266,
      "fournit": 6267,
      "règle": 6268,
      "inquiéter": 6269,
      "établis": 6270,
      "étapes": 6271,
      "caractère": 6272,
      "pratiquement": 6273,
      "merveilleuse": 6274,
      "synthèse": 6275,
      "hérit": 6276,
      "étrangère": 6277,
      "fusil": 6278,
      "fluores": 6279,
      "entraînement": 6280,
      "diverses": 6281,
      "diplom": 6282,
      "primés": 6283,
      "branche": 6284,
      "adopter": 6285,
      "chirurgiens": 6286,
      "logiciels": 6287,
      "profondeur": 6288,
      "jambe": 6289,
      "dignité": 6290,
      "symboles": 6291,
      "parkinson": 6292,
      "échoué": 6293,
      "résumé": 6294,
      "mangeons": 6295,
      "installations": 6296,
      "interprét": 6297,
      "espérons": 6298,
      "annoncé": 6299,
      "remarquez": 6300,
      "david": 6301,
      "aimait": 6302,
      "semblable": 6303,
      "semblables": 6304,
      "écart": 6305,
      "hambur": 6306,
      "remercie": 6307,
      "catastrophe": 6308,
      "assistance": 6309,
      "forcément": 6310,
      "accéder": 6311,
      "universel": 6312,
      "normaux": 6313,
      "anonymes": 6314,
      "diaposi": 6315,
      "cartograph": 6316,
      "argument": 6317,
      "statut": 6318,
      "aléatoire": 6319,
      "réfugiés": 6320,
      "fossiles": 6321,
      "démonstration": 6322,
      "obstacles": 6323,
      "systématique": 6324,
      "trottoir": 6325,
      "spiritu": 6326,
      "120": 6327,
      "28": 6328,
      "atives": 6329,
      "bg": 6330,
      "ben": 6331,
      "boire": 6332,
      "cend": 6333,
      "cili": 6334,
      "couvrir": 6335,
      "dation": 6336,
      "fis": 6337,
      "fit": 6338,
      "gas": 6339,
      "gale": 6340,
      "hée": 6341,
      "had": 6342,
      "iens": 6343,
      "jon": 6344,
      "lange": 6345,
      "opi": 6346,
      "pommes": 6347,
      "pèse": 6348,
      "range": 6349,
      "tab": 6350,
      "uis": 6351,
      "ymp": 6352,
      "yaux": 6353,
      "zaine": 6354,
      "épau": 6355,
      "este": 6356,
      "escla": 6357,
      "enva": 6358,
      "quad": 6359,
      "ild": 6360,
      "auprès": 6361,
      "inti": 6362,
      "inhabitu": 6363,
      "secou": 6364,
      "sebas": 6365,
      "chel": 6366,
      "chants": 6367,
      "chaise": 6368,
      "ave": 6369,
      "orbi": 6370,
      "ity": 6371,
      "mec": 6372,
      "paro": 6373,
      "paroi": 6374,
      "allon": 6375,
      "alphab": 6376,
      "jeopar": 6377,
      "cite": 6378,
      "ries": 6379,
      "dépar": 6380,
      "dépensé": 6381,
      "mondes": 6382,
      "george": 6383,
      "absur": 6384,
      "actives": 6385,
      "copie": 6386,
      "assembler": 6387,
      "move": 6388,
      "mobil": 6389,
      "bière": 6390,
      "tues": 6391,
      "amy": 6392,
      "ambassa": 6393,
      "graines": 6394,
      "posez": 6395,
      "poète": 6396,
      "sovi": 6397,
      "locales": 6398,
      "irait": 6399,
      "crâ": 6400,
      "mante": 6401,
      "manche": 6402,
      "mangé": 6403,
      "pharma": 6404,
      "fiable": 6405,
      "deviner": 6406,
      "pertinent": 6407,
      "consac": 6408,
      "consomme": 6409,
      "consul": 6410,
      "mélange": 6411,
      "puissiez": 6412,
      "finit": 6413,
      "illez": 6414,
      "impré": 6415,
      "imède": 6416,
      "impressions": 6417,
      "poster": 6418,
      "versé": 6419,
      "créateur": 6420,
      "roy": 6421,
      "empi": 6422,
      "visages": 6423,
      "uniques": 6424,
      "déclin": 6425,
      "taxe": 6426,
      "traject": 6427,
      "simpli": 6428,
      "brillant": 6429,
      "renvoy": 6430,
      "contrac": 6431,
      "chic": 6432,
      "chiens": 6433,
      "croyance": 6434,
      "économistes": 6435,
      "canard": 6436,
      "attan": 6437,
      "élever": 6438,
      "crime": 6439,
      "stan": 6440,
      "intéresser": 6441,
      "intéressent": 6442,
      "étudie": 6443,
      "dames": 6444,
      "accus": 6445,
      "affront": 6446,
      "tente": 6447,
      "rassemble": 6448,
      "194": 6449,
      "antibio": 6450,
      "organe": 6451,
      "bateau": 6452,
      "profiter": 6453,
      "électeurs": 6454,
      "graphe": 6455,
      "litaire": 6456,
      "enseignant": 6457,
      "faciles": 6458,
      "expliqué": 6459,
      "exact": 6460,
      "ressemblerait": 6461,
      "équation": 6462,
      "fabule": 6463,
      "archimède": 6464,
      "situations": 6465,
      "hyper": 6466,
      "lyn": 6467,
      "visiteurs": 6468,
      "nécessite": 6469,
      "arrivait": 6470,
      "connectés": 6471,
      "connectée": 6472,
      "révolu": 6473,
      "folie": 6474,
      "propriétaire": 6475,
      "variation": 6476,
      "avançons": 6477,
      "précieux": 6478,
      "terriblement": 6479,
      "sacri": 6480,
      "russie": 6481,
      "illumin": 6482,
      "évoluer": 6483,
      "prisonniers": 6484,
      "installer": 6485,
      "globale": 6486,
      "synap": 6487,
      "synthé": 6488,
      "entraîne": 6489,
      "entraîner": 6490,
      "génomes": 6491,
      "terroristes": 6492,
      "professionnel": 6493,
      "émotionnel": 6494,
      "détruit": 6495,
      "détruire": 6496,
      "conseiller": 6497,
      "original": 6498,
      "afficher": 6499,
      "conclure": 6500,
      "nanopatch": 6501,
      "partenaire": 6502,
      "vendredi": 6503,
      "accessibles": 6504,
      "musicale": 6505,
      "symbole": 6506,
      "minuscules": 6507,
      "thermique": 6508,
      "identique": 6509,
      "éliminer": 6510,
      "journalistes": 6511,
      "ingénieur": 6512,
      "lutter": 6513,
      "spectacle": 6514,
      "vendent": 6515,
      "surveillance": 6516,
      "influencer": 6517,
      "automatique": 6518,
      "figure": 6519,
      "guérir": 6520,
      "watts": 6521,
      "indépendance": 6522,
      "développés": 6523,
      "éducatif": 6524,
      "étendue": 6525,
      "préserva": 6526,
      "éclairage": 6527,
      "curiosité": 6528,
      "archives": 6529,
      "éthique": 6530,
      "immunitaire": 6531,
      "traverse": 6532,
      "sondage": 6533,
      "candidats": 6534,
      "créatures": 6535,
      "émergents": 6536,
      "oxygène": 6537,
      "collagène": 6538,
      "sophistiqu": 6539,
      "automobile": 6540,
      "honnêteté": 6541,
      "tunnel": 6542,
      "conseils": 6543,
      "diarrhée": 6544,
      "michael": 6545,
      "clarté": 6546,
      "accidents": 6547,
      "ministère": 6548,
      "montagnes": 6549,
      "héritage": 6550,
      "jeopardy": 6551,
      "movember": 6552,
      "55": 6553,
      "800": 6554,
      "bam": 6555,
      "dys": 6556,
      "fol": 6557,
      "gg": 6558,
      "gli": 6559,
      "hir": 6560,
      "haus": 6561,
      "hattan": 6562,
      "jé": 6563,
      "kin": 6564,
      "mc": 6565,
      "noires": 6566,
      "pleur": 6567,
      "rw": 6568,
      "sand": 6569,
      "saine": 6570,
      "taper": 6571,
      "up": 6572,
      "vôtre": 6573,
      "yn": 6574,
      "ènement": 6575,
      "ètent": 6576,
      "èvement": 6577,
      "émerve": 6578,
      "édie": 6579,
      "enri": 6580,
      "onard": 6581,
      "quin": 6582,
      "quantique": 6583,
      "report": 6584,
      "retenir": 6585,
      "retard": 6586,
      "reproduction": 6587,
      "relier": 6588,
      "refroi": 6589,
      "entrent": 6590,
      "lateur": 6591,
      "tements": 6592,
      "incor": 6593,
      "invention": 6594,
      "inutile": 6595,
      "esthé": 6596,
      "secr": 6597,
      "avou": 6598,
      "description": 6599,
      "antarctique": 6600,
      "composition": 6601,
      "compéti": 6602,
      "comédie": 6603,
      "cide": 6604,
      "riz": 6605,
      "dies": 6606,
      "diriez": 6607,
      "diront": 6608,
      "dictions": 6609,
      "liby": 6610,
      "concur": 6611,
      "ramas": 6612,
      "sucre": 6613,
      "donnait": 6614,
      "abby": 6615,
      "accompli": 6616,
      "astu": 6617,
      "motifs": 6618,
      "usha": 6619,
      "auxquels": 6620,
      "noël": 6621,
      "loc": 6622,
      "légis": 6623,
      "fortes": 6624,
      "fortement": 6625,
      "serai": 6626,
      "serin": 6627,
      "coule": 6628,
      "coupa": 6629,
      "manhattan": 6630,
      "fice": 6631,
      "caché": 6632,
      "éris": 6633,
      "érons": 6634,
      "perp": 6635,
      "chemins": 6636,
      "puissions": 6637,
      "couple": 6638,
      "comptent": 6639,
      "impul": 6640,
      "sées": 6641,
      "open": 6642,
      "carré": 6643,
      "verts": 6644,
      "verrou": 6645,
      "immédi": 6646,
      "posées": 6647,
      "créations": 6648,
      "préju": 6649,
      "minim": 6650,
      "bref": 6651,
      "doctor": 6652,
      "emboute": 6653,
      "travaillez": 6654,
      "pensant": 6655,
      "vendu": 6656,
      "interventions": 6657,
      "partagé": 6658,
      "intégration": 6659,
      "centr": 6660,
      "soupe": 6661,
      "soutient": 6662,
      "laissons": 6663,
      "sentent": 6664,
      "corde": 6665,
      "tax": 6666,
      "tations": 6667,
      "placé": 6668,
      "traditions": 6669,
      "construits": 6670,
      "constructions": 6671,
      "rendus": 6672,
      "signé": 6673,
      "technologiques": 6674,
      "croyais": 6675,
      "rappro": 6676,
      "attente": 6677,
      "nouveauté": 6678,
      "2015": 6679,
      "douleurs": 6680,
      "intéressés": 6681,
      "feriez": 6682,
      "tentative": 6683,
      "curieux": 6684,
      "organique": 6685,
      "tony": 6686,
      "essaient": 6687,
      "particule": 6688,
      "déta": 6689,
      "ingrédi": 6690,
      "télévision": 6691,
      "printemps": 6692,
      "clic": 6693,
      "2005": 6694,
      "citation": 6695,
      "organisé": 6696,
      "configur": 6697,
      "domma": 6698,
      "mascul": 6699,
      "testé": 6700,
      "métabo": 6701,
      "totalité": 6702,
      "tableaux": 6703,
      "fabric": 6704,
      "applique": 6705,
      "situé": 6706,
      "piège": 6707,
      "voudriez": 6708,
      "innover": 6709,
      "combiner": 6710,
      "égal": 6711,
      "impressionnant": 6712,
      "balle": 6713,
      "souffle": 6714,
      "fabriqué": 6715,
      "religieux": 6716,
      "foot": 6717,
      "impliquer": 6718,
      "attendais": 6719,
      "marchent": 6720,
      "visuelle": 6721,
      "fournis": 6722,
      "fournissent": 6723,
      "blague": 6724,
      "associé": 6725,
      "mécaniques": 6726,
      "effectuer": 6727,
      "célébr": 6728,
      "pollution": 6729,
      "instants": 6730,
      "collectif": 6731,
      "efficacement": 6732,
      "potentiellement": 6733,
      "bousier": 6734,
      "bousiers": 6735,
      "infection": 6736,
      "infections": 6737,
      "isolé": 6738,
      "comparaison": 6739,
      "agissons": 6740,
      "expertise": 6741,
      "high": 6742,
      "anciennes": 6743,
      "ambiti": 6744,
      "urbaine": 6745,
      "colonie": 6746,
      "japonais": 6747,
      "vinci": 6748,
      "darwin": 6749,
      "procédé": 6750,
      "possèdent": 6751,
      "restaurant": 6752,
      "intelligentes": 6753,
      "majeur": 6754,
      "viendrait": 6755,
      "installation": 6756,
      "manifest": 6757,
      "algorithmes": 6758,
      "ologues": 6759,
      "autonome": 6760,
      "architecte": 6761,
      "financement": 6762,
      "budget": 6763,
      "mentionné": 6764,
      "atomique": 6765,
      "abondance": 6766,
      "migrants": 6767,
      "vulnérables": 6768,
      "primates": 6769,
      "connaitre": 6770,
      "réconcili": 6771,
      "contraintes": 6772,
      "horiz": 6773,
      "avocat": 6774,
      "arabes": 6775,
      "réparation": 6776,
      "productivité": 6777,
      "manipuler": 6778,
      "paralys": 6779,
      "peuples": 6780,
      "foxo": 6781,
      "vapeur": 6782,
      "cinquième": 6783,
      "schizophré": 6784,
      "bnb": 6785,
      "tragédie": 6786,
      "mexic": 6787,
      "effondre": 6788,
      "sebastian": 6789,
      "orbite": 6790,
      "stanford": 6791,
      "33": 6792,
      "5000": 6793,
      "72": 6794,
      "barrière": 6795,
      "cm": 6796,
      "gno": 6797,
      "glis": 6798,
      "gates": 6799,
      "gabby": 6800,
      "ii": 6801,
      "ker": 6802,
      "kans": 6803,
      "lante": 6804,
      "mys": 6805,
      "pant": 6806,
      "pist": 6807,
      "ran": 6808,
      "ster": 6809,
      "tos": 6810,
      "uber": 6811,
      "yo": 6812,
      "çaient": 6813,
      "île": 6814,
      "ïs": 6815,
      "enqu": 6816,
      "envelop": 6817,
      "reine": 6818,
      "recours": 6819,
      "reusement": 6820,
      "relâ": 6821,
      "anmoins": 6822,
      "anxi": 6823,
      "lame": 6824,
      "lable": 6825,
      "lauré": 6826,
      "tienne": 6827,
      "titan": 6828,
      "illement": 6829,
      "inée": 6830,
      "ints": 6831,
      "incar": 6832,
      "chais": 6833,
      "ométr": 6834,
      "mentir": 6835,
      "mel": 6836,
      "mez": 6837,
      "sir": 6838,
      "sière": 6839,
      "parait": 6840,
      "paraître": 6841,
      "parlaient": 6842,
      "alté": 6843,
      "comète": 6844,
      "passerait": 6845,
      "étages": 6846,
      "right": 6847,
      "réagir": 6848,
      "dédi": 6849,
      "démén": 6850,
      "eli": 6851,
      "vienne": 6852,
      "confor": 6853,
      "propage": 6854,
      "proxim": 6855,
      "prothèses": 6856,
      "endomma": 6857,
      "examen": 6858,
      "actes": 6859,
      "néanmoins": 6860,
      "coles": 6861,
      "mienne": 6862,
      "usines": 6863,
      "amine": 6864,
      "potable": 6865,
      "pouvant": 6866,
      "légi": 6867,
      "forts": 6868,
      "formés": 6869,
      "crist": 6870,
      "craig": 6871,
      "agi": 6872,
      "agence": 6873,
      "coucher": 6874,
      "mann": 6875,
      "bler": 6876,
      "bleue": 6877,
      "peindre": 6878,
      "sala": 6879,
      "perç": 6880,
      "perdent": 6881,
      "listes": 6882,
      "pic": 6883,
      "pix": 6884,
      "martin": 6885,
      "icien": 6886,
      "obli": 6887,
      "diffus": 6888,
      "séparer": 6889,
      "merde": 6890,
      "garanti": 6891,
      "voila": 6892,
      "seuse": 6893,
      "versée": 6894,
      "prédire": 6895,
      "prévoir": 6896,
      "fondé": 6897,
      "voyait": 6898,
      "dose": 6899,
      "docteurs": 6900,
      "empla": 6901,
      "empire": 6902,
      "courag": 6903,
      "vouliez": 6904,
      "venues": 6905,
      "interrup": 6906,
      "centrales": 6907,
      "ottes": 6908,
      "south": 6909,
      "socio": 6910,
      "unies": 6911,
      "ouvertes": 6912,
      "aliste": 6913,
      "privés": 6914,
      "gay": 6915,
      "formations": 6916,
      "transfer": 6917,
      "tournent": 6918,
      "norme": 6919,
      "élection": 6920,
      "fonctionnait": 6921,
      "critiques": 6922,
      "roues": 6923,
      "devenez": 6924,
      "2012": 6925,
      "stabilité": 6926,
      "olymp": 6927,
      "connaissais": 6928,
      "universités": 6929,
      "universitaire": 6930,
      "afro": 6931,
      "indices": 6932,
      "profits": 6933,
      "raisonn": 6934,
      "syrie": 6935,
      "détest": 6936,
      "quérir": 6937,
      "morale": 6938,
      "capturer": 6939,
      "2006": 6940,
      "paul": 6941,
      "probabilité": 6942,
      "solly": 6943,
      "coûtent": 6944,
      "achète": 6945,
      "apparait": 6946,
      "apparaît": 6947,
      "apparaissent": 6948,
      "augmentent": 6949,
      "méthan": 6950,
      "opéra": 6951,
      "répondent": 6952,
      "ckchain": 6953,
      "laboratoires": 6954,
      "regardait": 6955,
      "paye": 6956,
      "prati": 6957,
      "arrivez": 6958,
      "désas": 6959,
      "promet": 6960,
      "nécessité": 6961,
      "micros": 6962,
      "variables": 6963,
      "avancées": 6964,
      "créative": 6965,
      "disparaissent": 6966,
      "multivers": 6967,
      "glass": 6968,
      "qualités": 6969,
      "visualiser": 6970,
      "briques": 6971,
      "fondamentales": 6972,
      "black": 6973,
      "sacré": 6974,
      "blockchain": 6975,
      "contrôlent": 6976,
      "troisièmement": 6977,
      "ressentent": 6978,
      "hautement": 6979,
      "caractères": 6980,
      "joel": 6981,
      "affecter": 6982,
      "microbien": 6983,
      "kilomètre": 6984,
      "normales": 6985,
      "terroriste": 6986,
      "suggéré": 6987,
      "partageons": 6988,
      "fantôme": 6989,
      "numér": 6990,
      "isoler": 6991,
      "empêche": 6992,
      "collaborative": 6993,
      "suffisant": 6994,
      "affichage": 6995,
      "bords": 6996,
      "branches": 6997,
      "diminué": 6998,
      "estimé": 6999,
      "ministre": 7000,
      "maîtres": 7001,
      "solides": 7002,
      "ampou": 7003,
      "historiques": 7004,
      "oxford": 7005,
      "commercial": 7006,
      "musiciens": 7007,
      "déplacement": 7008,
      "opinions": 7009,
      "boson": 7010,
      "centimes": 7011,
      "simulation": 7012,
      "récupé": 7013,
      "adéqu": 7014,
      "manuel": 7015,
      "homo": 7016,
      "excellente": 7017,
      "obscurité": 7018,
      "administration": 7019,
      "supplémentaire": 7020,
      "victoire": 7021,
      "score": 7022,
      "spatiale": 7023,
      "générosité": 7024,
      "andrew": 7025,
      "performance": 7026,
      "prouvé": 7027,
      "fruits": 7028,
      "activiste": 7029,
      "brillants": 7030,
      "privilé": 7031,
      "magasin": 7032,
      "magasins": 7033,
      "renouvelable": 7034,
      "renouvelables": 7035,
      "plonge": 7036,
      "rurales": 7037,
      "extrémité": 7038,
      "manuscrit": 7039,
      "nettoyer": 7040,
      "tropicale": 7041,
      "répandu": 7042,
      "rejoint": 7043,
      "parcouru": 7044,
      "intrins": 7045,
      "mathématicien": 7046,
      "pilote": 7047,
      "chanteurs": 7048,
      "orphelin": 7049,
      "récepteur": 7050,
      "smith": 7051,
      "saturne": 7052,
      "précoce": 7053,
      "mutuellement": 7054,
      "notamment": 7055,
      "combattants": 7056,
      "chicago": 7057,
      "révolutions": 7058,
      "rwanda": 7059,
      "doctorat": 7060,
      "schizophrénie": 7061,
      "kansas": 7062,
      "proximité": 7063,
      "méthane": 7064,
      "36": 7065,
      "batt": 7066,
      "cail": 7067,
      "clon": 7068,
      "dd": 7069,
      "gê": 7070,
      "gique": 7071,
      "ière": 7072,
      "lère": 7073,
      "mk": 7074,
      "nt": 7075,
      "nal": 7076,
      "nager": 7077,
      "paires": 7078,
      "rétablir": 7079,
      "str": 7080,
      "slog": 7081,
      "sili": 7082,
      "sœurs": 7083,
      "tz": 7084,
      "tunis": 7085,
      "vali": 7086,
      "wor": 7087,
      "xy": 7088,
      "yon": 7089,
      "zy": 7090,
      "zer": 7091,
      "éve": 7092,
      "êter": 7093,
      "espe": 7094,
      "enver": 7095,
      "envis": 7096,
      "envoyez": 7097,
      "aimais": 7098,
      "red": 7099,
      "reur": 7100,
      "revoir": 7101,
      "remis": 7102,
      "regrou": 7103,
      "reprises": 7104,
      "reflè": 7105,
      "lateurs": 7106,
      "tiez": 7107,
      "ticides": 7108,
      "issement": 7109,
      "auda": 7110,
      "estom": 7111,
      "chait": 7112,
      "ouragan": 7113,
      "prétend": 7114,
      "tront": 7115,
      "trag": 7116,
      "menti": 7117,
      "mentales": 7118,
      "itre": 7119,
      "neige": 7120,
      "étons": 7121,
      "civ": 7122,
      "cieuse": 7123,
      "riv": 7124,
      "réper": 7125,
      "réver": 7126,
      "rétré": 7127,
      "déser": 7128,
      "dérange": 7129,
      "ell": 7130,
      "mations": 7131,
      "convention": 7132,
      "condam": 7133,
      "propa": 7134,
      "projection": 7135,
      "suède": 7136,
      "survécu": 7137,
      "abu": 7138,
      "exige": 7139,
      "acous": 7140,
      "mod": 7141,
      "motif": 7142,
      "bidon": 7143,
      "puits": 7144,
      "nove": 7145,
      "logues": 7146,
      "agers": 7147,
      "fixe": 7148,
      "tenaient": 7149,
      "tenue": 7150,
      "permission": 7151,
      "percevoir": 7152,
      "humil": 7153,
      "entretien": 7154,
      "chocola": 7155,
      "mary": 7156,
      "marge": 7157,
      "marins": 7158,
      "ysse": 7159,
      "faces": 7160,
      "sonne": 7161,
      "milit": 7162,
      "ventes": 7163,
      "vertu": 7164,
      "verrons": 7165,
      "posés": 7166,
      "nuits": 7167,
      "voyagé": 7168,
      "vache": 7169,
      "emporter": 7170,
      "emmené": 7171,
      "venise": 7172,
      "interagissent": 7173,
      "center": 7174,
      "soup": 7175,
      "uniforme": 7176,
      "tribun": 7177,
      "addition": 7178,
      "virgin": 7179,
      "mistes": 7180,
      "prenais": 7181,
      "priorités": 7182,
      "imagerie": 7183,
      "construites": 7184,
      "construisons": 7185,
      "transfé": 7186,
      "rendement": 7187,
      "périphé": 7188,
      "signes": 7189,
      "collis": 7190,
      "douzaine": 7191,
      "écologique": 7192,
      "daf": 7193,
      "tenter": 7194,
      "boom": 7195,
      "longée": 7196,
      "curseur": 7197,
      "écris": 7198,
      "permettant": 7199,
      "salon": 7200,
      "bales": 7201,
      "pleurer": 7202,
      "goû": 7203,
      "gore": 7204,
      "réalise": 7205,
      "réaliste": 7206,
      "saute": 7207,
      "hiopie": 7208,
      "vivez": 7209,
      "lances": 7210,
      "enseigné": 7211,
      "pause": 7212,
      "soldats": 7213,
      "représenté": 7214,
      "semblant": 7215,
      "drome": 7216,
      "apparu": 7217,
      "appartement": 7218,
      "culturelle": 7219,
      "observations": 7220,
      "retourne": 7221,
      "retourné": 7222,
      "singe": 7223,
      "supposé": 7224,
      "profondes": 7225,
      "actuels": 7226,
      "réglement": 7227,
      "offert": 7228,
      "liné": 7229,
      "lingu": 7230,
      "égale": 7231,
      "remplis": 7232,
      "danseurs": 7233,
      "foyer": 7234,
      "biologiques": 7235,
      "essentiels": 7236,
      "fortune": 7237,
      "approuv": 7238,
      "quantités": 7239,
      "ieuses": 7240,
      "réduction": 7241,
      "impliqués": 7242,
      "directe": 7243,
      "scand": 7244,
      "foule": 7245,
      "alimentation": 7246,
      "inspirer": 7247,
      "fondamentaux": 7248,
      "prostitu": 7249,
      "mécanismes": 7250,
      "rendue": 7251,
      "individuelle": 7252,
      "inquiète": 7253,
      "ressentais": 7254,
      "cuisiner": 7255,
      "deviez": 7256,
      "devienne": 7257,
      "tasse": 7258,
      "passaient": 7259,
      "pollen": 7260,
      "installé": 7261,
      "studio": 7262,
      "physicien": 7263,
      "demandait": 7264,
      "constitue": 7265,
      "examin": 7266,
      "pensions": 7267,
      "diagram": 7268,
      "préférée": 7269,
      "industries": 7270,
      "entendons": 7271,
      "feme": 7272,
      "secondaires": 7273,
      "modifi": 7274,
      "vacances": 7275,
      "activer": 7276,
      "genoux": 7277,
      "évaluation": 7278,
      "tromper": 7279,
      "perspectives": 7280,
      "amuser": 7281,
      "financier": 7282,
      "civique": 7283,
      "pleinement": 7284,
      "gamin": 7285,
      "myth": 7286,
      "volontaires": 7287,
      "philosophie": 7288,
      "révéler": 7289,
      "conçues": 7290,
      "stocker": 7291,
      "viendra": 7292,
      "cognitif": 7293,
      "cognitive": 7294,
      "désesp": 7295,
      "conçus": 7296,
      "spectaculaire": 7297,
      "enregistrer": 7298,
      "woo": 7299,
      "saint": 7300,
      "astronomes": 7301,
      "administra": 7302,
      "européenne": 7303,
      "accélère": 7304,
      "attentes": 7305,
      "attentivement": 7306,
      "prudence": 7307,
      "subir": 7308,
      "primate": 7309,
      "confrontés": 7310,
      "miracle": 7311,
      "focalisés": 7312,
      "eric": 7313,
      "privilège": 7314,
      "schéma": 7315,
      "blanche": 7316,
      "gigantes": 7317,
      "intui": 7318,
      "comparez": 7319,
      "négatif": 7320,
      "chimpanzés": 7321,
      "retrouvée": 7322,
      "domestiques": 7323,
      "flexible": 7324,
      "modélis": 7325,
      "satellites": 7326,
      "vaisseaux": 7327,
      "régulièrement": 7328,
      "inévitable": 7329,
      "révèle": 7330,
      "contourner": 7331,
      "cérébral": 7332,
      "appartient": 7333,
      "corriger": 7334,
      "babylone": 7335,
      "pacifique": 7336,
      "thomas": 7337,
      "soigneusement": 7338,
      "racines": 7339,
      "gaspil": 7340,
      "département": 7341,
      "ushahi": 7342,
      "embouteillages": 7343,
      "transfert": 7344,
      "world": 7345,
      "novembre": 7346,
      "54": 7347,
      "64": 7348,
      "ace": 7349,
      "atif": 7350,
      "bét": 7351,
      "bits": 7352,
      "billet": 7353,
      "ctive": 7354,
      "dais": 7355,
      "durs": 7356,
      "evan": 7357,
      "fle": 7358,
      "fal": 7359,
      "fection": 7360,
      "gme": 7361,
      "hal": 7362,
      "hec": 7363,
      "hallu": 7364,
      "io": 7365,
      "ila": 7366,
      "ice": 7367,
      "joi": 7368,
      "juri": 7369,
      "ky": 7370,
      "lc": 7371,
      "maire": 7372,
      "nis": 7373,
      "namment": 7374,
      "pli": 7375,
      "paie": 7376,
      "rence": 7377,
      "rants": 7378,
      "sè": 7379,
      "sch": 7380,
      "smart": 7381,
      "tendre": 7382,
      "ving": 7383,
      "yé": 7384,
      "élu": 7385,
      "éni": 7386,
      "épan": 7387,
      "éoli": 7388,
      "îtres": 7389,
      "ôtres": 7390,
      "espérer": 7391,
      "ouff": 7392,
      "quaient": 7393,
      "quins": 7394,
      "quille": 7395,
      "lem": 7396,
      "recul": 7397,
      "revue": 7398,
      "regis": 7399,
      "reconnu": 7400,
      "relie": 7401,
      "reconstruction": 7402,
      "relever": 7403,
      "revan": 7404,
      "anne": 7405,
      "enter": 7406,
      "unami": 7407,
      "law": 7408,
      "lamp": 7409,
      "titres": 7410,
      "teaux": 7411,
      "auteurs": 7412,
      "injustice": 7413,
      "chet": 7414,
      "omb": 7415,
      "prous": 7416,
      "aisons": 7417,
      "pardon": 7418,
      "partez": 7419,
      "ald": 7420,
      "pourront": 7421,
      "poursuivre": 7422,
      "luxe": 7423,
      "ciaire": 7424,
      "rive": 7425,
      "défor": 7426,
      "dévas": 7427,
      "délité": 7428,
      "lion": 7429,
      "liques": 7430,
      "mad": 7431,
      "prot": 7432,
      "projec": 7433,
      "surmonter": 7434,
      "apprise": 7435,
      "témoin": 7436,
      "attiré": 7437,
      "exprimé": 7438,
      "copy": 7439,
      "mix": 7440,
      "miles": 7441,
      "tués": 7442,
      "tubes": 7443,
      "grain": 7444,
      "polis": 7445,
      "manquer": 7446,
      "phones": 7447,
      "cade": 7448,
      "peurs": 7449,
      "sale": 7450,
      "consid": 7451,
      "huîtres": 7452,
      "chev": 7453,
      "anges": 7454,
      "pitié": 7455,
      "coups": 7456,
      "comptes": 7457,
      "comport": 7458,
      "sédu": 7459,
      "sécur": 7460,
      "géant": 7461,
      "tsunami": 7462,
      "cardio": 7463,
      "guéris": 7464,
      "utilisait": 7465,
      "posant": 7466,
      "posté": 7467,
      "seuil": 7468,
      "cherchez": 7469,
      "voyages": 7470,
      "rock": 7471,
      "courante": 7472,
      "travaillaient": 7473,
      "viser": 7474,
      "venais": 7475,
      "jeté": 7476,
      "ignent": 7477,
      "partent": 7478,
      "centri": 7479,
      "oton": 7480,
      "soumis": 7481,
      "soulig": 7482,
      "soutenu": 7483,
      "gratitude": 7484,
      "découvre": 7485,
      "bulles": 7486,
      "corn": 7487,
      "corré": 7488,
      "croître": 7489,
      "tateur": 7490,
      "trade": 7491,
      "primi": 7492,
      "gare": 7493,
      "transmet": 7494,
      "transmission": 7495,
      "lète": 7496,
      "lèvent": 7497,
      "ocde": 7498,
      "collaborer": 7499,
      "from": 7500,
      "fug": 7501,
      "malve": 7502,
      "cassé": 7503,
      "économiste": 7504,
      "rapproche": 7505,
      "généré": 7506,
      "20e": 7507,
      "1950": 7508,
      "1970": 7509,
      "portraits": 7510,
      "pouvoirs": 7511,
      "écrits": 7512,
      "signifier": 7513,
      "profil": 7514,
      "restait": 7515,
      "restres": 7516,
      "raisonnement": 7517,
      "déten": 7518,
      "sortez": 7519,
      "continuons": 7520,
      "arrêt": 7521,
      "juli": 7522,
      "cliquer": 7523,
      "mondiales": 7524,
      "gile": 7525,
      "grammes": 7526,
      "habite": 7527,
      "toits": 7528,
      "coûter": 7529,
      "apparition": 7530,
      "intérieure": 7531,
      "poussent": 7532,
      "complète": 7533,
      "sinc": 7534,
      "jeunesse": 7535,
      "origines": 7536,
      "terrains": 7537,
      "matières": 7538,
      "mariée": 7539,
      "villages": 7540,
      "texas": 7541,
      "défend": 7542,
      "institut": 7543,
      "abeille": 7544,
      "404": 7545,
      "arrivons": 7546,
      "creuser": 7547,
      "facil": 7548,
      "promo": 7549,
      "promen": 7550,
      "ajoute": 7551,
      "impliqué": 7552,
      "attendant": 7553,
      "cosmo": 7554,
      "limit": 7555,
      "créatifs": 7556,
      "collège": 7557,
      "musées": 7558,
      "glacier": 7559,
      "visualisation": 7560,
      "étonnamment": 7561,
      "russes": 7562,
      "individuelles": 7563,
      "aperç": 7564,
      "établi": 7565,
      "hein": 7566,
      "merveilleuses": 7567,
      "affectent": 7568,
      "plaisant": 7569,
      "collecte": 7570,
      "déplacent": 7571,
      "constitué": 7572,
      "automne": 7573,
      "habitat": 7574,
      "fasciné": 7575,
      "fascinante": 7576,
      "fluctu": 7577,
      "fragment": 7578,
      "sexy": 7579,
      "membran": 7580,
      "suggérer": 7581,
      "séquen": 7582,
      "navig": 7583,
      "navire": 7584,
      "épis": 7585,
      "froide": 7586,
      "dangereuses": 7587,
      "descendu": 7588,
      "secondaire": 7589,
      "baisse": 7590,
      "expert": 7591,
      "africaine": 7592,
      "vieillir": 7593,
      "coûteux": 7594,
      "phénomènes": 7595,
      "traduction": 7596,
      "traduire": 7597,
      "compréhensible": 7598,
      "financière": 7599,
      "parasite": 7600,
      "green": 7601,
      "steve": 7602,
      "contribuer": 7603,
      "landais": 7604,
      "philosophes": 7605,
      "dingue": 7606,
      "joindre": 7607,
      "familier": 7608,
      "stratégies": 7609,
      "récompens": 7610,
      "jane": 7611,
      "cognitives": 7612,
      "boston": 7613,
      "déploy": 7614,
      "conçue": 7615,
      "squelettes": 7616,
      "touchées": 7617,
      "dimensionnel": 7618,
      "lancement": 7619,
      "horribles": 7620,
      "initiative": 7621,
      "permanence": 7622,
      "flor": 7623,
      "remercier": 7624,
      "urgences": 7625,
      "assurance": 7626,
      "catégories": 7627,
      "nutrition": 7628,
      "limitée": 7629,
      "budgets": 7630,
      "navires": 7631,
      "hospit": 7632,
      "censé": 7633,
      "bouteille": 7634,
      "cloche": 7635,
      "flèche": 7636,
      "horizon": 7637,
      "avocats": 7638,
      "schémas": 7639,
      "désespérément": 7640,
      "chapitre": 7641,
      "défauts": 7642,
      "substance": 7643,
      "alternative": 7644,
      "intellectuelle": 7645,
      "spectre": 7646,
      "palestini": 7647,
      "invasive": 7648,
      "douloureux": 7649,
      "deviendra": 7650,
      "météor": 7651,
      "dessins": 7652,
      "authentique": 7653,
      "sensibilité": 7654,
      "consommer": 7655,
      "maternelle": 7656,
      "scénario": 7657,
      "ecoutez": 7658,
      "devinez": 7659,
      "légumes": 7660,
      "communautaire": 7661,
      "préservatifs": 7662,
      "seringue": 7663,
      "perpétu": 7664,
      "désastre": 7665,
      "silicon": 7666,
      "linéaire": 7667,
      "désespoir": 7668,
      "ushahidi": 7669,
      "bétail": 7670,
      "hallucin": 7671,
      "éolienne": 7672,
      "revanche": 7673,
      "déforestation": 7674,
      "copyright": 7675,
      "considère": 7676,
      ".»": 7677,
      "700": 7678,
      "acides": 7679,
      "bhou": 7680,
      "barrières": 7681,
      "cts": 7682,
      "dv": 7683,
      "drap": 7684,
      "densité": 7685,
      "dji": 7686,
      "edi": 7687,
      "fan": 7688,
      "fun": 7689,
      "gand": 7690,
      "gments": 7691,
      "gèrent": 7692,
      "hét": 7693,
      "hima": 7694,
      "ic": 7695,
      "ié": 7696,
      "iti": 7697,
      "icô": 7698,
      "jér": 7699,
      "king": 7700,
      "pt": 7701,
      "pères": 7702,
      "pdg": 7703,
      "sla": 7704,
      "scho": 7705,
      "saut": 7706,
      "scep": 7707,
      "spor": 7708,
      "ters": 7709,
      "tac": 7710,
      "tail": 7711,
      "tori": 7712,
      "tbp": 7713,
      "usur": 7714,
      "vor": 7715,
      "vét": 7716,
      "wag": 7717,
      "who": 7718,
      "whit": 7719,
      "yme": 7720,
      "èce": 7721,
      "éman": 7722,
      "éradi": 7723,
      "épreuve": 7724,
      "encre": 7725,
      "out": 7726,
      "outre": 7727,
      "quante": 7728,
      "ailes": 7729,
      "lego": 7730,
      "lecteur": 7731,
      "reg": 7732,
      "reti": 7733,
      "reprendre": 7734,
      "remont": 7735,
      "repose": 7736,
      "remise": 7737,
      "ano": 7738,
      "erait": 7739,
      "etat": 7740,
      "ilé": 7741,
      "illent": 7742,
      "inon": 7743,
      "infin": 7744,
      "intri": 7745,
      "informe": 7746,
      "sel": 7747,
      "chen": 7748,
      "chili": 7749,
      "ory": 7750,
      "orbit": 7751,
      "destin": 7752,
      "sia": 7753,
      "alon": 7754,
      "albu": 7755,
      "combler": 7756,
      "étouff": 7757,
      "dir": 7758,
      "récla": 7759,
      "réinventer": 7760,
      "déni": 7761,
      "dépassé": 7762,
      "découpe": 7763,
      "durer": 7764,
      "ducteur": 7765,
      "lite": 7766,
      "liers": 7767,
      "libres": 7768,
      "viet": 7769,
      "mah": 7770,
      "max": 7771,
      "congo": 7772,
      "contempor": 7773,
      "raff": 7774,
      "procu": 7775,
      "attitude": 7776,
      "monu": 7777,
      "donna": 7778,
      "abris": 7779,
      "exécu": 7780,
      "acadé": 7781,
      "ases": 7782,
      "assi": 7783,
      "asser": 7784,
      "modu": 7785,
      "mobilité": 7786,
      "migration": 7787,
      "çage": 7788,
      "pub": 7789,
      "noyau": 7790,
      "léonard": 7791,
      "cube": 7792,
      "nid": 7793,
      "nier": 7794,
      "serre": 7795,
      "sergent": 7796,
      "couloir": 7797,
      "bienvenue": 7798,
      "dise": 7799,
      "dispers": 7800,
      "fière": 7801,
      "filet": 7802,
      "cateurs": 7803,
      "ortho": 7804,
      "tenant": 7805,
      "sache": 7806,
      "sahari": 7807,
      "consent": 7808,
      "lisent": 7809,
      "pédia": 7810,
      "margin": 7811,
      "obama": 7812,
      "obtiennent": 7813,
      "fati": 7814,
      "suisse": 7815,
      "impuis": 7816,
      "géants": 7817,
      "gardez": 7818,
      "euros": 7819,
      "carton": 7820,
      "immigrants": 7821,
      "ineff": 7822,
      "justement": 7823,
      "créées": 7824,
      "préoccu": 7825,
      "nuages": 7826,
      "mines": 7827,
      "dopa": 7828,
      "courbes": 7829,
      "nommée": 7830,
      "embar": 7831,
      "travaillais": 7832,
      "plait": 7833,
      "partant": 7834,
      "graff": 7835,
      "mutations": 7836,
      "trip": 7837,
      "tribus": 7838,
      "laissent": 7839,
      "huile": 7840,
      "corée": 7841,
      "tateurs": 7842,
      "plateau": 7843,
      "intè": 7844,
      "intang": 7845,
      "intentions": 7846,
      "grandissent": 7847,
      "personnels": 7848,
      "brun": 7849,
      "brise": 7850,
      "brisé": 7851,
      "répand": 7852,
      "privées": 7853,
      "gapour": 7854,
      "transducteur": 7855,
      "rencon": 7856,
      "fumée": 7857,
      "tours": 7858,
      "sortis": 7859,
      "bask": 7860,
      "basés": 7861,
      "ctur": 7862,
      "fonctionné": 7863,
      "bération": 7864,
      "changeons": 7865,
      "menée": 7866,
      "dame": 7867,
      "ferais": 7868,
      "feraient": 7869,
      "itude": 7870,
      "box": 7871,
      "traversé": 7872,
      "1980": 7873,
      "espagno": 7874,
      "positifs": 7875,
      "antici": 7876,
      "passées": 7877,
      "durabilité": 7878,
      "indien": 7879,
      "dèrent": 7880,
      "salaires": 7881,
      "soigner": 7882,
      "syl": 7883,
      "réalisent": 7884,
      "chargé": 7885,
      "sauv": 7886,
      "patience": 7887,
      "capture": 7888,
      "capteurs": 7889,
      "filtre": 7890,
      "solaires": 7891,
      "soldat": 7892,
      "apparue": 7893,
      "écritures": 7894,
      "réfléch": 7895,
      "fédé": 7896,
      "banlieu": 7897,
      "spéciale": 7898,
      "supermarché": 7899,
      "singapour": 7900,
      "cks": 7901,
      "ulysse": 7902,
      "aimerions": 7903,
      "écrivain": 7904,
      "attaqué": 7905,
      "hondur": 7906,
      "choisissez": 7907,
      "atteinte": 7908,
      "atteints": 7909,
      "dirigé": 7910,
      "conceptu": 7911,
      "hybri": 7912,
      "consciente": 7913,
      "maritime": 7914,
      "voudrions": 7915,
      "défenses": 7916,
      "talents": 7917,
      "radicalement": 7918,
      "communications": 7919,
      "principaux": 7920,
      "promouv": 7921,
      "ajouté": 7922,
      "cathé": 7923,
      "nécessairement": 7924,
      "variété": 7925,
      "attendait": 7926,
      "oublions": 7927,
      "kilos": 7928,
      "louer": 7929,
      "loups": 7930,
      "alimentaires": 7931,
      "habituellement": 7932,
      "brièvement": 7933,
      "terribles": 7934,
      "sacs": 7935,
      "constater": 7936,
      "back": 7937,
      "individuels": 7938,
      "insecte": 7939,
      "biodiversité": 7940,
      "globe": 7941,
      "bénévo": 7942,
      "syndrome": 7943,
      "investissements": 7944,
      "libéré": 7945,
      "libération": 7946,
      "demandant": 7947,
      "examens": 7948,
      "examiné": 7949,
      "fusées": 7950,
      "tombent": 7951,
      "détermination": 7952,
      "éloignés": 7953,
      "dessiné": 7954,
      "psychologie": 7955,
      "préférées": 7956,
      "comparé": 7957,
      "gratuit": 7958,
      "drogues": 7959,
      "designers": 7960,
      "dixième": 7961,
      "vieillis": 7962,
      "genres": 7963,
      "originaux": 7964,
      "originale": 7965,
      "doubler": 7966,
      "affiche": 7967,
      "évaluations": 7968,
      "broco": 7969,
      "bell": 7970,
      "robotique": 7971,
      "caméras": 7972,
      "partagée": 7973,
      "identifié": 7974,
      "volontaire": 7975,
      "herbe": 7976,
      "narrateur": 7977,
      "cherchons": 7978,
      "adorent": 7979,
      "préparation": 7980,
      "procédure": 7981,
      "restaurants": 7982,
      "supérieure": 7983,
      "respecter": 7984,
      "échouer": 7985,
      "distinction": 7986,
      "distinguer": 7987,
      "sexuelle": 7988,
      "cardiaques": 7989,
      "centimètres": 7990,
      "espérance": 7991,
      "pompi": 7992,
      "manuels": 7993,
      "ologue": 7994,
      "scolaires": 7995,
      "animation": 7996,
      "souhaitez": 7997,
      "enregistrement": 7998,
      "pyra": 7999,
      "éventu": 8000,
      "introduit": 8001,
      "cruciale": 8002,
      "standard": 8003,
      "naviguer": 8004,
      "chasseurs": 8005,
      "apportent": 8006,
      "performances": 8007,
      "refusé": 8008,
      "explosé": 8009,
      "exploser": 8010,
      "copier": 8011,
      "arabie": 8012,
      "peintures": 8013,
      "adolescentes": 8014,
      "guide": 8015,
      "posters": 8016,
      "alternatives": 8017,
      "avéré": 8018,
      "motivation": 8019,
      "chimpanzé": 8020,
      "formule": 8021,
      "combustible": 8022,
      "exigences": 8023,
      "accorder": 8024,
      "analogie": 8025,
      "discipline": 8026,
      "alerte": 8027,
      "nasa": 8028,
      "conjugales": 8029,
      "emails": 8030,
      "autoroutes": 8031,
      "aminés": 8032,
      "cultiver": 8033,
      "tatouages": 8034,
      "ridicule": 8035,
      "conviction": 8036,
      "millénaires": 8037,
      "débarrasser": 8038,
      "certifi": 8039,
      "cloud": 8040,
      "août": 8041,
      "sarah": 8042,
      "interprétation": 8043,
      "hamburger": 8044,
      "diapositive": 8045,
      "paroles": 8046,
      "ambassade": 8047,
      "trajectoire": 8048,
      "football": 8049,
      "caillou": 8050,
      "réverbération": 8051,
      "gigantesque": 8052,
      "vingt": 8053,
      "épanou": 8054,
      "proust": 8055,
      "centrifug": 8056,
      "fromage": 8057,
      "bhoutan": 8058,
      "vétér": 8059,
      "32": 8060,
      "42": 8061,
      "47": 8062,
      "86": 8063,
      "aé": 8064,
      "aque": 8065,
      "adi": 8066,
      "bc": 8067,
      "bet": 8068,
      "bis": 8069,
      "bav": 8070,
      "bille": 8071,
      "dm": 8072,
      "dal": 8073,
      "dang": 8074,
      "dale": 8075,
      "drale": 8076,
      "fév": 8077,
      "flou": 8078,
      "glement": 8079,
      "hin": 8080,
      "hop": 8081,
      "haine": 8082,
      "if": 8083,
      "ien": 8084,
      "jer": 8085,
      "jun": 8086,
      "nale": 8087,
      "pp": 8088,
      "pur": 8089,
      "paire": 8090,
      "plier": 8091,
      "rb": 8092,
      "rôles": 8093,
      "sun": 8094,
      "sav": 8095,
      "sam": 8096,
      "sper": 8097,
      "spi": 8098,
      "saviez": 8099,
      "tants": 8100,
      "ueux": 8101,
      "vê": 8102,
      "vité": 8103,
      "ventre": 8104,
      "venti": 8105,
      "ws": 8106,
      "well": 8107,
      "zig": 8108,
      "âgés": 8109,
      "échanger": 8110,
      "essor": 8111,
      "envisage": 8112,
      "quar": 8113,
      "quants": 8114,
      "anie": 8115,
      "anatom": 8116,
      "entré": 8117,
      "ethiopie": 8118,
      "laïque": 8119,
      "tim": 8120,
      "tiend": 8121,
      "ceau": 8122,
      "illage": 8123,
      "aurai": 8124,
      "inutiles": 8125,
      "chante": 8126,
      "chats": 8127,
      "trage": 8128,
      "trines": 8129,
      "mental": 8130,
      "siques": 8131,
      "parap": 8132,
      "parlais": 8133,
      "parall": 8134,
      "parcs": 8135,
      "arra": 8136,
      "arché": 8137,
      "allions": 8138,
      "comprise": 8139,
      "réelles": 8140,
      "dédu": 8141,
      "décé": 8142,
      "déchi": 8143,
      "dépasser": 8144,
      "dépit": 8145,
      "dépensons": 8146,
      "duquel": 8147,
      "lic": 8148,
      "lient": 8149,
      "ouvrez": 8150,
      "conor": 8151,
      "profi": 8152,
      "procras": 8153,
      "suprê": 8154,
      "volé": 8155,
      "volent": 8156,
      "volant": 8157,
      "mesdames": 8158,
      "attire": 8159,
      "donateurs": 8160,
      "abî": 8161,
      "exprim": 8162,
      "accoup": 8163,
      "cochr": 8164,
      "ascend": 8165,
      "moz": 8166,
      "territ": 8167,
      "usale": 8168,
      "amè": 8169,
      "cercles": 8170,
      "nike": 8171,
      "serions": 8172,
      "disque": 8173,
      "phal": 8174,
      "phob": 8175,
      "phili": 8176,
      "phases": 8177,
      "fichi": 8178,
      "fiabilité": 8179,
      "inspec": 8180,
      "cateur": 8181,
      "tenait": 8182,
      "tenez": 8183,
      "devint": 8184,
      "enceinte": 8185,
      "hud": 8186,
      "hume": 8187,
      "médit": 8188,
      "méchants": 8189,
      "pires": 8190,
      "piquer": 8191,
      "marin": 8192,
      "marron": 8193,
      "nera": 8194,
      "partition": 8195,
      "comptons": 8196,
      "imper": 8197,
      "autorité": 8198,
      "option": 8199,
      "opèrent": 8200,
      "tempore": 8201,
      "versions": 8202,
      "improvis": 8203,
      "présu": 8204,
      "prévu": 8205,
      "prévision": 8206,
      "préoccuper": 8207,
      "dog": 8208,
      "emma": 8209,
      "enfu": 8210,
      "travailleur": 8211,
      "pete": 8212,
      "visité": 8213,
      "commençait": 8214,
      "interdit": 8215,
      "intermédi": 8216,
      "interdiction": 8217,
      "plain": 8218,
      "cente": 8219,
      "ota": 8220,
      "otte": 8221,
      "véni": 8222,
      "décor": 8223,
      "décri": 8224,
      "bul": 8225,
      "laissant": 8226,
      "sentaient": 8227,
      "admettre": 8228,
      "misphère": 8229,
      "tisée": 8230,
      "répéter": 8231,
      "priorité": 8232,
      "boue": 8233,
      "boutons": 8234,
      "lèvres": 8235,
      "renon": 8236,
      "renfor": 8237,
      "présentée": 8238,
      "signature": 8239,
      "ports": 8240,
      "malheureux": 8241,
      "larité": 8242,
      "croyait": 8243,
      "rapproch": 8244,
      "essayent": 8245,
      "essayais": 8246,
      "2014": 8247,
      "jouons": 8248,
      "toutefois": 8249,
      "ennemis": 8250,
      "grandeur": 8251,
      "imaginiez": 8252,
      "calor": 8253,
      "calme": 8254,
      "développent": 8255,
      "universitaires": 8256,
      "heureuses": 8257,
      "airbnb": 8258,
      "contin": 8259,
      "contiennent": 8260,
      "ferons": 8261,
      "feront": 8262,
      "fermé": 8263,
      "rassemblé": 8264,
      "ensembles": 8265,
      "écrans": 8266,
      "duré": 8267,
      "durables": 8268,
      "indiquer": 8269,
      "pleines": 8270,
      "tonne": 8271,
      "réalisée": 8272,
      "sauvage": 8273,
      "arrêtés": 8274,
      "alienne": 8275,
      "télévis": 8276,
      "télécharger": 8277,
      "prince": 8278,
      "judi": 8279,
      "juger": 8280,
      "juillet": 8281,
      "lancée": 8282,
      "amies": 8283,
      "amitié": 8284,
      "conduisent": 8285,
      "programma": 8286,
      "gagnent": 8287,
      "abordable": 8288,
      "retournée": 8289,
      "barre": 8290,
      "spéciaux": 8291,
      "spécifiques": 8292,
      "superbe": 8293,
      "superfici": 8294,
      "supporter": 8295,
      "fabrique": 8296,
      "vérités": 8297,
      "réussit": 8298,
      "écrivais": 8299,
      "passionnant": 8300,
      "week": 8301,
      "choisis": 8302,
      "processeur": 8303,
      "sérieuse": 8304,
      "hémisphère": 8305,
      "visibilité": 8306,
      "circul": 8307,
      "camara": 8308,
      "géniale": 8309,
      "radicale": 8310,
      "ballon": 8311,
      "souffrir": 8312,
      "dépendants": 8313,
      "facul": 8314,
      "théories": 8315,
      "gravitation": 8316,
      "attends": 8317,
      "poitrine": 8318,
      "potager": 8319,
      "horreur": 8320,
      "habitudes": 8321,
      "habitués": 8322,
      "inspire": 8323,
      "blah": 8324,
      "associer": 8325,
      "étonnante": 8326,
      "faudra": 8327,
      "traditionnel": 8328,
      "contenus": 8329,
      "bush": 8330,
      "céléb": 8331,
      "affecté": 8332,
      "pollu": 8333,
      "dirigeant": 8334,
      "personnelles": 8335,
      "collecter": 8336,
      "inière": 8337,
      "signification": 8338,
      "demandons": 8339,
      "fusée": 8340,
      "nanom": 8341,
      "bourg": 8342,
      "pension": 8343,
      "critères": 8344,
      "puissantes": 8345,
      "remarquables": 8346,
      "feed": 8347,
      "crises": 8348,
      "présidenti": 8349,
      "multipli": 8350,
      "brook": 8351,
      "émerge": 8352,
      "mortelle": 8353,
      "paradig": 8354,
      "conservateur": 8355,
      "gamins": 8356,
      "provoque": 8357,
      "provoquer": 8358,
      "provoqué": 8359,
      "ampleur": 8360,
      "faveur": 8361,
      "partenari": 8362,
      "cherchent": 8363,
      "commerciaux": 8364,
      "fossé": 8365,
      "accélération": 8366,
      "aiguilles": 8367,
      "digit": 8368,
      "célèbres": 8369,
      "affirme": 8370,
      "vagues": 8371,
      "inclure": 8372,
      "activés": 8373,
      "résumer": 8374,
      "récif": 8375,
      "progression": 8376,
      "mâch": 8377,
      "délicat": 8378,
      "réunions": 8379,
      "surveiller": 8380,
      "permanente": 8381,
      "jack": 8382,
      "rayonnement": 8383,
      "watson": 8384,
      "développée": 8385,
      "urbanisation": 8386,
      "hhhh": 8387,
      "photographe": 8388,
      "violente": 8389,
      "spatial": 8390,
      "débuté": 8391,
      "libère": 8392,
      "attentifs": 8393,
      "prototy": 8394,
      "normalité": 8395,
      "oft": 8396,
      "jugement": 8397,
      "lourd": 8398,
      "respirer": 8399,
      "brillante": 8400,
      "cartographie": 8401,
      "manuscrits": 8402,
      "posséder": 8403,
      "glori": 8404,
      "intuition": 8405,
      "hormones": 8406,
      "saoudite": 8407,
      "omniprésent": 8408,
      "approvision": 8409,
      "accomplir": 8410,
      "mémori": 8411,
      "frustr": 8412,
      "illustrer": 8413,
      "stupéfiant": 8414,
      "israéliens": 8415,
      "altruisme": 8416,
      "attrape": 8417,
      "zoomer": 8418,
      "amoureux": 8419,
      "participants": 8420,
      "méritent": 8421,
      "étiquette": 8422,
      "anthro": 8423,
      "maximum": 8424,
      "excuse": 8425,
      "emprunter": 8426,
      "wikipédia": 8427,
      "joshua": 8428,
      "lointain": 8429,
      "pollinisation": 8430,
      "atterrissage": 8431,
      "héroï": 8432,
      "nœuds": 8433,
      "indépendant": 8434,
      "paradoxe": 8435,
      "décembre": 8436,
      "moustiquaires": 8437,
      "diploma": 8438,
      "cartographier": 8439,
      "systématiquement": 8440,
      "absurde": 8441,
      "affronter": 8442,
      "antibiotiques": 8443,
      "immédiat": 8444,
      "rapprocher": 8445,
      "fabricants": 8446,
      "horizont": 8447,
      "ométrie": 8448,
      "déménagé": 8449,
      "emplacement": 8450,
      "microsoft": 8451,
      "intrinsèque": 8452,
      "envisager": 8453,
      "estomac": 8454,
      "tragique": 8455,
      "civils": 8456,
      "collision": 8457,
      "énigme": 8458,
      "souligner": 8459,
      "épisode": 8460,
      "dvd": 8461,
      "djihad": 8462,
      "gandhi": 8463,
      "jérusale": 8464,
      "school": 8465,
      "usurpa": 8466,
      "saharienne": 8467,
      "ineffica": 8468,
      "intangible": 8469,
      "rencontres": 8470,
      "banlieue": 8471,
      "cathédrale": 8472,
      "pyramide": 8473,
      "certificat": 8474,
      "février": 8475,
      "suprême": 8476,
      "cochrane": 8477,
      "jérusalem": 8478,
      "160": 8479,
      "39": 8480,
      "46": 8481,
      "76": 8482,
      "85": 8483,
      "95": 8484,
      "ades": 8485,
      "alar": 8486,
      "atifs": 8487,
      "blu": 8488,
      "bec": 8489,
      "dney": 8490,
      "ech": 8491,
      "fraî": 8492,
      "gnent": 8493,
      "giques": 8494,
      "hur": 8495,
      "hés": 8496,
      "ix": 8497,
      "ibilité": 8498,
      "ieuse": 8499,
      "idèrent": 8500,
      "jord": 8501,
      "kar": 8502,
      "mû": 8503,
      "nau": 8504,
      "nap": 8505,
      "otique": 8506,
      "ogi": 8507,
      "pus": 8508,
      "piste": 8509,
      "pirent": 8510,
      "raire": 8511,
      "ravi": 8512,
      "saire": 8513,
      "sab": 8514,
      "saines": 8515,
      "sho": 8516,
      "sara": 8517,
      "tter": 8518,
      "tage": 8519,
      "turb": 8520,
      "ud": 8521,
      "valise": 8522,
      "war": 8523,
      "yan": 8524,
      "èques": 8525,
      "éprouv": 8526,
      "onu": 8527,
      "onne": 8528,
      "aidez": 8529,
      "requi": 8530,
      "remet": 8531,
      "recommencer": 8532,
      "retiré": 8533,
      "entes": 8534,
      "entrons": 8535,
      "ero": 8536,
      "lat": 8537,
      "lade": 8538,
      "lati": 8539,
      "lades": 8540,
      "tière": 8541,
      "pace": 8542,
      "patron": 8543,
      "papil": 8544,
      "ceuti": 8545,
      "illée": 8546,
      "auté": 8547,
      "inet": 8548,
      "incré": 8549,
      "invite": 8550,
      "intime": 8551,
      "sey": 8552,
      "chères": 8553,
      "avo": 8554,
      "aven": 8555,
      "tril": 8556,
      "italie": 8557,
      "destination": 8558,
      "arth": 8559,
      "alig": 8560,
      "jeff": 8561,
      "compromis": 8562,
      "passions": 8563,
      "rigi": 8564,
      "diab": 8565,
      "dieux": 8566,
      "dimin": 8567,
      "dimanche": 8568,
      "réacteur": 8569,
      "réunir": 8570,
      "déb": 8571,
      "dévou": 8572,
      "dépense": 8573,
      "dépl": 8574,
      "démontrer": 8575,
      "ouvrent": 8576,
      "osau": 8577,
      "vib": 8578,
      "vig": 8579,
      "vides": 8580,
      "vibr": 8581,
      "mac": 8582,
      "concert": 8583,
      "converti": 8584,
      "raté": 8585,
      "proposition": 8586,
      "prothèse": 8587,
      "approfon": 8588,
      "apprenez": 8589,
      "téro": 8590,
      "montrait": 8591,
      "endor": 8592,
      "exil": 8593,
      "extension": 8594,
      "exceptions": 8595,
      "ack": 8596,
      "activement": 8597,
      "acquérir": 8598,
      "nécro": 8599,
      "aste": 8600,
      "terrestres": 8601,
      "ffe": 8602,
      "oiseau": 8603,
      "tuyau": 8604,
      "ameri": 8605,
      "gren": 8606,
      "grèce": 8607,
      "poils": 8608,
      "poing": 8609,
      "sols": 8610,
      "solitaire": 8611,
      "culer": 8612,
      "irri": 8613,
      "ironique": 8614,
      "nigé": 8615,
      "seriez": 8616,
      "insisté": 8617,
      "cachées": 8618,
      "éraux": 8619,
      "samedi": 8620,
      "perce": 8621,
      "consist": 8622,
      "considèrent": 8623,
      "persist": 8624,
      "lisme": 8625,
      "pées": 8626,
      "pier": 8627,
      "piles": 8628,
      "pipi": 8629,
      "pirat": 8630,
      "maris": 8631,
      "nerf": 8632,
      "sév": 8633,
      "séjour": 8634,
      "oppres": 8635,
      "géno": 8636,
      "gardi": 8637,
      "finale": 8638,
      "finissent": 8639,
      "guinée": 8640,
      "vertes": 8641,
      "trouvés": 8642,
      "seum": 8643,
      "ordures": 8644,
      "crédi": 8645,
      "créez": 8646,
      "fonde": 8647,
      "fondée": 8648,
      "courts": 8649,
      "emment": 8650,
      "intersection": 8651,
      "interactif": 8652,
      "millimètre": 8653,
      "souple": 8654,
      "santes": 8655,
      "alisées": 8656,
      "coré": 8657,
      "coran": 8658,
      "corne": 8659,
      "corail": 8660,
      "correct": 8661,
      "plaque": 8662,
      "places": 8663,
      "trahis": 8664,
      "grandissant": 8665,
      "montrez": 8666,
      "briser": 8667,
      "produite": 8668,
      "paysages": 8669,
      "répété": 8670,
      "répète": 8671,
      "répandre": 8672,
      "primante": 8673,
      "format": 8674,
      "renverser": 8675,
      "signer": 8676,
      "coll": 8677,
      "fumer": 8678,
      "future": 8679,
      "lard": 8680,
      "larmes": 8681,
      "larges": 8682,
      "croyances": 8683,
      "canaux": 8684,
      "cton": 8685,
      "crier": 8686,
      "crimes": 8687,
      "généreux": 8688,
      "20ème": 8689,
      "changeant": 8690,
      "stable": 8691,
      "doux": 8692,
      "connaissait": 8693,
      "écologiques": 8694,
      "étudient": 8695,
      "étudiante": 8696,
      "appels": 8697,
      "nets": 8698,
      "malaria": 8699,
      "gentil": 8700,
      "clan": 8701,
      "rassemblent": 8702,
      "traversent": 8703,
      "planétaire": 8704,
      "riennes": 8705,
      "196": 8706,
      "1900": 8707,
      "permettrait": 8708,
      "balement": 8709,
      "restes": 8710,
      "sensori": 8711,
      "soies": 8712,
      "prendrait": 8713,
      "détour": 8714,
      "alien": 8715,
      "hiér": 8716,
      "tomates": 8717,
      "mortes": 8718,
      "jume": 8719,
      "lexique": 8720,
      "capteur": 8721,
      "landes": 8722,
      "traitent": 8723,
      "gramme": 8724,
      "2003": 8725,
      "crack": 8726,
      "représentant": 8727,
      "cyc": 8728,
      "programmeur": 8729,
      "apprises": 8730,
      "magn": 8731,
      "abordables": 8732,
      "cisme": 8733,
      "culturelles": 8734,
      "populaires": 8735,
      "rendons": 8736,
      "rendra": 8737,
      "observez": 8738,
      "barils": 8739,
      "barbar": 8740,
      "spécialement": 8741,
      "écoule": 8742,
      "piter": 8743,
      "appliqué": 8744,
      "appliquons": 8745,
      "écrite": 8746,
      "attacher": 8747,
      "actualités": 8748,
      "offrent": 8749,
      "fonctionnelle": 8750,
      "hôtels": 8751,
      "fourni": 8752,
      "hauts": 8753,
      "adorer": 8754,
      "hydr": 8755,
      "mario": 8756,
      "voudrait": 8757,
      "innov": 8758,
      "considérez": 8759,
      "bruy": 8760,
      "stations": 8761,
      "statique": 8762,
      "radical": 8763,
      "allure": 8764,
      "dépendance": 8765,
      "religieuses": 8766,
      "connues": 8767,
      "chaude": 8768,
      "biologistes": 8769,
      "ajoutons": 8770,
      "catho": 8771,
      "chanceux": 8772,
      "variable": 8773,
      "directions": 8774,
      "rapports": 8775,
      "costume": 8776,
      "avane": 8777,
      "meurtre": 8778,
      "moustique": 8779,
      "sombres": 8780,
      "somalie": 8781,
      "imposer": 8782,
      "révolutionnaire": 8783,
      "précieuse": 8784,
      "précieuses": 8785,
      "règne": 8786,
      "associe": 8787,
      "neutre": 8788,
      "capitale": 8789,
      "bloquer": 8790,
      "illus": 8791,
      "poumon": 8792,
      "poumons": 8793,
      "espoirs": 8794,
      "agricole": 8795,
      "joli": 8796,
      "rompu": 8797,
      "existaient": 8798,
      "demandais": 8799,
      "campagnes": 8800,
      "internationales": 8801,
      "adaptés": 8802,
      "fraction": 8803,
      "épinière": 8804,
      "fréquent": 8805,
      "isova": 8806,
      "assure": 8807,
      "gratuits": 8808,
      "autorités": 8809,
      "sanitaires": 8810,
      "chauffeur": 8811,
      "amusante": 8812,
      "sensible": 8813,
      "arros": 8814,
      "conservation": 8815,
      "1998": 8816,
      "johnny": 8817,
      "dormir": 8818,
      "concentré": 8819,
      "colonnes": 8820,
      "formidables": 8821,
      "philosophe": 8822,
      "révélation": 8823,
      "brésili": 8824,
      "commerciale": 8825,
      "dossier": 8826,
      "dinosau": 8827,
      "épargner": 8828,
      "céréales": 8829,
      "températures": 8830,
      "fantastiques": 8831,
      "entouré": 8832,
      "stylo": 8833,
      "reconnaissant": 8834,
      "parking": 8835,
      "respectu": 8836,
      "échecs": 8837,
      "responsabilités": 8838,
      "fréquences": 8839,
      "progressivement": 8840,
      "dimensionnelle": 8841,
      "baleines": 8842,
      "fausses": 8843,
      "1984": 8844,
      "ralentit": 8845,
      "dave": 8846,
      "désolée": 8847,
      "carburants": 8848,
      "denisova": 8849,
      "autonomie": 8850,
      "découvrez": 8851,
      "silencieuse": 8852,
      "nutriments": 8853,
      "scot": 8854,
      "débuts": 8855,
      "accueillir": 8856,
      "éteindre": 8857,
      "remède": 8858,
      "absorber": 8859,
      "contrainte": 8860,
      "infiniment": 8861,
      "curieuse": 8862,
      "analyses": 8863,
      "pirates": 8864,
      "poignée": 8865,
      "bénéficier": 8866,
      "épaisseur": 8867,
      "fluide": 8868,
      "gloire": 8869,
      "mélangés": 8870,
      "sondages": 8871,
      "guider": 8872,
      "fardeau": 8873,
      "compatis": 8874,
      "amazonie": 8875,
      "rejoindre": 8876,
      "palestine": 8877,
      "domestique": 8878,
      "externe": 8879,
      "logements": 8880,
      "graisse": 8881,
      "sanguins": 8882,
      "criptions": 8883,
      "autoroute": 8884,
      "pêcheurs": 8885,
      "mènent": 8886,
      "lumineux": 8887,
      "ouvriers": 8888,
      "crainte": 8889,
      "obsédé": 8890,
      "gosses": 8891,
      "skype": 8892,
      "issue": 8893,
      "tweet": 8894,
      "intense": 8895,
      "refuge": 8896,
      "illégal": 8897,
      "diamètre": 8898,
      "diplômé": 8899,
      "rabbit": 8900,
      "grimper": 8901,
      "soviétique": 8902,
      "pharmaceuti": 8903,
      "synapses": 8904,
      "bambou": 8905,
      "folles": 8906,
      "jésus": 8907,
      "émerveillement": 8908,
      "impulsions": 8909,
      "ingrédients": 8910,
      "chaises": 8911,
      "interrupteur": 8912,
      "raisonnable": 8913,
      "chocolat": 8914,
      "scandale": 8915,
      "registre": 8916,
      "projections": 8917,
      "guérison": 8918,
      "membrane": 8919,
      "album": 8920,
      "consentement": 8921,
      "promouvoir": 8922,
      "bénévoles": 8923,
      "billets": 8924,
      "dangers": 8925,
      "calories": 8926,
      "mâchoire": 8927,
      "mémorial": 8928,
      "diminue": 8929,
      "piratage": 8930,
      "trahison": 8931,
      "29": 8932,
      "31": 8933,
      "3000": 8934,
      "48": 8935,
      "52": 8936,
      "ala": 8937,
      "ajus": 8938,
      "bin": 8939,
      "bot": 8940,
      "blab": 8941,
      "brale": 8942,
      "cte": 8943,
      "cant": 8944,
      "cits": 8945,
      "dait": 8946,
      "ele": 8947,
      "flé": 8948,
      "feux": 8949,
      "gure": 8950,
      "hil": 8951,
      "hot": 8952,
      "idi": 8953,
      "jen": 8954,
      "jur": 8955,
      "jar": 8956,
      "lord": 8957,
      "ners": 8958,
      "niste": 8959,
      "oen": 8960,
      "olé": 8961,
      "pét": 8962,
      "pomme": 8963,
      "pôle": 8964,
      "ritu": 8965,
      "sis": 8966,
      "sors": 8967,
      "spe": 8968,
      "sables": 8969,
      "top": 8970,
      "west": 8971,
      "ward": 8972,
      "way": 8973,
      "xnet": 8974,
      "ye": 8975,
      "yl": 8976,
      "èles": 8977,
      "éo": 8978,
      "émin": 8979,
      "étiques": 8980,
      "élan": 8981,
      "élabor": 8982,
      "épon": 8983,
      "ïde": 8984,
      "ïste": 8985,
      "ôts": 8986,
      "​​": 8987,
      "quais": 8988,
      "quarts": 8989,
      "aimée": 8990,
      "demie": 8991,
      "lee": 8992,
      "recette": 8993,
      "ticien": 8994,
      "pad": 8995,
      "istr": 8996,
      "istiques": 8997,
      "isol": 8998,
      "audit": 8999,
      "indon": 9000,
      "incapacité": 9001,
      "invit": 9002,
      "inclin": 9003,
      "chré": 9004,
      "chaine": 9005,
      "chair": 9006,
      "avor": 9007,
      "avril": 9008,
      "side": 9009,
      "pari": 9010,
      "parfaites": 9011,
      "arder": 9012,
      "alli": 9013,
      "alcool": 9014,
      "jevo": 9015,
      "compati": 9016,
      "lueur": 9017,
      "rigou": 9018,
      "dira": 9019,
      "digne": 9020,
      "réno": 9021,
      "réagit": 9022,
      "dépasse": 9023,
      "démontre": 9024,
      "déverrou": 9025,
      "duk": 9026,
      "litres": 9027,
      "libat": 9028,
      "licence": 9029,
      "oscar": 9030,
      "osomes": 9031,
      "maps": 9032,
      "concours": 9033,
      "rati": 9034,
      "race": 9035,
      "ressens": 9036,
      "cessé": 9037,
      "ténu": 9038,
      "témoins": 9039,
      "ata": 9040,
      "attra": 9041,
      "athé": 9042,
      "atténu": 9043,
      "geur": 9044,
      "geant": 9045,
      "abou": 9046,
      "exal": 9047,
      "exten": 9048,
      "extin": 9049,
      "extraits": 9050,
      "extraver": 9051,
      "exprime": 9052,
      "néer": 9053,
      "coï": 9054,
      "coch": 9055,
      "cock": 9056,
      "cohér": 9057,
      "asy": 9058,
      "mob": 9059,
      "tuent": 9060,
      "tumes": 9061,
      "amor": 9062,
      "noter": 9063,
      "journées": 9064,
      "ironie": 9065,
      "formée": 9066,
      "nique": 9067,
      "mangez": 9068,
      "bleus": 9069,
      "dispu": 9070,
      "phe": 9071,
      "phie": 9072,
      "phila": 9073,
      "phoen": 9074,
      "file": 9075,
      "fiance": 9076,
      "fiées": 9077,
      "cad": 9078,
      "cache": 9079,
      "tenais": 9080,
      "perçu": 9081,
      "perceptions": 9082,
      "command": 9083,
      "humide": 9084,
      "entrepris": 9085,
      "méga": 9086,
      "métriques": 9087,
      "méfiance": 9088,
      "tresse": 9089,
      "pion": 9090,
      "piétons": 9091,
      "marqué": 9092,
      "marduk": 9093,
      "obre": 9094,
      "obso": 9095,
      "obsession": 9096,
      "impéra": 9097,
      "opposition": 9098,
      "célibat": 9099,
      "milieux": 9100,
      "gardé": 9101,
      "garage": 9102,
      "temple": 9103,
      "carit": 9104,
      "carrés": 9105,
      "carole": 9106,
      "immer": 9107,
      "imiter": 9108,
      "imprimante": 9109,
      "postu": 9110,
      "créés": 9111,
      "logistique": 9112,
      "prédit": 9113,
      "préda": 9114,
      "prévenir": 9115,
      "prédiction": 9116,
      "fondre": 9117,
      "voyais": 9118,
      "voyaient": 9119,
      "maintenu": 9120,
      "courri": 9121,
      "courants": 9122,
[...]
