{
  "version": "1.0",
  "truncation": null,
  "padding": null,
  "added_tokens": [
    {
      "id": 0,
      "content": "[UNK]",
      "single_word": false,
      "lstrip": false,
      "rstrip": false,
      "normalized": false,
      "special": true
    },
    {
      "id": 1,
      "content": "[START]",
      "single_word": false,
      "lstrip": false,
      "rstrip": false,
      "normalized": false,
      "special": true
    },
    {
      "id": 2,
      "content": "[NEXT]",
      "single_word": false,
      "lstrip": false,
      "rstrip": false,
      "normalized": false,
      "special": true
    },
    {
      "id": 3,
      "content": "[STOP]",
      "single_word": false,
      "lstrip": false,
      "rstrip": false,
      "normalized": false,
      "special": true
    }
  ],
  "normalizer": {
    "type": "Sequence",
    "normalizers": [
      {
        "type": "Lowercase"
      },
      {
        "type": "Strip",
        "strip_left": true,
        "strip_right": true
      }
    ]
  },
  "pre_tokenizer": {
    "type": "Whitespace"
  },
  "post_processor": null,
  "decoder": null,
  "model": {
    "type": "BPE",
    "dropout": null,
    "unk_token": null,
    "continuing_subword_prefix": null,
    "end_of_word_suffix": null,
    "fuse_unk": false,
    "byte_fallback": false,
    "ignore_merges": false,
    "vocab": {
      "[UNK]": 0,
      "[START]": 1,
      "[NEXT]": 2,
      "[STOP]": 3,
      " ": 4,
      "!": 5,
      "#": 6,
      "$": 7,
      "%": 8,
      "&": 9,
      "'": 10,
      "(": 11,
      ")": 12,
      "+": 13,
      ",": 14,
      "-": 15,
      ".": 16,
      "/": 17,
      "0": 18,
      "1": 19,
      "2": 20,
      "3": 21,
      "4": 22,
      "5": 23,
      "6": 24,
      "7": 25,
      "8": 26,
      "9": 27,
      ":": 28,
      ";": 29,
      "=": 30,
      "?": 31,
      "[": 32,
      "\\": 33,
      "]": 34,
      "^": 35,
      "_": 36,
      "`": 37,
      "a": 38,
      "b": 39,
      "c": 40,
      "d": 41,
      "e": 42,
      "f": 43,
      "g": 44,
      "h": 45,
      "i": 46,
      "j": 47,
      "k": 48,
      "l": 49,
      "m": 50,
      "n": 51,
      "o": 52,
      "p": 53,
      "q": 54,
      "r": 55,
      "s": 56,
      "t": 57,
      "u": 58,
      "v": 59,
      "w": 60,
      "x": 61,
      "y": 62,
      "z": 63,
      "": 64,
      "": 65,
      "°": 66,
      "´": 67,
      "º": 68,
      "à": 69,
      "á": 70,
      "â": 71,
      "ã": 72,
      "ç": 73,
      "è": 74,
      "é": 75,
      "ê": 76,
      "ë": 77,
      "ì": 78,
      "í": 79,
      "î": 80,
      "ï": 81,
      "ñ": 82,
      "ò": 83,
      "ó": 84,
      "ö": 85,
      "ù": 86,
      "ú": 87,
      "ü": 88,
      "ā": 89,
      "ō": 90,
      "ŧ": 91,
      "ū": 92,
      "ʿ": 93,
      "˚": 94,
      "ѐ": 95,
      "ย": 96,
      "ร": 97,
      "อ": 98,
      "่": 99,
      "​": 100,
      "–": 101,
      "—": 102,
      "’": 103,
      "“": 104,
      "”": 105,
      "…": 106,
      "€": 107,
      "♪": 108,
      "♫": 109,
      "er": 110,
      "on": 111,
      "di": 112,
      "re": 113,
      "to": 114,
      "an": 115,
      "in": 116,
      "en": 117,
      "te": 118,
      "la": 119,
      "ch": 120,
      "co": 121,
      "ti": 122,
      "ta": 123,
      "un": 124,
      "ia": 125,
      "al": 126,
      "qu": 127,
      "ri": 128,
      "es": 129,
      "el": 130,
      "ra": 131,
      "mo": 132,
      "che": 133,
      "le": 134,
      "si": 135,
      "ro": 136,
      "per": 137,
      "li": 138,
      "po": 139,
      "ma": 140,
      "do": 141,
      "ci": 142,
      "ca": 143,
      "lo": 144,
      "so": 145,
      "il": 146,
      "sa": 147,
      "se": 148,
      "no": 149,
      "con": 150,
      "zi": 151,
      "mi": 152,
      "vo": 153,
      "pa": 154,
      "men": 155,
      "de": 156,
      "del": 157,
      "da": 158,
      "st": 159,
      "pi": 160,
      "vi": 161,
      "me": 162,
      "one": 163,
      "''": 164,
      "ques": 165,
      "ono": 166,
      "non": 167,
      "ere": 168,
      "fa": 169,
      "su": 170,
      "tu": 171,
      "gi": 172,
      "iamo": 173,
      "va": 174,
      "una": 175,
      "tto": 176,
      "ve": 177,
      "gli": 178,
      "bb": 179,
      "ano": 180,
      "pro": 181,
      "sta": 182,
      "sono": 183,
      "za": 184,
      "or": 185,
      "ce": 186,
      "bi": 187,
      "zione": 188,
      "ver": 189,
      "tà": 190,
      "ter": 191,
      "``": 192,
      "tti": 193,
      "mente": 194,
      "pre": 195,
      "tra": 196,
      "nel": 197,
      "fi": 198,
      "ni": 199,
      "cu": 200,
      "ne": 201,
      "questo": 202,
      "tro": 203,
      "ar": 204,
      "come": 205,
      "oni": 206,
      "com": 207,
      "ando": 208,
      "più": 209,
      "im": 210,
      "anno": 211,
      "quel": 212,
      "era": 213,
      "chi": 214,
      "par": 215,
      "na": 216,
      "pe": 217,
      "ha": 218,
      "tta": 219,
      "pos": 220,
      "du": 221,
      "abb": 222,
      "ini": 223,
      "ale": 224,
      "della": 225,
      "ba": 226,
      "pri": 227,
      "ess": 228,
      "uo": 229,
      "cosa": 230,
      "mol": 231,
      "ali": 232,
      "ho": 233,
      "ggi": 234,
      "cia": 235,
      "for": 236,
      "ru": 237,
      "cre": 238,
      "man": 239,
      "tre": 240,
      "sti": 241,
      "ven": 242,
      "gu": 243,
      "ente": 244,
      "ste": 245,
      "lu": 246,
      "mb": 247,
      "ina": 248,
      "sto": 249,
      "pen": 250,
      "por": 251,
      "pu": 252,
      "ché": 253,
      "abbiamo": 254,
      "ssi": 255,
      "ga": 256,
      "uni": 257,
      "enti": 258,
      "alla": 259,
      "ero": 260,
      "av": 261,
      "stra": 262,
      "ran": 263,
      "questa": 264,
      "mento": 265,
      "perché": 266,
      "enza": 267,
      "pers": 268,
      "go": 269,
      "cor": 270,
      "sul": 271,
      "cer": 272,
      "zza": 273,
      "siamo": 274,
      "qual": 275,
      "indi": 276,
      "cos": 277,
      "dere": 278,
      "ad": 279,
      "ten": 280,
      "gra": 281,
      "sc": 282,
      "dei": 283,
      "zioni": 284,
      "anche": 285,
      "eri": 286,
      "all": 287,
      "uno": 288,
      "molto": 289,
      "tri": 290,
      "ine": 291,
      "glio": 292,
      "cco": 293,
      "quando": 294,
      "loro": 295,
      "sci": 296,
      "essere": 297,
      "inter": 298,
      "tan": 299,
      "delle": 300,
      "ge": 301,
      "zia": 302,
      "gni": 303,
      "così": 304,
      "io": 305,
      "fare": 306,
      "amo": 307,
      "gia": 308,
      "cui": 309,
      "uto": 310,
      "vol": 311,
      "ona": 312,
      "cono": 313,
      "mon": 314,
      "ac": 315,
      "hanno": 316,
      "spe": 317,
      "esso": 318,
      "ap": 319,
      "solo": 320,
      "ora": 321,
      "tte": 322,
      "ene": 323,
      "ff": 324,
      "anni": 325,
      "tutto": 326,
      "col": 327,
      "persone": 328,
      "ria": 329,
      "sso": 330,
      "cen": 331,
      "ino": 332,
      "00": 333,
      "ed": 334,
      "fo": 335,
      "tutti": 336,
      "quello": 337,
      "nost": 338,
      "stru": 339,
      "esi": 340,
      "ave": 341,
      "mia": 342,
      "sia": 343,
      "chia": 344,
      "gl": 345,
      "dell": 346,
      "sare": 347,
      "tare": 348,
      "vano": 349,
      "bbe": 350,
      "ani": 351,
      "ese": 352,
      "quindi": 353,
      "anti": 354,
      "fatto": 355,
      "sate": 356,
      "bili": 357,
      "mondo": 358,
      "sse": 359,
      "bile": 360,
      "ai": 361,
      "questi": 362,
      "gran": 363,
      "que": 364,
      "modo": 365,
      "lavo": 366,
      "qui": 367,
      "mio": 368,
      "zz": 369,
      "sem": 370,
      "nella": 371,
      "at": 372,
      "ciò": 373,
      "bu": 374,
      "ris": 375,
      "gen": 376,
      "gno": 377,
      "cc": 378,
      "far": 379,
      "bo": 380,
      "queste": 381,
      "sco": 382,
      "prima": 383,
      "noi": 384,
      "fica": 385,
      "am": 386,
      "dal": 387,
      "ante": 388,
      "pren": 389,
      "vita": 390,
      "menti": 391,
      "tura": 392,
      "lare": 393,
      "cose": 394,
      "tt": 395,
      "forma": 396,
      "sen": 397,
      "dove": 398,
      "ssa": 399,
      "stato": 400,
      "parte": 401,
      "fu": 402,
      "vel": 403,
      "essi": 404,
      "are": 405,
      "glia": 406,
      "anza": 407,
      "tem": 408,
      "dire": 409,
      "via": 410,
      "ggio": 411,
      "può": 412,
      "tori": 413,
      "guar": 414,
      "due": 415,
      "gior": 416,
      "nuo": 417,
      "sp": 418,
      "anda": 419,
      "car": 420,
      "rare": 421,
      "diver": 422,
      "risate": 423,
      "pli": 424,
      "pote": 425,
      "fici": 426,
      "mu": 427,
      "poi": 428,
      "capi": 429,
      "ss": 430,
      "tato": 431,
      "ogni": 432,
      "zio": 433,
      "vero": 434,
      "cam": 435,
      "mag": 436,
      "stu": 437,
      "nu": 438,
      "possiamo": 439,
      "dov": 440,
      "cora": 441,
      "gn": 442,
      "uti": 443,
      "camb": 444,
      "der": 445,
      "potre": 446,
      "ele": 447,
      "pio": 448,
      "immag": 449,
      "gh": 450,
      "ble": 451,
      "gna": 452,
      "proble": 453,
      "ide": 454,
      "allo": 455,
      "den": 456,
      "colo": 457,
      "cambia": 458,
      "cci": 459,
      "gente": 460,
      "tica": 461,
      "pia": 462,
      "anto": 463,
      "diven": 464,
      "dopo": 465,
      "pun": 466,
      "diamo": 467,
      "tempo": 468,
      "dia": 469,
      "vedere": 470,
      "altro": 471,
      "oggi": 472,
      "sione": 473,
      "qualcosa": 474,
      "tor": 475,
      "alc": 476,
      "gio": 477,
      "mai": 478,
      "trova": 479,
      "unque": 480,
      "verso": 481,
      "alle": 482,
      "ancora": 483,
      "comp": 484,
      "cchi": 485,
      "bamb": 486,
      "porta": 487,
      "meno": 488,
      "suo": 489,
      "ren": 490,
      "propri": 491,
      "ppo": 492,
      "ron": 493,
      "qua": 494,
      "sie": 495,
      "grande": 496,
      "vole": 497,
      "fon": 498,
      "spa": 499,
      "tec": 500,
      "siste": 501,
      "degli": 502,
      "tamente": 503,
      "rio": 504,
      "lla": 505,
      "tter": 506,
      "inf": 507,
      "..": 508,
      "altri": 509,
      "scu": 510,
      "senti": 511,
      "peri": 512,
      "cie": 513,
      "volta": 514,
      "bene": 515,
      "mani": 516,
      "quella": 517,
      "lib": 518,
      "vere": 519,
      "quanto": 520,
      "fun": 521,
      "dav": 522,
      "dio": 523,
      "sulla": 524,
      "tico": 525,
      "gg": 526,
      "mmo": 527,
      "sempre": 528,
      "real": 529,
      "vamo": 530,
      "ecco": 531,
      "voi": 532,
      "af": 533,
      "picco": 534,
      "tale": 535,
      "arri": 536,
      "cerca": 537,
      "esem": 538,
      "usa": 539,
      "nostro": 540,
      "erano": 541,
      "costru": 542,
      "nostra": 543,
      "essa": 544,
      "vello": 545,
      "don": 546,
      "biso": 547,
      "pra": 548,
      "zion": 549,
      "ser": 550,
      "pie": 551,
      "mie": 552,
      "lavoro": 553,
      "sca": 554,
      "tras": 555,
      "ore": 556,
      "rato": 557,
      "can": 558,
      "avre": 559,
      "ze": 560,
      "molti": 561,
      "guarda": 562,
      "auto": 563,
      "denti": 564,
      "scri": 565,
      "giorno": 566,
      "dalla": 567,
      "impor": 568,
      "zzo": 569,
      "comin": 570,
      "mar": 571,
      "cir": 572,
      "stati": 573,
      "tante": 574,
      "tin": 575,
      "contro": 576,
      "rà": 577,
      "inse": 578,
      "dete": 579,
      "possi": 580,
      "be": 581,
      "mano": 582,
      "sce": 583,
      "fe": 584,
      "idea": 585,
      "stata": 586,
      "possono": 587,
      "davvero": 588,
      "mili": 589,
      "ffici": 590,
      "ul": 591,
      "mini": 592,
      "dice": 593,
      "min": 594,
      "ol": 595,
      "pla": 596,
      "miglio": 597,
      "impa": 598,
      "realtà": 599,
      "crea": 600,
      "nolo": 601,
      "ziona": 602,
      "tecnolo": 603,
      "cce": 604,
      "esempio": 605,
      "detto": 606,
      "problema": 607,
      "storia": 608,
      "mor": 609,
      "sempli": 610,
      "zie": 611,
      "sua": 612,
      "inizia": 613,
      "tivo": 614,
      "senza": 615,
      "rre": 616,
      "dobb": 617,
      "nell": 618,
      "cel": 619,
      "fin": 620,
      "sape": 621,
      "dobbiamo": 622,
      "voglio": 623,
      "bbli": 624,
      "vil": 625,
      "giu": 626,
      "nei": 627,
      "tano": 628,
      "ire": 629,
      "signi": 630,
      "tutte": 631,
      "dovre": 632,
      "au": 633,
      "sor": 634,
      "bilità": 635,
      "secon": 636,
      "sistema": 637,
      "dre": 638,
      "allora": 639,
      "doman": 640,
      "gono": 641,
      "proge": 642,
      "almente": 643,
      "avere": 644,
      "mer": 645,
      "sol": 646,
      "cità": 647,
      "pubbli": 648,
      "ness": 649,
      "ccia": 650,
      "stanza": 651,
      "sal": 652,
      "esti": 653,
      "credo": 654,
      "bisogno": 655,
      "pensa": 656,
      "tipo": 657,
      "fuo": 658,
      "nelle": 659,
      "mma": 660,
      "qualche": 661,
      "mil": 662,
      "rie": 663,
      "forse": 664,
      "poli": 665,
      "cro": 666,
      "informa": 667,
      "raga": 668,
      "dis": 669,
      "stesso": 670,
      "significa": 671,
      "pp": 672,
      "ane": 673,
      "viene": 674,
      "proprio": 675,
      "tore": 676,
      "chiama": 677,
      "altra": 678,
      "rin": 679,
      "amente": 680,
      "tratta": 681,
      "usi": 682,
      "semb": 683,
      "succ": 684,
      "num": 685,
      "gua": 686,
      "posi": 687,
      "bbero": 688,
      "punto": 689,
      "ttura": 690,
      "usci": 691,
      "tur": 692,
      "ttere": 693,
      "potete": 694,
      "val": 695,
      "econo": 696,
      "bel": 697,
      "las": 698,
      "nostri": 699,
      "cri": 700,
      "aspe": 701,
      "bambini": 702,
      "rono": 703,
      "unità": 704,
      "mostra": 705,
      "aveva": 706,
      "fini": 707,
      "tiva": 708,
      "esa": 709,
      "alizza": 710,
      "ori": 711,
      "des": 712,
      "dati": 713,
      "miglia": 714,
      "cin": 715,
      "ov": 716,
      "oc": 717,
      "anta": 718,
      "altre": 719,
      "diff": 720,
      "appla": 721,
      "cit": 722,
      "comincia": 723,
      "pot": 724,
      "cato": 725,
      "fra": 726,
      "000": 727,
      "bil": 728,
      "momento": 729,
      "stiamo": 730,
      "casa": 731,
      "dono": 732,
      "mina": 733,
      "sicu": 734,
      "semplice": 735,
      "grazie": 736,
      "alcuni": 737,
      "volte": 738,
      "contin": 739,
      "applausi": 740,
      "mala": 741,
      "op": 742,
      "corso": 743,
      "svil": 744,
      "20": 745,
      "fer": 746,
      "deci": 747,
      "une": 748,
      "posta": 749,
      "ssione": 750,
      "svilu": 751,
      "mentre": 752,
      "stro": 753,
      "fuori": 754,
      "nuovo": 755,
      "ami": 756,
      "paro": 757,
      "primo": 758,
      "lin": 759,
      "tel": 760,
      "negli": 761,
      "as": 762,
      "cina": 763,
      "circa": 764,
      "ulti": 765,
      "gge": 766,
      "atti": 767,
      "rsi": 768,
      "nostre": 769,
      "attra": 770,
      "ur": 771,
      "dall": 772,
      "dare": 773,
      "ffe": 774,
      "posto": 775,
      "arriva": 776,
      "importante": 777,
      "esperi": 778,
      "ggia": 779,
      "zzi": 780,
      "rica": 781,
      "condi": 782,
      "ppa": 783,
      "lmente": 784,
      "sin": 785,
      "medi": 786,
      "insie": 787,
      "volu": 788,
      "capire": 789,
      "sotto": 790,
      "miei": 791,
      "città": 792,
      "cervello": 793,
      "qualc": 794,
      "socie": 795,
      "insieme": 796,
      "funziona": 797,
      "lun": 798,
      "gui": 799,
      "dato": 800,
      "foto": 801,
      "tanto": 802,
      "pera": 803,
      "vedete": 804,
      "produ": 805,
      "colle": 806,
      "lascia": 807,
      "rano": 808,
      "persona": 809,
      "tten": 810,
      "società": 811,
      "ricor": 812,
      "dente": 813,
      "rvi": 814,
      "menta": 815,
      "10": 816,
      "line": 817,
      "parla": 818,
      "and": 819,
      "presen": 820,
      "tanti": 821,
      "sarebbe": 822,
      "fine": 823,
      "tutta": 824,
      "scuo": 825,
      "visto": 826,
      "molte": 827,
      "donne": 828,
      "vono": 829,
      "contra": 830,
      "rdi": 831,
      "creare": 832,
      "cal": 833,
      "lui": 834,
      "cendo": 835,
      "visi": 836,
      "già": 837,
      "immagina": 838,
      "care": 839,
      "uta": 840,
      "sica": 841,
      "ener": 842,
      "succe": 843,
      "diffici": 844,
      "quelle": 845,
      "parti": 846,
      "pensare": 847,
      "utili": 848,
      "tecnologia": 849,
      "is": 850,
      "milioni": 851,
      "sopra": 852,
      "penso": 853,
      "ssimo": 854,
      "asso": 855,
      "fosse": 856,
      "stitu": 857,
      "continu": 858,
      "inve": 859,
      "vuo": 860,
      "quali": 861,
      "ccio": 862,
      "possibile": 863,
      "qualcuno": 864,
      "milia": 865,
      "ranno": 866,
      "ttu": 867,
      "ok": 868,
      "aff": 869,
      "arti": 870,
      "parlare": 871,
      "andare": 872,
      "cellu": 873,
      "chie": 874,
      "potrebbe": 875,
      "feri": 876,
      "dello": 877,
      "...": 878,
      "numero": 879,
      "bra": 880,
      "super": 881,
      "parl": 882,
      "senso": 883,
      "gre": 884,
      "acqua": 885,
      "effe": 886,
      "avete": 887,
      "avevo": 888,
      "glie": 889,
      "veramente": 890,
      "fre": 891,
      "consi": 892,
      "19": 893,
      "cch": 894,
      "fanno": 895,
      "endo": 896,
      "org": 897,
      "ggiun": 898,
      "sì": 899,
      "sei": 900,
      "mater": 901,
      "lazione": 902,
      "perto": 903,
      "grandi": 904,
      "futu": 905,
      "stanno": 906,
      "vide": 907,
      "bio": 908,
      "hi": 909,
      "veri": 910,
      "conosc": 911,
      "farlo": 912,
      "bilmente": 913,
      "fino": 914,
      "esse": 915,
      "passa": 916,
      "domanda": 917,
      "lì": 918,
      "ciale": 919,
      "stessa": 920,
      "certo": 921,
      "gru": 922,
      "tivi": 923,
      "acca": 924,
      "ghi": 925,
      "terra": 926,
      "conta": 927,
      "comple": 928,
      "sembra": 929,
      "para": 930,
      "ameri": 931,
      "azione": 932,
      "gere": 933,
      "rlo": 934,
      "umani": 935,
      "lab": 936,
      "cciamo": 937,
      "entra": 938,
      "successo": 939,
      "avuto": 940,
      "grado": 941,
      "desi": 942,
      "vin": 943,
      "abba": 944,
      "credi": 945,
      "diversi": 946,
      "caso": 947,
      "enze": 948,
      "us": 949,
      "facciamo": 950,
      "prova": 951,
      "risul": 952,
      "secondo": 953,
      "tina": 954,
      "vorre": 955,
      "mettere": 956,
      "gione": 957,
      "enzia": 958,
      "eli": 959,
      "prendere": 960,
      "scono": 961,
      "ambi": 962,
      "difficile": 963,
      "riusci": 964,
      "stre": 965,
      "interess": 966,
      "cento": 967,
      "ana": 968,
      "dai": 969,
      "rante": 970,
      "rac": 971,
      "ttamente": 972,
      "materia": 973,
      "futuro": 974,
      "oss": 975,
      "organi": 976,
      "ggior": 977,
      "ppiamo": 978,
      "aver": 979,
      "ordi": 980,
      "attraverso": 981,
      "natur": 982,
      "dendo": 983,
      "spazio": 984,
      "paesi": 985,
      "quasi": 986,
      "fonda": 987,
      "rap": 988,
      "zo": 989,
      "nor": 990,
      "pare": 991,
      "paese": 992,
      "proba": 993,
      "energia": 994,
      "cesso": 995,
      "rci": 996,
      "versi": 997,
      "llo": 998,
      "lato": 999,
      "sost": 1000,
      "stri": 1001,
      "meglio": 1002,
      "mette": 1003,
      "lei": 1004,
      "cio": 1005,
      "diventa": 1006,
      "macch": 1007,
      "velo": 1008,
      "video": 1009,
      "bre": 1010,
      "glo": 1011,
      "sappiamo": 1012,
      "pon": 1013,
      "geni": 1014,
      "50": 1015,
      "stica": 1016,
      "adesso": 1017,
      "progetto": 1018,
      "trovare": 1019,
      "differ": 1020,
      "seri": 1021,
      "viamo": 1022,
      "ricerca": 1023,
      "state": 1024,
      "mana": 1025,
      "soli": 1026,
      "vengono": 1027,
      "ger": 1028,
      "media": 1029,
      "torna": 1030,
      "informazioni": 1031,
      "ck": 1032,
      "progra": 1033,
      "compu": 1034,
      "corpo": 1035,
      "ben": 1036,
      "quanti": 1037,
      "invece": 1038,
      "labora": 1039,
      "vvi": 1040,
      "tr": 1041,
      "prote": 1042,
      "net": 1043,
      "scuola": 1044,
      "th": 1045,
      "siano": 1046,
      "fatti": 1047,
      "azi": 1048,
      "dolla": 1049,
      "otten": 1050,
      "ttore": 1051,
      "azien": 1052,
      "cla": 1053,
      "rice": 1054,
      "maggior": 1055,
      "mica": 1056,
      "computer": 1057,
      "usare": 1058,
      "posso": 1059,
      "200": 1060,
      "sper": 1061,
      "chio": 1062,
      "incredi": 1063,
      "problemi": 1064,
      "quale": 1065,
      "port": 1066,
      "beh": 1067,
      "abbastanza": 1068,
      "niente": 1069,
      "gover": 1070,
      "specie": 1071,
      "osser": 1072,
      "die": 1073,
      "tele": 1074,
      "vista": 1075,
      "rmi": 1076,
      "mate": 1077,
      "faci": 1078,
      "dalle": 1079,
      "nessuno": 1080,
      "cere": 1081,
      "luo": 1082,
      "zionale": 1083,
      "clu": 1084,
      "ttare": 1085,
      "cambiare": 1086,
      "uro": 1087,
      "tali": 1088,
      "sarà": 1089,
      "facendo": 1090,
      "nuova": 1091,
      "parole": 1092,
      "dunque": 1093,
      "troppo": 1094,
      "cresci": 1095,
      "gare": 1096,
      "gliamo": 1097,
      "siete": 1098,
      "fron": 1099,
      "piu": 1100,
      "sui": 1101,
      "tici": 1102,
      "pere": 1103,
      "occu": 1104,
      "spie": 1105,
      "esp": 1106,
      "assi": 1107,
      "pes": 1108,
      "vediamo": 1109,
      "male": 1110,
      "capa": 1111,
      "deve": 1112,
      "face": 1113,
      "gie": 1114,
      "uomo": 1115,
      "strada": 1116,
      "alcune": 1117,
      "malatti": 1118,
      "cca": 1119,
      "modi": 1120,
      "livello": 1121,
      "partico": 1122,
      "dollari": 1123,
      "cli": 1124,
      "conto": 1125,
      "glob": 1126,
      "cano": 1127,
      "quat": 1128,
      "segu": 1129,
      "devo": 1130,
      "risposta": 1131,
      "spesso": 1132,
      "dera": 1133,
      "fanta": 1134,
      "messo": 1135,
      "popo": 1136,
      "iniziato": 1137,
      "len": 1138,
      "smo": 1139,
      "pena": 1140,
      "unica": 1141,
      "quattro": 1142,
      "rispe": 1143,
      "poter": 1144,
      "giov": 1145,
      "ciali": 1146,
      "uniti": 1147,
      "ll": 1148,
      "messa": 1149,
      "setti": 1150,
      "immagine": 1151,
      "costruire": 1152,
      "condivi": 1153,
      "prin": 1154,
      "vesti": 1155,
      "insegn": 1156,
      "lungo": 1157,
      "diri": 1158,
      "rete": 1159,
      "stico": 1160,
      "ssero": 1161,
      "luce": 1162,
      "pensate": 1163,
      "ffi": 1164,
      "sch": 1165,
      "comunità": 1166,
      "cchio": 1167,
      "sapete": 1168,
      "mare": 1169,
      "pure": 1170,
      "amici": 1171,
      "agli": 1172,
      "cente": 1173,
      "ute": 1174,
      "disse": 1175,
      "musica": 1176,
      "sola": 1177,
      "costrui": 1178,
      "vorrei": 1179,
      "tati": 1180,
      "lingua": 1181,
      "muo": 1182,
      "tiche": 1183,
      "compl": 1184,
      "durante": 1185,
      "ing": 1186,
      "cul": 1187,
      "aria": 1188,
      "sull": 1189,
      "giorni": 1190,
      "interessante": 1191,
      "son": 1192,
      "ber": 1193,
      "micro": 1194,
      "inizio": 1195,
      "ovvia": 1196,
      "edi": 1197,
      "os": 1198,
      "anim": 1199,
      "vostro": 1200,
      "stare": 1201,
      "internet": 1202,
      "migliore": 1203,
      "cibo": 1204,
      "viol": 1205,
      "vare": 1206,
      "princi": 1207,
      "ssu": 1208,
      "ton": 1209,
      "compa": 1210,
      "torno": 1211,
      "cinque": 1212,
      "fal": 1213,
      "lon": 1214,
      "racco": 1215,
      "inten": 1216,
      "dotto": 1217,
      "fida": 1218,
      "piccolo": 1219,
      "programma": 1220,
      "oh": 1221,
      "sioni": 1222,
      "scoperto": 1223,
      "30": 1224,
      "lan": 1225,
      "scienza": 1226,
      "avevano": 1227,
      "aiu": 1228,
      "veni": 1229,
      "studenti": 1230,
      "cura": 1231,
      "effetti": 1232,
      "matema": 1233,
      "ovviamente": 1234,
      "agi": 1235,
      "misu": 1236,
      "potere": 1237,
      "miliardi": 1238,
      "sba": 1239,
      "vogliamo": 1240,
      "diverse": 1241,
      "giusto": 1242,
      "età": 1243,
      "fil": 1244,
      "umano": 1245,
      "indu": 1246,
      "legg": 1247,
      "str": 1248,
      "nello": 1249,
      "nec": 1250,
      "atten": 1251,
      "piace": 1252,
      "dimen": 1253,
      "mezzo": 1254,
      "chies": 1255,
      "interno": 1256,
      "plica": 1257,
      "anzia": 1258,
      "pazi": 1259,
      "vità": 1260,
      "hai": 1261,
      "mane": 1262,
      "guer": 1263,
      "bambino": 1264,
      "semplicemente": 1265,
      "solu": 1266,
      "scel": 1267,
      "quei": 1268,
      "avrebbe": 1269,
      "erò": 1270,
      "metri": 1271,
      "forza": 1272,
      "vento": 1273,
      "oltre": 1274,
      "cra": 1275,
      "ura": 1276,
      "causa": 1277,
      "vostra": 1278,
      "porto": 1279,
      "succede": 1280,
      "enor": 1281,
      "cando": 1282,
      "regi": 1283,
      "famiglia": 1284,
      "ttosto": 1285,
      "quelli": 1286,
      "cambiamento": 1287,
      "erà": 1288,
      "person": 1289,
      "insegna": 1290,
      "piuttosto": 1291,
      "mesi": 1292,
      "ena": 1293,
      "trasforma": 1294,
      "ado": 1295,
      "ban": 1296,
      "vic": 1297,
      "diverso": 1298,
      "gruppo": 1299,
      "rappresen": 1300,
      "probabilmente": 1301,
      "tive": 1302,
      "tazione": 1303,
      "risol": 1304,
      "stan": 1305,
      "sapere": 1306,
      "comporta": 1307,
      "base": 1308,
      "avanti": 1309,
      "sviluppa": 1310,
      "affron": 1311,
      "tando": 1312,
      "preso": 1313,
      "universi": 1314,
      "guardate": 1315,
      "pubblico": 1316,
      "ttri": 1317,
      "new": 1318,
      "lavorare": 1319,
      "imparare": 1320,
      "opera": 1321,
      "stante": 1322,
      "genera": 1323,
      "ogge": 1324,
      "uomini": 1325,
      "campo": 1326,
      "suoi": 1327,
      "stessi": 1328,
      "sulle": 1329,
      "ragazzi": 1330,
      "rispetto": 1331,
      "cola": 1332,
      "metter": 1333,
      "esperienza": 1334,
      "coin": 1335,
      "voce": 1336,
      "corre": 1337,
      "appena": 1338,
      "macchina": 1339,
      "bri": 1340,
      "pel": 1341,
      "intel": 1342,
      "defini": 1343,
      "costo": 1344,
      "quad": 1345,
      "quest": 1346,
      "ork": 1347,
      "mera": 1348,
      "sche": 1349,
      "anzi": 1350,
      "chiamo": 1351,
      "madre": 1352,
      "possibilità": 1353,
      "san": 1354,
      "perciò": 1355,
      "vivere": 1356,
      "arte": 1357,
      "abbia": 1358,
      "esist": 1359,
      "immagini": 1360,
      "completamente": 1361,
      "sano": 1362,
      "uso": 1363,
      "tipi": 1364,
      "poco": 1365,
      "tua": 1366,
      "domande": 1367,
      "cominciato": 1368,
      "universo": 1369,
      "zzazione": 1370,
      "struttura": 1371,
      "ie": 1372,
      "gri": 1373,
      "logi": 1374,
      "nova": 1375,
      "fort": 1376,
      "donna": 1377,
      "sicure": 1378,
      "feli": 1379,
      "stava": 1380,
      "indivi": 1381,
      "piccola": 1382,
      "pensato": 1383,
      "sosten": 1384,
      "emo": 1385,
      "limi": 1386,
      "possa": 1387,
      "individu": 1388,
      "istru": 1389,
      "sf": 1390,
      "samente": 1391,
      "portare": 1392,
      "sviluppo": 1393,
      "sole": 1394,
      "100": 1395,
      "raggiun": 1396,
      "processo": 1397,
      "fico": 1398,
      "dovuto": 1399,
      "pratica": 1400,
      "cali": 1401,
      "fran": 1402,
      "erci": 1403,
      "paura": 1404,
      "dovremmo": 1405,
      "cellule": 1406,
      "conce": 1407,
      "posti": 1408,
      "nuove": 1409,
      "ascol": 1410,
      "particolare": 1411,
      "meravi": 1412,
      "pag": 1413,
      "qualunque": 1414,
      "economia": 1415,
      "moni": 1416,
      "ppi": 1417,
      "rego": 1418,
      "tate": 1419,
      "piane": 1420,
      "lavora": 1421,
      "fortuna": 1422,
      "globale": 1423,
      "dip": 1424,
      "ries": 1425,
      "demo": 1426,
      "torio": 1427,
      "guardo": 1428,
      "servi": 1429,
      "capacità": 1430,
      "guerra": 1431,
      "ada": 1432,
      "investi": 1433,
      "storie": 1434,
      "spon": 1435,
      "elettri": 1436,
      "sentito": 1437,
      "valore": 1438,
      "quell": 1439,
      "dentro": 1440,
      "utilizza": 1441,
      "tran": 1442,
      "lega": 1443,
      "mentale": 1444,
      "prop": 1445,
      "figli": 1446,
      "straordi": 1447,
      "migliori": 1448,
      "considera": 1449,
      "pron": 1450,
      "spi": 1451,
      "nome": 1452,
      "ttivo": 1453,
      "natura": 1454,
      "primi": 1455,
      "seconda": 1456,
      "salute": 1457,
      "aspetta": 1458,
      "euro": 1459,
      "intorno": 1460,
      "elo": 1461,
      "ture": 1462,
      "studi": 1463,
      "libro": 1464,
      "esattamente": 1465,
      "15": 1466,
      "cchia": 1467,
      "ucci": 1468,
      "gliere": 1469,
      "pressione": 1470,
      "cambi": 1471,
      "creato": 1472,
      "economi": 1473,
      "indust": 1474,
      "ato": 1475,
      "off": 1476,
      "maggio": 1477,
      "necessa": 1478,
      "disa": 1479,
      "noti": 1480,
      "tuto": 1481,
      "cercare": 1482,
      "assolu": 1483,
      "facile": 1484,
      "identi": 1485,
      "lli": 1486,
      "padre": 1487,
      "diventare": 1488,
      "voluzione": 1489,
      "cle": 1490,
      "africa": 1491,
      "resi": 1492,
      "perfe": 1493,
      "esplo": 1494,
      "capito": 1495,
      "volevo": 1496,
      "affa": 1497,
      "scon": 1498,
      "qualsia": 1499,
      "liber": 1500,
      "imparato": 1501,
      "qualsiasi": 1502,
      "gene": 1503,
      "rò": 1504,
      "lari": 1505,
      "alto": 1506,
      "tuo": 1507,
      "tradi": 1508,
      "raccon": 1509,
      "luogo": 1510,
      "ciamo": 1511,
      "occhi": 1512,
      "psi": 1513,
      "rla": 1514,
      "piccoli": 1515,
      "ambiente": 1516,
      "chiesto": 1517,
      "rela": 1518,
      "ted": 1519,
      "estre": 1520,
      "ragione": 1521,
      "genere": 1522,
      "potremmo": 1523,
      "zionali": 1524,
      "migliaia": 1525,
      "eno": 1526,
      "lar": 1527,
      "convin": 1528,
      "spin": 1529,
      "idee": 1530,
      "trovato": 1531,
      "sbaglia": 1532,
      "propria": 1533,
      "cani": 1534,
      "genti": 1535,
      "mpa": 1536,
      "ner": 1537,
      "otti": 1538,
      "pal": 1539,
      "york": 1540,
      "modello": 1541,
      "consu": 1542,
      "mentare": 1543,
      "date": 1544,
      "carb": 1545,
      "ke": 1546,
      "sh": 1547,
      "cercando": 1548,
      "ultimi": 1549,
      "enorme": 1550,
      "motivo": 1551,
      "lio": 1552,
      "sette": 1553,
      "secolo": 1554,
      "vite": 1555,
      "versa": 1556,
      "ttiva": 1557,
      "fidu": 1558,
      "chied": 1559,
      "rispon": 1560,
      "tteri": 1561,
      "passato": 1562,
      "aggiun": 1563,
      "tere": 1564,
      "realizza": 1565,
      "paio": 1566,
      "archi": 1567,
      "impe": 1568,
      "pensi": 1569,
      "posizione": 1570,
      "crescita": 1571,
      "industria": 1572,
      "cale": 1573,
      "istitu": 1574,
      "rire": 1575,
      "strumenti": 1576,
      "buona": 1577,
      "ghe": 1578,
      "soldi": 1579,
      "soluzione": 1580,
      "sicurezza": 1581,
      "mine": 1582,
      "coli": 1583,
      "razione": 1584,
      "giro": 1585,
      "gue": 1586,
      "accor": 1587,
      "zze": 1588,
      "prendi": 1589,
      "influ": 1590,
      "tecnologie": 1591,
      "intelli": 1592,
      "incontra": 1593,
      "dovrebbe": 1594,
      "lti": 1595,
      "testa": 1596,
      "simi": 1597,
      "devono": 1598,
      "centina": 1599,
      "punti": 1600,
      "fondo": 1601,
      "matematica": 1602,
      "fiducia": 1603,
      "schi": 1604,
      "reale": 1605,
      "ttiamo": 1606,
      "opport": 1607,
      "aziende": 1608,
      "sente": 1609,
      "we": 1610,
      "potuto": 1611,
      "conn": 1612,
      "cresc": 1613,
      "portato": 1614,
      "scienzia": 1615,
      "esiste": 1616,
      "singo": 1617,
      "giovani": 1618,
      "animali": 1619,
      "bar": 1620,
      "fia": 1621,
      "innova": 1622,
      "ramente": 1623,
      "letter": 1624,
      "illu": 1625,
      "conten": 1626,
      "deva": 1627,
      "vera": 1628,
      "ttato": 1629,
      "indie": 1630,
      "controllo": 1631,
      "immaginate": 1632,
      "comune": 1633,
      "fore": 1634,
      "avevamo": 1635,
      "chiamato": 1636,
      "vuole": 1637,
      "design": 1638,
      "princip": 1639,
      "indietro": 1640,
      "dano": 1641,
      "colpi": 1642,
      "scritto": 1643,
      "collega": 1644,
      "incredibile": 1645,
      "opportunità": 1646,
      "40": 1647,
      "atto": 1648,
      "atta": 1649,
      "gar": 1650,
      "reli": 1651,
      "este": 1652,
      "studio": 1653,
      "differenza": 1654,
      "pianeta": 1655,
      "perio": 1656,
      "preoccu": 1657,
      "neur": 1658,
      "rur": 1659,
      "mondi": 1660,
      "governo": 1661,
      "democra": 1662,
      "edu": 1663,
      "docu": 1664,
      "sociale": 1665,
      "bie": 1666,
      "scienti": 1667,
      "acce": 1668,
      "morte": 1669,
      "risultati": 1670,
      "abi": 1671,
      "blo": 1672,
      "gesti": 1673,
      "lle": 1674,
      "mmi": 1675,
      "erro": 1676,
      "test": 1677,
      "terre": 1678,
      "scopri": 1679,
      "politica": 1680,
      "popolazione": 1681,
      "meraviglio": 1682,
      "dipen": 1683,
      "distru": 1684,
      "saranno": 1685,
      "faccia": 1686,
      "forte": 1687,
      "geno": 1688,
      "aspetto": 1689,
      "veloce": 1690,
      "breve": 1691,
      "edifici": 1692,
      "violenza": 1693,
      "dna": 1694,
      "ogn": 1695,
      "robo": 1696,
      "pas": 1697,
      "prof": 1698,
      "alità": 1699,
      "settimana": 1700,
      "miamo": 1701,
      "inven": 1702,
      "vate": 1703,
      "presi": 1704,
      "sentire": 1705,
      "dimostra": 1706,
      "gioni": 1707,
      "preci": 1708,
      "ssioni": 1709,
      "nuovi": 1710,
      "parola": 1711,
      "naturale": 1712,
      "tari": 1713,
      "metà": 1714,
      "faccio": 1715,
      "centro": 1716,
      "libri": 1717,
      "immaginare": 1718,
      "dita": 1719,
      "digi": 1720,
      "passo": 1721,
      "deter": 1722,
      "visione": 1723,
      "mangia": 1724,
      "interessa": 1725,
      "appro": 1726,
      "torn": 1727,
      "avrei": 1728,
      "sani": 1729,
      "dicono": 1730,
      "estra": 1731,
      "fatta": 1732,
      "sopravvi": 1733,
      "tture": 1734,
      "denza": 1735,
      "gro": 1736,
      "vede": 1737,
      "bbia": 1738,
      "ssimi": 1739,
      "importanti": 1740,
      "informazione": 1741,
      "orig": 1742,
      "genitori": 1743,
      "asse": 1744,
      "là": 1745,
      "obie": 1746,
      "rli": 1747,
      "sé": 1748,
      "disp": 1749,
      "more": 1750,
      "ster": 1751,
      "oria": 1752,
      "terri": 1753,
      "preferi": 1754,
      "comuni": 1755,
      "ssima": 1756,
      "rischio": 1757,
      "minuti": 1758,
      "nessun": 1759,
      "serie": 1760,
      "telef": 1761,
      "deri": 1762,
      "speri": 1763,
      "discu": 1764,
      "soff": 1765,
      "volo": 1766,
      "fisica": 1767,
      "puo": 1768,
      "movi": 1769,
      "permette": 1770,
      "nata": 1771,
      "unico": 1772,
      "pubblica": 1773,
      "sicuro": 1774,
      "coinvol": 1775,
      "60": 1776,
      "ruo": 1777,
      "mole": 1778,
      "impre": 1779,
      "rispar": 1780,
      "scala": 1781,
      "guardare": 1782,
      "mercato": 1783,
      "successi": 1784,
      "numeri": 1785,
      "malattie": 1786,
      "ester": 1787,
      "vogli": 1788,
      "detta": 1789,
      "strano": 1790,
      "vir": 1791,
      "tuazione": 1792,
      "bito": 1793,
      "duto": 1794,
      "volete": 1795,
      "ottenere": 1796,
      "attenzione": 1797,
      "vicino": 1798,
      "università": 1799,
      "centinaia": 1800,
      "dando": 1801,
      "respon": 1802,
      "rico": 1803,
      "vato": 1804,
      "compi": 1805,
      "acc": 1806,
      "potreste": 1807,
      "usato": 1808,
      "assolutamente": 1809,
      "periodo": 1810,
      "12": 1811,
      "sensa": 1812,
      "sistemi": 1813,
      "america": 1814,
      "simile": 1815,
      "18": 1816,
      "situazione": 1817,
      "tuale": 1818,
      "provvi": 1819,
      "stavo": 1820,
      "appa": 1821,
      "aiuta": 1822,
      "istruzione": 1823,
      "dra": 1824,
      "rle": 1825,
      "spo": 1826,
      "ingl": 1827,
      "alo": 1828,
      "logia": 1829,
      "notte": 1830,
      "centr": 1831,
      "ultimo": 1832,
      "produzione": 1833,
      "insegnanti": 1834,
      "ssuto": 1835,
      "educa": 1836,
      "puoi": 1837,
      "responsa": 1838,
      "dale": 1839,
      "roni": 1840,
      "rima": 1841,
      "segui": 1842,
      "fate": 1843,
      "pensiamo": 1844,
      "carta": 1845,
      "nulla": 1846,
      "amico": 1847,
      "risultato": 1848,
      "malattia": 1849,
      "cultura": 1850,
      "centi": 1851,
      "dro": 1852,
      "rne": 1853,
      "rando": 1854,
      "recente": 1855,
      "ridu": 1856,
      "fisi": 1857,
      "zzare": 1858,
      "ficare": 1859,
      "campi": 1860,
      "fotogra": 1861,
      "ama": 1862,
      "cche": 1863,
      "emer": 1864,
      "ki": 1865,
      "dini": 1866,
      "rea": 1867,
      "anali": 1868,
      "risor": 1869,
      "letto": 1870,
      "pochi": 1871,
      "stiche": 1872,
      "ziale": 1873,
      "rende": 1874,
      "nessuna": 1875,
      "aiutare": 1876,
      "ospe": 1877,
      "sfida": 1878,
      "dico": 1879,
      "tito": 1880,
      "pol": 1881,
      "poten": 1882,
      "forni": 1883,
      "ultima": 1884,
      "linea": 1885,
      "bru": 1886,
      "evi": 1887,
      "ffica": 1888,
      "otto": 1889,
      "infatti": 1890,
      "entro": 1891,
      "alb": 1892,
      "almeno": 1893,
      "rif": 1894,
      "sociali": 1895,
      "data": 1896,
      "vedre": 1897,
      "inizi": 1898,
      "basso": 1899,
      "sapevo": 1900,
      "ovunque": 1901,
      "usando": 1902,
      "tornare": 1903,
      "fantastico": 1904,
      "vogliono": 1905,
      "tono": 1906,
      "mostr": 1907,
      "dagli": 1908,
      "memo": 1909,
      "venire": 1910,
      "tenere": 1911,
      "essione": 1912,
      "sorpren": 1913,
      "pazienti": 1914,
      "sanno": 1915,
      "leg": 1916,
      "maga": 1917,
      "cara": 1918,
      "vedo": 1919,
      "comunque": 1920,
      "improvvi": 1921,
      "questione": 1922,
      "guada": 1923,
      "deciso": 1924,
      "leggere": 1925,
      "sini": 1926,
      "scar": 1927,
      "resto": 1928,
      "tiamo": 1929,
      "segn": 1930,
      "mecc": 1931,
      "forme": 1932,
      "zzato": 1933,
      "quantità": 1934,
      "meccani": 1935,
      "25": 1936,
      "dan": 1937,
      "et": 1938,
      "umana": 1939,
      "elli": 1940,
      "moder": 1941,
      "vendo": 1942,
      "nucle": 1943,
      "pericolo": 1944,
      "naturalmente": 1945,
      "solito": 1946,
      "fronte": 1947,
      "registra": 1948,
      "dipin": 1949,
      "riamo": 1950,
      "testo": 1951,
      "terro": 1952,
      "cuore": 1953,
      "gato": 1954,
      "trice": 1955,
      "potrebbero": 1956,
      "tecni": 1957,
      "destra": 1958,
      "conoscenza": 1959,
      "laboratorio": 1960,
      "70": 1961,
      "rile": 1962,
      "cati": 1963,
      "eravamo": 1964,
      "gener": 1965,
      "dovete": 1966,
      "cancro": 1967,
      "oppure": 1968,
      "ognuno": 1969,
      "messi": 1970,
      "pan": 1971,
      "teoria": 1972,
      "tata": 1973,
      "ripe": 1974,
      "casi": 1975,
      "suono": 1976,
      "prodo": 1977,
      "chirur": 1978,
      "avvi": 1979,
      "funzion": 1980,
      "accade": 1981,
      "risolvere": 1982,
      "affrontare": 1983,
      "straordina": 1984,
      "mbi": 1985,
      "nero": 1986,
      "scorso": 1987,
      "zone": 1988,
      "rito": 1989,
      "rapi": 1990,
      "mobili": 1991,
      "legge": 1992,
      "matt": 1993,
      "citta": 1994,
      "segna": 1995,
      "conf": 1996,
      "confron": 1997,
      "vive": 1998,
      "neanche": 1999,
      "compren": 2000,
      "impatto": 2001,
      "verità": 2002,
      "oggetto": 2003,
      "influenza": 2004,
      "chè": 2005,
      "alta": 2006,
      "eserci": 2007,
      "perce": 2008,
      "mappa": 2009,
      "argo": 2010,
      "nazionale": 2011,
      "strade": 2012,
      "conosci": 2013,
      "serve": 2014,
      "materiali": 2015,
      "classe": 2016,
      "dietro": 2017,
      "complessi": 2018,
      "aro": 2019,
      "mes": 2020,
      "meri": 2021,
      "rus": 2022,
      "india": 2023,
      "ttono": 2024,
      "direzione": 2025,
      "qualità": 2026,
      "chiedere": 2027,
      "gruppi": 2028,
      "azienda": 2029,
      "mondiale": 2030,
      "inglese": 2031,
      "scor": 2032,
      "tru": 2033,
      "però": 2034,
      "mato": 2035,
      "sala": 2036,
      "ttori": 2037,
      "collabora": 2038,
      "maniera": 2039,
      "api": 2040,
      "mal": 2041,
      "mino": 2042,
      "dura": 2043,
      "viaggio": 2044,
      "giorn": 2045,
      "cambiato": 2046,
      "rendere": 2047,
      "clima": 2048,
      "neuroni": 2049,
      "90": 2050,
      "né": 2051,
      "tw": 2052,
      "tario": 2053,
      "pass": 2054,
      "pian": 2055,
      "meta": 2056,
      "eremo": 2057,
      "termini": 2058,
      "scrivere": 2059,
      "ragazzo": 2060,
      "scher": 2061,
      "ara": 2062,
      "bro": 2063,
      "equi": 2064,
      "effica": 2065,
      "oce": 2066,
      "sando": 2067,
      "vale": 2068,
      "veder": 2069,
      "filo": 2070,
      "impar": 2071,
      "puli": 2072,
      "ader": 2073,
      "intero": 2074,
      "bella": 2075,
      "descri": 2076,
      "lasciate": 2077,
      "libertà": 2078,
      "scienziati": 2079,
      "gle": 2080,
      "tezza": 2081,
      "talmente": 2082,
      "contri": 2083,
      "confer": 2084,
      "conclu": 2085,
      "comba": 2086,
      "petro": 2087,
      "intera": 2088,
      "strutture": 2089,
      "chiave": 2090,
      "mentali": 2091,
      "condividere": 2092,
      "movimento": 2093,
      "dà": 2094,
      "dri": 2095,
      "riman": 2096,
      "leader": 2097,
      "venti": 2098,
      "inare": 2099,
      "accesso": 2100,
      "farma": 2101,
      "denaro": 2102,
      "gioco": 2103,
      "giusti": 2104,
      "parlando": 2105,
      "materiale": 2106,
      "maggiore": 2107,
      "crescere": 2108,
      "80": 2109,
      "epi": 2110,
      "inge": 2111,
      "vivono": 2112,
      "vamente": 2113,
      "amore": 2114,
      "buon": 2115,
      "cioè": 2116,
      "misura": 2117,
      "film": 2118,
      "sosteni": 2119,
      "robot": 2120,
      "11": 2121,
      "alza": 2122,
      "sità": 2123,
      "pezzo": 2124,
      "basa": 2125,
      "mbre": 2126,
      "potevo": 2127,
      "attività": 2128,
      "messaggio": 2129,
      "europa": 2130,
      "sinistra": 2131,
      "cl": 2132,
      "tal": 2133,
      "riguarda": 2134,
      "model": 2135,
      "dolo": 2136,
      "piano": 2137,
      "sue": 2138,
      "figlio": 2139,
      "semplici": 2140,
      "finanzia": 2141,
      "ispi": 2142,
      "parliamo": 2143,
      "agire": 2144,
      "gano": 2145,
      "llare": 2146,
      "ppia": 2147,
      "tenti": 2148,
      "inte": 2149,
      "est": 2150,
      "massa": 2151,
      "bian": 2152,
      "mbe": 2153,
      "mbo": 2154,
      "goo": 2155,
      "chiaro": 2156,
      "velli": 2157,
      "dersi": 2158,
      "chiamata": 2159,
      "superio": 2160,
      "velocità": 2161,
      "modelli": 2162,
      "rd": 2163,
      "online": 2164,
      "dimenti": 2165,
      "cosi": 2166,
      "vostri": 2167,
      "metro": 2168,
      "prodotto": 2169,
      "terzo": 2170,
      "colore": 2171,
      "iniziare": 2172,
      "macchine": 2173,
      "aper": 2174,
      "ppure": 2175,
      "ry": 2176,
      "dite": 2177,
      "memb": 2178,
      "subito": 2179,
      "peggio": 2180,
      "chiamiamo": 2181,
      "infe": 2182,
      "economica": 2183,
      "arrivare": 2184,
      "ricordo": 2185,
      "conoscere": 2186,
      "comportamento": 2187,
      "archite": 2188,
      "passare": 2189,
      "mmeno": 2190,
      "rere": 2191,
      "sera": 2192,
      "consegu": 2193,
      "pari": 2194,
      "suona": 2195,
      "termine": 2196,
      "nemmeno": 2197,
      "importa": 2198,
      "poste": 2199,
      "ciato": 2200,
      "conosce": 2201,
      "applica": 2202,
      "zzando": 2203,
      "parteci": 2204,
      "piacere": 2205,
      "costruito": 2206,
      "epo": 2207,
      "ps": 2208,
      "medio": 2209,
      "comb": 2210,
      "piedi": 2211,
      "scuole": 2212,
      "caratteri": 2213,
      "prodotti": 2214,
      "cine": 2215,
      "ddi": 2216,
      "dici": 2217,
      "ang": 2218,
      "indo": 2219,
      "cole": 2220,
      "sito": 2221,
      "compe": 2222,
      "minu": 2223,
      "medico": 2224,
      "affasc": 2225,
      "risorse": 2226,
      "petrolio": 2227,
      "riguardo": 2228,
      "mamma": 2229,
      "capo": 2230,
      "conne": 2231,
      "prece": 2232,
      "cur": 2233,
      "essero": 2234,
      "esseri": 2235,
      "fossero": 2236,
      "andato": 2237,
      "poteva": 2238,
      "normale": 2239,
      "personale": 2240,
      "sfru": 2241,
      "concetto": 2242,
      "apri": 2243,
      "igno": 2244,
      "taglia": 2245,
      "tardi": 2246,
      "rivoluzione": 2247,
      "fabb": 2248,
      "ard": 2249,
      "possano": 2250,
      "stesse": 2251,
      "corsi": 2252,
      "grati": 2253,
      "aiuto": 2254,
      "rente": 2255,
      "davanti": 2256,
      "bisogna": 2257,
      "dovrebbero": 2258,
      "speranza": 2259,
      "sangue": 2260,
      "foresta": 2261,
      "obiettivo": 2262,
      "magari": 2263,
      "agri": 2264,
      "blu": 2265,
      "vando": 2266,
      "eranno": 2267,
      "analizza": 2268,
      "poveri": 2269,
      "mati": 2270,
      "sacco": 2271,
      "damente": 2272,
      "molta": 2273,
      "realmente": 2274,
      "progetta": 2275,
      "malaria": 2276,
      "raccol": 2277,
      "pelle": 2278,
      "web": 2279,
      "democrazia": 2280,
      "google": 2281,
      "he": 2282,
      "tente": 2283,
      "usc": 2284,
      "rit": 2285,
      "ello": 2286,
      "segre": 2287,
      "favo": 2288,
      "progre": 2289,
      "presente": 2290,
      "curio": 2291,
      "andata": 2292,
      "ggere": 2293,
      "ossia": 2294,
      "regole": 2295,
      "bal": 2296,
      "bor": 2297,
      "mpi": 2298,
      "mba": 2299,
      "occi": 2300,
      "sve": 2301,
      "lasci": 2302,
      "rati": 2303,
      "civi": 2304,
      "camente": 2305,
      "paga": 2306,
      "vio": 2307,
      "meto": 2308,
      "presa": 2309,
      "chiunque": 2310,
      "essioni": 2311,
      "avrebbero": 2312,
      "effetto": 2313,
      "dimensioni": 2314,
      "carboni": 2315,
      "danno": 2316,
      "ir": 2317,
      "ph": 2318,
      "intro": 2319,
      "alter": 2320,
      "signo": 2321,
      "decen": 2322,
      "vitti": 2323,
      "sarebbero": 2324,
      "diversa": 2325,
      "proprie": 2326,
      "migliorare": 2327,
      "urb": 2328,
      "continua": 2329,
      "chiede": 2330,
      "entrambi": 2331,
      "ingegn": 2332,
      "vanno": 2333,
      "reali": 2334,
      "quo": 2335,
      "perso": 2336,
      "perchè": 2337,
      "sore": 2338,
      "fami": 2339,
      "comunica": 2340,
      "libera": 2341,
      "stitui": 2342,
      "racconta": 2343,
      "settimane": 2344,
      "falli": 2345,
      "esistono": 2346,
      "disponi": 2347,
      "giornali": 2348,
      "fru": 2349,
      "hu": 2350,
      "les": 2351,
      "mese": 2352,
      "roba": 2353,
      "stran": 2354,
      "sud": 2355,
      "basta": 2356,
      "area": 2357,
      "utile": 2358,
      "afri": 2359,
      "belli": 2360,
      "esperimento": 2361,
      "umanità": 2362,
      "accordo": 2363,
      "decenni": 2364,
      "famiglie": 2365,
      "effici": 2366,
      "oscu": 2367,
      "sesso": 2368,
      "ttutto": 2369,
      "dina": 2370,
      "simili": 2371,
      "consape": 2372,
      "mettiamo": 2373,
      "mettono": 2374,
      "campa": 2375,
      "diventato": 2376,
      "infine": 2377,
      "cominciare": 2378,
      "vuol": 2379,
      "spero": 2380,
      "giovane": 2381,
      "17": 2382,
      "eppure": 2383,
      "flu": 2384,
      "iano": 2385,
      "ses": 2386,
      "reti": 2387,
      "costi": 2388,
      "stin": 2389,
      "virus": 2390,
      "sugg": 2391,
      "stici": 2392,
      "scena": 2393,
      "appare": 2394,
      "centra": 2395,
      "lavorato": 2396,
      "scoper": 2397,
      "tempor": 2398,
      "piccole": 2399,
      "insetti": 2400,
      "fem": 2401,
      "positivo": 2402,
      "colleghi": 2403,
      "andando": 2404,
      "soprattutto": 2405,
      "sensazione": 2406,
      "nucleare": 2407,
      "epoca": 2408,
      "ango": 2409,
      "sai": 2410,
      "migli": 2411,
      "onostante": 2412,
      "essenzia": 2413,
      "persino": 2414,
      "fondi": 2415,
      "discorso": 2416,
      "ggiare": 2417,
      "felice": 2418,
      "emi": 2419,
      "ken": 2420,
      "sposta": 2421,
      "colare": 2422,
      "vacc": 2423,
      "spetta": 2424,
      "strumento": 2425,
      "sento": 2426,
      "aree": 2427,
      "stur": 2428,
      "ghia": 2429,
      "voleva": 2430,
      "finché": 2431,
      "medicina": 2432,
      "superfici": 2433,
      "classi": 2434,
      "rappresenta": 2435,
      "notizia": 2436,
      "consapevole": 2437,
      "nar": 2438,
      "tino": 2439,
      "zanza": 2440,
      "inseri": 2441,
      "lezione": 2442,
      "fiche": 2443,
      "priva": 2444,
      "gas": 2445,
      "siate": 2446,
      "linguaggio": 2447,
      "scelta": 2448,
      "innovazione": 2449,
      "argomento": 2450,
      "dolore": 2451,
      "ecc": 2452,
      "ltre": 2453,
      "usiamo": 2454,
      "onia": 2455,
      "onale": 2456,
      "dicendo": 2457,
      "anze": 2458,
      "inclu": 2459,
      "coloro": 2460,
      "moglie": 2461,
      "cate": 2462,
      "sedu": 2463,
      "mico": 2464,
      "erebbe": 2465,
      "onato": 2466,
      "inoltre": 2467,
      "fossi": 2468,
      "lavorando": 2469,
      "doveva": 2470,
      "muse": 2471,
      "affer": 2472,
      "spiega": 2473,
      "sviluppato": 2474,
      "scoprire": 2475,
      "ruolo": 2476,
      "13": 2477,
      "ecce": 2478,
      "fes": 2479,
      "jo": 2480,
      "tar": 2481,
      "ell": 2482,
      "silen": 2483,
      "gico": 2484,
      "stabili": 2485,
      "immedia": 2486,
      "porti": 2487,
      "avven": 2488,
      "volon": 2489,
      "prende": 2490,
      "fuoco": 2491,
      "politici": 2492,
      "ragazza": 2493,
      "crisi": 2494,
      "fratel": 2495,
      "particel": 2496,
      "usano": 2497,
      "organizza": 2498,
      "norm": 2499,
      "preoccupa": 2500,
      "confli": 2501,
      "carbonio": 2502,
      "mone": 2503,
      "diciamo": 2504,
      "distur": 2505,
      "lettere": 2506,
      "sup": 2507,
      "vei": 2508,
      "proce": 2509,
      "verde": 2510,
      "ttivi": 2511,
      "grafico": 2512,
      "accu": 2513,
      "apprendi": 2514,
      "book": 2515,
      "tempi": 2516,
      "cambiamenti": 2517,
      "cchie": 2518,
      "render": 2519,
      "esempi": 2520,
      "scato": 2521,
      "ting": 2522,
      "potente": 2523,
      "tuttavia": 2524,
      "frequ": 2525,
      "luoghi": 2526,
      "relazioni": 2527,
      "determina": 2528,
      "ddo": 2529,
      "ossi": 2530,
      "distri": 2531,
      "costa": 2532,
      "mici": 2533,
      "dar": 2534,
      "vari": 2535,
      "profonda": 2536,
      "nego": 2537,
      "coltà": 2538,
      "gendo": 2539,
      "ficato": 2540,
      "prendiamo": 2541,
      "scara": 2542,
      "occhia": 2543,
      "guida": 2544,
      "desideri": 2545,
      "espan": 2546,
      "animale": 2547,
      "paziente": 2548,
      "documenti": 2549,
      "errori": 2550,
      "digitale": 2551,
      "apprendimento": 2552,
      "adu": 2553,
      "feno": 2554,
      "nonostante": 2555,
      "tiene": 2556,
      "quarti": 2557,
      "sogno": 2558,
      "prospe": 2559,
      "trovano": 2560,
      "chilo": 2561,
      "speci": 2562,
      "diceva": 2563,
      "isra": 2564,
      "fondamentale": 2565,
      "oggetti": 2566,
      "necessario": 2567,
      "memoria": 2568,
      "danza": 2569,
      "nano": 2570,
      "smi": 2571,
      "eni": 2572,
      "tasso": 2573,
      "stampa": 2574,
      "credere": 2575,
      "accen": 2576,
      "essimo": 2577,
      "proprietà": 2578,
      "infini": 2579,
      "milione": 2580,
      "provare": 2581,
      "incredibilmente": 2582,
      "osserva": 2583,
      "assist": 2584,
      "insegnare": 2585,
      "schemi": 2586,
      "educazione": 2587,
      "silenzio": 2588,
      "14": 2589,
      "evoluzione": 2590,
      "sero": 2591,
      "use": 2592,
      "ugu": 2593,
      "vuto": 2594,
      "inci": 2595,
      "lati": 2596,
      "rive": 2597,
      "pover": 2598,
      "solare": 2599,
      "concentra": 2600,
      "suffici": 2601,
      "commer": 2602,
      "prime": 2603,
      "pul": 2604,
      "tene": 2605,
      "tenta": 2606,
      "elett": 2607,
      "diagno": 2608,
      "giusta": 2609,
      "bello": 2610,
      "diritto": 2611,
      "compassione": 2612,
      "servizi": 2613,
      "elettricità": 2614,
      "resist": 2615,
      "ospedale": 2616,
      "suggeri": 2617,
      "distribu": 2618,
      "iran": 2619,
      "ts": 2620,
      "ucc": 2621,
      "yo": 2622,
      "zero": 2623,
      "relazione": 2624,
      "lata": 2625,
      "codice": 2626,
      "taria": 2627,
      "rità": 2628,
      "percorso": 2629,
      "sof": 2630,
      "viviamo": 2631,
      "traccia": 2632,
      "speciali": 2633,
      "appli": 2634,
      "giornata": 2635,
      "trasferi": 2636,
      "progetti": 2637,
      "lasciare": 2638,
      "pagina": 2639,
      "istituzioni": 2640,
      "sorprendente": 2641,
      "je": 2642,
      "sfi": 2643,
      "sali": 2644,
      "insta": 2645,
      "esia": 2646,
      "mamente": 2647,
      "sequ": 2648,
      "fase": 2649,
      "tui": 2650,
      "presto": 2651,
      "fiu": 2652,
      "inato": 2653,
      "multi": 2654,
      "belle": 2655,
      "condizioni": 2656,
      "lunga": 2657,
      "ttendo": 2658,
      "biologia": 2659,
      "facebook": 2660,
      "lontano": 2661,
      "sbagliato": 2662,
      "rapidamente": 2663,
      "campagna": 2664,
      "mere": 2665,
      "tò": 2666,
      "invisi": 2667,
      "ragioni": 2668,
      "cata": 2669,
      "vostre": 2670,
      "varie": 2671,
      "nato": 2672,
      "nati": 2673,
      "nazioni": 2674,
      "cosci": 2675,
      "tana": 2676,
      "ttano": 2677,
      "carri": 2678,
      "lasciato": 2679,
      "parlato": 2680,
      "provato": 2681,
      "generazione": 2682,
      "economico": 2683,
      "approccio": 2684,
      "epide": 2685,
      "sessu": 2686,
      "ah": 2687,
      "scom": 2688,
      "wo": 2689,
      "diffi": 2690,
      "testi": 2691,
      "tazioni": 2692,
      "nove": 2693,
      "vola": 2694,
      "vivo": 2695,
      "suoni": 2696,
      "neuro": 2697,
      "troviamo": 2698,
      "armi": 2699,
      "acqui": 2700,
      "cammina": 2701,
      "cana": 2702,
      "ragazze": 2703,
      "complesso": 2704,
      "riesce": 2705,
      "letteralmente": 2706,
      "generale": 2707,
      "cy": 2708,
      "genza": 2709,
      "gps": 2710,
      "pane": 2711,
      "rno": 2712,
      "vanta": 2713,
      "moto": 2714,
      "note": 2715,
      "condu": 2716,
      "mentato": 2717,
      "piani": 2718,
      "prossimo": 2719,
      "verti": 2720,
      "impie": 2721,
      "avesse": 2722,
      "strate": 2723,
      "monta": 2724,
      "musi": 2725,
      "studente": 2726,
      "nutri": 2727,
      "migliora": 2728,
      "morti": 2729,
      "aspetti": 2730,
      "assu": 2731,
      "produrre": 2732,
      "ricordate": 2733,
      "organizzazione": 2734,
      "the": 2735,
      "dimensione": 2736,
      "raggiungere": 2737,
      "attorno": 2738,
      "superficie": 2739,
      "aperto": 2740,
      "dali": 2741,
      "luna": 2742,
      "nia": 2743,
      "pl": 2744,
      "rale": 2745,
      "uffici": 2746,
      "pace": 2747,
      "giun": 2748,
      "varia": 2749,
      "pensando": 2750,
      "portano": 2751,
      "tena": 2752,
      "intervento": 2753,
      "tane": 2754,
      "chiaramente": 2755,
      "scopo": 2756,
      "prendete": 2757,
      "diventano": 2758,
      "affida": 2759,
      "automobili": 2760,
      "voluto": 2761,
      "succedendo": 2762,
      "continuare": 2763,
      "americani": 2764,
      "entrare": 2765,
      "sostanzia": 2766,
      "faceva": 2767,
      "cultur": 2768,
      "fortunatamente": 2769,
      "16": 2770,
      "joh": 2771,
      "ka": 2772,
      "ly": 2773,
      "van": 2774,
      "eso": 2775,
      "radi": 2776,
      "conversa": 2777,
      "familia": 2778,
      "batter": 2779,
      "ciare": 2780,
      "gradi": 2781,
      "studia": 2782,
      "potrei": 2783,
      "elementi": 2784,
      "villa": 2785,
      "cinese": 2786,
      "frase": 2787,
      "199": 2788,
      "nord": 2789,
      "diritti": 2790,
      "consuma": 2791,
      "seguito": 2792,
      "ccare": 2793,
      "oper": 2794,
      "rti": 2795,
      "rdo": 2796,
      "distanza": 2797,
      "settore": 2798,
      "pagare": 2799,
      "giù": 2800,
      "terà": 2801,
      "prepara": 2802,
      "comprendere": 2803,
      "abbiano": 2804,
      "stupi": 2805,
      "volevamo": 2806,
      "funzioni": 2807,
      "scegliere": 2808,
      "aumenta": 2809,
      "mille": 2810,
      "valori": 2811,
      "arrivato": 2812,
      "contrario": 2813,
      "cellulare": 2814,
      "conosciamo": 2815,
      "governi": 2816,
      "peso": 2817,
      "ascoltare": 2818,
      "mangiare": 2819,
      "schermo": 2820,
      "superiore": 2821,
      "chilometri": 2822,
      "povertà": 2823,
      "spen": 2824,
      "vali": 2825,
      "eria": 2826,
      "ander": 2827,
      "intra": 2828,
      "costante": 2829,
      "lista": 2830,
      "mail": 2831,
      "cari": 2832,
      "voli": 2833,
      "passi": 2834,
      "vedono": 2835,
      "part": 2836,
      "lavori": 2837,
      "carne": 2838,
      "camera": 2839,
      "benefici": 2840,
      "controllare": 2841,
      "finalmente": 2842,
      "sorta": 2843,
      "mostrato": 2844,
      "attimo": 2845,
      "funzionare": 2846,
      "ricorda": 2847,
      "tività": 2848,
      "contatto": 2849,
      "ricevuto": 2850,
      "adatta": 2851,
      "singolo": 2852,
      "terreno": 2853,
      "velocemente": 2854,
      "analisi": 2855,
      "alberi": 2856,
      "vedrete": 2857,
      "occiden": 2858,
      "km": 2859,
      "ppe": 2860,
      "totale": 2861,
      "cha": 2862,
      "riusc": 2863,
      "mori": 2864,
      "locale": 2865,
      "proto": 2866,
      "pensano": 2867,
      "scen": 2868,
      "allen": 2869,
      "scola": 2870,
      "tempera": 2871,
      "direttamente": 2872,
      "potesse": 2873,
      "impara": 2874,
      "significato": 2875,
      "esperimenti": 2876,
      "esperienze": 2877,
      "medici": 2878,
      "individui": 2879,
      "studiare": 2880,
      "larmente": 2881,
      "errore": 2882,
      "risparmia": 2883,
      "vittime": 2884,
      "museo": 2885,
      "desiderio": 2886,
      "difficoltà": 2887,
      "sostanzialmente": 2888,
      "24": 2889,
      "ex": 2890,
      "giamo": 2891,
      "gine": 2892,
      "dissi": 2893,
      "tidi": 2894,
      "socia": 2895,
      "somma": 2896,
      "conser": 2897,
      "prove": 2898,
      "arsi": 2899,
      "impossibile": 2900,
      "chiu": 2901,
      "nazione": 2902,
      "rumore": 2903,
      "tanza": 2904,
      "geo": 2905,
      "volto": 2906,
      "divertente": 2907,
      "associa": 2908,
      "vuoi": 2909,
      "consider": 2910,
      "osservare": 2911,
      "insegnante": 2912,
      "microbi": 2913,
      "praticamente": 2914,
      "perfetto": 2915,
      "raccontare": 2916,
      "lettera": 2917,
      "telefono": 2918,
      "potenziale": 2919,
      "guadagna": 2920,
      "oceano": 2921,
      "clo": 2922,
      "gne": 2923,
      "ppio": 2924,
      "sale": 2925,
      "tun": 2926,
      "dif": 2927,
      "reso": 2928,
      "quante": 2929,
      "mostrano": 2930,
      "sostanza": 2931,
      "mite": 2932,
      "deli": 2933,
      "vissuto": 2934,
      "famo": 2935,
      "stavano": 2936,
      "presenti": 2937,
      "cucina": 2938,
      "creando": 2939,
      "colla": 2940,
      "rischi": 2941,
      "risposte": 2942,
      "furono": 2943,
      "affi": 2944,
      "costruzione": 2945,
      "mercati": 2946,
      "pensavo": 2947,
      "disposizione": 2948,
      "valuta": 2949,
      "carbone": 2950,
      "incontrato": 2951,
      "religione": 2952,
      "dipende": 2953,
      "origin": 2954,
      "improvvisamente": 2955,
      "funzionano": 2956,
      "straordinario": 2957,
      "efficace": 2958,
      "prospettiva": 2959,
      "elettroni": 2960,
      "dge": 2961,
      "ipote": 2962,
      "naria": 2963,
      "schia": 2964,
      "wor": 2965,
      "divi": 2966,
      "dine": 2967,
      "rata": 2968,
      "leggi": 2969,
      "permesso": 2970,
      "passione": 2971,
      "versione": 2972,
      "prese": 2973,
      "chimica": 2974,
      "ciasc": 2975,
      "pur": 2976,
      "certamente": 2977,
      "appar": 2978,
      "sarei": 2979,
      "farò": 2980,
      "guardando": 2981,
      "cambio": 2982,
      "sentivo": 2983,
      "cane": 2984,
      "minali": 2985,
      "giudi": 2986,
      "mostrarvi": 2987,
      "cellula": 2988,
      "desidera": 2989,
      "ssuti": 2990,
      "intendo": 2991,
      "trasformare": 2992,
      "sviluppare": 2993,
      "brill": 2994,
      "sfera": 2995,
      "meraviglioso": 2996,
      "giustizia": 2997,
      "favore": 2998,
      "temporane": 2999,
      "miglior": 3000,
      "occhiata": 3001,
      "aere": 3002,
      "azioni": 3003,
      "agg": 3004,
      "dy": 3005,
      "eco": 3006,
      "sho": 3007,
      "zona": 3008,
      "esper": 3009,
      "cielo": 3010,
      "standa": 3011,
      "stai": 3012,
      "batti": 3013,
      "venne": 3014,
      "scal": 3015,
      "trimoni": 3016,
      "farvi": 3017,
      "capite": 3018,
      "infra": 3019,
      "ministra": 3020,
      "pubblici": 3021,
      "salvare": 3022,
      "finire": 3023,
      "tivamente": 3024,
      "partire": 3025,
      "interessanti": 3026,
      "assicura": 3027,
      "straordinaria": 3028,
      "notizie": 3029,
      "genoma": 3030,
      "edificio": 3031,
      "molecole": 3032,
      "cittadini": 3033,
      "particelle": 3034,
      "scatola": 3035,
      "calizza": 3036,
      "egi": 3037,
      "fora": 3038,
      "har": 3039,
      "it": 3040,
      "ann": 3041,
      "rabbia": 3042,
      "locali": 3043,
      "tradu": 3044,
      "figlia": 3045,
      "nega": 3046,
      "battu": 3047,
      "porre": 3048,
      "interpre": 3049,
      "ziali": 3050,
      "onati": 3051,
      "accel": 3052,
      "guardiamo": 3053,
      "andate": 3054,
      "potevano": 3055,
      "mul": 3056,
      "muro": 3057,
      "compon": 3058,
      "fonte": 3059,
      "trasporto": 3060,
      "importanza": 3061,
      "sembrano": 3062,
      "posito": 3063,
      "americano": 3064,
      "riusciti": 3065,
      "beni": 3066,
      "seguire": 3067,
      "intelligenti": 3068,
      "principale": 3069,
      "esterno": 3070,
      "fisico": 3071,
      "agricol": 3072,
      "quotidi": 3073,
      "acco": 3074,
      "ob": 3075,
      "pil": 3076,
      "scia": 3077,
      "ty": 3078,
      "ya": 3079,
      "ermi": 3080,
      "respi": 3081,
      "andiamo": 3082,
      "entu": 3083,
      "quar": 3084,
      "momenti": 3085,
      "simbo": 3086,
      "percento": 3087,
      "contesto": 3088,
      "miche": 3089,
      "missione": 3090,
      "piena": 3091,
      "metto": 3092,
      "prezzo": 3093,
      "certa": 3094,
      "indica": 3095,
      "rismo": 3096,
      "prender": 3097,
      "formazione": 3098,
      "coraggio": 3099,
      "avremmo": 3100,
      "mostrare": 3101,
      "diffon": 3102,
      "invecchia": 3103,
      "artista": 3104,
      "differenti": 3105,
      "spiegare": 3106,
      "nervo": 3107,
      "ottimi": 3108,
      "realizzare": 3109,
      "contribu": 3110,
      "affascin": 3111,
      "ritmo": 3112,
      "john": 3113,
      "entusia": 3114,
      "500": 3115,
      "ari": 3116,
      "gante": 3117,
      "lessi": 3118,
      "nera": 3119,
      "regno": 3120,
      "reddi": 3121,
      "invia": 3122,
      "alz": 3123,
      "rimane": 3124,
      "motiva": 3125,
      "case": 3126,
      "pato": 3127,
      "devi": 3128,
      "mettendo": 3129,
      "provo": 3130,
      "prossimi": 3131,
      "fila": 3132,
      "abband": 3133,
      "batteri": 3134,
      "sullo": 3135,
      "allon": 3136,
      "salva": 3137,
      "politiche": 3138,
      "uscire": 3139,
      "sembrava": 3140,
      "microsco": 3141,
      "stanze": 3142,
      "pronto": 3143,
      "europe": 3144,
      "conosciuto": 3145,
      "filoso": 3146,
      "clini": 3147,
      "metodo": 3148,
      "comunicazione": 3149,
      "uccelli": 3150,
      "bla": 3151,
      "disegna": 3152,
      "diminu": 3153,
      "incontro": 3154,
      "lau": 3155,
      "riti": 3156,
      "elim": 3157,
      "radio": 3158,
      "permetter": 3159,
      "mazione": 3160,
      "stile": 3161,
      "trib": 3162,
      "faremo": 3163,
      "giapp": 3164,
      "buco": 3165,
      "ttando": 3166,
      "capitale": 3167,
      "alcun": 3168,
      "zionato": 3169,
      "sembrare": 3170,
      "finito": 3171,
      "decisione": 3172,
      "guidare": 3173,
      "soluzioni": 3174,
      "settembre": 3175,
      "rispondere": 3176,
      "mostrerò": 3177,
      "terrori": 3178,
      "esercito": 3179,
      "sostenibile": 3180,
      "300": 3181,
      "ms": 3182,
      "neri": 3183,
      "umane": 3184,
      "din": 3185,
      "tela": 3186,
      "chris": 3187,
      "ricer": 3188,
      "fai": 3189,
      "ttive": 3190,
      "fic": 3191,
      "imm": 3192,
      "imprendi": 3193,
      "bassa": 3194,
      "mania": 3195,
      "inazione": 3196,
      "correre": 3197,
      "speciale": 3198,
      "riamente": 3199,
      "sensi": 3200,
      "elemento": 3201,
      "funzione": 3202,
      "afgh": 3203,
      "ragazz": 3204,
      "consiglio": 3205,
      "dieci": 3206,
      "effettivamente": 3207,
      "vicini": 3208,
      "palco": 3209,
      "professo": 3210,
      "architettura": 3211,
      "abilità": 3212,
      "by": 3213,
      "isola": 3214,
      "mme": 3215,
      "rone": 3216,
      "totalmente": 3217,
      "tessuto": 3218,
      "lava": 3219,
      "cop": 3220,
      "copia": 3221,
      "rifi": 3222,
      "riten": 3223,
      "rosso": 3224,
      "perdere": 3225,
      "nota": 3226,
      "proie": 3227,
      "terza": 3228,
      "cure": 3229,
      "venuto": 3230,
      "strato": 3231,
      "zzati": 3232,
      "quegli": 3233,
      "poiché": 3234,
      "derà": 3235,
      "canzone": 3236,
      "secondi": 3237,
      "soltanto": 3238,
      "presenta": 3239,
      "stress": 3240,
      "diventata": 3241,
      "messaggi": 3242,
      "anziani": 3243,
      "affari": 3244,
      "pensiero": 3245,
      "presidente": 3246,
      "evitare": 3247,
      "complessità": 3248,
      "oscura": 3249,
      "cru": 3250,
      "mm": 3251,
      "oro": 3252,
      "sfor": 3253,
      "invi": 3254,
      "espre": 3255,
      "rai": 3256,
      "sizione": 3257,
      "cidi": 3258,
      "stano": 3259,
      "proposito": 3260,
      "tratti": 3261,
      "navi": 3262,
      "manten": 3263,
      "mantenere": 3264,
      "stia": 3265,
      "ssime": 3266,
      "avanza": 3267,
      "zzano": 3268,
      "scrive": 3269,
      "cominciamo": 3270,
      "circon": 3271,
      "possibili": 3272,
      "creazione": 3273,
      "morto": 3274,
      "minaccia": 3275,
      "parlano": 3276,
      "biologi": 3277,
      "programmi": 3278,
      "facilmente": 3279,
      "dirittura": 3280,
      "raccogliere": 3281,
      "dimensi": 3282,
      "limiti": 3283,
      "diplo": 3284,
      "psicolo": 3285,
      "connessione": 3286,
      "illumina": 3287,
      "principali": 3288,
      "centrale": 3289,
      "social": 3290,
      "standard": 3291,
      "ricerche": 3292,
      "atte": 3293,
      "ds": 3294,
      "lia": 3295,
      "squad": 3296,
      "usate": 3297,
      "wa": 3298,
      "remo": 3299,
      "reazione": 3300,
      "cogni": 3301,
      "rifu": 3302,
      "moda": 3303,
      "sili": 3304,
      "vie": 3305,
      "sugli": 3306,
      "prossima": 3307,
      "trovo": 3308,
      "chip": 3309,
      "unito": 3310,
      "cervelli": 3311,
      "zzata": 3312,
      "addirittura": 3313,
      "interesse": 3314,
      "anistan": 3315,
      "farsi": 3316,
      "farci": 3317,
      "ficazione": 3318,
      "punta": 3319,
      "ggs": 3320,
      "avremo": 3321,
      "fece": 3322,
      "polizia": 3323,
      "trattamento": 3324,
      "arrivati": 3325,
      "utilizzando": 3326,
      "bravi": 3327,
      "higgs": 3328,
      "probabile": 3329,
      "misurare": 3330,
      "scelte": 3331,
      "enormi": 3332,
      "schema": 3333,
      "intelligente": 3334,
      "responsabilità": 3335,
      "albero": 3336,
      "mattina": 3337,
      "integra": 3338,
      "fabbrica": 3339,
      "immediatamente": 3340,
      "fenomeno": 3341,
      "riusciamo": 3342,
      "ipotesi": 3343,
      "esperti": 3344,
      "ass": 3345,
      "ball": 3346,
      "gon": 3347,
      "ple": 3348,
      "tch": 3349,
      "dica": 3350,
      "dichia": 3351,
      "dirvi": 3352,
      "intito": 3353,
      "tia": 3354,
      "richiede": 3355,
      "motore": 3356,
      "siti": 3357,
      "lotta": 3358,
      "seta": 3359,
      "debo": 3360,
      "visu": 3361,
      "gira": 3362,
      "gica": 3363,
      "vedi": 3364,
      "traspa": 3365,
      "tendo": 3366,
      "busti": 3367,
      "dallo": 3368,
      "comprare": 3369,
      "avrete": 3370,
      "ferma": 3371,
      "difficili": 3372,
      "serio": 3373,
      "riceve": 3374,
      "ospi": 3375,
      "felici": 3376,
      "scientifica": 3377,
      "torniamo": 3378,
      "consapevolezza": 3379,
      "carriera": 3380,
      "canza": 3381,
      "evolu": 3382,
      "rallen": 3383,
      "um": 3384,
      "erto": 3385,
      "dino": 3386,
      "ricche": 3387,
      "roman": 3388,
      "poche": 3389,
      "capel": 3390,
      "los": 3391,
      "sov": 3392,
      "sabbia": 3393,
      "separa": 3394,
      "notato": 3395,
      "dedi": 3396,
      "glianza": 3397,
      "traffi": 3398,
      "tramite": 3399,
      "figu": 3400,
      "bara": 3401,
      "cialmente": 3402,
      "forze": 3403,
      "scim": 3404,
      "coltiva": 3405,
      "esimo": 3406,
      "zziamo": 3407,
      "amministra": 3408,
      "portata": 3409,
      "volevano": 3410,
      "cercato": 3411,
      "servono": 3412,
      "controlla": 3413,
      "aumentare": 3414,
      "alizzazione": 3415,
      "parlarvi": 3416,
      "sconosci": 3417,
      "ambien": 3418,
      "insegnato": 3419,
      "utilizzare": 3420,
      "identità": 3421,
      "sopravvivere": 3422,
      "comunicare": 3423,
      "tware": 3424,
      "alterna": 3425,
      "profondamente": 3426,
      "software": 3427,
      "studiato": 3428,
      "villaggio": 3429,
      "afghanistan": 3430,
      "em": 3431,
      "mono": 3432,
      "occhio": 3433,
      "tria": 3434,
      "inn": 3435,
      "tes": 3436,
      "riferi": 3437,
      "mas": 3438,
      "marito": 3439,
      "conge": 3440,
      "mira": 3441,
      "pieno": 3442,
      "profondo": 3443,
      "parco": 3444,
      "cerchiamo": 3445,
      "zzate": 3446,
      "andati": 3447,
      "colori": 3448,
      "gioca": 3449,
      "giocare": 3450,
      "spazi": 3451,
      "marchio": 3452,
      "minuto": 3453,
      "creatività": 3454,
      "austr": 3455,
      "politico": 3456,
      "valu": 3457,
      "decisi": 3458,
      "attivi": 3459,
      "mentazione": 3460,
      "chiedo": 3461,
      "ottenuto": 3462,
      "veniva": 3463,
      "bang": 3464,
      "definizione": 3465,
      "considerare": 3466,
      "estremamente": 3467,
      "compito": 3468,
      "conferenza": 3469,
      "rimanere": 3470,
      "farmaci": 3471,
      "progressi": 3472,
      "israele": 3473,
      "temperatura": 3474,
      "battito": 3475,
      "cessi": 3476,
      "mando": 3477,
      "sk": 3478,
      "tv": 3479,
      "vul": 3480,
      "wi": 3481,
      "ones": 3482,
      "incora": 3483,
      "team": 3484,
      "riconoscere": 3485,
      "poesia": 3486,
      "matrimoni": 3487,
      "doppio": 3488,
      "notare": 3489,
      "detti": 3490,
      "strin": 3491,
      "vecchio": 3492,
      "profi": 3493,
      "premio": 3494,
      "nazionali": 3495,
      "pezzi": 3496,
      "gala": 3497,
      "tanta": 3498,
      "giardi": 3499,
      "centri": 3500,
      "pioggia": 3501,
      "altrimenti": 3502,
      "cominci": 3503,
      "oriente": 3504,
      "ggiato": 3505,
      "lunghe": 3506,
      "iscono": 3507,
      "rapporto": 3508,
      "cresciuto": 3509,
      "occupa": 3510,
      "particolarmente": 3511,
      "muovere": 3512,
      "tonnella": 3513,
      "felicità": 3514,
      "regola": 3515,
      "servizio": 3516,
      "maggiori": 3517,
      "gestire": 3518,
      "dimostrato": 3519,
      "precisione": 3520,
      "segnali": 3521,
      "membri": 3522,
      "scoperta": 3523,
      "oli": 3524,
      "pò": 3525,
      "pano": 3526,
      "reci": 3527,
      "livelli": 3528,
      "dover": 3529,
      "mist": 3530,
      "star": 3531,
      "tratto": 3532,
      "parlo": 3533,
      "nasco": 3534,
      "crediamo": 3535,
      "stelle": 3536,
      "certi": 3537,
      "indipen": 3538,
      "collo": 3539,
      "attu": 3540,
      "dovevo": 3541,
      "piacci": 3542,
      "rendo": 3543,
      "siede": 3544,
      "solle": 3545,
      "pubblicato": 3546,
      "decisioni": 3547,
      "attraver": 3548,
      "miliardo": 3549,
      "artisti": 3550,
      "proteine": 3551,
      "incredibili": 3552,
      "schele": 3553,
      "comportamenti": 3554,
      "foreste": 3555,
      "attacco": 3556,
      "religio": 3557,
      "grosso": 3558,
      "origine": 3559,
      "telefoni": 3560,
      "successivo": 3561,
      "virtuale": 3562,
      "accessi": 3563,
      "accanto": 3564,
      "segnale": 3565,
      "conseguenza": 3566,
      "femmini": 3567,
      "festa": 3568,
      "aggre": 3569,
      "ces": 3570,
      "cele": 3571,
      "fri": 3572,
      "han": 3573,
      "mpe": 3574,
      "odi": 3575,
      "osta": 3576,
      "shi": 3577,
      "tone": 3578,
      "incon": 3579,
      "coper": 3580,
      "tavolo": 3581,
      "riuni": 3582,
      "riscal": 3583,
      "estin": 3584,
      "lette": 3585,
      "magia": 3586,
      "casu": 3587,
      "caccia": 3588,
      "migra": 3589,
      "sub": 3590,
      "combusti": 3591,
      "nascon": 3592,
      "forti": 3593,
      "fornia": 3594,
      "creano": 3595,
      "vene": 3596,
      "grafia": 3597,
      "scienze": 3598,
      "tani": 3599,
      "onare": 3600,
      "immagin": 3601,
      "portati": 3602,
      "renza": 3603,
      "marke": 3604,
      "sapeva": 3605,
      "sicura": 3606,
      "lingue": 3607,
      "linee": 3608,
      "naturali": 3609,
      "venivano": 3610,
      "legger": 3611,
      "adoles": 3612,
      "california": 3613,
      "industriale": 3614,
      "comprensione": 3615,
      "climatico": 3616,
      "civile": 3617,
      "traffico": 3618,
      "piacciono": 3619,
      "ecolo": 3620,
      "evento": 3621,
      "ld": 3622,
      "ny": 3623,
      "sele": 3624,
      "sguardo": 3625,
      "distin": 3626,
      "tocina": 3627,
      "analo": 3628,
      "temi": 3629,
      "ricostruire": 3630,
      "motivi": 3631,
      "sile": 3632,
      "perdita": 3633,
      "sop": 3634,
      "debb": 3635,
      "terap": 3636,
      "fiori": 3637,
      "compli": 3638,
      "complica": 3639,
      "dubb": 3640,
      "ford": 3641,
      "cresce": 3642,
      "stito": 3643,
      "stein": 3644,
      "stella": 3645,
      "pene": 3646,
      "atmo": 3647,
      "bus": 3648,
      "riser": 3649,
      "diventando": 3650,
      "bambina": 3651,
      "autore": 3652,
      "scritti": 3653,
      "mortali": 3654,
      "potenti": 3655,
      "energe": 3656,
      "parlerò": 3657,
      "hiv": 3658,
      "programmare": 3659,
      "adoro": 3660,
      "tradizionale": 3661,
      "molecola": 3662,
      "dettagli": 3663,
      "ospedali": 3664,
      "tecniche": 3665,
      "chirurgia": 3666,
      "ossitocina": 3667,
      "sufficiente": 3668,
      "ufficio": 3669,
      "occidentale": 3670,
      "affascinante": 3671,
      "terapia": 3672,
      "ag": 3673,
      "ast": 3674,
      "assa": 3675,
      "mp": 3676,
      "sel": 3677,
      "estate": 3678,
      "mostro": 3679,
      "lità": 3680,
      "ciclo": 3681,
      "logo": 3682,
      "cone": 3683,
      "mila": 3684,
      "pianta": 3685,
      "vivi": 3686,
      "mezzi": 3687,
      "terò": 3688,
      "implica": 3689,
      "nasci": 3690,
      "batta": 3691,
      "bagno": 3692,
      "stimo": 3693,
      "avrà": 3694,
      "tenuto": 3695,
      "internazionale": 3696,
      "lavorano": 3697,
      "busin": 3698,
      "andava": 3699,
      "aumento": 3700,
      "potenza": 3701,
      "immaginazione": 3702,
      "assomiglia": 3703,
      "accaduto": 3704,
      "diversità": 3705,
      "riuscite": 3706,
      "ordine": 3707,
      "differenze": 3708,
      "designer": 3709,
      "colpito": 3710,
      "accetta": 3711,
      "discussione": 3712,
      "terrorismo": 3713,
      "avvicina": 3714,
      "bianco": 3715,
      "emissioni": 3716,
      "fratello": 3717,
      "adulti": 3718,
      "sfide": 3719,
      "culturale": 3720,
      "reddito": 3721,
      "squadra": 3722,
      "business": 3723,
      "barri": 3724,
      "ira": 3725,
      "ja": 3726,
      "rina": 3727,
      "spor": 3728,
      "udi": 3729,
      "repu": 3730,
      "tessuti": 3731,
      "codi": 3732,
      "esco": 3733,
      "esten": 3734,
      "pore": 3735,
      "sogni": 3736,
      "vasi": 3737,
      "arma": 3738,
      "basi": 3739,
      "crede": 3740,
      "credono": 3741,
      "scan": 3742,
      "attuale": 3743,
      "buoni": 3744,
      "buchi": 3745,
      "bocca": 3746,
      "prendono": 3747,
      "guardano": 3748,
      "spia": 3749,
      "elezioni": 3750,
      "renti": 3751,
      "spaziale": 3752,
      "scrittura": 3753,
      "feci": 3754,
      "dispositivo": 3755,
      "orien": 3756,
      "sicuri": 3757,
      "artifi": 3758,
      "paradi": 3759,
      "2008": 3760,
      "compagn": 3761,
      "lancia": 3762,
      "emozioni": 3763,
      "pagine": 3764,
      "economici": 3765,
      "sbagliata": 3766,
      "aggiungere": 3767,
      "sposa": 3768,
      "responsabile": 3769,
      "ridurre": 3770,
      "dipinto": 3771,
      "percepi": 3772,
      "twi": 3773,
      "ignoran": 3774,
      "ingegneri": 3775,
      "fiume": 3776,
      "ago": 3777,
      "abu": 3778,
      "dì": 3779,
      "gini": 3780,
      "sfortunatamente": 3781,
      "char": 3782,
      "eles": 3783,
      "permettere": 3784,
      "lie": 3785,
      "maschi": 3786,
      "voci": 3787,
      "pad": 3788,
      "pira": 3789,
      "stavamo": 3790,
      "orgo": 3791,
      "bita": 3792,
      "arre": 3793,
      "eroi": 3794,
      "certezza": 3795,
      "onata": 3796,
      "folle": 3797,
      "fattori": 3798,
      "spaven": 3799,
      "trasfor": 3800,
      "ratore": 3801,
      "dovrei": 3802,
      "progettare": 3803,
      "ringra": 3804,
      "aspettare": 3805,
      "continuo": 3806,
      "ash": 3807,
      "attiva": 3808,
      "produce": 3809,
      "calcolo": 3810,
      "vuoto": 3811,
      "198": 3812,
      "portando": 3813,
      "fantastica": 3814,
      "lento": 3815,
      "muove": 3816,
      "operazione": 3817,
      "concetti": 3818,
      "riescono": 3819,
      "uccidere": 3820,
      "cambiano": 3821,
      "tradizionali": 3822,
      "impegna": 3823,
      "singola": 3824,
      "digitali": 3825,
      "terribile": 3826,
      "fornire": 3827,
      "equilib": 3828,
      "vederlo": 3829,
      "conseguenze": 3830,
      "angeles": 3831,
      "gratis": 3832,
      "phone": 3833,
      "disponibile": 3834,
      "angolo": 3835,
      "vaccini": 3836,
      "conflitti": 3837,
      "supporto": 3838,
      "coscienza": 3839,
      "conversazione": 3840,
      "dimensionale": 3841,
      "tonnellate": 3842,
      "2000": 3843,
      "ccato": 3844,
      "gelo": 3845,
      "ler": 3846,
      "odo": 3847,
      "plu": 3848,
      "sma": 3849,
      "ut": 3850,
      "ersi": 3851,
      "onde": 3852,
      "onda": 3853,
      "invita": 3854,
      "ritorno": 3855,
      "esam": 3856,
      "lezioni": 3857,
      "rosa": 3858,
      "mari": 3859,
      "catena": 3860,
      "confu": 3861,
      "consiste": 3862,
      "voglia": 3863,
      "dele": 3864,
      "nonna": 3865,
      "erete": 3866,
      "fatte": 3867,
      "tudine": 3868,
      "proveni": 3869,
      "terio": 3870,
      "erare": 3871,
      "park": 3872,
      "luci": 3873,
      "scio": 3874,
      "saremo": 3875,
      "genero": 3876,
      "gioia": 3877,
      "rendono": 3878,
      "sorri": 3879,
      "positivi": 3880,
      "altret": 3881,
      "opini": 3882,
      "qualcun": 3883,
      "caldo": 3884,
      "visita": 3885,
      "stretto": 3886,
      "cambiando": 3887,
      "realizzato": 3888,
      "campioni": 3889,
      "curva": 3890,
      "raccontarvi": 3891,
      "disponibili": 3892,
      "zanzare": 3893,
      "veicolo": 3894,
      "bellezza": 3895,
      "risparmiare": 3896,
      "originale": 3897,
      "atmosfera": 3898,
      "21": 3899,
      "acu": 3900,
      "aero": 3901,
      "equa": 3902,
      "iono": 3903,
      "piamo": 3904,
      "trano": 3905,
      "tesi": 3906,
      "tetto": 3907,
      "tizione": 3908,
      "alti": 3909,
      "ragi": 3910,
      "dormi": 3911,
      "carico": 3912,
      "sostitu": 3913,
      "sedia": 3914,
      "nomi": 3915,
      "volare": 3916,
      "parare": 3917,
      "vidi": 3918,
      "fac": 3919,
      "vetro": 3920,
      "bbene": 3921,
      "propor": 3922,
      "fir": 3923,
      "trovere": 3924,
      "allar": 3925,
      "specialmente": 3926,
      "aiuti": 3927,
      "farà": 3928,
      "compra": 3929,
      "libero": 3930,
      "arrivano": 3931,
      "seria": 3932,
      "morale": 3933,
      "finale": 3934,
      "pubblicità": 3935,
      "dispera": 3936,
      "ovvio": 3937,
      "articolo": 3938,
      "bravo": 3939,
      "braccio": 3940,
      "governa": 3941,
      "cereb": 3942,
      "pesce": 3943,
      "facevano": 3944,
      "solamente": 3945,
      "londra": 3946,
      "necessi": 3947,
      "rappresentano": 3948,
      "individuo": 3949,
      "riesco": 3950,
      "pronti": 3951,
      "disabilità": 3952,
      "psico": 3953,
      "consumo": 3954,
      "connessioni": 3955,
      "scientifico": 3956,
      "assemb": 3957,
      "rileva": 3958,
      "imparano": 3959,
      "signore": 3960,
      "africani": 3961,
      "you": 3962,
      "microscopio": 3963,
      "marketing": 3964,
      "nascita": 3965,
      "asia": 3966,
      "affe": 3967,
      "canti": 3968,
      "ddis": 3969,
      "ein": 3970,
      "ko": 3971,
      "od": 3972,
      "opere": 3973,
      "vò": 3974,
      "ves": 3975,
      "toria": 3976,
      "inti": 3977,
      "inda": 3978,
      "tema": 3979,
      "coca": 3980,
      "tizio": 3981,
      "rivolu": 3982,
      "richies": 3983,
      "perlo": 3984,
      "post": 3985,
      "caro": 3986,
      "cattura": 3987,
      "soddis": 3988,
      "segno": 3989,
      "piante": 3990,
      "tus": 3991,
      "tumore": 3992,
      "bici": 3993,
      "verà": 3994,
      "verrà": 3995,
      "credete": 3996,
      "manca": 3997,
      "mancanza": 3998,
      "venuta": 3999,
      "gati": 4000,
      "gambe": 4001,
      "scop": 4002,
      "viaggi": 4003,
      "elef": 4004,
      "ticamente": 4005,
      "piatta": 4006,
      "scul": 4007,
      "candi": 4008,
      "dicevano": 4009,
      "arrivata": 4010,
      "ggiamento": 4011,
      "succedere": 4012,
      "passaggio": 4013,
      "accadendo": 4014,
      "completo": 4015,
      "entrambe": 4016,
      "riuscito": 4017,
      "fondamentali": 4018,
      "capace": 4019,
      "clienti": 4020,
      "lentamente": 4021,
      "violen": 4022,
      "falsi": 4023,
      "scelto": 4024,
      "quadro": 4025,
      "emozion": 4026,
      "franc": 4027,
      "scienziato": 4028,
      "rimasto": 4029,
      "talvolta": 4030,
      "connetto": 4031,
      "progettazione": 4032,
      "raccolto": 4033,
      "installa": 4034,
      "reputazione": 4035,
      "ignoranza": 4036,
      "altrettanto": 4037,
      "75": 4038,
      "auti": 4039,
      "bia": 4040,
      "cini": 4041,
      "dona": 4042,
      "ebre": 4043,
      "email": 4044,
      "ito": 4045,
      "of": 4046,
      "omb": 4047,
      "tini": 4048,
      "reg": 4049,
      "anch": 4050,
      "inqu": 4051,
      "late": 4052,
      "alfa": 4053,
      "altezza": 4054,
      "quanta": 4055,
      "riche": 4056,
      "espri": 4057,
      "maia": 4058,
      "ciro": 4059,
      "cima": 4060,
      "civil": 4061,
      "sostitui": 4062,
      "seduto": 4063,
      "contemporane": 4064,
      "metti": 4065,
      "vergo": 4066,
      "prezio": 4067,
      "ssie": 4068,
      "addestra": 4069,
      "trici": 4070,
      "buone": 4071,
      "dovevamo": 4072,
      "diverti": 4073,
      "sentite": 4074,
      "guardato": 4075,
      "ultra": 4076,
      "2010": 4077,
      "mentari": 4078,
      "visivo": 4079,
      "continuato": 4080,
      "accadere": 4081,
      "probabilità": 4082,
      "proteggere": 4083,
      "principi": 4084,
      "perfettamente": 4085,
      "appassi": 4086,
      "scarpe": 4087,
      "tecnica": 4088,
      "combattere": 4089,
      "normali": 4090,
      "quartiere": 4091,
      "invisibile": 4092,
      "notevole": 4093,
      "consumatori": 4094,
      "capelli": 4095,
      "galassie": 4096,
      "mortalità": 4097,
      "einstein": 4098,
      "land": 4099,
      "mt": 4100,
      "sy": 4101,
      "sha": 4102,
      "scer": 4103,
      "tù": 4104,
      "usione": 4105,
      "uffi": 4106,
      "recu": 4107,
      "incre": 4108,
      "entr": 4109,
      "tea": 4110,
      "rici": 4111,
      "ritrova": 4112,
      "espressione": 4113,
      "raff": 4114,
      "legi": 4115,
      "cami": 4116,
      "carica": 4117,
      "sogge": 4118,
      "semi": 4119,
      "depressione": 4120,
      "darvi": 4121,
      "fasi": 4122,
      "supera": 4123,
      "gici": 4124,
      "big": 4125,
      "curare": 4126,
      "parto": 4127,
      "manu": 4128,
      "mante": 4129,
      "inate": 4130,
      "stor": 4131,
      "corrente": 4132,
      "colpa": 4133,
      "satelli": 4134,
      "boli": 4135,
      "carcere": 4136,
      "giochi": 4137,
      "orecchie": 4138,
      "autobus": 4139,
      "circo": 4140,
      "dovreste": 4141,
      "rinnova": 4142,
      "criminali": 4143,
      "ovvero": 4144,
      "sicuramente": 4145,
      "attivo": 4146,
      "funzionato": 4147,
      "calcoli": 4148,
      "cellulari": 4149,
      "freddo": 4150,
      "accad": 4151,
      "completa": 4152,
      "americana": 4153,
      "riuscire": 4154,
      "tornato": 4155,
      "principio": 4156,
      "haiti": 4157,
      "banca": 4158,
      "utilizzato": 4159,
      "intelligenza": 4160,
      "meravigliosa": 4161,
      "professioni": 4162,
      "recentemente": 4163,
      "danne": 4164,
      "moderna": 4165,
      "avvicin": 4166,
      "confronti": 4167,
      "scorsa": 4168,
      "oceani": 4169,
      "applicazioni": 4170,
      "sfrutta": 4171,
      "segreto": 4172,
      "sorella": 4173,
      "fallimento": 4174,
      "conflitto": 4175,
      "rivela": 4176,
      "vantaggio": 4177,
      "debole": 4178,
      "civiltà": 4179,
      "ak": 4180,
      "aggi": 4181,
      "cera": 4182,
      "cenza": 4183,
      "etiche": 4184,
      "gan": 4185,
      "gla": 4186,
      "ges": 4187,
      "ico": 4188,
      "ju": 4189,
      "kg": 4190,
      "messe": 4191,
      "om": 4192,
      "sfu": 4193,
      "wash": 4194,
      "reagi": 4195,
      "tol": 4196,
      "andre": 4197,
      "inno": 4198,
      "tira": 4199,
      "esau": 4200,
      "simu": 4201,
      "domin": 4202,
      "sezione": 4203,
      "pap": 4204,
      "degua": 4205,
      "decine": 4206,
      "damento": 4207,
      "onore": 4208,
      "supp": 4209,
      "vecchi": 4210,
      "arco": 4211,
      "duta": 4212,
      "univer": 4213,
      "avessi": 4214,
      "cortec": 4215,
      "triste": 4216,
      "interro": 4217,
      "conosco": 4218,
      "appre": 4219,
      "formare": 4220,
      "carte": 4221,
      "ggono": 4222,
      "canada": 4223,
      "fede": 4224,
      "morta": 4225,
      "finora": 4226,
      "turno": 4227,
      "diffusione": 4228,
      "frasi": 4229,
      "brasile": 4230,
      "fondamenta": 4231,
      "osservate": 4232,
      "capaci": 4233,
      "trasformazione": 4234,
      "generazioni": 4235,
      "quadrato": 4236,
      "logica": 4237,
      "elettrica": 4238,
      "legato": 4239,
      "considerazione": 4240,
      "risponde": 4241,
      "impressi": 4242,
      "successiva": 4243,
      "legale": 4244,
      "pericoloso": 4245,
      "concludere": 4246,
      "piacerebbe": 4247,
      "caratteristiche": 4248,
      "ghiaccio": 4249,
      "fossili": 4250,
      "scarabo": 4251,
      "camminare": 4252,
      "partner": 4253,
      "word": 4254,
      "ciascuno": 4255,
      "giappone": 4256,
      "diploma": 4257,
      "matrimonio": 4258,
      "orgoglio": 4259,
      "equilibrio": 4260,
      "alfabe": 4261,
      "corteccia": 4262,
      "3d": 4263,
      "ffa": 4264,
      "mò": 4265,
      "mel": 4266,
      "ttro": 4267,
      "toni": 4268,
      "vallo": 4269,
      "work": 4270,
      "erlo": 4271,
      "ong": 4272,
      "dità": 4273,
      "regione": 4274,
      "anoni": 4275,
      "tevi": 4276,
      "lasc": 4277,
      "costitu": 4278,
      "altru": 4279,
      "rido": 4280,
      "espon": 4281,
      "noto": 4282,
      "contiene": 4283,
      "nonno": 4284,
      "ttività": 4285,
      "impi": 4286,
      "chiese": 4287,
      "dure": 4288,
      "abbon": 4289,
      "privi": 4290,
      "mandato": 4291,
      "venza": 4292,
      "venga": 4293,
      "pendo": 4294,
      "avviene": 4295,
      "ranti": 4296,
      "indiri": 4297,
      "chiamano": 4298,
      "buio": 4299,
      "ampia": 4300,
      "eleva": 4301,
      "cciano": 4302,
      "infanzia": 4303,
      "usati": 4304,
      "potrà": 4305,
      "bilan": 4306,
      "condizione": 4307,
      "medicin": 4308,
      "visioni": 4309,
      "facili": 4310,
      "cresciuta": 4311,
      "facevo": 4312,
      "ington": 4313,
      "bert": 4314,
      "compagni": 4315,
      "dottori": 4316,
      "lanciato": 4317,
      "aiutato": 4318,
      "costoso": 4319,
      "esistenza": 4320,
      "raggiunto": 4321,
      "pronta": 4322,
      "estremi": 4323,
      "chiedono": 4324,
      "terremoto": 4325,
      "coinvolgere": 4326,
      "imprese": 4327,
      "risparmi": 4328,
      "messico": 4329,
      "basata": 4330,
      "precedenti": 4331,
      "analizzare": 4332,
      "introdu": 4333,
      "tentativi": 4334,
      "epidemia": 4335,
      "strategia": 4336,
      "familiare": 4337,
      "conserva": 4338,
      "infrastrutture": 4339,
      "agricoltura": 4340,
      "invecchiamento": 4341,
      "vulnera": 4342,
      "scheletro": 4343,
      "dubbio": 4344,
      "emozionante": 4345,
      "ombra": 4346,
      "45": 4347,
      "eme": 4348,
      "elabora": 4349,
      "flessi": 4350,
      "hh": 4351,
      "ossa": 4352,
      "ool": 4353,
      "spar": 4354,
      "sina": 4355,
      "tuni": 4356,
      "wk": 4357,
      "wn": 4358,
      "incro": 4359,
      "intui": 4360,
      "latte": 4361,
      "tion": 4362,
      "tamento": 4363,
      "tarie": 4364,
      "algo": 4365,
      "ricchi": 4366,
      "morire": 4367,
      "dol": 4368,
      "dor": 4369,
      "sapu": 4370,
      "conti": 4371,
      "paesa": 4372,
      "dela": 4373,
      "vicen": 4374,
      "vai": 4375,
      "vedenti": 4376,
      "vecchia": 4377,
      "presso": 4378,
      "fie": 4379,
      "posse": 4380,
      "abbra": 4381,
      "tren": 4382,
      "venuti": 4383,
      "geor": 4384,
      "monia": 4385,
      "antico": 4386,
      "aids": 4387,
      "buono": 4388,
      "prendo": 4389,
      "sentono": 4390,
      "potevamo": 4391,
      "sentiamo": 4392,
      "piede": 4393,
      "guaglianza": 4394,
      "uscita": 4395,
      "occa": 4396,
      "fram": 4397,
      "opposto": 4398,
      "ricordare": 4399,
      "lineare": 4400,
      "chiedete": 4401,
      "fretta": 4402,
      "vinto": 4403,
      "provate": 4404,
      "germania": 4405,
      "assieme": 4406,
      "popolo": 4407,
      "francia": 4408,
      "esplorare": 4409,
      "tuoi": 4410,
      "larga": 4411,
      "tornando": 4412,
      "sopravvivenza": 4413,
      "preferito": 4414,
      "compiti": 4415,
      "campione": 4416,
      "entropia": 4417,
      "iniziando": 4418,
      "improvviso": 4419,
      "moderno": 4420,
      "farmaco": 4421,
      "decennio": 4422,
      "fluttu": 4423,
      "privacy": 4424,
      "scarabe": 4425,
      "sessuale": 4426,
      "miglioramento": 4427,
      "purtroppo": 4428,
      "componenti": 4429,
      "laurea": 4430,
      "battaglia": 4431,
      "iraq": 4432,
      "compagnia": 4433,
      "papà": 4434,
      "eva": 4435,
      "gall": 4436,
      "mali": 4437,
      "palla": 4438,
      "dialo": 4439,
      "topi": 4440,
      "ancor": 4441,
      "inta": 4442,
      "ingre": 4443,
      "telo": 4444,
      "cher": 4445,
      "comi": 4446,
      "costitui": 4447,
      "ricom": 4448,
      "risto": 4449,
      "raggi": 4450,
      "lettu": 4451,
      "situa": 4452,
      "liqui": 4453,
      "poe": 4454,
      "domani": 4455,
      "soc": 4456,
      "pala": 4457,
      "pilo": 4458,
      "viste": 4459,
      "fame": 4460,
      "tube": 4461,
      "proviamo": 4462,
      "trau": 4463,
      "hat": 4464,
      "ruba": 4465,
      "gamma": 4466,
      "gramma": 4467,
      "gratui": 4468,
      "inevita": 4469,
      "interessi": 4470,
      "chiare": 4471,
      "risposto": 4472,
      "direi": 4473,
      "cardia": 4474,
      "potessimo": 4475,
      "alcuna": 4476,
      "costruendo": 4477,
      "trasmettere": 4478,
      "scritta": 4479,
      "sapevamo": 4480,
      "esatto": 4481,
      "cominciai": 4482,
      "telle": 4483,
      "college": 4484,
      "conoscenze": 4485,
      "riuscivo": 4486,
      "racconto": 4487,
      "maggioranza": 4488,
      "school": 4489,
      "investimento": 4490,
      "transizione": 4491,
      "convinto": 4492,
      "religioni": 4493,
      "gestione": 4494,
      "sanità": 4495,
      "dispia": 4496,
      "guadagn": 4497,
      "password": 4498,
      "efficaci": 4499,
      "cosid": 4500,
      "parigi": 4501,
      "conoscete": 4502,
      "precedente": 4503,
      "raccolta": 4504,
      "efficiente": 4505,
      "efficienza": 4506,
      "essenziale": 4507,
      "distribuzione": 4508,
      "brillante": 4509,
      "egitto": 4510,
      "annun": 4511,
      "simboli": 4512,
      "immuni": 4513,
      "professore": 4514,
      "ricchezza": 4515,
      "washington": 4516,
      "150": 4517,
      "23": 4518,
      "agen": 4519,
      "cero": 4520,
      "flui": 4521,
      "gando": 4522,
      "spre": 4523,
      "svol": 4524,
      "uri": 4525,
      "wat": 4526,
      "teo": 4527,
      "alia": 4528,
      "razza": 4529,
      "rossa": 4530,
      "dottore": 4531,
      "domes": 4532,
      "cifra": 4533,
      "cilin": 4534,
      "segni": 4535,
      "passe": 4536,
      "davi": 4537,
      "processi": 4538,
      "orri": 4539,
      "bib": 4540,
      "bit": 4541,
      "teranno": 4542,
      "presenza": 4543,
      "ney": 4544,
      "ttata": 4545,
      "stima": 4546,
      "unite": 4547,
      "qualcos": 4548,
      "tendenza": 4549,
      "gravità": 4550,
      "interagire": 4551,
      "voler": 4552,
      "app": 4553,
      "zzon": 4554,
      "bur": 4555,
      "prendendo": 4556,
      "spesa": 4557,
      "carbu": 4558,
      "capitali": 4559,
      "ght": 4560,
      "inferi": 4561,
      "militare": 4562,
      "creativo": 4563,
      "milli": 4564,
      "positiva": 4565,
      "bell": 4566,
      "deserto": 4567,
      "city": 4568,
      "sinto": 4569,
      "volume": 4570,
      "personaggi": 4571,
      "presentato": 4572,
      "calore": 4573,
      "assor": 4574,
      "continuamente": 4575,
      "contadini": 4576,
      "ambienti": 4577,
      "benessere": 4578,
      "2009": 4579,
      "telecamera": 4580,
      "costruita": 4581,
      "lavoratori": 4582,
      "legame": 4583,
      "spirito": 4584,
      "offre": 4585,
      "riflettere": 4586,
      "meccanica": 4587,
      "moderni": 4588,
      "ispirazione": 4589,
      "superiori": 4590,
      "aprire": 4591,
      "urbani": 4592,
      "ingegneria": 4593,
      "avventura": 4594,
      "assistenza": 4595,
      "diagnosi": 4596,
      "sequenza": 4597,
      "complicato": 4598,
      "gelosia": 4599,
      "asi": 4600,
      "fren": 4601,
      "idro": 4602,
      "mesti": 4603,
      "rra": 4604,
      "rali": 4605,
      "wer": 4606,
      "wil": 4607,
      "erenza": 4608,
      "disci": 4609,
      "resta": 4610,
      "insi": 4611,
      "lazioni": 4612,
      "rich": 4613,
      "riconosci": 4614,
      "estro": 4615,
      "rotelle": 4616,
      "permettono": 4617,
      "pop": 4618,
      "cade": 4619,
      "cavi": 4620,
      "pavi": 4621,
      "meni": 4622,
      "viva": 4623,
      "sur": 4624,
      "giche": 4625,
      "vado": 4626,
      "cela": 4627,
      "verdi": 4628,
      "neander": 4629,
      "arci": 4630,
      "artico": 4631,
      "nare": 4632,
      "esserci": 4633,
      "ciao": 4634,
      "formu": 4635,
      "mandare": 4636,
      "stili": 4637,
      "avvo": 4638,
      "certe": 4639,
      "grave": 4640,
      "grafica": 4641,
      "trili": 4642,
      "formato": 4643,
      "viaggiare": 4644,
      "spalle": 4645,
      "derò": 4646,
      "infermi": 4647,
      "marte": 4648,
      "circui": 4649,
      "ministro": 4650,
      "plastica": 4651,
      "signifi": 4652,
      "aumen": 4653,
      "sorpresa": 4654,
      "dispositivi": 4655,
      "trattare": 4656,
      "orizzon": 4657,
      "decidere": 4658,
      "tello": 4659,
      "isla": 4660,
      "effettu": 4661,
      "enziale": 4662,
      "ricevere": 4663,
      "osserviamo": 4664,
      "spiegar": 4665,
      "limite": 4666,
      "pianeti": 4667,
      "investimenti": 4668,
      "spinge": 4669,
      "contenuto": 4670,
      "garanti": 4671,
      "preoccupar": 4672,
      "distruzione": 4673,
      "sanitario": 4674,
      "impresa": 4675,
      "rimasta": 4676,
      "percezione": 4677,
      "pulita": 4678,
      "aperta": 4679,
      "membro": 4680,
      "partecipa": 4681,
      "apparecchio": 4682,
      "seduti": 4683,
      "disturbo": 4684,
      "espansione": 4685,
      "adul": 4686,
      "incidente": 4687,
      "allontan": 4688,
      "disegnare": 4689,
      "cruciale": 4690,
      "australia": 4691,
      "twitter": 4692,
      "1000": 4693,
      "400": 4694,
      "avendo": 4695,
      "empa": 4696,
      "pall": 4697,
      "phi": 4698,
      "vino": 4699,
      "ziamo": 4700,
      "zoni": 4701,
      "dibattito": 4702,
      "retro": 4703,
      "tom": 4704,
      "topo": 4705,
      "inver": 4706,
      "insomma": 4707,
      "tedes": 4708,
      "tava": 4709,
      "tagna": 4710,
      "quil": 4711,
      "riva": 4712,
      "rivol": 4713,
      "sic": 4714,
      "perfino": 4715,
      "magni": 4716,
      "cavo": 4717,
      "concre": 4718,
      "consul": 4719,
      "contare": 4720,
      "daf": 4721,
      "profondi": 4722,
      "fili": 4723,
      "fibre": 4724,
      "arrabbia": 4725,
      "immer": 4726,
      "impul": 4727,
      "natale": 4728,
      "creiamo": 4729,
      "storico": 4730,
      "porte": 4731,
      "interazione": 4732,
      "giati": 4733,
      "colon": 4734,
      "cena": 4735,
      "focalizza": 4736,
      "anima": 4737,
      "antici": 4738,
      "air": 4739,
      "grandio": 4740,
      "attre": 4741,
      "faranno": 4742,
      "ampio": 4743,
      "dovevano": 4744,
      "andai": 4745,
      "musul": 4746,
      "punte": 4747,
      "ronzio": 4748,
      "cominciò": 4749,
      "creature": 4750,
      "iniziai": 4751,
      "finestre": 4752,
      "pensava": 4753,
      "trattava": 4754,
      "alizzare": 4755,
      "attraversa": 4756,
      "fred": 4757,
      "verifica": 4758,
      "stretti": 4759,
      "anato": 4760,
      "bretagna": 4761,
      "network": 4762,
      "osservando": 4763,
      "globali": 4764,
      "insegnamento": 4765,
      "intellettu": 4766,
      "definire": 4767,
      "sostenere": 4768,
      "franci": 4769,
      "atomi": 4770,
      "disagio": 4771,
      "psichia": 4772,
      "impegno": 4773,
      "inventare": 4774,
      "obiettivi": 4775,
      "discutere": 4776,
      "risparmio": 4777,
      "sensazioni": 4778,
      "fatemi": 4779,
      "vedremo": 4780,
      "durata": 4781,
      "applicazione": 4782,
      "analizzato": 4783,
      "curiosità": 4784,
      "irri": 4785,
      "giornalista": 4786,
      "strana": 4787,
      "flusso": 4788,
      "scoperte": 4789,
      "ghiaccia": 4790,
      "disturbi": 4791,
      "veicoli": 4792,
      "negozio": 4793,
      "wow": 4794,
      "consideriamo": 4795,
      "diminui": 4796,
      "imprenditori": 4797,
      "mistero": 4798,
      "odore": 4799,
      "vergogna": 4800,
      "lasciamo": 4801,
      "saputo": 4802,
      "biblio": 4803,
      "babba": 4804,
      "danni": 4805,
      "eh": 4806,
      "ehi": 4807,
      "gma": 4808,
      "imi": 4809,
      "jam": 4810,
      "lino": 4811,
      "my": 4812,
      "otter": 4813,
      "pper": 4814,
      "pessi": 4815,
      "tb": 4816,
      "tz": 4817,
      "onali": 4818,
      "dirò": 4819,
      "intest": 4820,
      "incenti": 4821,
      "copri": 4822,
      "esperto": 4823,
      "esclu": 4824,
      "sacri": 4825,
      "confini": 4826,
      "stanti": 4827,
      "turi": 4828,
      "tuali": 4829,
      "gigante": 4830,
      "veter": 4831,
      "bbra": 4832,
      "prostata": 4833,
      "nave": 4834,
      "ttate": 4835,
      "privato": 4836,
      "essendo": 4837,
      "vengo": 4838,
      "vendere": 4839,
      "pens": 4840,
      "rane": 4841,
      "cercano": 4842,
      "fur": 4843,
      "guardia": 4844,
      "diversamente": 4845,
      "muri": 4846,
      "magne": 4847,
      "potremo": 4848,
      "eletto": 4849,
      "fonti": 4850,
      "autori": 4851,
      "dicevo": 4852,
      "autono": 4853,
      "pensai": 4854,
      "chiamava": 4855,
      "fermar": 4856,
      "fermare": 4857,
      "calo": 4858,
      "ismo": 4859,
      "braccia": 4860,
      "sonda": 4861,
      "aiutano": 4862,
      "attentamente": 4863,
      "personalità": 4864,
      "anziane": 4865,
      "logico": 4866,
      "istruzioni": 4867,
      "investire": 4868,
      "sconfi": 4869,
      "schizo": 4870,
      "estrarre": 4871,
      "deriva": 4872,
      "sperimentare": 4873,
      "fotografia": 4874,
      "rilev": 4875,
      "chirurgo": 4876,
      "apertura": 4877,
      "sfruttare": 4878,
      "metodi": 4879,
      "essenzialmente": 4880,
      "spiegazione": 4881,
      "specifico": 4882,
      "resistenza": 4883,
      "nation": 4884,
      "scolastico": 4885,
      "giardino": 4886,
      "youtube": 4887,
      "connettoma": 4888,
      "recuper": 4889,
      "vicenda": 4890,
      "domestica": 4891,
      "neanderth": 4892,
      "trilioni": 4893,
      "babbage": 4894,
      "35": 4895,
      "ate": 4896,
      "bran": 4897,
      "ct": 4898,
      "cino": 4899,
      "eventi": 4900,
      "gin": 4901,
      "her": 4902,
      "oppo": 4903,
      "obbli": 4904,
      "pone": 4905,
      "rgli": 4906,
      "smettere": 4907,
      "win": 4908,
      "retina": 4909,
      "toll": 4910,
      "teca": 4911,
      "chino": 4912,
      "talento": 4913,
      "ridi": 4914,
      "ridge": 4915,
      "espe": 4916,
      "ragno": 4917,
      "raddo": 4918,
      "motori": 4919,
      "leon": 4920,
      "lettura": 4921,
      "perse": 4922,
      "perfor": 4923,
      "poti": 4924,
      "pomeri": 4925,
      "mammi": 4926,
      "casse": 4927,
      "cavallo": 4928,
      "sara": 4929,
      "coni": 4930,
      "vor": 4931,
      "stando": 4932,
      "vivendo": 4933,
      "suon": 4934,
      "girare": 4935,
      "vard": 4936,
      "vedevo": 4937,
      "preda": 4938,
      "prevedere": 4939,
      "fissa": 4940,
      "fiore": 4941,
      "pezze": 4942,
      "possiede": 4943,
      "bassi": 4944,
      "baffi": 4945,
      "prigione": 4946,
      "hotel": 4947,
      "vente": 4948,
      "inata": 4949,
      "avessero": 4950,
      "scano": 4951,
      "tribu": 4952,
      "sciu": 4953,
      "colonia": 4954,
      "fox": 4955,
      "antica": 4956,
      "risp": 4957,
      "generi": 4958,
      "bos": 4959,
      "prendersi": 4960,
      "diretta": 4961,
      "splen": 4962,
      "derlo": 4963,
      "marcia": 4964,
      "minor": 4965,
      "finestra": 4966,
      "ricordi": 4967,
      "continuano": 4968,
      "ossessi": 4969,
      "diventati": 4970,
      "veloci": 4971,
      "ricercatori": 4972,
      "protezione": 4973,
      "condiviso": 4974,
      "bersa": 4975,
      "intenzione": 4976,
      "matematico": 4977,
      "anzitutto": 4978,
      "legati": 4979,
      "considerato": 4980,
      "perfetta": 4981,
      "ottiene": 4982,
      "chiedendo": 4983,
      "pensieri": 4984,
      "contenuti": 4985,
      "scientifiche": 4986,
      "abitua": 4987,
      "passiamo": 4988,
      "inventato": 4989,
      "dimostrare": 4990,
      "interessati": 4991,
      "coinvolti": 4992,
      "responsabili": 4993,
      "titolo": 4994,
      "registrato": 4995,
      "straordinarie": 4996,
      "collaborazione": 4997,
      "passano": 4998,
      "impariamo": 4999,
      "partecipare": 5000,
      "indossa": 5001,
      "heim": 5002,
      "civili": 5003,
      "dinamica": 5004,
      "stabilire": 5005,
      "organizzazioni": 5006,
      "moneta": 5007,
      "tentativo": 5008,
      "chiudere": 5009,
      "tunnel": 5010,
      "difen": 5011,
      "quotidiana": 5012,
      "innanzitutto": 5013,
      "valutare": 5014,
      "riscaldamento": 5015,
      "leggermente": 5016,
      "debba": 5017,
      "selva": 5018,
      "artificiale": 5019,
      "francese": 5020,
      "paesaggio": 5021,
      "george": 5022,
      "situazioni": 5023,
      "bitcoin": 5024,
      "richard": 5025,
      "empatia": 5026,
      "siccome": 5027,
      "aa": 5028,
      "dò": 5029,
      "eti": 5030,
      "ego": 5031,
      "evol": 5032,
      "gino": 5033,
      "hen": 5034,
      "istante": 5035,
      "iphone": 5036,
      "ssare": 5037,
      "tho": 5038,
      "zano": 5039,
      "dizione": 5040,
      "recen": 5041,
      "ingh": 5042,
      "incertezza": 5043,
      "tagli": 5044,
      "alli": 5045,
      "allu": 5046,
      "ricon": 5047,
      "raf": 5048,
      "sig": 5049,
      "sivo": 5050,
      "dosso": 5051,
      "caff": 5052,
      "cause": 5053,
      "localizza": 5054,
      "sebbene": 5055,
      "mito": 5056,
      "paki": 5057,
      "viv": 5058,
      "facce": 5059,
      "ormai": 5060,
      "ceo": 5061,
      "biglie": 5062,
      "tera": 5063,
      "ttile": 5064,
      "preser": 5065,
      "tracce": 5066,
      "fian": 5067,
      "nico": 5068,
      "commenti": 5069,
      "impo": 5070,
      "chiesa": 5071,
      "back": 5072,
      "stipen": 5073,
      "corsa": 5074,
      "corpi": 5075,
      "cerco": 5076,
      "cerchio": 5077,
      "zzatura": 5078,
      "tensione": 5079,
      "tendono": 5080,
      "gravi": 5081,
      "gradu": 5082,
      "center": 5083,
      "farmi": 5084,
      "ammi": 5085,
      "capitato": 5086,
      "cammin": 5087,
      "cambiata": 5088,
      "trovate": 5089,
      "cercate": 5090,
      "usata": 5091,
      "bisogni": 5092,
      "pietra": 5093,
      "mart": 5094,
      "zionare": 5095,
      "sapevano": 5096,
      "audio": 5097,
      "chiamate": 5098,
      "valente": 5099,
      "economie": 5100,
      "finisce": 5101,
      "bill": 5102,
      "telesco": 5103,
      "medica": 5104,
      "medicine": 5105,
      "calcola": 5106,
      "vincere": 5107,
      "risulta": 5108,
      "club": 5109,
      "suici": 5110,
      "pesci": 5111,
      "personali": 5112,
      "ascolta": 5113,
      "tranne": 5114,
      "tradizione": 5115,
      "spingere": 5116,
      "impedi": 5117,
      "istituto": 5118,
      "influen": 5119,
      "principalmente": 5120,
      "collegamento": 5121,
      "territorio": 5122,
      "iniziò": 5123,
      "iniziano": 5124,
      "arabo": 5125,
      "pulito": 5126,
      "basato": 5127,
      "suonare": 5128,
      "tagliare": 5129,
      "lasciano": 5130,
      "strani": 5131,
      "kenya": 5132,
      "seduta": 5133,
      "volontà": 5134,
      "fratelli": 5135,
      "israeli": 5136,
      "uguale": 5137,
      "montagna": 5138,
      "ecosistema": 5139,
      "benissimo": 5140,
      "quarto": 5141,
      "nervoso": 5142,
      "rifiuti": 5143,
      "intitolato": 5144,
      "trasparenza": 5145,
      "codifica": 5146,
      "necessità": 5147,
      "bicicle": 5148,
      "privile": 5149,
      "medicinali": 5150,
      "dispiace": 5151,
      "francisco": 5152,
      "national": 5153,
      "neanderthal": 5154,
      "pomeriggio": 5155,
      "ach": 5156,
      "adegua": 5157,
      "bina": 5158,
      "ballo": 5159,
      "ecci": 5160,
      "id": 5161,
      "ker": 5162,
      "mpo": 5163,
      "scorre": 5164,
      "vani": 5165,
      "restare": 5166,
      "tasca": 5167,
      "rigi": 5168,
      "ricco": 5169,
      "ripara": 5170,
      "ricca": 5171,
      "rate": 5172,
      "razioni": 5173,
      "radia": 5174,
      "mobile": 5175,
      "mostri": 5176,
      "rossi": 5177,
      "povere": 5178,
      "soglia": 5179,
      "sogna": 5180,
      "sapre": 5181,
      "novità": 5182,
      "contano": 5183,
      "paci": 5184,
      "dava": 5185,
      "ston": 5186,
      "vitto": 5187,
      "gibile": 5188,
      "vasta": 5189,
      "prosperi": 5190,
      "nelli": 5191,
      "imper": 5192,
      "naio": 5193,
      "ciata": 5194,
      "mangi": 5195,
      "vener": 5196,
      "mbur": 5197,
      "gazione": 5198,
      "unione": 5199,
      "avranno": 5200,
      "strati": 5201,
      "zialmente": 5202,
      "giallo": 5203,
      "onamento": 5204,
      "chiara": 5205,
      "sarete": 5206,
      "questioni": 5207,
      "gennaio": 5208,
      "scolo": 5209,
      "andavo": 5210,
      "ghana": 5211,
      "diavolo": 5212,
      "portate": 5213,
      "suolo": 5214,
      "manipo": 5215,
      "gger": 5216,
      "affatto": 5217,
      "arrivando": 5218,
      "orecchio": 5219,
      "canzoni": 5220,
      "feed": 5221,
      "fecero": 5222,
      "autenti": 5223,
      "critica": 5224,
      "cominciarono": 5225,
      "minare": 5226,
      "utilizzo": 5227,
      "passati": 5228,
      "ponte": 5229,
      "pesca": 5230,
      "popolare": 5231,
      "complessa": 5232,
      "berg": 5233,
      "agiscono": 5234,
      "guerre": 5235,
      "meraviglia": 5236,
      "investitori": 5237,
      "tranquil": 5238,
      "necessaria": 5239,
      "necessariamente": 5240,
      "esplorazione": 5241,
      "impegn": 5242,
      "illusione": 5243,
      "dipendenti": 5244,
      "ognuna": 5245,
      "fisicamente": 5246,
      "riduce": 5247,
      "fisici": 5248,
      "amazz": 5249,
      "meccanismo": 5250,
      "conferenze": 5251,
      "metropoli": 5252,
      "borsa": 5253,
      "urbano": 5254,
      "spettacolo": 5255,
      "narrazione": 5256,
      "normalmente": 5257,
      "negozi": 5258,
      "uguali": 5259,
      "commerciale": 5260,
      "taneamente": 5261,
      "anderson": 5262,
      "prototipo": 5263,
      "guadagnare": 5264,
      "difesa": 5265,
      "harvard": 5266,
      "accelera": 5267,
      "ficante": 5268,
      "ragazzino": 5269,
      "sconosciuti": 5270,
      "ambientali": 5271,
      "astrono": 5272,
      "richiesta": 5273,
      "piattaforma": 5274,
      "sintomi": 5275,
      "'": 5276,
      "bani": 5277,
      "feste": 5278,
      "lesi": 5279,
      "open": 5280,
      "pm": 5281,
      "pì": 5282,
      "sli": 5283,
      "sene": 5284,
      "spera": 5285,
      "erno": 5286,
      "digni": 5287,
      "dirlo": 5288,
      "reparto": 5289,
      "inutile": 5290,
      "ence": 5291,
      "tassi": 5292,
      "taglio": 5293,
      "estran": 5294,
      "rabb": 5295,
      "raramente": 5296,
      "perman": 5297,
      "percen": 5298,
      "polo": 5299,
      "dott": 5300,
      "pipi": 5301,
      "subi": 5302,
      "proposto": 5303,
      "cemento": 5304,
      "verranno": 5305,
      "ttimo": 5306,
      "arli": 5307,
      "ardo": 5308,
      "arlo": 5309,
      "imbara": 5310,
      "priori": 5311,
      "alimentare": 5312,
      "mance": 5313,
      "gusto": 5314,
      "gara": 5315,
      "avessimo": 5316,
      "corte": 5317,
      "corti": 5318,
      "conoscono": 5319,
      "colpe": 5320,
      "bolle": 5321,
      "viaggia": 5322,
      "ghiamo": 5323,
      "infanti": 5324,
      "trasporti": 5325,
      "autorità": 5326,
      "statistiche": 5327,
      "progettato": 5328,
      "riempi": 5329,
      "chiamare": 5330,
      "posizioni": 5331,
      "destina": 5332,
      "2011": 5333,
      "ling": 5334,
      "sinte": 5335,
      "collettiva": 5336,
      "personaggio": 5337,
      "visiva": 5338,
      "affin": 5339,
      "labor": 5340,
      "fondazione": 5341,
      "tornata": 5342,
      "protesi": 5343,
      "dollaro": 5344,
      "otteniamo": 5345,
      "portò": 5346,
      "pensateci": 5347,
      "muoiono": 5348,
      "complesse": 5349,
      "lancio": 5350,
      "generare": 5351,
      "legate": 5352,
      "uccise": 5353,
      "disastro": 5354,
      "genetico": 5355,
      "spinto": 5356,
      "nervi": 5357,
      "movimenti": 5358,
      "mattino": 5359,
      "influenzare": 5360,
      "metafora": 5361,
      "progresso": 5362,
      "bordo": 5363,
      "sveglia": 5364,
      "liberare": 5365,
      "zanzari": 5366,
      "frequenza": 5367,
      "invisibili": 5368,
      "varietà": 5369,
      "montagne": 5370,
      "musicale": 5371,
      "conversazioni": 5372,
      "operare": 5373,
      "cucinare": 5374,
      "valutazione": 5375,
      "schiavi": 5376,
      "egizi": 5377,
      "alzheim": 5378,
      "coppie": 5379,
      "ritengo": 5380,
      "sforzo": 5381,
      "atteggiamento": 5382,
      "cominciano": 5383,
      "attualmente": 5384,
      "femminile": 5385,
      "barriere": 5386,
      "ringrazia": 5387,
      "dormire": 5388,
      "cerebrale": 5389,
      "scultura": 5390,
      "ebrei": 5391,
      "professionisti": 5392,
      "impression": 5393,
      "alfabeti": 5394,
      "dialogo": 5395,
      "cilindro": 5396,
      "david": 5397,
      "performance": 5398,
      "fianco": 5399,
      "prosperità": 5400,
      "venerdì": 5401,
      "estrane": 5402,
      "pipistre": 5403,
      "priorità": 5404,
      "alzheimer": 5405,
      "asciu": 5406,
      "canto": 5407,
      "ec": 5408,
      "egli": 5409,
      "ebbe": 5410,
      "flo": 5411,
      "iso": 5412,
      "isa": 5413,
      "istan": 5414,
      "ot": 5415,
      "sms": 5416,
      "tenza": 5417,
      "ud": 5418,
      "up": 5419,
      "utenti": 5420,
      "wan": 5421,
      "resa": 5422,
      "indov": 5423,
      "inchio": 5424,
      "teori": 5425,
      "rimar": 5426,
      "perfora": 5427,
      "liceo": 5428,
      "power": 5429,
      "madri": 5430,
      "doloro": 5431,
      "dozz": 5432,
      "sosti": 5433,
      "socio": 5434,
      "ilterra": 5435,
      "nobel": 5436,
      "concor": 5437,
      "consegna": 5438,
      "pausa": 5439,
      "pisto": 5440,
      "visti": 5441,
      "mee": 5442,
      "fasti": 5443,
      "facciano": 5444,
      "tubo": 5445,
      "vada": 5446,
      "vedendo": 5447,
      "gliendo": 5448,
      "stazione": 5449,
      "verb": 5450,
      "cuo": 5451,
      "cometa": 5452,
      "chiesi": 5453,
      "possiate": 5454,
      "dute": 5455,
      "prigioni": 5456,
      "essenza": 5457,
      "ggiù": 5458,
      "inati": 5459,
      "pensione": 5460,
      "corro": 5461,
      "tende": 5462,
      "grasso": 5463,
      "volere": 5464,
      "attribu": 5465,
      "farli": 5466,
      "ttino": 5467,
      "fui": 5468,
      "andar": 5469,
      "carsi": 5470,
      "capisco": 5471,
      "immagino": 5472,
      "divenne": 5473,
      "fonde": 5474,
      "talebani": 5475,
      "arrivo": 5476,
      "costruiamo": 5477,
      "scarica": 5478,
      "avreste": 5479,
      "automa": 5480,
      "creata": 5481,
      "creativa": 5482,
      "morbi": 5483,
      "giuste": 5484,
      "significativo": 5485,
      "desse": 5486,
      "cinesi": 5487,
      "potranno": 5488,
      "minato": 5489,
      "opzioni": 5490,
      "amica": 5491,
      "produttori": 5492,
      "parlarne": 5493,
      "green": 5494,
      "197": 5495,
      "compleanno": 5496,
      "vinci": 5497,
      "vorremmo": 5498,
      "street": 5499,
      "mettete": 5500,
      "geria": 5501,
      "spiegato": 5502,
      "seguente": 5503,
      "vestiti": 5504,
      "muovono": 5505,
      "microf": 5506,
      "personalmente": 5507,
      "britan": 5508,
      "utilizzata": 5509,
      "aspettate": 5510,
      "aspettative": 5511,
      "ucciso": 5512,
      "attacchi": 5513,
      "accettare": 5514,
      "blog": 5515,
      "blocca": 5516,
      "meravigliose": 5517,
      "distrutto": 5518,
      "sterco": 5519,
      "centrali": 5520,
      "polmoni": 5521,
      "potenziali": 5522,
      "descritto": 5523,
      "conclusione": 5524,
      "rimangono": 5525,
      "bianca": 5526,
      "dimenticato": 5527,
      "vittima": 5528,
      "bellissimo": 5529,
      "volontari": 5530,
      "quartieri": 5531,
      "osservazione": 5532,
      "commercio": 5533,
      "impiegati": 5534,
      "letteratura": 5535,
      "elettronica": 5536,
      "aereo": 5537,
      "obesi": 5538,
      "europea": 5539,
      "ding": 5540,
      "rifugiati": 5541,
      "adolescenti": 5542,
      "riserva": 5543,
      "opinione": 5544,
      "camion": 5545,
      "superato": 5546,
      "suppon": 5547,
      "fondamentalmente": 5548,
      "inferiore": 5549,
      "profondità": 5550,
      "musulmani": 5551,
      "intellettuale": 5552,
      "biblioteca": 5553,
      "james": 5554,
      "veterani": 5555,
      "inghilterra": 5556,
      "36": 5557,
      "ay": 5558,
      "amb": 5559,
      "astra": 5560,
      "bg": 5561,
      "buto": 5562,
      "cene": 5563,
      "fluo": 5564,
      "kan": 5565,
      "oso": 5566,
      "pran": 5567,
      "rerà": 5568,
      "sla": 5569,
      "uber": 5570,
      "ware": 5571,
      "xy": 5572,
      "yn": 5573,
      "zu": 5574,
      "zina": 5575,
      "reagire": 5576,
      "tocca": 5577,
      "anne": 5578,
      "iner": 5579,
      "insul": 5580,
      "inson": 5581,
      "tatua": 5582,
      "unale": 5583,
      "alte": 5584,
      "rimo": 5585,
      "rivista": 5586,
      "ley": 5587,
      "roto": 5588,
      "roso": 5589,
      "persi": 5590,
      "massimo": 5591,
      "cazione": 5592,
      "som": 5593,
      "sofi": 5594,
      "soste": 5595,
      "notate": 5596,
      "concentr": 5597,
      "mit": 5598,
      "voti": 5599,
      "patch": 5600,
      "mezza": 5601,
      "tue": 5602,
      "tuber": 5603,
      "vaso": 5604,
      "promessa": 5605,
      "stasera": 5606,
      "prele": 5607,
      "fibra": 5608,
      "cubo": 5609,
      "arono": 5610,
      "compreso": 5611,
      "nate": 5612,
      "hack": 5613,
      "abban": 5614,
      "esser": 5615,
      "formano": 5616,
      "vendita": 5617,
      "mber": 5618,
      "put": 5619,
      "accia": 5620,
      "appropria": 5621,
      "colli": 5622,
      "chiamar": 5623,
      "antichi": 5624,
      "fumo": 5625,
      "spun": 5626,
      "potessero": 5627,
      "elementare": 5628,
      "piatto": 5629,
      "diate": 5630,
      "manifes": 5631,
      "eccoci": 5632,
      "arriviamo": 5633,
      "pratiche": 5634,
      "canale": 5635,
      "scrisse": 5636,
      "minimo": 5637,
      "zionata": 5638,
      "aule": 5639,
      "critico": 5640,
      "continente": 5641,
      "decisamente": 5642,
      "andrà": 5643,
      "visibile": 5644,
      "succederà": 5645,
      "utilità": 5646,
      "americane": 5647,
      "organismo": 5648,
      "benzina": 5649,
      "ricevono": 5650,
      "fronti": 5651,
      "particolari": 5652,
      "segue": 5653,
      "condivisione": 5654,
      "centesimi": 5655,
      "personalizza": 5656,
      "adora": 5657,
      "risolto": 5658,
      "sangui": 5659,
      "esistenti": 5660,
      "monito": 5661,
      "lavorava": 5662,
      "esplosione": 5663,
      "genetica": 5664,
      "genetiche": 5665,
      "spinale": 5666,
      "attacca": 5667,
      "documento": 5668,
      "robotica": 5669,
      "interessato": 5670,
      "sanitari": 5671,
      "assegna": 5672,
      "preferita": 5673,
      "dettaglio": 5674,
      "fotografie": 5675,
      "emergere": 5676,
      "risorsa": 5677,
      "rifl": 5678,
      "dipingere": 5679,
      "cittadino": 5680,
      "comprensi": 5681,
      "minore": 5682,
      "metallo": 5683,
      "finanziari": 5684,
      "ispirato": 5685,
      "combinazione": 5686,
      "fabbriche": 5687,
      "occidente": 5688,
      "apparecchi": 5689,
      "vaccino": 5690,
      "eccezionale": 5691,
      "frequen": 5692,
      "specifica": 5693,
      "nanopatch": 5694,
      "applicare": 5695,
      "musici": 5696,
      "familiari": 5697,
      "costantemente": 5698,
      "apparten": 5699,
      "brillanti": 5700,
      "ecosistemi": 5701,
      "simbolo": 5702,
      "sforzi": 5703,
      "ambientale": 5704,
      "alternativa": 5705,
      "indipendente": 5706,
      "accessibili": 5707,
      "ship": 5708,
      "provenienti": 5709,
      "esprimere": 5710,
      "contemporaneamente": 5711,
      "ufficiale": 5712,
      "danneggia": 5713,
      "ricompensa": 5714,
      "capitalismo": 5715,
      "discipl": 5716,
      "intestino": 5717,
      "leonardo": 5718,
      "mammiferi": 5719,
      "caffè": 5720,
      "dignità": 5721,
      "sostiene": 5722,
      "sostegno": 5723,
      "cran": 5724,
      "eter": 5725,
      "festi": 5726,
      "iper": 5727,
      "igi": 5728,
      "isole": 5729,
      "istin": 5730,
      "mpia": 5731,
      "opar": 5732,
      "odio": 5733,
      "sport": 5734,
      "tine": 5735,
      "xi": 5736,
      "erba": 5737,
      "dito": 5738,
      "ditta": 5739,
      "dimento": 5740,
      "diparti": 5741,
      "diranno": 5742,
      "dissero": 5743,
      "recenti": 5744,
      "toglie": 5745,
      "teso": 5746,
      "tess": 5747,
      "latina": 5748,
      "colato": 5749,
      "times": 5750,
      "tag": 5751,
      "risa": 5752,
      "riporta": 5753,
      "risoluzione": 5754,
      "radici": 5755,
      "perdono": 5756,
      "pertanto": 5757,
      "sour": 5758,
      "sau": 5759,
      "mido": 5760,
      "micha": 5761,
      "viso": 5762,
      "vicina": 5763,
      "ttoli": 5764,
      "ttolo": 5765,
      "propag": 5766,
      "stadio": 5767,
      "orto": 5768,
      "prezzi": 5769,
      "tratten": 5770,
      "immen": 5771,
      "chimici": 5772,
      "habita": 5773,
      "ruzione": 5774,
      "mandela": 5775,
      "stian": 5776,
      "stiano": 5777,
      "lumino": 5778,
      "galas": 5779,
      "unici": 5780,
      "tridimensionale": 5781,
      "gete": 5782,
      "farebbe": 5783,
      "bugie": 5784,
      "farla": 5785,
      "scopre": 5786,
      "guardi": 5787,
      "zioso": 5788,
      "sentimenti": 5789,
      "sentirsi": 5790,
      "afro": 5791,
      "cercavo": 5792,
      "trascorso": 5793,
      "statistica": 5794,
      "ulterio": 5795,
      "create": 5796,
      "pubbliche": 5797,
      "millen": 5798,
      "informatici": 5799,
      "successe": 5800,
      "2012": 5801,
      "svilupp": 5802,
      "producono": 5803,
      "parlava": 5804,
      "andò": 5805,
      "stitute": 5806,
      "194": 5807,
      "sostanze": 5808,
      "diventate": 5809,
      "differente": 5810,
      "2001": 5811,
      "2007": 5812,
      "sperare": 5813,
      "falsa": 5814,
      "raccolti": 5815,
      "matematici": 5816,
      "filmato": 5817,
      "affronta": 5818,
      "colari": 5819,
      "quadrati": 5820,
      "cchiare": 5821,
      "cambiò": 5822,
      "racconti": 5823,
      "ottimo": 5824,
      "centinaio": 5825,
      "collegati": 5826,
      "accettato": 5827,
      "determin": 5828,
      "sanitaria": 5829,
      "preferiti": 5830,
      "sperimentato": 5831,
      "successivi": 5832,
      "droga": 5833,
      "legali": 5834,
      "registrare": 5835,
      "straordinari": 5836,
      "confronto": 5837,
      "collaborare": 5838,
      "piantare": 5839,
      "contributo": 5840,
      "bianchi": 5841,
      "peggiore": 5842,
      "tagliato": 5843,
      "ritmi": 5844,
      "giornalisti": 5845,
      "femmina": 5846,
      "procedura": 5847,
      "ossigeno": 5848,
      "infinito": 5849,
      "infinite": 5850,
      "distribui": 5851,
      "affidabili": 5852,
      "batterio": 5853,
      "extra": 5854,
      "famosa": 5855,
      "battuta": 5856,
      "alternative": 5857,
      "miracolo": 5858,
      "attraversare": 5859,
      "accessibile": 5860,
      "combustibile": 5861,
      "equazione": 5862,
      "sostituire": 5863,
      "elefante": 5864,
      "circostanze": 5865,
      "universale": 5866,
      "abbraccia": 5867,
      "trauma": 5868,
      "orribile": 5869,
      "coprire": 5870,
      "rafforza": 5871,
      "pakistan": 5872,
      "habitat": 5873,
      "galassia": 5874,
      "22": 5875,
      "27": 5876,
      "99": 5877,
      "ab": 5878,
      "astr": 5879,
      "besti": 5880,
      "fan": 5881,
      "fla": 5882,
      "olo": 5883,
      "scambio": 5884,
      "ttur": 5885,
      "ure": 5886,
      "uguaglianza": 5887,
      "ward": 5888,
      "zando": 5889,
      "diar": 5890,
      "resc": 5891,
      "repli": 5892,
      "incol": 5893,
      "ingiustizia": 5894,
      "tex": 5895,
      "laggiù": 5896,
      "co2": 5897,
      "tabile": 5898,
      "ald": 5899,
      "esce": 5900,
      "ella": 5901,
      "rama": 5902,
      "ragni": 5903,
      "raggio": 5904,
      "ratori": 5905,
      "siva": 5906,
      "perdite": 5907,
      "cile": 5908,
      "cattiva": 5909,
      "sato": 5910,
      "saha": 5911,
      "conver": 5912,
      "condotto": 5913,
      "voto": 5914,
      "vib": 5915,
      "metta": 5916,
      "tutela": 5917,
      "proviene": 5918,
      "birra": 5919,
      "teri": 5920,
      "prestito": 5921,
      "trovi": 5922,
      "compro": 5923,
      "chiuso": 5924,
      "nasce": 5925,
      "iniziamo": 5926,
      "bato": 5927,
      "batte": 5928,
      "babil": 5929,
      "credevo": 5930,
      "manda": 5931,
      "inamento": 5932,
      "portiamo": 5933,
      "gamba": 5934,
      "uniforme": 5935,
      "indiano": 5936,
      "cosmo": 5937,
      "grafici": 5938,
      "allun": 5939,
      "inea": 5940,
      "interamente": 5941,
      "specchio": 5942,
      "appunta": 5943,
      "coloni": 5944,
      "fossimo": 5945,
      "saremmo": 5946,
      "fattore": 5947,
      "bum": 5948,
      "farle": 5949,
      "farne": 5950,
      "bolla": 5951,
      "primati": 5952,
      "fusione": 5953,
      "direttore": 5954,
      "speso": 5955,
      "cambiamo": 5956,
      "cambridge": 5957,
      "dermi": 5958,
      "potrete": 5959,
      "puntini": 5960,
      "comprato": 5961,
      "spavento": 5962,
      "scappa": 5963,
      "cancel": 5964,
      "controll": 5965,
      "militari": 5966,
      "augu": 5967,
      "sorve": 5968,
      "salve": 5969,
      "informatica": 5970,
      "malapena": 5971,
      "ferro": 5972,
      "attivista": 5973,
      "produttività": 5974,
      "presentazione": 5975,
      "contratto": 5976,
      "superare": 5977,
      "parassi": 5978,
      "vorrebbe": 5979,
      "averlo": 5980,
      "parecchio": 5981,
      "tornati": 5982,
      "ricevi": 5983,
      "pesante": 5984,
      "modificare": 5985,
      "costruite": 5986,
      "muoversi": 5987,
      "falso": 5988,
      "venite": 5989,
      "misure": 5990,
      "rappresentare": 5991,
      "operatori": 5992,
      "metterlo": 5993,
      "definito": 5994,
      "individuare": 5995,
      "frank": 5996,
      "elettrico": 5997,
      "legami": 5998,
      "offrire": 5999,
      "identificare": 6000,
      "convinzione": 6001,
      "convincere": 6002,
      "incontrare": 6003,
      "connesso": 6004,
      "scientifici": 6005,
      "abitu": 6006,
      "distruggere": 6007,
      "dimostrazione": 6008,
      "preciso": 6009,
      "origini": 6010,
      "soffrono": 6011,
      "molecolare": 6012,
      "emerge": 6013,
      "emergenti": 6014,
      "reazioni": 6015,
      "brutto": 6016,
      "rifle": 6017,
      "riflette": 6018,
      "nucleari": 6019,
      "panz": 6020,
      "chirurghi": 6021,
      "imparando": 6022,
      "descrivere": 6023,
      "infezioni": 6024,
      "caratteristica": 6025,
      "segreti": 6026,
      "lasciando": 6027,
      "africano": 6028,
      "privati": 6029,
      "eccell": 6030,
      "determinazione": 6031,
      "sequenze": 6032,
      "epidemie": 6033,
      "sessuali": 6034,
      "acquisi": 6035,
      "famoso": 6036,
      "dget": 6037,
      "respiro": 6038,
      "sensibili": 6039,
      "espressioni": 6040,
      "scimpanz": 6041,
      "tesla": 6042,
      "religiose": 6043,
      "ostacoli": 6044,
      "energetico": 6045,
      "charles": 6046,
      "pluvia": 6047,
      "troverete": 6048,
      "ultrasuoni": 6049,
      "raffre": 6050,
      "rinnovabili": 6051,
      "trend": 6052,
      "pilota": 6053,
      "chiarezza": 6054,
      "pavimento": 6055,
      "inverno": 6056,
      "splendi": 6057,
      "etio": 6058,
      "stipendio": 6059,
      "amazzonia": 6060,
      "metropolitana": 6061,
      "percentuale": 6062,
      "infantile": 6063,
      "affinché": 6064,
      "acciaio": 6065,
      "millenni": 6066,
      "800": 6067,
      "br": 6068,
      "bhu": 6069,
      "dani": 6070,
      "irre": 6071,
      "jos": 6072,
      "lina": 6073,
      "puni": 6074,
      "pesa": 6075,
      "sfo": 6076,
      "smesso": 6077,
      "ub": 6078,
      "ui": 6079,
      "valle": 6080,
      "onese": 6081,
      "dirmi": 6082,
      "antro": 6083,
      "ingran": 6084,
      "testare": 6085,
      "coi": 6086,
      "core": 6087,
      "tiro": 6088,
      "tirato": 6089,
      "iare": 6090,
      "alber": 6091,
      "riso": 6092,
      "mod": 6093,
      "legno": 6094,
      "perde": 6095,
      "mappe": 6096,
      "domesti": 6097,
      "ciano": 6098,
      "cifre": 6099,
      "caos": 6100,
      "cattivo": 6101,
      "sarò": 6102,
      "settori": 6103,
      "converti": 6104,
      "mide": 6105,
      "dapper": 6106,
      "picci": 6107,
      "vivente": 6108,
      "proposta": 6109,
      "stagione": 6110,
      "staminali": 6111,
      "verò": 6112,
      "vermi": 6113,
      "prema": 6114,
      "premi": 6115,
      "presu": 6116,
      "previsioni": 6117,
      "trasc": 6118,
      "neu": 6119,
      "arvi": 6120,
      "comando": 6121,
      "commento": 6122,
      "composto": 6123,
      "baby": 6124,
      "mangiamo": 6125,
      "entemente": 6126,
      "storica": 6127,
      "avano": 6128,
      "avvia": 6129,
      "corruzione": 6130,
      "ceri": 6131,
      "gras": 6132,
      "interventi": 6133,
      "onate": 6134,
      "conoscer": 6135,
      "acque": 6136,
      "colpo": 6137,
      "foglio": 6138,
      "zzante": 6139,
      "rison": 6140,
      "risce": 6141,
      "bola": 6142,
      "botti": 6143,
      "bomba": 6144,
      "viaggiato": 6145,
      "carlo": 6146,
      "cardio": 6147,
      "capisce": 6148,
      "ssù": 6149,
      "denze": 6150,
      "piaci": 6151,
      "diventi": 6152,
      "diventerà": 6153,
      "altrove": 6154,
      "trovata": 6155,
      "rendendo": 6156,
      "canali": 6157,
      "margine": 6158,
      "scetti": 6159,
      "dovremo": 6160,
      "pensarci": 6161,
      "significava": 6162,
      "rinun": 6163,
      "uscito": 6164,
      "finiscono": 6165,
      "destro": 6166,
      "diffusa": 6167,
      "ultime": 6168,
      "funzionava": 6169,
      "lasciarvi": 6170,
      "continuiamo": 6171,
      "okay": 6172,
      "organo": 6173,
      "verificare": 6174,
      "parag": 6175,
      "entrato": 6176,
      "entrate": 6177,
      "riuscita": 6178,
      "organizzare": 6179,
      "laboratori": 6180,
      "2005": 6181,
      "clic": 6182,
      "seguendo": 6183,
      "popolari": 6184,
      "inganno": 6185,
      "culture": 6186,
      "compagna": 6187,
      "dottorato": 6188,
      "rappresentazione": 6189,
      "university": 6190,
      "ttrice": 6191,
      "corretto": 6192,
      "sostenuto": 6193,
      "concepi": 6194,
      "lavoravo": 6195,
      "fortunato": 6196,
      "transa": 6197,
      "offer": 6198,
      "necessari": 6199,
      "necessarie": 6200,
      "assoluto": 6201,
      "identifica": 6202,
      "convincer": 6203,
      "chieder": 6204,
      "aggiunto": 6205,
      "industriali": 6206,
      "istituzione": 6207,
      "singoli": 6208,
      "illustra": 6209,
      "colpisce": 6210,
      "brevetti": 6211,
      "professione": 6212,
      "permettetemi": 6213,
      "coinvolto": 6214,
      "apparire": 6215,
      "rimasti": 6216,
      "fisiche": 6217,
      "kit": 6218,
      "sorprende": 6219,
      "meccanismi": 6220,
      "dipinti": 6221,
      "metaboli": 6222,
      "finanziario": 6223,
      "competizione": 6224,
      "essenziali": 6225,
      "inserire": 6226,
      "accumu": 6227,
      "tenete": 6228,
      "soft": 6229,
      "vantaggi": 6230,
      "strategie": 6231,
      "batteria": 6232,
      "occidentali": 6233,
      "entusias": 6234,
      "inviato": 6235,
      "motivazione": 6236,
      "clinica": 6237,
      "eliminare": 6238,
      "circonda": 6239,
      "separazione": 6240,
      "sky": 6241,
      "lunghezza": 6242,
      "celeb": 6243,
      "migrazione": 6244,
      "assass": 6245,
      "spiaggia": 6246,
      "paradiso": 6247,
      "generosità": 6248,
      "scopriamo": 6249,
      "maiale": 6250,
      "accadrà": 6251,
      "sfruttamento": 6252,
      "altrui": 6253,
      "algoritmo": 6254,
      "assorbi": 6255,
      "frenia": 6256,
      "willia": 6257,
      "avvocato": 6258,
      "schizofrenia": 6259,
      "telescopio": 6260,
      "fluoresc": 6261,
      "michael": 6262,
      "astrona": 6263,
      "scimpanzé": 6264,
      "dappertutto": 6265,
      "65": 6266,
      "ape": 6267,
      "attore": 6268,
      "banche": 6269,
      "bona": 6270,
      "crisp": 6271,
      "ete": 6272,
      "hard": 6273,
      "ig": 6274,
      "iro": 6275,
      "ieri": 6276,
      "idio": 6277,
      "jor": 6278,
      "lando": 6279,
      "mr": 6280,
      "mele": 6281,
      "omo": 6282,
      "pto": 6283,
      "slo": 6284,
      "sand": 6285,
      "ug": 6286,
      "wc": 6287,
      "whi": 6288,
      "dirà": 6289,
      "rese": 6290,
      "ant": 6291,
      "antena": 6292,
      "inna": 6293,
      "intri": 6294,
      "intr": 6295,
      "lampa": 6296,
      "coppia": 6297,
      "tai": 6298,
      "iate": 6299,
      "altamente": 6300,
      "album": 6301,
      "riven": 6302,
      "riprodu": 6303,
      "rami": 6304,
      "ratch": 6305,
      "rou": 6306,
      "liti": 6307,
      "polari": 6308,
      "mara": 6309,
      "doppia": 6310,
      "cago": 6311,
      "cadere": 6312,
      "catte": 6313,
      "capp": 6314,
      "cacca": 6315,
      "lottare": 6316,
      "illegale": 6317,
      "sap": 6318,
      "congo": 6319,
      "mida": 6320,
      "missi": 6321,
      "deltà": 6322,
      "day": 6323,
      "darò": 6324,
      "stere": 6325,
      "pieni": 6326,
      "gimento": 6327,
      "vege": 6328,
      "vecchie": 6329,
      "provengono": 6330,
      "profilo": 6331,
      "zampe": 6332,
      "prevenire": 6333,
      "pregiudi": 6334,
      "nelson": 6335,
      "nido": 6336,
      "arla": 6337,
      "impronta": 6338,
      "chiesti": 6339,
      "chimico": 6340,
      "chicago": 6341,
      "parche": 6342,
      "parli": 6343,
      "ttati": 6344,
      "basando": 6345,
      "bastian": 6346,
      "manhat": 6347,
      "vendite": 6348,
      "guire": 6349,
      "stoma": 6350,
      "gates": 6351,
      "uniche": 6352,
      "avan": 6353,
      "corrispon": 6354,
      "tendiamo": 6355,
      "scratch": 6356,
      "interna": 6357,
      "interru": 6358,
      "internazionali": 6359,
      "spettro": 6360,
      "antibio": 6361,
      "lavoriamo": 6362,
      "attenti": 6363,
      "budget": 6364,
      "ccando": 6365,
      "farcela": 6366,
      "primavera": 6367,
      "vitale": 6368,
      "mentire": 6369,
      "ttoni": 6370,
      "tempes": 6371,
      "andavano": 6372,
      "capiscono": 6373,
      "ideale": 6374,
      "cambiate": 6375,
      "oggigiorno": 6376,
      "alleva": 6377,
      "spari": 6378,
      "arrivò": 6379,
      "usarlo": 6380,
      "zionalmente": 6381,
      "cantare": 6382,
      "marzo": 6383,
      "margini": 6384,
      "statali": 6385,
      "minima": 6386,
      "moralità": 6387,
      "sorpreso": 6388,
      "disposti": 6389,
      "destino": 6390,
      "decide": 6391,
      "ggiata": 6392,
      "parlavano": 6393,
      "sensore": 6394,
      "gresso": 6395,
      "high": 6396,
      "credito": 6397,
      "organica": 6398,
      "organismi": 6399,
      "parecchi": 6400,
      "quantistica": 6401,
      "2004": 6402,
      "nuovamente": 6403,
      "assicu": 6404,
      "modifica": 6405,
      "globalizzazione": 6406,
      "muovendo": 6407,
      "tony": 6408,
      "lontani": 6409,
      "stanford": 6410,
      "metterla": 6411,
      "corretta": 6412,
      "costosi": 6413,
      "limitato": 6414,
      "adam": 6415,
      "considerate": 6416,
      "pronun": 6417,
      "uccisi": 6418,
      "economiche": 6419,
      "tradizioni": 6420,
      "barbi": 6421,
      "rurali": 6422,
      "mangiato": 6423,
      "terribili": 6424,
      "titoli": 6425,
      "forniscono": 6426,
      "evidente": 6427,
      "tecnico": 6428,
      "argomenti": 6429,
      "passando": 6430,
      "araba": 6431,
      "interazioni": 6432,
      "episo": 6433,
      "aperte": 6434,
      "infezione": 6435,
      "architetti": 6436,
      "indossare": 6437,
      "svezia": 6438,
      "introdotto": 6439,
      "urbana": 6440,
      "bellissima": 6441,
      "efficienti": 6442,
      "spostare": 6443,
      "affermazione": 6444,
      "particella": 6445,
      "negozia": 6446,
      "accendere": 6447,
      "commerciali": 6448,
      "irani": 6449,
      "jeopar": 6450,
      "salire": 6451,
      "scompar": 6452,
      "giunto": 6453,
      "culturali": 6454,
      "world": 6455,
      "aerei": 6456,
      "agricoltori": 6457,
      "abbandonare": 6458,
      "laure": 6459,
      "copy": 6460,
      "attesa": 6461,
      "assun": 6462,
      "amministrazione": 6463,
      "solleva": 6464,
      "casuale": 6465,
      "selezione": 6466,
      "orientale": 6467,
      "marittimo": 6468,
      "firma": 6469,
      "seriamente": 6470,
      "impianti": 6471,
      "abbondanza": 6472,
      "flessibile": 6473,
      "dolce": 6474,
      "frammenti": 6475,
      "scarabeo": 6476,
      "ingredi": 6477,
      "partecipazione": 6478,
      "incentivi": 6479,
      "rilevante": 6480,
      "bersaglio": 6481,
      "preserva": 6482,
      "gradualmente": 6483,
      "vittoria": 6484,
      "mangiano": 6485,
      "feedback": 6486,
      "microfono": 6487,
      "pranzo": 6488,
      "sofistica": 6489,
      "diarrea": 6490,
      "modalità": 6491,
      "crispr": 6492,
      "manhattan": 6493,
      "jeopardy": 6494,
      "120": 6495,
      "250": 6496,
      "54": 6497,
      "apre": 6498,
      "abili": 6499,
      "amare": 6500,
      "balla": 6501,
      "bron": 6502,
      "cr": 6503,
      "croni": 6504,
      "dante": 6505,
      "ech": 6506,
      "evita": 6507,
      "evan": 6508,
      "eoli": 6509,
      "fero": 6510,
      "gil": 6511,
      "goria": 6512,
      "ironi": 6513,
      "lente": 6514,
      "ox": 6515,
      "osa": 6516,
      "ostri": 6517,
      "rì": 6518,
      "rna": 6519,
      "spu": 6520,
      "scambi": 6521,
      "smart": 6522,
      "user": 6523,
      "war": 6524,
      "dile": 6525,
      "diva": 6526,
      "ditori": 6527,
      "annu": 6528,
      "inca": 6529,
      "entrano": 6530,
      "coun": 6531,
      "rili": 6532,
      "ripri": 6533,
      "ridere": 6534,
      "ratti": 6535,
      "move": 6536,
      "modu": 6537,
      "leta": 6538,
      "rom": 6539,
      "rov": 6540,
      "rose": 6541,
      "roccia": 6542,
      "povero": 6543,
      "maes": 6544,
      "magico": 6545,
      "cala": 6546,
      "sospe": 6547,
      "sebastian": 6548,
      "noio": 6549,
      "condan": 6550,
      "configu": 6551,
      "paul": 6552,
      "ment": 6553,
      "mendo": 6554,
      "viventi": 6555,
      "metano": 6556,
      "vapore": 6557,
      "vela": 6558,
      "statuni": 6559,
      "verme": 6560,
      "veranno": 6561,
      "file": 6562,
      "cuori": 6563,
      "nemico": 6564,
      "neonati": 6565,
      "immi": 6566,
      "paralizza": 6567,
      "peer": 6568,
      "peda": 6569,
      "duti": 6570,
      "bay": 6571,
      "veniamo": 6572,
      "guere": 6573,
      "story": 6574,
      "indicano": 6575,
      "tenuti": 6576,
      "scesa": 6577,
      "intervista": 6578,
      "apple": 6579,
      "ttempo": 6580,
      "colture": 6581,
      "foglie": 6582,
      "zzino": 6583,
      "atterra": 6584,
      "scopi": 6585,
      "amma": 6586,
      "fuga": 6587,
      "plici": 6588,
      "cammino": 6589,
      "diventò": 6590,
      "fondato": 6591,
      "scusa": 6592,
      "guardavo": 6593,
      "mary": 6594,
      "inizialmente": 6595,
      "finta": 6596,
      "giugno": 6597,
      "giudice": 6598,
      "autun": 6599,
      "merà": 6600,
      "saltare": 6601,
      "salvato": 6602,
      "polio": 6603,
      "finita": 6604,
      "esami": 6605,
      "esatta": 6606,
      "diffuso": 6607,
      "frattempo": 6608,
      "2050": 6609,
      "ferti": 6610,
      "asfal": 6611,
      "funzionamento": 6612,
      "parlate": 6613,
      "calcolare": 6614,
      "continuazione": 6615,
      "chiediamo": 6616,
      "chiedeva": 6617,
      "superfi": 6618,
      "sensori": 6619,
      "ambito": 6620,
      "gersi": 6621,
      "proteina": 6622,
      "protegg": 6623,
      "ottengono": 6624,
      "2006": 6625,
      "speriamo": 6626,
      "dieta": 6627,
      "diede": 6628,
      "ceremo": 6629,
      "occupar": 6630,
      "coinci": 6631,
      "correttamente": 6632,
      "tipico": 6633,
      "limitate": 6634,
      "individuali": 6635,
      "fortunati": 6636,
      "elettrici": 6637,
      "legata": 6638,
      "pronte": 6639,
      "spiri": 6640,
      "economisti": 6641,
      "scontato": 6642,
      "estremo": 6643,
      "terete": 6644,
      "teremo": 6645,
      "istituti": 6646,
      "crescendo": 6647,
      "barca": 6648,
      "colpiti": 6649,
      "collegato": 6650,
      "neurone": 6651,
      "blocco": 6652,
      "distrutta": 6653,
      "precisa": 6654,
      "discussioni": 6655,
      "sofferenza": 6656,
      "polvere": 6657,
      "sapevoli": 6658,
      "mostrando": 6659,
      "percezioni": 6660,
      "trucco": 6661,
      "equivalente": 6662,
      "dritto": 6663,
      "sostenibilità": 6664,
      "partecip": 6665,
      "precedenza": 6666,
      "signori": 6667,
      "proprietari": 6668,
      "fallito": 6669,
      "frutta": 6670,
      "temporale": 6671,
      "classico": 6672,
      "incluso": 6673,
      "categoria": 6674,
      "infinita": 6675,
      "teneva": 6676,
      "intrappo": 6677,
      "partenza": 6678,
      "scendere": 6679,
      "ciascuna": 6680,
      "traduzione": 6681,
      "negativo": 6682,
      "quarta": 6683,
      "contribuire": 6684,
      "isolati": 6685,
      "proiezione": 6686,
      "illuminazione": 6687,
      "romanzo": 6688,
      "nascosto": 6689,
      "combustibili": 6690,
      "disperazione": 6691,
      "indagine": 6692,
      "catturare": 6693,
      "soddisfa": 6694,
      "addestramento": 6695,
      "entrando": 6696,
      "elevata": 6697,
      "vulnerabili": 6698,
      "sinapsi": 6699,
      "ristorante": 6700,
      "inevitabile": 6701,
      "significhi": 6702,
      "punteggio": 6703,
      "recuperare": 6704,
      "foxo": 6705,
      "bosone": 6706,
      "thomas": 6707,
      "zanzariere": 6708,
      "pipistrelli": 6709,
      "inchiostro": 6710,
      "supponiamo": 6711,
      "abbandon": 6712,
      "dipartimento": 6713,
      "risata": 6714,
      "saudita": 6715,
      "bhutan": 6716,
      "antenati": 6717,
      "movember": 6718,
      "statuniten": 6719,
      "55": 6720,
      "600": 6721,
      "agio": 6722,
      "agenti": 6723,
      "bera": 6724,
      "cante": 6725,
      "calmente": 6726,
      "dessimo": 6727,
      "even": 6728,
      "gabb": 6729,
      "melli": 6730,
      "out": 6731,
      "pho": 6732,
      "rm": 6733,
      "sun": 6734,
      "scos": 6735,
      "svolta": 6736,
      "twe": 6737,
      "uten": 6738,
      "umilia": 6739,
      "west": 6740,
      "zel": 6741,
      "onni": 6742,
      "diti": 6743,
      "divisione": 6744,
      "reclu": 6745,
      "toi": 6746,
      "tomba": 6747,
      "ance": 6748,
      "anna": 6749,
      "int": 6750,
      "inando": 6751,
      "incontri": 6752,
      "lago": 6753,
      "lacri": 6754,
      "coda": 6755,
      "cost": 6756,
      "tirare": 6757,
      "rilascia": 6758,
      "riana": 6759,
      "rivesti": 6760,
      "rimuovere": 6761,
      "right": 6762,
      "elen": 6763,
      "rad": 6764,
      "ragg": 6765,
      "modella": 6766,
      "sil": 6767,
      "roves": 6768,
      "percorsi": 6769,
      "dose": 6770,
      "citazione": 6771,
      "cilia": 6772,
      "cap": 6773,
      "cattive": 6774,
      "sovie": 6775,
      "sas": 6776,
      "saperlo": 6777,
      "sede": 6778,
      "secoli": 6779,
      "conqui": 6780,
      "consente": 6781,
      "degra": 6782,
      "deposi": 6783,
      "debito": 6784,
      "darsi": 6785,
      "mede": 6786,
      "mega": 6787,
      "ved": 6788,
      "vedente": 6789,
      "status": 6790,
      "ttili": 6791,
      "pressi": 6792,
      "previsione": 6793,
      "preparare": 6794,
      "trage": 6795,
      "custo": 6796,
      "argen": 6797,
      "arth": 6798,
      "impon": 6799,
      "chili": 6800,
      "naso": 6801,
      "pedia": 6802,
      "duro": 6803,
      "bama": 6804,
      "alimenta": 6805,
      "ciate": 6806,
      "pura": 6807,
      "gata": 6808,
      "gatto": 6809,
      "avver": 6810,
      "stradale": 6811,
      "gore": 6812,
      "corrono": 6813,
      "grammi": 6814,
      "allena": 6815,
      "coltura": 6816,
      "edono": 6817,
      "chiacchi": 6818,
      "atl": 6819,
      "bul": 6820,
      "ccano": 6821,
      "boy": 6822,
      "bombe": 6823,
      "scoli": 6824,
      "scolari": 6825,
      "amba": 6826,
      "deranno": 6827,
      "trovati": 6828,
      "trovavano": 6829,
      "sparire": 6830,
      "spazzatura": 6831,
      "benefi": 6832,
      "veremo": 6833,
      "eccolo": 6834,
      "costruiscono": 6835,
      "marrone": 6836,
      "minio": 6837,
      "zionario": 6838,
      "mortale": 6839,
      "iniziarono": 6840,
      "pensavano": 6841,
      "crolla": 6842,
      "discorsi": 6843,
      "chiamati": 6844,
      "lascer": 6845,
      "crimin": 6846,
      "crimine": 6847,
      "esame": 6848,
      "fragi": 6849,
      "frattura": 6850,
      "contraddi": 6851,
      "contrariamente": 6852,
      "visitare": 6853,
      "partito": 6854,
      "partiti": 6855,
      "utilizziamo": 6856,
      "freespe": 6857,
      "abbassa": 6858,
      "zoo": 6859,
      "solida": 6860,
      "speranze": 6861,
      "osservato": 6862,
      "fantastici": 6863,
      "insegnano": 6864,
      "sonno": 6865,
      "lanciare": 6866,
      "matematiche": 6867,
      "misurato": 6868,
      "leggero": 6869,
      "pazienza": 6870,
      "trasformato": 6871,
      "baseball": 6872,
      "sviluppati": 6873,
      "sviluppata": 6874,
      "generato": 6875,
      "anziano": 6876,
      "tipica": 6877,
      "emotiva": 6878,
      "francamente": 6879,
      "elettriche": 6880,
      "studiando": 6881,
      "cambierà": 6882,
      "zionalità": 6883,
      "gentile": 6884,
      "chiederci": 6885,
      "aggiungiamo": 6886,
      "archimede": 6887,
      "blocchi": 6888,
      "professi": 6889,
      "precipi": 6890,
      "estratto": 6891,
      "sperimenta": 6892,
      "soffrire": 6893,
      "ruota": 6894,
      "dettaglia": 6895,
      "apparente": 6896,
      "central": 6897,
      "potenzialmente": 6898,
      "registrazione": 6899,
      "pannelli": 6900,
      "ripetu": 6901,
      "merito": 6902,
      "giornale": 6903,
      "mentalità": 6904,
      "peggiori": 6905,
      "cinema": 6906,
      "competi": 6907,
      "affascinato": 6908,
      "pagati": 6909,
      "signora": 6910,
      "privata": 6911,
      "incidenti": 6912,
      "diagnosti": 6913,
      "resistere": 6914,
      "jean": 6915,
      "sequenzia": 6916,
      "multiverso": 6917,
      "scommetto": 6918,
      "musicali": 6919,
      "variazione": 6920,
      "affidabilità": 6921,
      "spendere": 6922,
      "show": 6923,
      "battuto": 6924,
      "ottimista": 6925,
      "filosofia": 6926,
      "black": 6927,
      "terroristi": 6928,
      "invito": 6929,
      "gonfia": 6930,
      "evoluti": 6931,
      "riferimento": 6932,
      "stringhe": 6933,
      "profitti": 6934,
      "cominciando": 6935,
      "panorama": 6936,
      "misteri": 6937,
      "adolescente": 6938,
      "ecologia": 6939,
      "implicazioni": 6940,
      "barriera": 6941,
      "invitato": 6942,
      "parkinson": 6943,
      "opinioni": 6944,
      "rivoluzioni": 6945,
      "elefanti": 6946,
      "candidati": 6947,
      "violenta": 6948,
      "inquinamento": 6949,
      "maiali": 6950,
      "soggetti": 6951,
      "satelliti": 6952,
      "sfuggi": 6953,
      "occasione": 6954,
      "poeta": 6955,
      "palazzo": 6956,
      "passegg": 6957,
      "carburante": 6958,
      "circuiti": 6959,
      "orizzonte": 6960,
      "toller": 6961,
      "raddoppia": 6962,
      "abituati": 6963,
      "impoll": 6964,
      "rabbit": 6965,
      "permanente": 6966,
      "colpevole": 6967,
      "obesità": 6968,
      "ambul": 6969,
      "kansas": 6970,
      "monitorare": 6971,
      "disciplina": 6972,
      "tesoro": 6973,
      "source": 6974,
      "midollo": 6975,
      "bestia": 6976,
      "texas": 6977,
      "risonanza": 6978,
      "stomaco": 6979,
      "autunno": 6980,
      "freespeech": 6981,
      "26": 6982,
      "28": 6983,
      "32": 6984,
      "ati": 6985,
      "bon": 6986,
      "bali": 6987,
      "cque": 6988,
      "dv": 6989,
      "dero": 6990,
      "danti": 6991,
      "ebra": 6992,
      "fl": 6993,
      "geri": 6994,
      "galle": 6995,
      "ipo": 6996,
      "lenti": 6997,
      "nale": 6998,
      "ost": 6999,
      "odisse": 7000,
      "ombre": 7001,
      "omici": 7002,
      "plo": 7003,
      "pani": 7004,
      "rino": 7005,
      "sè": 7006,
      "sfa": 7007,
      "sante": 7008,
      "ue": 7009,
      "uth": 7010,
      "wal": 7011,
      "wall": 7012,
      "'": 7013,
      "dila": 7014,
      "dispon": 7015,
      "dimostrano": 7016,
      "ansia": 7017,
      "into": 7018,
      "invasi": 7019,
      "lassù": 7020,
      "tazza": 7021,
      "tasse": 7022,
      "alquanto": 7023,
      "rimb": 7024,
      "riparo": 7025,
      "rifiu": 7026,
      "mosche": 7027,
      "lee": 7028,
      "lettore": 7029,
      "robu": 7030,
      "perdendo": 7031,
      "lif": 7032,
      "pomodo": 7033,
      "polli": 7034,
      "master": 7035,
      "dog": 7036,
      "cau": 7037,
      "cattivi": 7038,
      "low": 7039,
      "sagge": 7040,
      "sedere": 7041,
      "confor": 7042,
      "confine": 7043,
      "consenso": 7044,
      "consapevoli": 7045,
      "miti": 7046,
      "mise": 7047,
      "missioni": 7048,
      "pati": 7049,
      "pasto": 7050,
      "pagato": 7051,
      "parenti": 7052,
      "darci": 7053,
      "sten": 7054,
      "pioni": 7055,
      "vibra": 7056,
      "fati": 7057,
      "sura": 7058,
      "tutt": 7059,
      "bble": 7060,
      "profonde": 7061,
      "ormoni": 7062,
      "cecità": 7063,
      "bimbo": 7064,
      "terzi": 7065,
      "prevedi": 7066,
      "nità": 7067,
      "nipoti": 7068,
      "nigeria": 7069,
      "culu": 7070,
      "arche": 7071,
      "archie": 7072,
      "parchi": 7073,
      "rumori": 7074,
      "crescono": 7075,
      "mann": 7076,
      "manti": 7077,
      "vengano": 7078,
      "lusso": 7079,
      "penna": 7080,
      "porterà": 7081,
      "rana": 7082,
      "gola": 7083,
      "adesi": 7084,
      "interes": 7085,
      "tanz": 7086,
      "tangibile": 7087,
      "volano": 7088,
      "accompagna": 7089,
      "ttezza": 7090,
      "folla": 7091,
      "animazione": 7092,
      "risali": 7093,
      "ammettere": 7094,
      "ttle": 7095,
      "ttente": 7096,
      "seno": 7097,
      "direzioni": 7098,
      "stupe": 7099,
      "nuvola": 7100,
      "elettro": 7101,
      "densità": 7102,
      "dopotutto": 7103,
      "rendete": 7104,
      "spagno": 7105,
      "spaziali": 7106,
      "sentiva": 7107,
      "usavano": 7108,
      "serra": 7109,
      "trasportare": 7110,
      "moltissimi": 7111,
      "circolo": 7112,
      "circostante": 7113,
      "controlli": 7114,
      "miner": 7115,
      "creatura": 7116,
      "tecnologico": 7117,
      "tecnologica": 7118,
      "morali": 7119,
      "solly": 7120,
      "ring": 7121,
      "trattato": 7122,
      "trattamenti": 7123,
      "successa": 7124,
      "ovest": 7125,
      "2015": 7126,
      "decisero": 7127,
      "link": 7128,
      "sindro": 7129,
      "parlamento": 7130,
      "presentare": 7131,
      "succeda": 7132,
      "utilizzano": 7133,
      "ttuto": 7134,
      "artigi": 7135,
      "anatra": 7136,
      "rapporti": 7137,
      "fantascienza": 7138,
      "fantastiche": 7139,
      "popolazioni": 7140,
      "condivisa": 7141,
      "costruisce": 7142,
      "lontana": 7143,
      "causato": 7144,
      "regime": 7145,
      "adozione": 7146,
      "banchi": 7147,
      "risolver": 7148,
      "operazioni": 7149,
      "metterci": 7150,
      "schede": 7151,
      "emozione": 7152,
      "emotivo": 7153,
      "ascolto": 7154,
      "pagne": 7155,
      "aspettavo": 7156,
      "identici": 7157,
      "sconvol": 7158,
      "raccontato": 7159,
      "racconterò": 7160,
      "connessi": 7161,
      "esisteva": 7162,
      "barba": 7163,
      "innovazioni": 7164,
      "accedere": 7165,
      "invenzione": 7166,
      "grossi": 7167,
      "grossa": 7168,
      "soffre": 7169,
      "pubblicazione": 7170,
      "virtù": 7171,
      "cchetto": 7172,
      "mostriamo": 7173,
      "memori": 7174,
      "ripetere": 7175,
      "avviso": 7176,
      "russia": 7177,
      "malia": 7178,
      "piangere": 7179,
      "vederla": 7180,
      "sostenibili": 7181,
      "alzare": 7182,
      "dimenticate": 7183,
      "curioso": 7184,
      "borse": 7185,
      "lascio": 7186,
      "sorelle": 7187,
      "comunicazioni": 7188,
      "africana": 7189,
      "narra": 7190,
      "eccezione": 7191,
      "joel": 7192,
      "volontaria": 7193,
      "darwin": 7194,
      "fenomeni": 7195,
      "smith": 7196,
      "suggerisce": 7197,
      "tracciamento": 7198,
      "applicato": 7199,
      "testimonia": 7200,
      "nutrienti": 7201,
      "lyn": 7202,
      "radicale": 7203,
      "operano": 7204,
      "associazione": 7205,
      "considerando": 7206,
      "guadagnato": 7207,
      "famosi": 7208,
      "infrastruttura": 7209,
      "componente": 7210,
      "obsole": 7211,
      "diffondere": 7212,
      "espresso": 7213,
      "navigare": 7214,
      "assenza": 7215,
      "rallentare": 7216,
      "scimmia": 7217,
      "coltivare": 7218,
      "australi": 7219,
      "wiki": 7220,
      "onestà": 7221,
      "aggressi": 7222,
      "nascondere": 7223,
      "distinguere": 7224,
      "penetra": 7225,
      "abusi": 7226,
      "ragionamento": 7227,
      "violento": 7228,
      "accadde": 7229,
      "etichetta": 7230,
      "andrew": 7231,
      "esauri": 7232,
      "scarabocchiare": 7233,
      "anonime": 7234,
      "esponenziale": 7235,
      "liquido": 7236,
      "riconoscimento": 7237,
      "articoli": 7238,
      "impulso": 7239,
      "grandioso": 7240,
      "fredda": 7241,
      "penserete": 7242,
      "pacifico": 7243,
      "mburger": 7244,
      "egiziani": 7245,
      "musicisti": 7246,
      "intrinse": 7247,
      "avanguardia": 7248,
      "copyright": 7249,
      "ostriche": 7250,
      "riprist": 7251,
      "immigrati": 7252,
      "statunitense": 7253,
      "gabby": 7254,
      "raggru": 7255,
      "tragedia": 7256,
      "ambascia": 7257,
      "apparentemente": 7258,
      "dvd": 7259,
      "46": 7260,
      "700": 7261,
      "acidi": 7262,
      "emette": 7263,
      "gal": 7264,
      "gani": 7265,
      "ganti": 7266,
      "gabbia": 7267,
      "gang": 7268,
      "jac": 7269,
      "linf": 7270,
      "mk": 7271,
      "olio": 7272,
      "rt": 7273,
      "zon": 7274,
      "erale": 7275,
      "ereste": 7276,
      "diale": 7277,
      "disco": 7278,
      "distor": 7279,
      "retto": 7280,
      "retta": 7281,
      "rebbe": 7282,
      "restitui": 7283,
      "intre": 7284,
      "intere": 7285,
      "institute": 7286,
      "lai": 7287,
      "cherò": 7288,
      "coma": 7289,
      "tish": 7290,
      "und": 7291,
      "quand": 7292,
      "richiedono": 7293,
      "mouse": 7294,
      "letti": 7295,
      "sirin": 7296,
      "simpa": 7297,
      "rotta": 7298,
      "rosse": 7299,
      "roton": 7300,
      "mazzo": 7301,
      "cicla": 7302,
      "cao": 7303,
      "capiamo": 7304,
      "sott": 7305,
      "saper": 7306,
      "saturno": 7307,
      "set": 7308,
      "sedie": 7309,
      "condo": 7310,
      "congresso": 7311,
      "pata": 7312,
      "parato": 7313,
      "pazzo": 7314,
      "pazzi": 7315,
      "dev": 7316,
      "decol": 7317,
      "pix": 7318,
      "pien": 7319,
      "vice": 7320,
      "viet": 7321,
      "mela": 7322,
      "meda": 7323,
      "eredità": 7324,
      "fatica": 7325,
      "tubi": 7326,
      "vasto": 7327,
      "stazioni": 7328,
      "stabilità": 7329,
      "teria": 7330,
      "termo": 7331,
      "predi": 7332,
      "prepar": 7333,
      "preghi": 7334,
      "trappo": 7335,
      "traie": 7336,
      "fio": 7337,
      "fibona": 7338,
      "improbabile": 7339,
      "alex": 7340,
      "basate": 7341,
      "battere": 7342,
      "rub": 7343,
      "vende": 7344,
      "vennero": 7345,
      "steve": 7346,
      "lupi": 7347,
      "puzz": 7348,
      "gay": 7349,
      "aveste": 7350,
      "cerchi": 7351,
      "tentato": 7352,
      "tenato": 7353,
      "scale": 7354,
      "eric": 7355,
      "inetto": 7356,
      "interio": 7357,
      "volmente": 7358,
      "chiamò": 7359,
      "fattoria": 7360,
      "genio": 7361,
      "boston": 7362,
      "ficati": 7363,
      "amy": 7364,
      "amano": 7365,
      "mentito": 7366,
      "diretto": 7367,
      "direbbe": 7368,
      "spese": 7369,
      "carla": 7370,
      "carro": 7371,
      "cartone": 7372,
      "musei": 7373,
      "mutazioni": 7374,
      "capirlo": 7375,
      "camere": 7376,
      "campagne": 7377,
      "nudo": 7378,
      "trovava": 7379,
      "rendersi": 7380,
      "scusate": 7381,
      "sentii": 7382,
      "cieco": 7383,
      "prati": 7384,
      "scrivo": 7385,
      "scrivono": 7386,
      "scrivendo": 7387,
      "martin": 7388,
      "sceglie": 7389,
      "morì": 7390,
      "iniziale": 7391,
      "dovrete": 7392,
      "aula": 7393,
      "crista": 7394,
      "aspettando": 7395,
      "deser": 7396,
      "minazione": 7397,
      "amiche": 7398,
      "lingui": 7399,
      "condivide": 7400,
      "sinda": 7401,
      "medie": 7402,
      "lunghi": 7403,
      "collezione": 7404,
      "collegar": 7405,
      "partita": 7406,
      "ccioli": 7407,
      "numerosi": 7408,
      "consigli": 7409,
      "futuri": 7410,
      "passata": 7411,
      "paradosso": 7412,
      "usha": 7413,
      "usale": 7414,
      "averne": 7415,
      "parete": 7416,
      "ciocco": 7417,
      "genitore": 7418,
      "solitamente": 7419,
      "televisione": 7420,
      "llia": 7421,
      "ssuta": 7422,
      "longe": 7423,
      "programmabile": 7424,
      "uragano": 7425,
      "bandi": 7426,
      "affrontato": 7427,
      "correggere": 7428,
      "definitiva": 7429,
      "esistere": 7430,
      "limitata": 7431,
      "raggiunger": 7432,
      "industrie": 7433,
      "disabili": 7434,
      "capitolo": 7435,
      "relativamente": 7436,
      "sbagliate": 7437,
      "pales": 7438,
      "versario": 7439,
      "aggiunta": 7440,
      "collegata": 7441,
      "attaccare": 7442,
      "abitanti": 7443,
      "dipendenza": 7444,
      "brevetto": 7445,
      "brevemente": 7446,
      "coinvolgimento": 7447,
      "educativo": 7448,
      "fotografo": 7449,
      "brucia": 7450,
      "scarsa": 7451,
      "viveva": 7452,
      "esercizio": 7453,
      "arabi": 7454,
      "arabe": 7455,
      "brook": 7456,
      "alzate": 7457,
      "basati": 7458,
      "combinare": 7459,
      "curve": 7460,
      "gratitudine": 7461,
      "curiosi": 7462,
      "proprietario": 7463,
      "hua": 7464,
      "bellissime": 7465,
      "scenario": 7466,
      "femmine": 7467,
      "zanzara": 7468,
      "immediato": 7469,
      "normalità": 7470,
      "osservazioni": 7471,
      "sufficienza": 7472,
      "diagnostica": 7473,
      "tracciare": 7474,
      "testimoni": 7475,
      "novembre": 7476,
      "assumere": 7477,
      "variabili": 7478,
      "villaggi": 7479,
      "aumentata": 7480,
      "valigia": 7481,
      "straordinariamente": 7482,
      "accoppia": 7483,
      "diffondersi": 7484,
      "abbandonato": 7485,
      "allontana": 7486,
      "europeo": 7487,
      "tribù": 7488,
      "tribunale": 7489,
      "ragazzini": 7490,
      "scrivevo": 7491,
      "psicologia": 7492,
      "way": 7493,
      "integrazione": 7494,
      "dichiarazione": 7495,
      "trasparente": 7496,
      "romanzi": 7497,
      "figura": 7498,
      "amministratore": 7499,
      "sconosciuto": 7500,
      "profitto": 7501,
      "religioso": 7502,
      "frigo": 7503,
      "odier": 7504,
      "mpante": 7505,
      "agosto": 7506,
      "proporzione": 7507,
      "cerebrali": 7508,
      "rilevamento": 7509,
      "tolto": 7510,
      "simulazione": 7511,
      "compagnie": 7512,
      "scarabei": 7513,
      "cardiaco": 7514,
      "effettuare": 7515,
      "concreto": 7516,
      "dafrica": 7517,
      "diminuisce": 7518,
      "tbc": 7519,
      "opposta": 7520,
      "recensioni": 7521,
      "riconcilia": 7522,
      "bicicletta": 7523,
      "privilegio": 7524,
      "radiazioni": 7525,
      "lesioni": 7526,
      "slide": 7527,
      "sinteti": 7528,
      "impressionante": 7529,
      "estranei": 7530,
      "isolato": 7531,
      "dozzina": 7532,
      "pistola": 7533,
      "fastidio": 7534,
      "rotolare": 7535,
      "sahariana": 7536,
      "sorveglianza": 7537,
      "pluviale": 7538,
      "etiopia": 7539,
      "slogan": 7540,
      "preservativi": 7541,
      "oxford": 7542,
      "smartphone": 7543,
      "atterraggio": 7544,
      "tweet": 7545,
      "toilette": 7546,
      "sindrome": 7547,
      "linfono": 7548,
      "vietna": 7549,
      "traietto": 7550,
      "fibonacci": 7551,
      "160": 7552,
      "64": 7553,
      "72": 7554,
      "aggior": 7555,
      "bn": 7556,
      "cs": 7557,
      "cò": 7558,
      "ctus": 7559,
      "dd": 7560,
      "done": 7561,
      "eu": 7562,
      "evoluto": 7563,
      "gel": 7564,
      "gera": 7565,
      "gand": 7566,
      "ii": 7567,
      "imento": 7568,
      "ibri": 7569,
      "king": 7570,
      "mpare": 7571,
      "svi": 7572,
      "sino": 7573,
      "sane": 7574,
      "sana": 7575,
      "smette": 7576,
      "sbal": 7577,
      "ust": 7578,
      "ws": 7579,
      "wser": 7580,
      "well": 7581,
      "xx": 7582,
      "dic": 7583,
      "discri": 7584,
      "dife": 7585,
      "disor": 7586,
      "res": 7587,
      "resti": 7588,
      "toccare": 7589,
      "ania": 7590,
      "anello": 7591,
      "ingo": 7592,
      "tech": 7593,
      "tetti": 7594,
      "chel": 7595,
      "china": 7596,
      "costu": 7597,
      "copie": 7598,
      "cogliere": 7599,
      "costretti": 7600,
      "tab": 7601,
      "tavola": 7602,
      "iato": 7603,
      "quant": 7604,
      "ride": 7605,
      "rigo": 7606,
      "ritar": 7607,
      "riprese": 7608,
      "ramo": 7609,
      "razionale": 7610,
      "leone": 7611,
      "lego": 7612,
      "simo": 7613,
      "rotto": 7614,
      "perduto": 7615,
      "pori": 7616,
      "pompa": 7617,
      "dopa": 7618,
      "domeni": 7619,
      "cica": 7620,
      "causare": 7621,
      "somigli": 7622,
      "sottile": 7623,
      "south": 7624,
      "ild": 7625,
      "sappia": 7626,
      "vocale": 7627,
      "pater": 7628,
      "pasti": 7629,
      "passioni": 7630,
      "stris": 7631,
      "picchia": 7632,
      "vittori": 7633,
      "sudafrica": 7634,
      "proust": 7635,
      "staff": 7636,
      "bizza": 7637,
      "ficano": 7638,
      "nice": 7639,
      "nike": 7640,
      "armati": 7641,
      "compar": 7642,
      "comportano": 7643,
      "imposta": 7644,
      "impressione": 7645,
      "chimiche": 7646,
      "nasa": 7647,
      "nastro": 7648,
      "pete": 7649,
      "petto": 7650,
      "hamburger": 7651,
      "inie": 7652,
      "alimentari": 7653,
      "forum": 7654,
      "ruanda": 7655,
      "credeva": 7656,
      "mbar": 7657,
      "pensiate": 7658,
      "avvengono": 7659,
      "goccia": 7660,
      "corri": 7661,
      "corrisponde": 7662,
      "coralli": 7663,
      "tener": 7664,
      "gravita": 7665,
      "graffi": 7666,
      "scere": 7667,
      "scioc": 7668,
      "interfaccia": 7669,
      "interagiscono": 7670,
      "geva": 7671,
      "accento": 7672,
      "accura": 7673,
      "acroba": 7674,
      "appo": 7675,
      "approva": 7676,
      "appel": 7677,
      "ffo": 7678,
      "ffer": 7679,
      "colto": 7680,
      "collabor": 7681,
      "foie": 7682,
      "quie": 7683,
      "risal": 7684,
      "genesi": 7685,
      "box": 7686,
      "bolli": 7687,
      "bombar": 7688,
      "scoppia": 7689,
      "ficata": 7690,
      "amiamo": 7691,
      "ampie": 7692,
      "ampl": 7693,
      "ttini": 7694,
      "fuggi": 7695,
      "gliare": 7696,
      "guardie": 7697,
      "cartello": 7698,
      "potessi": 7699,
      "muscoli": 7700,
      "capii": 7701,
      "capita": 7702,
      "camer": 7703,
      "dovesse": 7704,
      "ideali": 7705,
      "colosi": 7706,
      "diametro": 7707,
      "diapositiva": 7708,
      "trovai": 7709,
      "bambù": 7710,
      "ciechi": 7711,
      "liberi": 7712,
      "ggiamo": 7713,
      "pratico": 7714,
      "scattare": 7715,
      "guardava": 7716,
      "comincer": 7717,
      "marchi": 7718,
      "dicembre": 7719,
      "plasma": 7720,
      "impazzi": 7721,
      "creativi": 7722,
      "creative": 7723,
      "iniziativa": 7724,
      "soldato": 7725,
      "pensabile": 7726,
      "polizio": 7727,
      "alizzato": 7728,
      "occorre": 7729,
      "fermate": 7730,
      "decise": 7731,
      "aspira": 7732,
      "condizionata": 7733,
      "singa": 7734,
      "mediche": 7735,
      "voluti": 7736,
      "sottomar": 7737,
      "guidato": 7738,
      "produciamo": 7739,
      "andese": 7740,
      "calcare": 7741,
      "visivi": 7742,
      "visibili": 7743,
      "energie": 7744,
      "island": 7745,
      "biodiversità": 7746,
      "ghiando": 7747,
      "facciamolo": 7748,
      "elite": 7749,
      "riusciva": 7750,
      "interessano": 7751,
      "corporea": 7752,
      "trino": 7753,
      "ottenete": 7754,
      "ricevo": 7755,
      "poterlo": 7756,
      "raccoglie": 7757,
      "intenzioni": 7758,
      "aiutando": 7759,
      "attenta": 7760,
      "piaceva": 7761,
      "regista": 7762,
      "regioni": 7763,
      "affrontando": 7764,
      "british": 7765,
      "quadri": 7766,
      "abbiate": 7767,
      "logici": 7768,
      "individuale": 7769,
      "sfere": 7770,
      "raggiunge": 7771,
      "ascoltato": 7772,
      "ascoltate": 7773,
      "regolarmente": 7774,
      "lavoravano": 7775,
      "identico": 7776,
      "identiche": 7777,
      "estrema": 7778,
      "largo": 7779,
      "spinta": 7780,
      "palestin": 7781,
      "consumi": 7782,
      "she": 7783,
      "realizzazione": 7784,
      "schiena": 7785,
      "contento": 7786,
      "contenere": 7787,
      "colpita": 7788,
      "404": 7789,
      "neurale": 7790,
      "documenta": 7791,
      "deterio": 7792,
      "approfon": 7793,
      "sopravvissuti": 7794,
      "terrificante": 7795,
      "inglesi": 7796,
      "cchetti": 7797,
      "polline": 7798,
      "fornisce": 7799,
      "eviden": 7800,
      "meccanico": 7801,
      "terrore": 7802,
      "ripeto": 7803,
      "mescola": 7804,
      "chiederete": 7805,
      "malgrado": 7806,
      "minori": 7807,
      "metalli": 7808,
      "arabia": 7809,
      "brown": 7810,
      "browser": 7811,
      "pulire": 7812,
      "clino": 7813,
      "finanziaria": 7814,
      "aperti": 7815,
      "combin": 7816,
      "connetter": 7817,
      "curri": 7818,
      "ignorare": 7819,
      "strane": 7820,
      "museum": 7821,
      "afferra": 7822,
      "scatole": 7823,
      "occhiali": 7824,
      "sufficienti": 7825,
      "resistente": 7826,
      "resistenti": 7827,
      "woo": 7828,
      "wood": 7829,
      "vania": 7830,
      "batterie": 7831,
      "1998": 7832,
      "intraprendere": 7833,
      "originali": 7834,
      "elettronici": 7835,
      "diviso": 7836,
      "battute": 7837,
      "interpreta": 7838,
      "acceler": 7839,
      "entusiasta": 7840,
      "microscopi": 7841,
      "filosofi": 7842,
      "cliniche": 7843,
      "permettersi": 7844,
      "rifiuto": 7845,
      "baller": 7846,
      "intitola": 7847,
      "ospiti": 7848,
      "dinosa": 7849,
      "indipendenza": 7850,
      "attuali": 7851,
      "incontrano": 7852,
      "casuali": 7853,
      "venezia": 7854,
      "paradigma": 7855,
      "spaventa": 7856,
      "facessero": 7857,
      "teatro": 7858,
      "dominante": 7859,
      "altruismo": 7860,
      "esponenzia": 7861,
      "indirizzo": 7862,
      "occasioni": 7863,
      "comicità": 7864,
      "soccorso": 7865,
      "palazzi": 7866,
      "watt": 7867,
      "airbn": 7868,
      "ghiacciaio": 7869,
      "otterrete": 7870,
      "calorie": 7871,
      "egoi": 7872,
      "henry": 7873,
      "biglietto": 7874,
      "eccitante": 7875,
      "saprete": 7876,
      "impero": 7877,
      "astronomi": 7878,
      "britannico": 7879,
      "tatuaggi": 7880,
      "hacker": 7881,
      "comprensibile": 7882,
      "igiene": 7883,
      "propaganda": 7884,
      "ulteriori": 7885,
      "appuntamento": 7886,
      "transazioni": 7887,
      "chiedervi": 7888,
      "catted": 7889,
      "laureato": 7890,
      "maestri": 7891,
      "asfalto": 7892,
      "lacrime": 7893,
      "tolleranza": 7894,
      "saggezza": 7895,
      "stupefa": 7896,
      "siringa": 7897,
      "trappola": 7898,
      "puzzle": 7899,
      "palestina": 7900,
      "gandhi": 7901,
      "svizz": 7902,
      "sbalordi": 7903,
      "airbnb": 7904,
      "6000": 7905,
      "95": 7906,
      "adi": 7907,
      "ata": 7908,
      "astro": 7909,
      "ascesa": 7910,
      "cron": 7911,
      "emb": 7912,
      "eth": 7913,
      "ebbene": 7914,
      "gy": 7915,
      "gò": 7916,
      "grano": 7917,
      "hon": 7918,
      "hil": 7919,
      "ici": 7920,
      "ice": 7921,
      "ità": 7922,
      "jer": 7923,
      "jen": 7924,
      "ku": 7925,
      "mc": 7926,
      "melo": 7927,
      "ose": 7928,
      "odia": 7929,
      "obama": 7930,
      "panno": 7931,
      "sdra": 7932,
      "utente": 7933,
      "vana": 7934,
      "yl": 7935,
      "onesti": 7936,
      "ondata": 7937,
      "dispa": 7938,
      "disegno": 7939,
      "distanti": 7940,
      "togli": 7941,
      "tossi": 7942,
      "inva": 7943,
      "infi": 7944,
      "ingen": 7945,
      "infar": 7946,
      "incorpo": 7947,
      "inquie": 7948,
      "enne": 7949,
      "laser": 7950,
      "cocco": 7951,
      "colazione": 7952,
      "codici": 7953,
      "titano": 7954,
      "tavo": 7955,
      "tamenti": 7956,
      "task": 7957,
      "alun": 7958,
      "alve": 7959,
      "ridotto": 7960,
      "richiamo": 7961,
      "richiesto": 7962,
      "riproduzione": 7963,
      "ricostruzione": 7964,
      "riverb": 7965,
      "esta": 7966,
      "ram": 7967,
      "razzi": 7968,
      "mobilità": 7969,
      "leva": 7970,
      "rompi": 7971,
      "persua": 7972,
      "litri": 7973,
      "licen": 7974,
      "licenza": 7975,
      "povera": 7976,
      "cicli": 7977,
      "causano": 7978,
      "caduta": 7979,
      "cabina": 7980,
      "logie": 7981,
      "saggio": 7982,
      "sexy": 7983,
      "nole": 7984,
      "nodo": 7985,
      "conte": 7986,
      "mix": 7987,
      "misi": 7988,
      "mità": 7989,
      "patri": 7990,
      "pazz": 7991,
      "paure": 7992,
      "mene": 7993,
      "deforesta": 7994,
      "declino": 7995,
      "darà": 7996,
      "steri": 7997,
      "pittura": 7998,
      "vieni": 7999,
      "med": 8000,
      "metria": 8001,
      "meteo": 8002,
      "nonni": 8003,
      "erebbero": 8004,
      "fattura": 8005,
      "facoltà": 8006,
      "gicamente": 8007,
      "unami": 8008,
      "bbi": 8009,
      "propon": 8010,
      "stabile": 8011,
      "statico": 8012,
      "orbita": 8013,
      "presti": 8014,
      "previsto": 8015,
      "fidanza": 8016,
      "neo": 8017,
      "neppure": 8018,
      "troppa": 8019,
      "arra": 8020,
      "archia": 8021,
      "onica": 8022,
      "chiusi": 8023,
      "parall": 8024,
      "peggi": 8025,
      "petizione": 8026,
      "barili": 8027,
      "uova": 8028,
      "treni": 8029,
      "inaspetta": 8030,
      "stop": 8031,
      "storici": 8032,
      "gate": 8033,
      "gamb": 8034,
      "entità": 8035,
      "stradali": 8036,
      "gol": 8037,
      "tenze": 8038,
      "tenendo": 8039,
      "scene": 8040,
      "scinti": 8041,
      "ccoli": 8042,
      "intervenire": 8043,
      "farete": 8044,
      "montare": 8045,
      "apparti": 8046,
      "anniversario": 8047,
      "tuttora": 8048,
      "riassu": 8049,
      "fogli": 8050,
      "follia": 8051,
      "struttur": 8052,
      "chiari": 8053,
      "aimee": 8054,
      "zzanti": 8055,
      "buttato": 8056,
      "scotti": 8057,
      "scoppio": 8058,
      "primate": 8059,
      "amino": 8060,
      "mentiamo": 8061,
      "mucchio": 8062,
      "campan": 8063,
      "dovuta": 8064,
      "derle": 8065,
      "derli": 8066,
      "derci": 8067,
      "denso": 8068,
      "piazza": 8069,
      "dopodi": 8070,
      "puntino": 8071,
      "torto": 8072,
      "trovarono": 8073,
      "bambine": 8074,
      "portava": 8075,
      "sparato": 8076,
      "inferno": 8077,
      "sentimento": 8078,
      "manifesti": 8079,
      "libia": 8080,
      "funzionale": 8081,
      "arricchi": 8082,
      "arriveremo": 8083,
      "cercava": 8084,
      "costruzioni": 8085,
      "scatto": 8086,
      "scritte": 8087,
      "scrittore": 8088,
      "scritture": 8089,
      "cominceremo": 8090,
      "mark": 8091,
      "manoscritto": 8092,
      "febbra": 8093,
      "creati": 8094,
      "zionati": 8095,
      "senzatetto": 8096,
      "finanza": 8097,
      "soldati": 8098,
      "crollo": 8099,
      "aspettiamo": 8100,
      "ocse": 8101,
      "antarti": 8102,
      "cominciammo": 8103,
      "malati": 8104,
      "opzione": 8105,
      "fermati": 8106,
      "fermamente": 8107,
      "aspi": 8108,
      "attivare": 8109,
      "urla": 8110,
      "urlare": 8111,
      "arrivate": 8112,
      "sintesi": 8113,
      "collettivo": 8114,
      "andro": 8115,
      "calcio": 8116,
      "calcolato": 8117,
      "visitato": 8118,
      "immaginato": 8119,
      "soprav": 8120,
      "artistico": 8121,
      "greco": 8122,
      "verificato": 8123,
      "sembravano": 8124,
      "vorrebbero": 8125,
      "stretta": 8126,
      "norme": 8127,
      "diventarono": 8128,
      "differenzia": 8129,
      "cks": 8130,
      "sperma": 8131,
      "spieghi": 8132,
      "assistito": 8133,
      "facemmo": 8134,
      "facevamo": 8135,
      "cliente": 8136,
      "condividono": 8137,
      "prince": 8138,
      "solari": 8139,
      "long": 8140,
      "raccogliamo": 8141,
      "intenso": 8142,
      "filmati": 8143,
      "succedeva": 8144,
      "trasformata": 8145,
      "adorano": 8146,
      "adottare": 8147,
      "comportamentale": 8148,
      "brian": 8149,
      "brità": 8150,
      "costose": 8151,
      "sfero": 8152,
      "investito": 8153,
      "trans": 8154,
      "economista": 8155,
      "assoluta": 8156,
      "relativo": 8157,
      "convinzioni": 8158,
      "sbagliare": 8159,
      "aggiungendo": 8160,
      "archivio": 8161,
      "crescente": 8162,
      "singole": 8163,
      "innovative": 8164,
      "illusioni": 8165,
      "scrittori": 8166,
      "periodi": 8167,
      "democratico": 8168,
      "abitazioni": 8169,
      "scoprirono": 8170,
      "precisi": 8171,
      "precisamente": 8172,
      "mangiate": 8173,
      "approfondi": 8174,
      "preferite": 8175,
      "discusso": 8176,
      "estero": 8177,
      "compiuto": 8178,
      "riduzione": 8179,
      "fisio": 8180,
      "amata": 8181,
      "amavo": 8182,
      "analizzando": 8183,
      "polso": 8184,
      "sorprendenti": 8185,
      "meccanici": 8186,
      "pericolose": 8187,
      "rilevare": 8188,
      "prodotta": 8189,
      "merita": 8190,
      "broccoli": 8191,
      "equivale": 8192,
      "lasciatemi": 8193,
      "leadership": 8194,
      "ingegno": 8195,
      "architetto": 8196,
      "combina": 8197,
      "competenza": 8198,
      "progettati": 8199,
      "balene": 8200,
      "svegli": 8201,
      "phia": 8202,
      "continuava": 8203,
      "ingegnere": 8204,
      "liberamente": 8205,
      "angoli": 8206,
      "emisfero": 8207,
      "inclusi": 8208,
      "catego": 8209,
      "eccetto": 8210,
      "disturba": 8211,
      "procedure": 8212,
      "assistente": 8213,
      "suggerire": 8214,
      "tsunami": 8215,
      "uccello": 8216,
      "trasferire": 8217,
      "sorprendentemente": 8218,
      "salita": 8219,
      "fiumi": 8220,
      "catastro": 8221,
      "coscienti": 8222,
      "condurre": 8223,
      "verticale": 8224,
      "tanea": 8225,
      "affidabile": 8226,
      "consumatore": 8227,
      "beneficio": 8228,
      "adattarsi": 8229,
      "collater": 8230,
      "collagene": 8231,
      "appartamento": 8232,
      "shock": 8233,
      "accelerare": 8234,
      "lessico": 8235,
      "europei": 8236,
      "professori": 8237,
      "copiare": 8238,
      "avanzata": 8239,
      "biologico": 8240,
      "cognitivo": 8241,
      "cognitiva": 8242,
      "rifugio": 8243,
      "scimmie": 8244,
      "controllato": 8245,
      "maschio": 8246,
      "nascoste": 8247,
      "celebrità": 8248,
      "analogia": 8249,
      "complicate": 8250,
      "complicata": 8251,
      "scandal": 8252,
      "padrone": 8253,
      "piramide": 8254,
      "ringrazio": 8255,
      "delegato": 8256,
      "aeroporto": 8257,
      "troveremo": 8258,
      "assembla": 8259,
      "toriale": 8260,
      "credetemi": 8261,
      "installato": 8262,
      "divertimento": 8263,
      "incremento": 8264,
      "soggetto": 8265,
      "innovare": 8266,
      "elevati": 8267,
      "algoritmi": 8268,
      "ingresso": 8269,
      "cheryl": 8270,
      "watson": 8271,
      "teorie": 8272,
      "idrogeno": 8273,
      "stilisti": 8274,
      "circuito": 8275,
      "aumentano": 8276,
      "islam": 8277,
      "tedesco": 8278,
      "impulsi": 8279,
      "anticipo": 8280,
      "irrigazione": 8281,
      "tbp": 8282,
      "fermarsi": 8283,
      "vorrà": 8284,
      "evolve": 8285,
      "terapie": 8286,
      "influenzano": 8287,
      "adeguato": 8288,
      "manipolare": 8289,
      "alfabetizzazione": 8290,
      "eccone": 8291,
      "perforate": 8292,
      "prigionieri": 8293,
      "scaricare": 8294,
      "automatico": 8295,
      "tubercolosi": 8296,
      "controllano": 8297,
      "albergo": 8298,
      "convertire": 8299,
      "antibiotici": 8300,
      "episodio": 8301,
      "ingredienti": 8302,
      "divario": 8303,
      "pedaggio": 8304,
      "fertili": 8305,
      "raggruppa": 8306,
      "ushahi": 8307,
      "brooklyn": 8308,
      "appello": 8309,
      "singapore": 8310,
      "evidenzia": 8311,
      "cattedrale": 8312,
      "deforestazione": 8313,
      "peggiora": 8314,
      "febbraio": 8315,
      "antartide": 8316,
      "29": 8317,
      "3000": 8318,
      "47": 8319,
      "48": 8320,
      "76": 8321,
      "aprendo": 8322,
      "bl": 8323,
      "cm": 8324,
      "ccarsi": 8325,
      "dney": 8326,
      "ek": 8327,
      "etica": 8328,
      "emma": 8329,
      "fed": 8330,
      "hp": 8331,
      "ippo": 8332,
      "ng": 8333,
      "ocu": 8334,
      "pale": 8335,
      "pante": 8336,
      "rb": 8337,
      "scambia": 8338,
      "scompa": 8339,
      "sfondo": 8340,
      "svani": 8341,
      "who": 8342,
      "wire": 8343,
      "éli": 8344,
      "disso": 8345,
      "distanze": 8346,
      "reni": 8347,
      "restano": 8348,
      "reinventare": 8349,
      "incirca": 8350,
      "incarico": 8351,
      "chrane": 8352,
      "child": 8353,
      "costano": 8354,
      "cochrane": 8355,
      "time": 8356,
      "tac": 8357,
      "ung": 8358,
      "quinto": 8359,
      "ripie": 8360,
      "ritorna": 8361,
      "ritornare": 8362,
      "riparare": 8363,
      "esposizione": 8364,
      "elle": 8365,
      "mora": 8366,
      "mossa": 8367,
      "modes": 8368,
      "letale": 8369,
      "rocce": 8370,
      "rock": 8371,
      "perche": 8372,
      "little": 8373,
      "pose": 8374,
      "pollo": 8375,
      "mago": 8376,
      "mario": 8377,
      "massimi": 8378,
      "cidio": 8379,
      "casca": 8380,
      "caval": 8381,
      "cairo": 8382,
      "lottato": 8383,
      "soffi": 8384,
      "ille": 8385,
      "secco": 8386,
      "not": 8387,
      "nodi": 8388,
      "notti": 8389,
      "noterete": 8390,
      "conven": 8391,
      "consenti": 8392,
      "consentire": 8393,
      "misti": 8394,
      "voca": 8395,
      "votare": 8396,
      "vocali": 8397,
      "pagh": 8398,
      "patrimoni": 8399,
      "patria": 8400,
      "dam": 8401,
      "stone": 8402,
      "pica": 8403,
      "piene": 8404,
      "mete": 8405,
      "erei": 8406,
      "suprema": 8407,
      "giganti": 8408,
      "vedeva": 8409,
      "glielo": 8410,
      "bbie": 8411,
      "stampante": 8412,
      "orf": 8413,
      "orsi": 8414,
      "orro": 8415,
      "biti": 8416,
      "verci": 8417,
      "preven": 8418,
      "premere": 8419,
      "trascu": 8420,
      "figlie": 8421,
      "troppe": 8422,
      "trovò": 8423,
      "troverà": 8424,
      "arbi": 8425,
      "armonia": 8426,
      "immo": 8427,
      "imple": 8428,
      "chiusa": 8429,
      "parali": 8430,
      "abbat": 8431,
      "abbas": 8432,
      "basse": 8433,
      "primor": 8434,
      "alimentazione": 8435,
      "hol": 8436,
      "forn": 8437,
      "forno": 8438,
      "rumo": 8439,
      "vendono": 8440,
      "venute": 8441,
      "ventun": 8442,
      "guai": 8443,
      "luglio": 8444,
      "pus": 8445,
      "unire": 8446,
      "avvol": 8447,
      "avvento": 8448,
      "gowan": 8449,
      "corn": 8450,
      "corsie": 8451,
      "corps": 8452,
      "corrido": 8453,
      "cerie": 8454,
      "indice": 8455,
      "coscen": 8456,
      "grafo": 8457,
      "graphi": 8458,
      "erie": 8459,
      "monu": 8460,
      "appunti": 8461,
      "colpì": 8462,
      "foro": 8463,
      "foste": 8464,
      "foot": 8465,
      "esista": 8466,
      "chiavi": 8467,
      "antiche": 8468,
      "bush": 8469,
      "risale": 8470,
      "genia": 8471,
      "genze": 8472,
      "bol": 8473,
      "boom": 8474,
      "ampli": 8475,
      "spalla": 8476,
      "carono": 8477,
      "mura": 8478,
      "cammini": 8479,
      "nuvole": 8480,
      "dovrà": 8481,
      "derla": 8482,
      "potresti": 8483,
      "elettori": 8484,
      "piatti": 8485,
      "divennero": 8486,
      "trovarsi": 8487,
      "cchiere": 8488,
      "rendiamo": 8489,
      "grandezza": 8490,
      "spagna": 8491,
      "ttero": 8492,
      "influi": 8493,
      "infeli": 8494,
      "pericoli": 8495,
      "zionano": 8496,
      "pietre": 8497,
      "scattata": 8498,
      "trasdu": 8499,
      "trasmissione": 8500,
      "moltiplica": 8501,
      "autostrada": 8502,
      "scrittrice": 8503,
      "marca": 8504,
      "marina": 8505,
      "insetto": 8506,
      "manoscritti": 8507,
      "minia": 8508,
      "creazioni": 8509,
      "tecnologici": 8510,
      "auda": 8511,
      "aumentato": 8512,
      "sistemare": 8513,
      "significativi": 8514,
      "uscite": 8515,
      "occasi": 8516,
      "frainten": 8517,
      "minacce": 8518,
      "malato": 8519,
      "telli": 8520,
      "guidate": 8521,
      "guidano": 8522,
      "collegare": 8523,
      "ricordato": 8524,
      "ricorrere": 8525,
      "visive": 8526,
      "continuerà": 8527,
      "grecia": 8528,
      "1990": 8529,
      "cchiamo": 8530,
      "accada": 8531,
      "container": 8532,
      "vorreste": 8533,
      "avermi": 8534,
      "ordina": 8535,
      "norve": 8536,
      "strizioni": 8537,
      "germi": 8538,
      "gerusale": 8539,
      "tornai": 8540,
      "triamo": 8541,
      "ricetta": 8542,
      "ricettore": 8543,
      "cresciuti": 8544,
      "suicidi": 8545,
      "spiegano": 8546,
      "assicurare": 8547,
      "pesanti": 8548,
      "globalmente": 8549,
      "fantasma": 8550,
      "poteri": 8551,
      "muore": 8552,
      "programmazione": 8553,
      "scelgono": 8554,
      "bancono": 8555,
      "affrontano": 8556,
      "metterli": 8557,
      "scheda": 8558,
      "anziché": 8559,
      "grigio": 8560,
      "lavorarci": 8561,
      "fortunata": 8562,
      "servire": 8563,
      "transi": 8564,
      "spirale": 8565,
      "aspettavamo": 8566,
      "aspettativa": 8567,
      "disastri": 8568,
      "perfezione": 8569,
      "sconcer": 8570,
      "raccontando": 8571,
      "raccontiamo": 8572,
      "relativi": 8573,
      "convinti": 8574,
      "palcoscen": 8575,
      "consumare": 8576,
      "incontrati": 8577,
      "esistevano": 8578,
      "contengono": 8579,
      "colpire": 8580,
      "collegate": 8581,
      "collegamenti": 8582,
      "rurale": 8583,
      "mondiali": 8584,
      "block": 8585,
      "scoprii": 8586,
      "genocidio": 8587,
      "passate": 8588,
      "inventa": 8589,
      "terribilmente": 8590,
      "imprevedi": 8591,
      "virali": 8592,
      "virgin": 8593,
      "brutta": 8594,
      "magazz": 8595,
      "sinistro": 8596,
      "scarto": 8597,
      "moderne": 8598,
      "generalmente": 8599,
      "ripete": 8600,
      "rapido": 8601,
      "cittadina": 8602,
      "mappare": 8603,
      "meritano": 8604,
      "scorrere": 8605,
      "collaborativo": 8606,
      "vedermi": 8607,
      "descrizione": 8608,
      "combattuto": 8609,
      "serata": 8610,
      "conoscevo": 8611,
      "angelo": 8612,
      "competere": 8613,
      "competenze": 8614,
      "fabbri": 8615,
      "agricole": 8616,
      "balena": 8617,
      "viola": 8618,
      "spostamento": 8619,
      "classica": 8620,
      "notiziari": 8621,
      "narratore": 8622,
      "eccessi": 8623,
      "afferma": 8624,
      "preoccupazione": 8625,
      "preoccupazioni": 8626,
      "prospettive": 8627,
      "specifici": 8628,
      "elettrone": 8629,
      "specializzazione": 8630,
      "installare": 8631,
      "variazioni": 8632,
      "radicalmente": 8633,
      "1999": 8634,
      "operai": 8635,
      "preparazione": 8636,
      "spende": 8637,
      "spendiamo": 8638,
      "adattamento": 8639,
      "chain": 8640,
      "protocollo": 8641,
      "conservare": 8642,
      "accogliere": 8643,
      "pillo": 8644,
      "nervosi": 8645,
      "alzano": 8646,
      "filosofo": 8647,
      "disegnato": 8648,
      "ritira": 8649,
      "permetterci": 8650,
      "giapponese": 8651,
      "ficenza": 8652,
      "silicone": 8653,
      "deboli": 8654,
      "visualizza": 8655,
      "visualizzazione": 8656,
      "visualizzare": 8657,
      "sovra": 8658,
      "sovran": 8659,
      "dedicato": 8660,
      "giocattolo": 8661,
      "recipro": 8662,
      "nascosta": 8663,
      "femminili": 8664,
      "ostacolo": 8665,
      "coperta": 8666,
      "energetica": 8667,
      "stimoli": 8668,
      "estendere": 8669,
      "spiace": 8670,
      "percepire": 8671,
      "abuso": 8672,
      "maschile": 8673,
      "impegnati": 8674,
      "confusione": 8675,
      "allarme": 8676,
      "richieste": 8677,
      "scoprì": 8678,
      "regina": 8679,
      "sostituito": 8680,
      "legitti": 8681,
      "storto": 8682,
      "rinnovabile": 8683,
      "aggiu": 8684,
      "glass": 8685,
      "reagito": 8686,
      "costituzione": 8687,
      "costituiscono": 8688,
      "ridotta": 8689,
      "estremità": 8690,
      "introduzione": 8691,
      "elaborazione": 8692,
      "tunisia": 8693,
      "gratuitamente": 8694,
      "cardiaca": 8695,
      "agenzia": 8696,
      "svolgere": 8697,
      "carburanti": 8698,
      "asilo": 8699,
      "estroversi": 8700,
      "cademy": 8701,
      "formula": 8702,
      "spiegarvi": 8703,
      "attraversato": 8704,
      "elettorale": 8705,
      "sondaggio": 8706,
      "suonano": 8707,
      "ginocchio": 8708,
      "biglietti": 8709,
      "camminando": 8710,
      "impedisce": 8711,
      "biciclette": 8712,
      "pescatori": 8713,
      "cortile": 8714,
      "morbido": 8715,
      "rimosso": 8716,
      "appropriato": 8717,
      "babilonia": 8718,
      "ricevitore": 8719,
      "domestici": 8720,
      "avviato": 8721,
      "piaciuto": 8722,
      "offerta": 8723,
      "william": 8724,
      "jordan": 8725,
      "uganda": 8726,
      "pregiudizi": 8727,
      "interruttore": 8728,
      "barbiere": 8729,
      "sospetto": 8730,
      "partecipanti": 8731,
      "bestiame": 8732,
      "ostrica": 8733,
      "odisseo": 8734,
      "culum": 8735,
      "risalire": 8736,
      "pienamente": 8737,
      "preghiere": 8738,
      "riconciliazione": 8739,
      "graffiti": 8740,
      "curriculum": 8741,
      "accelerando": 8742,
      "appartiene": 8743,
      "dopodiché": 8744,
      "categorie": 8745,
      "ushahidi": 8746,
      "ventunesimo": 8747,
      "graphic": 8748,
      "gerusalemme": 8749,
      "31": 8750,
      "33": 8751,
      "4000": 8752,
      "52": 8753,
      "5000": 8754,
      "85": 8755,
      "86": 8756,
      "94": 8757,
      "ala": 8758,
      "academy": 8759,
      "banda": 8760,
      "cessione": 8761,
      "dh": 8762,
      "fli": 8763,
      "gone": 8764,
      "gina": 8765,
      "hal": 8766,
      "hall": 8767,
      "ib": 8768,
      "iche": 8769,
      "ispe": 8770,
      "ital": 8771,
      "ji": 8772,
      "jane": 8773,
      "ls": 8774,
      "lma": 8775,
      "lano": 8776,
      "loni": 8777,
      "lini": 8778,
      "lana": 8779,
      "muni": 8780,
      "nere": 8781,
      "oz": 8782,
      "over": 8783,
      "otta": 8784,
      "pesti": 8785,
      "panta": 8786,
      "tler": 8787,
      "umi": 8788,
      "ww": 8789,
      "ye": 8790,
      "yu": 8791,
      "yan": 8792,
      "disu": 8793,
      "disegni": 8794,
      "digeri": 8795,
      "reste": 8796,
      "recor": 8797,
      "rezero": 8798,
      "tocco": 8799,
      "anca": 8800,
      "ange": 8801,
      "anterio": 8802,
      "incar": 8803,
      "indon": 8804,
      "inser": 8805,
      "ingrandi": 8806,
      "incl": 8807,
      "inverti": 8808,
      "input": 8809,
      "testata": 8810,
      "lamenta": 8811,
      "cherà": 8812,
      "colu": 8813,
      "cool": 8814,
      "corea": 8815,
      "costretto": 8816,
      "coach": 8817,
      "tim": 8818,
      "timore": 8819,
      "tas": 8820,
      "tamb": 8821,
      "table": 8822,
      "tavole": 8823,
      "unt": 8824,
      "alini": 8825,
      "rien": 8826,
      "riga": 8827,
      "riguar": 8828,
      "rivolte": 8829,
      "riportare": 8830,
      "risuona": 8831,
      "ripresa": 8832,
      "ritratti": 8833,
      "riguardano": 8834,
      "esca": 8835,
      "esposti": 8836,
      "rara": 8837,
      "ratto": 8838,
      "moti": 8839,
      "moza": 8840,
      "moha": 8841,
      "morendo": 8842,
      "leo": 8843,
      "siria": 8844,
      "rottura": 8845,
      "percu": 8846,
      "perpl": 8847,
      "poster": 8848,
      "mah": 8849,
      "mata": 8850,
      "masch": 8851,
      "macerie": 8852,
      "cibi": 8853,
      "citato": 8854,
      "cadono": 8855,
      "sottili": 8856,
      "sapendo": 8857,
      "separare": 8858,
      "conor": 8859,
      "confe": 8860,
      "conveni": 8861,
      "contenti": 8862,
      "mirati": 8863,
      "voya": 8864,
      "parente": 8865,
      "patia": 8866,
      "mentando": 8867,
      "detenuti": 8868,
      "dais": 8869,
      "darmi": 8870,
      "stina": 8871,
      "pila": 8872,
      "pista": 8873,
      "vis": 8874,
      "eremmo": 8875,
      "tuta": 8876,
      "gibili": 8877,
      "girato": 8878,
      "var": 8879,
      "vacanza": 8880,
      "prov": 8881,
      "promo": 8882,
      "provi": 8883,
      "prome": 8884,
      "provin": 8885,
      "procura": 8886,
      "orbi": 8887,
      "ormone": 8888,
      "cea": 8889,
      "cei": 8890,
      "ceuti": 8891,
      "bianche": 8892,
      "biscotti": 8893,
      "tero": 8894,
      "terie": 8895,
      "termico": 8896,
      "presc": 8897,
      "preval": 8898,
      "preconcetti": 8899,
      "preparato": 8900,
      "nici": 8901,
      "cusc": 8902,
      "cuoc": 8903,
      "neve": 8904,
      "tropi": 8905,
      "compresa": 8906,
      "impera": 8907,
      "imbro": 8908,
      "immigrazione": 8909,
      "parano": 8910,
      "partendo": 8911,
      "possesso": 8912,
      "inibi": 8913,
      "baracco": 8914,
      "privo": 8915,
      "prigi": 8916,
      "essermi": 8917,
      "esserlo": 8918,
      "creduto": 8919,
      "mantiene": 8920,
      "stimato": 8921,
      "mbia": 8922,
      "unirsi": 8923,
      "eroe": 8924,
      "avrai": 8925,
      "strappa": 8926,
      "gomma": 8927,
      "gold": 8928,
      "corto": 8929,
      "corse": 8930,
      "corda": 8931,
      "cospi": 8932,
      "addosso": 8933,
      "teniamo": 8934,
      "gratta": 8935,
      "interni": 8936,
      "interviste": 8937,
      "gemelli": 8938,
      "giato": 8939,
      "volti": 8940,
      "volante": 8941,
      "onamenti": 8942,
      "apprendere": 8943,
      "colti": 8944,
      "riabili": 8945,
      "chiarire": 8946,
      "granello": 8947,
      "riscontra": 8948,
      "farf": 8949,
      "bob": 8950,
      "scole": 8951,
      "scoppi": 8952,
      "prendeva": 8953,
      "ttenti": 8954,
      "formaggio": 8955,
      "andamento": 8956,
      "carino": 8957,
      "capitano": 8958,
      "stupen": 8959,
      "dovuti": 8960,
      "elevato": 8961,
      "elegante": 8962,
      "ideo": 8963,
      "dentale": 8964,
      "denziali": 8965,
      "diventiamo": 8966,
      "puntare": 8967,
      "torta": 8968,
      "trovavo": 8969,
      "portarlo": 8970,
      "fondare": 8971,
      "space": 8972,
      "beneficenza": 8973,
      "arriverà": 8974,
      "usava": 8975,
      "usarle": 8976,
      "donald": 8977,
      "canad": 8978,
      "automobile": 8979,
      "circola": 8980,
      "circolare": 8981,
      "bei": 8982,
      "minestra": 8983,
      "play": 8984,
      "tecnologiche": 8985,
      "iniziate": 8986,
      "iniziata": 8987,
      "iniziative": 8988,
      "celo": 8989,
      "finiamo": 8990,
      "informatico": 8991,
      "discono": 8992,
      "significare": 8993,
      "significativa": 8994,
      "significative": 8995,
      "guari": 8996,
      "posiziona": 8997,
      "critto": 8998,
      "crimini": 8999,
      "migliaio": 9000,
      "diffusi": 9001,
      "feria": 9002,
      "attivamente": 9003,
      "arrivarci": 9004,
      "sottolineare": 9005,
      "contrasto": 9006,
      "affli": 9007,
      "196": 9008,
      "1945": 9009,
      "materie": 9010,
      "future": 9011,
      "accadeva": 9012,
      "entrata": 9013,
      "desidero": 9014,
      "ambizio": 9015,
      "pareti": 9016,
      "parecchie": 9017,
      "versioni": 9018,
      "diventai": 9019,
      "sticamente": 9020,
      "tornate": 9021,
      "benvenuti": 9022,
      "quantita": 9023,
      "protesta": 9024,
      "computeri": 9025,
      "2003": 9026,
      "cereali": 9027,
      "occupano": 9028,
      "global": 9029,
      "seguono": 9030,
      "lenta": 9031,
      "lly": 9032,
      "ingan": 9033,
      "microsoft": 9034,
      "violenze": 9035,
      "intendiamo": 9036,
      "lander": 9037,
      "agisce": 9038,
      "sbagli": 9039,
      "filtra": 9040,
      "filtro": 9041,
      "piacevole": 9042,
      "universitario": 9043,
[...]
