{
  "version": "1.0",
  "truncation": null,
  "padding": null,
  "added_tokens": [
    {
      "id": 0,
      "content": "[UNK]",
      "single_word": false,
      "lstrip": false,
      "rstrip": false,
      "normalized": false,
      "special": true
    },
    {
      "id": 1,
      "content": "[START]",
      "single_word": false,
      "lstrip": false,
      "rstrip": false,
      "normalized": false,
      "special": true
    },
    {
      "id": 2,
      "content": "[NEXT]",
      "single_word": false,
      "lstrip": false,
      "rstrip": false,
      "normalized": false,
      "special": true
    },
    {
      "id": 3,
      "content": "[STOP]",
      "single_word": false,
      "lstrip": false,
      "rstrip": false,
      "normalized": false,
      "special": true
    }
  ],
  "normalizer": {
    "type": "Sequence",
    "normalizers": [
      {
        "type": "Lowercase"
      },
      {
        "type": "Strip",
        "strip_left": true,
        "strip_right": true
      }
    ]
  },
  "pre_tokenizer": {
    "type": "Whitespace"
  },
  "post_processor": null,
  "decoder": null,
  "model": {
    "type": "BPE",
    "dropout": null,
    "unk_token": null,
    "continuing_subword_prefix": null,
    "end_of_word_suffix": null,
    "fuse_unk": false,
    "byte_fallback": false,
    "ignore_merges": false,
    "vocab": {
      "[UNK]": 0,
      "[START]": 1,
      "[NEXT]": 2,
      "[STOP]": 3,
      " ": 4,
      "!": 5,
      "#": 6,
      "$": 7,
      "%": 8,
      "&": 9,
      "'": 10,
      "(": 11,
      ")": 12,
      "*": 13,
      "+": 14,
      ",": 15,
      "-": 16,
      ".": 17,
      "/": 18,
      "0": 19,
      "1": 20,
      "2": 21,
      "3": 22,
      "4": 23,
      "5": 24,
      "6": 25,
      "7": 26,
      "8": 27,
      "9": 28,
      ":": 29,
      ";": 30,
      "=": 31,
      ">": 32,
      "?": 33,
      "@": 34,
      "[": 35,
      "\\": 36,
      "]": 37,
      "^": 38,
      "_": 39,
      "`": 40,
      "a": 41,
      "b": 42,
      "c": 43,
      "d": 44,
      "e": 45,
      "f": 46,
      "g": 47,
      "h": 48,
      "i": 49,
      "j": 50,
      "k": 51,
      "l": 52,
      "m": 53,
      "n": 54,
      "o": 55,
      "p": 56,
      "q": 57,
      "r": 58,
      "s": 59,
      "t": 60,
      "u": 61,
      "v": 62,
      "w": 63,
      "x": 64,
      "y": 65,
      "z": 66,
      "": 67,
      "": 68,
      "": 69,
      "©": 70,
      "ª": 71,
      "«": 72,
      "°": 73,
      "²": 74,
      "´": 75,
      "º": 76,
      "»": 77,
      "½": 78,
      "¾": 79,
      "à": 80,
      "á": 81,
      "â": 82,
      "ã": 83,
      "ä": 84,
      "ç": 85,
      "è": 86,
      "é": 87,
      "ê": 88,
      "ë": 89,
      "í": 90,
      "ï": 91,
      "ñ": 92,
      "ó": 93,
      "ô": 94,
      "õ": 95,
      "ö": 96,
      "ù": 97,
      "ú": 98,
      "ü": 99,
      "ā": 100,
      "ō": 101,
      "ő": 102,
      "ย": 103,
      "ร": 104,
      "อ": 105,
      "่": 106,
      "ẽ": 107,
      "​": 108,
      "–": 109,
      "—": 110,
      "‘": 111,
      "’": 112,
      "“": 113,
      "”": 114,
      "…": 115,
      "€": 116,
      "™": 117,
      "♪": 118,
      "♫": 119,
      "os": 120,
      "es": 121,
      "de": 122,
      "as": 123,
      "ar": 124,
      "qu": 125,
      "er": 126,
      "nt": 127,
      "co": 128,
      "em": 129,
      "is": 130,
      "que": 131,
      "or": 132,
      "ma": 133,
      "ão": 134,
      "am": 135,
      "do": 136,
      "da": 137,
      "ent": 138,
      "al": 139,
      "est": 140,
      "re": 141,
      "in": 142,
      "ra": 143,
      "se": 144,
      "to": 145,
      "ia": 146,
      "com": 147,
      "en": 148,
      "so": 149,
      "''": 150,
      "par": 151,
      "el": 152,
      "ro": 153,
      "um": 154,
      "ca": 155,
      "po": 156,
      "ci": 157,
      "uma": 158,
      "an": 159,
      "ti": 160,
      "di": 161,
      "ri": 162,
      "ta": 163,
      "por": 164,
      "no": 165,
      "para": 166,
      "``": 167,
      "ente": 168,
      "me": 169,
      "não": 170,
      "na": 171,
      "ou": 172,
      "mu": 173,
      "dos": 174,
      "sa": 175,
      "im": 176,
      "ção": 177,
      "nos": 178,
      "gu": 179,
      "con": 180,
      "ha": 181,
      "vi": 182,
      "ver": 183,
      "mos": 184,
      "te": 185,
      "lo": 186,
      "mas": 187,
      "va": 188,
      "tem": 189,
      "des": 190,
      "fa": 191,
      "li": 192,
      "amos": 193,
      "per": 194,
      "fi": 195,
      "pro": 196,
      "eu": 197,
      "mo": 198,
      "tu": 199,
      "la": 200,
      "ei": 201,
      "tra": 202,
      "como": 203,
      "ho": 204,
      "dade": 205,
      "vo": 206,
      "ve": 207,
      "pa": 208,
      "us": 209,
      "esta": 210,
      "ex": 211,
      "pode": 212,
      "das": 213,
      "res": 214,
      "mais": 215,
      "ec": 216,
      "tr": 217,
      "ter": 218,
      "ir": 219,
      "pre": 220,
      "si": 221,
      "for": 222,
      "cont": 223,
      "lh": 224,
      "ni": 225,
      "mui": 226,
      "ser": 227,
      "cu": 228,
      "su": 229,
      "faz": 230,
      "ões": 231,
      "pen": 232,
      "esso": 233,
      "são": 234,
      "isso": 235,
      "nte": 236,
      "on": 237,
      "isto": 238,
      "du": 239,
      "car": 240,
      "mi": 241,
      "le": 242,
      "go": 243,
      "cia": 244,
      "fo": 245,
      "pesso": 246,
      "ando": 247,
      "tam": 248,
      "pe": 249,
      "mente": 250,
      "ento": 251,
      "ria": 252,
      "emos": 253,
      "muito": 254,
      "este": 255,
      "quer": 256,
      "tos": 257,
      "pos": 258,
      "ac": 259,
      "vel": 260,
      "qui": 261,
      "ora": 262,
      "lu": 263,
      "ag": 264,
      "un": 265,
      "nto": 266,
      "inha": 267,
      "ça": 268,
      "pessoas": 269,
      "segu": 270,
      "ém": 271,
      "vos": 272,
      "tar": 273,
      "ga": 274,
      "mes": 275,
      "int": 276,
      "está": 277,
      "bi": 278,
      "ele": 279,
      "ós": 280,
      "fazer": 281,
      "cas": 282,
      "sem": 283,
      "ch": 284,
      "quando": 285,
      "ên": 286,
      "tas": 287,
      "era": 288,
      "ce": 289,
      "ao": 290,
      "gra": 291,
      "dor": 292,
      "há": 293,
      "porque": 294,
      "vez": 295,
      "cois": 296,
      "bre": 297,
      "pri": 298,
      "at": 299,
      "sim": 300,
      "bo": 301,
      "foi": 302,
      "dis": 303,
      "ndo": 304,
      "tor": 305,
      "ções": 306,
      "forma": 307,
      "pel": 308,
      "pr": 309,
      "amente": 310,
      "então": 311,
      "fer": 312,
      "dia": 313,
      "lar": 314,
      "nós": 315,
      "tal": 316,
      "sobre": 317,
      "anos": 318,
      "cer": 319,
      "pi": 320,
      "dar": 321,
      "cor": 322,
      "ência": 323,
      "bem": 324,
      "pl": 325,
      "ns": 326,
      "ina": 327,
      "ês": 328,
      "estão": 329,
      "bal": 330,
      "aqui": 331,
      "za": 332,
      "pres": 333,
      "cos": 334,
      "diz": 335,
      "almente": 336,
      "temos": 337,
      "pas": 338,
      "ix": 339,
      "todos": 340,
      "gi": 341,
      "eles": 342,
      "ras": 343,
      "ali": 344,
      "ntes": 345,
      "gar": 346,
      "ris": 347,
      "ob": 348,
      "qua": 349,
      "der": 350,
      "ru": 351,
      "fal": 352,
      "porta": 353,
      "ber": 354,
      "pu": 355,
      "ros": 356,
      "ju": 357,
      "00": 358,
      "tamb": 359,
      "ess": 360,
      "também": 361,
      "vol": 362,
      "ten": 363,
      "inter": 364,
      "cis": 365,
      "tó": 366,
      "agora": 367,
      "hor": 368,
      "nas": 369,
      "mar": 370,
      "entes": 371,
      "mundo": 372,
      "ior": 373,
      "mei": 374,
      "ba": 375,
      "ig": 376,
      "minha": 377,
      "ens": 378,
      "ima": 379,
      "fun": 380,
      "uni": 381,
      "cri": 382,
      "je": 383,
      "rar": 384,
      "mesmo": 385,
      "las": 386,
      "meu": 387,
      "trabal": 388,
      "ári": 389,
      "ap": 390,
      "come": 391,
      "ne": 392,
      "inh": 393,
      "vida": 394,
      "cons": 395,
      "podem": 396,
      "cio": 397,
      "pois": 398,
      "coisas": 399,
      "êm": 400,
      "podemos": 401,
      "lem": 402,
      "precis": 403,
      "mel": 404,
      "vis": 405,
      "sar": 406,
      "voc": 407,
      "ela": 408,
      "man": 409,
      "fica": 410,
      "apen": 411,
      "apenas": 412,
      "gia": 413,
      "tro": 414,
      "enta": 415,
      "essa": 416,
      "ço": 417,
      "qual": 418,
      "esse": 419,
      "ível": 420,
      "depois": 421,
      "consegu": 422,
      "tura": 423,
      "acont": 424,
      "alg": 425,
      "vamos": 426,
      "ámos": 427,
      "ide": 428,
      "av": 429,
      "bri": 430,
      "têm": 431,
      "estas": 432,
      "men": 433,
      "onde": 434,
      "cria": 435,
      "algu": 436,
      "outr": 437,
      "sua": 438,
      "cion": 439,
      "mento": 440,
      "cha": 441,
      "ças": 442,
      "cam": 443,
      "sos": 444,
      "difer": 445,
      "estes": 446,
      "entar": 447,
      "cada": 448,
      "ís": 449,
      "ram": 450,
      "tudo": 451,
      "até": 452,
      "tempo": 453,
      "acontec": 454,
      "assim": 455,
      "pal": 456,
      "risos": 457,
      "tica": 458,
      "nde": 459,
      "melhor": 460,
      "cul": 461,
      "fí": 462,
      "istem": 463,
      "primei": 464,
      "estava": 465,
      "só": 466,
      "num": 467,
      "har": 468,
      "coisa": 469,
      "fei": 470,
      "be": 471,
      "seu": 472,
      "ran": 473,
      "tinha": 474,
      "verdade": 475,
      "ás": 476,
      "começ": 477,
      "vocês": 478,
      "huma": 479,
      "tão": 480,
      "jo": 481,
      "maior": 482,
      "nossa": 483,
      "lí": 484,
      "dizer": 485,
      "his": 486,
      "parti": 487,
      "dades": 488,
      "imag": 489,
      "bas": 490,
      "ja": 491,
      "fu": 492,
      "já": 493,
      "estamos": 494,
      "entos": 495,
      "pou": 496,
      "sent": 497,
      "gos": 498,
      "parec": 499,
      "via": 500,
      "numa": 501,
      "cé": 502,
      "histó": 503,
      "ano": 504,
      "dores": 505,
      "..": 506,
      "ul": 507,
      "vam": 508,
      "sas": 509,
      "encont": 510,
      "algo": 511,
      "olh": 512,
      "au": 513,
      "blem": 514,
      "mer": 515,
      "esti": 516,
      "ol": 517,
      "tamente": 518,
      "milh": 519,
      "pró": 520,
      "problem": 521,
      "és": 522,
      "rei": 523,
      "min": 524,
      "tru": 525,
      "mor": 526,
      "conh": 527,
      "vou": 528,
      "ins": 529,
      "inda": 530,
      "nosso": 531,
      "var": 532,
      "lher": 533,
      "lá": 534,
      "veis": 535,
      "ab": 536,
      "ainda": 537,
      "peque": 538,
      "cidade": 539,
      "che": 540,
      "vas": 541,
      "entre": 542,
      "eram": 543,
      "esco": 544,
      "bro": 545,
      "fin": 546,
      "cal": 547,
      "estar": 548,
      "tri": 549,
      "tec": 550,
      "quanto": 551,
      "disse": 552,
      "cent": 553,
      "chama": 554,
      "hoje": 555,
      "apre": 556,
      "pelo": 557,
      "poder": 558,
      "grande": 559,
      "parte": 560,
      "tes": 561,
      "nti": 562,
      "gan": 563,
      "nta": 564,
      "falar": 565,
      "eiro": 566,
      "aram": 567,
      "cial": 568,
      "aque": 569,
      "todo": 570,
      "trans": 571,
      "sou": 572,
      "fe": 573,
      "gen": 574,
      "pergu": 575,
      "vemos": 576,
      "portanto": 577,
      "deix": 578,
      "pela": 579,
      "sistem": 580,
      "importa": 581,
      "algum": 582,
      "todas": 583,
      "tipo": 584,
      "constru": 585,
      "cre": 586,
      "plo": 587,
      "íamos": 588,
      "les": 589,
      "ário": 590,
      "sal": 591,
      "perce": 592,
      "vem": 593,
      "fiz": 594,
      "eci": 595,
      "gni": 596,
      "realmente": 597,
      "pensar": 598,
      "bar": 599,
      "aos": 600,
      "dura": 601,
      "ven": 602,
      "exem": 603,
      "vezes": 604,
      "cil": 605,
      "sab": 606,
      "qualquer": 607,
      "esp": 608,
      "imos": 609,
      "cto": 610,
      "esper": 611,
      "los": 612,
      "tiva": 613,
      "bili": 614,
      "nça": 615,
      "país": 616,
      "sei": 617,
      "cie": 618,
      "dois": 619,
      "ável": 620,
      "mulher": 621,
      "desen": 622,
      "mé": 623,
      "cias": 624,
      "desco": 625,
      "trabalho": 626,
      "vai": 627,
      "alguns": 628,
      "clar": 629,
      "quem": 630,
      "ad": 631,
      "história": 632,
      "ví": 633,
      "seus": 634,
      "estu": 635,
      "ân": 636,
      "outra": 637,
      "sempre": 638,
      "tenho": 639,
      "tecno": 640,
      "toda": 641,
      "ciona": 642,
      "comp": 643,
      "eira": 644,
      "ino": 645,
      "logia": 646,
      "pouco": 647,
      "amento": 648,
      "nun": 649,
      "inc": 650,
      "gem": 651,
      "poss": 652,
      "outros": 653,
      "quero": 654,
      "problema": 655,
      "signi": 656,
      "tí": 657,
      "preen": 658,
      "bu": 659,
      "tico": 660,
      "duz": 661,
      "lti": 662,
      "rem": 663,
      "ideia": 664,
      "às": 665,
      "lha": 666,
      "iam": 667,
      "ntos": 668,
      "estou": 669,
      "aju": 670,
      "torn": 671,
      "exemplo": 672,
      "mem": 673,
      "muitas": 674,
      "nunca": 675,
      "difí": 676,
      "ias": 677,
      "éri": 678,
      "can": 679,
      "passa": 680,
      "peri": 681,
      "talvez": 682,
      "alidade": 683,
      "iz": 684,
      "rá": 685,
      "lon": 686,
      "milhões": 687,
      "rela": 688,
      "nossos": 689,
      "simpl": 690,
      "atra": 691,
      "durante": 692,
      "espa": 693,
      "dados": 694,
      "apren": 695,
      "lado": 696,
      "primeiro": 697,
      "elas": 698,
      "lica": 699,
      "nças": 700,
      "menos": 701,
      "simples": 702,
      "nor": 703,
      "ista": 704,
      "muitos": 705,
      "tivo": 706,
      "ores": 707,
      "usa": 708,
      "mim": 709,
      "significa": 710,
      "ger": 711,
      "três": 712,
      "ficar": 713,
      "sistema": 714,
      "usar": 715,
      "nú": 716,
      "raz": 717,
      "inv": 718,
      "mã": 719,
      "exis": 720,
      "cur": 721,
      "duas": 722,
      "capa": 723,
      "informa": 724,
      "gua": 725,
      "palav": 726,
      "neste": 727,
      "medi": 728,
      "dent": 729,
      "outro": 730,
      "baix": 731,
      "lhe": 732,
      "antes": 733,
      "ido": 734,
      "imento": 735,
      "hos": 736,
      "bom": 737,
      "val": 738,
      "vão": 739,
      "aca": 740,
      "camente": 741,
      "ge": 742,
      "pon": 743,
      "nossas": 744,
      "usos": 745,
      "apla": 746,
      "cére": 747,
      "algumas": 748,
      "idade": 749,
      "comuni": 750,
      "outras": 751,
      "facto": 752,
      "casa": 753,
      "númer": 754,
      "suas": 755,
      "istas": 756,
      "redi": 757,
      "feito": 758,
      "má": 759,
      "nada": 760,
      "20": 761,
      "lin": 762,
      "últi": 763,
      "pergunt": 764,
      "importante": 765,
      "aplausos": 766,
      "pessoa": 767,
      "criar": 768,
      "atrav": 769,
      "diferentes": 770,
      "liv": 771,
      "iza": 772,
      "quis": 773,
      "gas": 774,
      "nem": 775,
      "nova": 776,
      "contin": 777,
      "sica": 778,
      "precisamos": 779,
      "experi": 780,
      "ing": 781,
      "tentar": 782,
      "fam": 783,
      "nica": 784,
      "nec": 785,
      "primeira": 786,
      "ciência": 787,
      "univer": 788,
      "crianças": 789,
      "descobri": 790,
      "fri": 791,
      "ação": 792,
      "fr": 793,
      "fia": 794,
      "ição": 795,
      "ida": 796,
      "polí": 797,
      "pens": 798,
      "il": 799,
      "tante": 800,
      "ado": 801,
      "colo": 802,
      "seja": 803,
      "cios": 804,
      "interessa": 805,
      "lugar": 806,
      "mal": 807,
      "...": 808,
      "son": 809,
      "enquanto": 810,
      "ase": 811,
      "emente": 812,
      "acredi": 813,
      "lim": 814,
      "mulheres": 815,
      "té": 816,
      "alguém": 817,
      "desenvol": 818,
      "riga": 819,
      "conheci": 820,
      "claro": 821,
      "informação": 822,
      "tecnologia": 823,
      "tur": 824,
      "sur": 825,
      "ências": 826,
      "espe": 827,
      "inar": 828,
      "continu": 829,
      "penso": 830,
      "inho": 831,
      "cérebro": 832,
      "erra": 833,
      "meus": 834,
      "sub": 835,
      "agem": 836,
      "mostr": 837,
      "momento": 838,
      "cres": 839,
      "velmente": 840,
      "cerca": 841,
      "puta": 842,
      "foram": 843,
      "cesso": 844,
      "000": 845,
      "empres": 846,
      "rec": 847,
      "mudar": 848,
      "cin": 849,
      "vir": 850,
      "tá": 851,
      "10": 852,
      "volta": 853,
      "ban": 854,
      "tir": 855,
      "fil": 856,
      "contra": 857,
      "fl": 858,
      "através": 859,
      "prof": 860,
      "dias": 861,
      "ços": 862,
      "ários": 863,
      "olhar": 864,
      "dem": 865,
      "respos": 866,
      "sabem": 867,
      "cional": 868,
      "estru": 869,
      "muda": 870,
      "desa": 871,
      "ença": 872,
      "có": 873,
      "somos": 874,
      "titu": 875,
      "consi": 876,
      "ener": 877,
      "parece": 878,
      "dio": 879,
      "cient": 880,
      "exp": 881,
      "obriga": 882,
      "bra": 883,
      "pes": 884,
      "alguma": 885,
      "disso": 886,
      "volu": 887,
      "essas": 888,
      "acontece": 889,
      "dam": 890,
      "começar": 891,
      "mesma": 892,
      "fá": 893,
      "lares": 894,
      "encontrar": 895,
      "própri": 896,
      "jam": 897,
      "fico": 898,
      "bli": 899,
      "ticas": 900,
      "bora": 901,
      "quase": 902,
      "trabalhar": 903,
      "diferente": 904,
      "culo": 905,
      "hi": 906,
      "lia": 907,
      "estra": 908,
      "trás": 909,
      "igos": 910,
      "conhec": 911,
      "19": 912,
      "lhos": 913,
      "certo": 914,
      "acontecer": 915,
      "sabemos": 916,
      "permi": 917,
      "acho": 918,
      "dá": 919,
      "inf": 920,
      "produ": 921,
      "futu": 922,
      "desta": 923,
      "dentro": 924,
      "água": 925,
      "possível": 926,
      "ância": 927,
      "ham": 928,
      "fos": 929,
      "mú": 930,
      "computa": 931,
      "uns": 932,
      "ok": 933,
      "íveis": 934,
      "tiv": 935,
      "tado": 936,
      "número": 937,
      "zes": 938,
      "ane": 939,
      "eco": 940,
      "reg": 941,
      "lhes": 942,
      "pla": 943,
      "novo": 944,
      "super": 945,
      "terra": 946,
      "compreen": 947,
      "difícil": 948,
      "cus": 949,
      "mil": 950,
      "tóri": 951,
      "famí": 952,
      "bilidade": 953,
      "dei": 954,
      "estavam": 955,
      "será": 956,
      "tili": 957,
      "viver": 958,
      "seria": 959,
      "equi": 960,
      "gru": 961,
      "escre": 962,
      "palavras": 963,
      "fazem": 964,
      "espé": 965,
      "inham": 966,
      "espaço": 967,
      "dinh": 968,
      "socie": 969,
      "resul": 970,
      "baixo": 971,
      "ló": 972,
      "fora": 973,
      "leva": 974,
      "realidade": 975,
      "rece": 976,
      "liga": 977,
      "futuro": 978,
      "tores": 979,
      "zar": 980,
      "energia": 981,
      "dinheiro": 982,
      "sus": 983,
      "sido": 984,
      "nu": 985,
      "cro": 986,
      "desde": 987,
      "indo": 988,
      "ingu": 989,
      "gover": 990,
      "damente": 991,
      "hamos": 992,
      "ori": 993,
      "mostrar": 994,
      "solu": 995,
      "nou": 996,
      "inhas": 997,
      "indi": 998,
      "dir": 999,
      "has": 1000,
      "cação": 1001,
      "direi": 1002,
      "havia": 1003,
      "mode": 1004,
      "construir": 1005,
      "prova": 1006,
      "passar": 1007,
      "neg": 1008,
      "anha": 1009,
      "ciais": 1010,
      "atro": 1011,
      "tivos": 1012,
      "vimento": 1013,
      "resposta": 1014,
      "utili": 1015,
      "vido": 1016,
      "comple": 1017,
      "mis": 1018,
      "meio": 1019,
      "ais": 1020,
      "deci": 1021,
      "ntas": 1022,
      "auto": 1023,
      "contro": 1024,
      "maneira": 1025,
      "50": 1026,
      "saber": 1027,
      "deste": 1028,
      "ticos": 1029,
      "países": 1030,
      "saú": 1031,
      "funcion": 1032,
      "igo": 1033,
      "semos": 1034,
      "ares": 1035,
      "esses": 1036,
      "experiência": 1037,
      "saúde": 1038,
      "dó": 1039,
      "nesta": 1040,
      "existem": 1041,
      "fre": 1042,
      "tinham": 1043,
      "minu": 1044,
      "gente": 1045,
      "procu": 1046,
      "net": 1047,
      "próx": 1048,
      "tornar": 1049,
      "ite": 1050,
      "xo": 1051,
      "questão": 1052,
      "bastante": 1053,
      "aum": 1054,
      "ani": 1055,
      "proje": 1056,
      "nen": 1057,
      "ática": 1058,
      "base": 1059,
      "ambi": 1060,
      "célu": 1061,
      "demo": 1062,
      "altura": 1063,
      "escola": 1064,
      "mãe": 1065,
      "música": 1066,
      "glo": 1067,
      "pú": 1068,
      "rias": 1069,
      "nico": 1070,
      "ocu": 1071,
      "existe": 1072,
      "jec": 1073,
      "aquilo": 1074,
      "víde": 1075,
      "vê": 1076,
      "ponto": 1077,
      "mens": 1078,
      "aprender": 1079,
      "ntar": 1080,
      "modo": 1081,
      "hou": 1082,
      "dou": 1083,
      "eliz": 1084,
      "rou": 1085,
      "frica": 1086,
      "lação": 1087,
      "ner": 1088,
      "sidade": 1089,
      "tamento": 1090,
      "profess": 1091,
      "seman": 1092,
      "ica": 1093,
      "organ": 1094,
      "foto": 1095,
      "médi": 1096,
      "fici": 1097,
      "cina": 1098,
      "fas": 1099,
      "ndi": 1100,
      "ismo": 1101,
      "luz": 1102,
      "conseguir": 1103,
      "çar": 1104,
      "vidas": 1105,
      "200": 1106,
      "quatro": 1107,
      "cado": 1108,
      "euro": 1109,
      "comec": 1110,
      "duzir": 1111,
      "ajudar": 1112,
      "ant": 1113,
      "dr": 1114,
      "nia": 1115,
      "funciona": 1116,
      "sí": 1117,
      "homem": 1118,
      "posso": 1119,
      "prote": 1120,
      "plane": 1121,
      "fui": 1122,
      "razão": 1123,
      "econo": 1124,
      "visão": 1125,
      "cá": 1126,
      "mant": 1127,
      "sen": 1128,
      "ningu": 1129,
      "parar": 1130,
      "cular": 1131,
      "perceber": 1132,
      "ninguém": 1133,
      "edu": 1134,
      "ini": 1135,
      "pais": 1136,
      "estado": 1137,
      "iu": 1138,
      "deles": 1139,
      "cora": 1140,
      "tros": 1141,
      "nidade": 1142,
      "queremos": 1143,
      "vossa": 1144,
      "corr": 1145,
      "chegar": 1146,
      "pó": 1147,
      "dro": 1148,
      "fim": 1149,
      "io": 1150,
      "posi": 1151,
      "cham": 1152,
      "aliza": 1153,
      "pequeno": 1154,
      "acer": 1155,
      "corpo": 1156,
      "maioria": 1157,
      "tados": 1158,
      "pequena": 1159,
      "aí": 1160,
      "cola": 1161,
      "caso": 1162,
      "internet": 1163,
      "mara": 1164,
      "imagem": 1165,
      "áre": 1166,
      "lan": 1167,
      "mão": 1168,
      "alter": 1169,
      "real": 1170,
      "vosso": 1171,
      "passado": 1172,
      "liber": 1173,
      "he": 1174,
      "fez": 1175,
      "gran": 1176,
      "problemas": 1177,
      "obrigado": 1178,
      "gé": 1179,
      "nível": 1180,
      "queria": 1181,
      "família": 1182,
      "cimento": 1183,
      "interessante": 1184,
      "imagin": 1185,
      "ada": 1186,
      "et": 1187,
      "escri": 1188,
      "enor": 1189,
      "humanos": 1190,
      "dólares": 1191,
      "arte": 1192,
      "popu": 1193,
      "fazemos": 1194,
      "quais": 1195,
      "ito": 1196,
      "ment": 1197,
      "plex": 1198,
      "grandes": 1199,
      "ona": 1200,
      "tre": 1201,
      "simplesmente": 1202,
      "turas": 1203,
      "extra": 1204,
      "cr": 1205,
      "cima": 1206,
      "tanto": 1207,
      "inci": 1208,
      "causa": 1209,
      "global": 1210,
      "podia": 1211,
      "teria": 1212,
      "rança": 1213,
      "sala": 1214,
      "apro": 1215,
      "ador": 1216,
      "inte": 1217,
      "aconteceu": 1218,
      "partilh": 1219,
      "ind": 1220,
      "segundo": 1221,
      "bio": 1222,
      "cultura": 1223,
      "longo": 1224,
      "vídeo": 1225,
      "din": 1226,
      "idos": 1227,
      "conc": 1228,
      "homens": 1229,
      "boa": 1230,
      "cinco": 1231,
      "ass": 1232,
      "processo": 1233,
      "obser": 1234,
      "tório": 1235,
      "provavelmente": 1236,
      "única": 1237,
      "total": 1238,
      "cidades": 1239,
      "eito": 1240,
      "terr": 1241,
      "árias": 1242,
      "opor": 1243,
      "tent": 1244,
      "amigos": 1245,
      "apo": 1246,
      "comecei": 1247,
      "hum": 1248,
      "ita": 1249,
      "viol": 1250,
      "mia": 1251,
      "complex": 1252,
      "cialmente": 1253,
      "imo": 1254,
      "acerca": 1255,
      "inas": 1256,
      "som": 1257,
      "naque": 1258,
      "sociedade": 1259,
      "cra": 1260,
      "pra": 1261,
      "vidade": 1262,
      "humano": 1263,
      "construí": 1264,
      "sé": 1265,
      "histórias": 1266,
      "30": 1267,
      "poderia": 1268,
      "gostar": 1269,
      "bos": 1270,
      "ício": 1271,
      "tivas": 1272,
      "respon": 1273,
      "fácil": 1274,
      "br": 1275,
      "ler": 1276,
      "tamos": 1277,
      "tró": 1278,
      "segun": 1279,
      "meses": 1280,
      "vista": 1281,
      "espécie": 1282,
      "além": 1283,
      "nio": 1284,
      "pensa": 1285,
      "horas": 1286,
      "conseguem": 1287,
      "acab": 1288,
      "frente": 1289,
      "tel": 1290,
      "resol": 1291,
      "dé": 1292,
      "ús": 1293,
      "compor": 1294,
      "formas": 1295,
      "pressão": 1296,
      "você": 1297,
      "conseguimos": 1298,
      "aquele": 1299,
      "enten": 1300,
      "cole": 1301,
      "emo": 1302,
      "ança": 1303,
      "pai": 1304,
      "voltar": 1305,
      "necess": 1306,
      "atrás": 1307,
      "matem": 1308,
      "conver": 1309,
      "quei": 1310,
      "enas": 1311,
      "preocu": 1312,
      "jar": 1313,
      "alu": 1314,
      "repres": 1315,
      "carro": 1316,
      "eiros": 1317,
      "contar": 1318,
      "séri": 1319,
      "sol": 1320,
      "obje": 1321,
      "mudança": 1322,
      "fosse": 1323,
      "depen": 1324,
      "intel": 1325,
      "normal": 1326,
      "far": 1327,
      "cais": 1328,
      "novas": 1329,
      "licar": 1330,
      "querem": 1331,
      "seguir": 1332,
      "pergunta": 1333,
      "decidi": 1334,
      "ck": 1335,
      "estran": 1336,
      "paix": 1337,
      "gue": 1338,
      "preciso": 1339,
      "melhores": 1340,
      "bel": 1341,
      "bus": 1342,
      "cle": 1343,
      "jus": 1344,
      "dente": 1345,
      "dire": 1346,
      "caminho": 1347,
      "públi": 1348,
      "ur": 1349,
      "partir": 1350,
      "fizemos": 1351,
      "grupo": 1352,
      "oportu": 1353,
      "amer": 1354,
      "enças": 1355,
      "expl": 1356,
      "muita": 1357,
      "culos": 1358,
      "completamente": 1359,
      "células": 1360,
      "dão": 1361,
      "dela": 1362,
      "pelos": 1363,
      "gias": 1364,
      "deixar": 1365,
      "ações": 1366,
      "fec": 1367,
      "ómi": 1368,
      "rede": 1369,
      "tive": 1370,
      "local": 1371,
      "prog": 1372,
      "valor": 1373,
      "iras": 1374,
      "milhares": 1375,
      "final": 1376,
      "flor": 1377,
      "america": 1378,
      "fra": 1379,
      "seis": 1380,
      "endo": 1381,
      "medo": 1382,
      "investi": 1383,
      "gal": 1384,
      "diver": 1385,
      "estados": 1386,
      "corre": 1387,
      "começa": 1388,
      "estuda": 1389,
      "comunidade": 1390,
      "op": 1391,
      "áfrica": 1392,
      "imagens": 1393,
      "sentido": 1394,
      "desafi": 1395,
      "sabe": 1396,
      "tras": 1397,
      "carros": 1398,
      "quê": 1399,
      "guerra": 1400,
      "chamado": 1401,
      "ização": 1402,
      "ata": 1403,
      "lei": 1404,
      "ton": 1405,
      "noite": 1406,
      "padr": 1407,
      "fazê": 1408,
      "empresas": 1409,
      "levar": 1410,
      "tural": 1411,
      "computador": 1412,
      "anti": 1413,
      "san": 1414,
      "situ": 1415,
      "mina": 1416,
      "sor": 1417,
      "confia": 1418,
      "papel": 1419,
      "grama": 1420,
      "ideias": 1421,
      "câ": 1422,
      "art": 1423,
      "15": 1424,
      "blo": 1425,
      "cí": 1426,
      "hora": 1427,
      "tou": 1428,
      "social": 1429,
      "tais": 1430,
      "desig": 1431,
      "evi": 1432,
      "icamente": 1433,
      "minhas": 1434,
      "ture": 1435,
      "ajuda": 1436,
      "digo": 1437,
      "conju": 1438,
      "teve": 1439,
      "filhos": 1440,
      "incr": 1441,
      "lógi": 1442,
      "projeto": 1443,
      "destas": 1444,
      "deus": 1445,
      "tei": 1446,
      "eiras": 1447,
      "torna": 1448,
      "sentir": 1449,
      "parecer": 1450,
      "abri": 1451,
      "nome": 1452,
      "tín": 1453,
      "universo": 1454,
      "cen": 1455,
      "flu": 1456,
      "pria": 1457,
      "vei": 1458,
      "termos": 1459,
      "iros": 1460,
      "apar": 1461,
      "col": 1462,
      "tiver": 1463,
      "ferram": 1464,
      "pital": 1465,
      "tínhamos": 1466,
      "100": 1467,
      "feliz": 1468,
      "nature": 1469,
      "enorme": 1470,
      "ér": 1471,
      "tipos": 1472,
      "profun": 1473,
      "mol": 1474,
      "trata": 1475,
      "conta": 1476,
      "palavra": 1477,
      "alim": 1478,
      "voz": 1479,
      "pedi": 1480,
      "tarde": 1481,
      "pira": 1482,
      "livro": 1483,
      "imaginem": 1484,
      "gens": 1485,
      "pá": 1486,
      "escu": 1487,
      "envol": 1488,
      "cabe": 1489,
      "metros": 1490,
      "ted": 1491,
      "oper": 1492,
      "áveis": 1493,
      "doença": 1494,
      "conf": 1495,
      "fant": 1496,
      "lemb": 1497,
      "olhos": 1498,
      "máqu": 1499,
      "conhecimento": 1500,
      "modelo": 1501,
      "apres": 1502,
      "cli": 1503,
      "destes": 1504,
      "evolu": 1505,
      "amor": 1506,
      "ouvi": 1507,
      "dese": 1508,
      "sul": 1509,
      "precisa": 1510,
      "edifí": 1511,
      "gam": 1512,
      "comida": 1513,
      "aquela": 1514,
      "economia": 1515,
      "natureza": 1516,
      "bros": 1517,
      "dever": 1518,
      "media": 1519,
      "eua": 1520,
      "grafia": 1521,
      "dist": 1522,
      "ária": 1523,
      "ór": 1524,
      "envi": 1525,
      "taman": 1526,
      "gera": 1527,
      "sex": 1528,
      "desse": 1529,
      "institu": 1530,
      "aqueles": 1531,
      "compreender": 1532,
      "fen": 1533,
      "gir": 1534,
      "grá": 1535,
      "tele": 1536,
      "deu": 1537,
      "tido": 1538,
      "exc": 1539,
      "relação": 1540,
      "intelig": 1541,
      "cum": 1542,
      "tável": 1543,
      "vens": 1544,
      "ár": 1545,
      "início": 1546,
      "haver": 1547,
      "força": 1548,
      "cui": 1549,
      "escal": 1550,
      "capacidade": 1551,
      "ati": 1552,
      "mentos": 1553,
      "esque": 1554,
      "riam": 1555,
      "teza": 1556,
      "criança": 1557,
      "tamanho": 1558,
      "dra": 1559,
      "pia": 1560,
      "çam": 1561,
      "dele": 1562,
      "esto": 1563,
      "posição": 1564,
      "segurança": 1565,
      "princi": 1566,
      "mensa": 1567,
      "ntidade": 1568,
      "vor": 1569,
      "ambiente": 1570,
      "ficiente": 1571,
      "planeta": 1572,
      "econ": 1573,
      "sociais": 1574,
      "dizem": 1575,
      "colocar": 1576,
      "it": 1577,
      "ín": 1578,
      "caix": 1579,
      "traz": 1580,
      "trem": 1581,
      "sico": 1582,
      "lín": 1583,
      "sabia": 1584,
      "política": 1585,
      "próprio": 1586,
      "fantás": 1587,
      "aber": 1588,
      "igu": 1589,
      "humana": 1590,
      "espec": 1591,
      "pesquis": 1592,
      "governo": 1593,
      "económi": 1594,
      "dora": 1595,
      "pec": 1596,
      "dez": 1597,
      "tria": 1598,
      "formar": 1599,
      "começou": 1600,
      "line": 1601,
      "desenvolvimento": 1602,
      "acor": 1603,
      "jor": 1604,
      "certa": 1605,
      "estrutura": 1606,
      "neu": 1607,
      "tenta": 1608,
      "digi": 1609,
      "negó": 1610,
      "cho": 1611,
      "nar": 1612,
      "daque": 1613,
      "notí": 1614,
      "estávamos": 1615,
      "descobrir": 1616,
      "oso": 1617,
      "empre": 1618,
      "ist": 1619,
      "inal": 1620,
      "cida": 1621,
      "condi": 1622,
      "pensem": 1623,
      "própria": 1624,
      "rápi": 1625,
      "surpreen": 1626,
      "empresa": 1627,
      "maravi": 1628,
      "ial": 1629,
      "ira": 1630,
      "orig": 1631,
      "enção": 1632,
      "ciar": 1633,
      "programa": 1634,
      "respo": 1635,
      "pensei": 1636,
      "disser": 1637,
      "violência": 1638,
      "logo": 1639,
      "certeza": 1640,
      "feitos": 1641,
      "abor": 1642,
      "conjunto": 1643,
      "arqui": 1644,
      "poderos": 1645,
      "servi": 1646,
      "fundam": 1647,
      "adn": 1648,
      "educação": 1649,
      "ps": 1650,
      "conse": 1651,
      "prime": 1652,
      "deixem": 1653,
      "curso": 1654,
      "especial": 1655,
      "cris": 1656,
      "cido": 1657,
      "beb": 1658,
      "jovens": 1659,
      "chamada": 1660,
      "escrever": 1661,
      "defin": 1662,
      "iado": 1663,
      "tação": 1664,
      "disto": 1665,
      "dência": 1666,
      "tan": 1667,
      "vamente": 1668,
      "entas": 1669,
      "ental": 1670,
      "tual": 1671,
      "rur": 1672,
      "diferença": 1673,
      "aprende": 1674,
      "correr": 1675,
      "século": 1676,
      "confiança": 1677,
      "gor": 1678,
      "pint": 1679,
      "demos": 1680,
      "anima": 1681,
      "culas": 1682,
      "gião": 1683,
      "medida": 1684,
      "are": 1685,
      "mundi": 1686,
      "particular": 1687,
      "animais": 1688,
      "segunda": 1689,
      "lou": 1690,
      "tia": 1691,
      "delas": 1692,
      "ale": 1693,
      "locais": 1694,
      "pers": 1695,
      "tradi": 1696,
      "imaginar": 1697,
      "minutos": 1698,
      "afe": 1699,
      "bran": 1700,
      "sões": 1701,
      "tw": 1702,
      "elha": 1703,
      "tirar": 1704,
      "meta": 1705,
      "labora": 1706,
      "campo": 1707,
      "sistemas": 1708,
      "cionais": 1709,
      "últimos": 1710,
      "ados": 1711,
      "comer": 1712,
      "rob": 1713,
      "irão": 1714,
      "sucesso": 1715,
      "pul": 1716,
      "trabalha": 1717,
      "cheg": 1718,
      "inova": 1719,
      "população": 1720,
      "ró": 1721,
      "deia": 1722,
      "pare": 1723,
      "projec": 1724,
      "usão": 1725,
      "unidos": 1726,
      "tivamente": 1727,
      "cento": 1728,
      "ãos": 1729,
      "deve": 1730,
      "dentes": 1731,
      "aplica": 1732,
      "nenhum": 1733,
      "resolver": 1734,
      "40": 1735,
      "gre": 1736,
      "gri": 1737,
      "ouvir": 1738,
      "irá": 1739,
      "lhas": 1740,
      "após": 1741,
      "maiores": 1742,
      "continuar": 1743,
      "professores": 1744,
      "partilhar": 1745,
      "pô": 1746,
      "mostra": 1747,
      "exa": 1748,
      "começámos": 1749,
      "centenas": 1750,
      "manter": 1751,
      "nal": 1752,
      "arma": 1753,
      "compr": 1754,
      "cir": 1755,
      "junt": 1756,
      "juntos": 1757,
      "matemática": 1758,
      "oh": 1759,
      "esar": 1760,
      "reli": 1761,
      "confi": 1762,
      "nios": 1763,
      "possi": 1764,
      "acei": 1765,
      "neces": 1766,
      "oportunidade": 1767,
      "mundial": 1768,
      "ama": 1769,
      "fran": 1770,
      "her": 1771,
      "ual": 1772,
      "cou": 1773,
      "anal": 1774,
      "liter": 1775,
      "miú": 1776,
      "tornou": 1777,
      "cionar": 1778,
      "finalmente": 1779,
      "cabeça": 1780,
      "umas": 1781,
      "perto": 1782,
      "seguinte": 1783,
      "pequenos": 1784,
      "longe": 1785,
      "gostaria": 1786,
      "situação": 1787,
      "adi": 1788,
      "toma": 1789,
      "comigo": 1790,
      "serem": 1791,
      "pensam": 1792,
      "demas": 1793,
      "quí": 1794,
      "rapi": 1795,
      "teor": 1796,
      "logias": 1797,
      "face": 1798,
      "atenção": 1799,
      "inhos": 1800,
      "precisam": 1801,
      "basicamente": 1802,
      "invest": 1803,
      "pé": 1804,
      "decis": 1805,
      "arti": 1806,
      "ntemente": 1807,
      "revolu": 1808,
      "comum": 1809,
      "sair": 1810,
      "usando": 1811,
      "vossos": 1812,
      "aprendi": 1813,
      "houve": 1814,
      "síti": 1815,
      "escala": 1816,
      "pei": 1817,
      "xe": 1818,
      "único": 1819,
      "porquê": 1820,
      "cara": 1821,
      "cancro": 1822,
      "números": 1823,
      "semana": 1824,
      "60": 1825,
      "essem": 1826,
      "pelas": 1827,
      "passe": 1828,
      "obter": 1829,
      "conhecer": 1830,
      "indús": 1831,
      "ben": 1832,
      "blica": 1833,
      "ev": 1834,
      "sof": 1835,
      "apesar": 1836,
      "público": 1837,
      "incrível": 1838,
      "lho": 1839,
      "praz": 1840,
      "doenças": 1841,
      "redes": 1842,
      "sec": 1843,
      "cados": 1844,
      "terc": 1845,
      "entanto": 1846,
      "finan": 1847,
      "disseram": 1848,
      "tis": 1849,
      "rapar": 1850,
      "cirur": 1851,
      "natural": 1852,
      "chi": 1853,
      "inclu": 1854,
      "livros": 1855,
      "quiser": 1856,
      "pensamos": 1857,
      "equipa": 1858,
      "paixão": 1859,
      "hei": 1860,
      "vimos": 1861,
      "deter": 1862,
      "saí": 1863,
      "ecer": 1864,
      "gação": 1865,
      "pio": 1866,
      "encontr": 1867,
      "estiver": 1868,
      "tecnologias": 1869,
      "compan": 1870,
      "procura": 1871,
      "nenhuma": 1872,
      "área": 1873,
      "linha": 1874,
      "cadas": 1875,
      "nacional": 1876,
      "china": 1877,
      "importantes": 1878,
      "perguntas": 1879,
      "estudantes": 1880,
      "rapidamente": 1881,
      "esquer": 1882,
      "quar": 1883,
      "tivemos": 1884,
      "diam": 1885,
      "impa": 1886,
      "proc": 1887,
      "posto": 1888,
      "pass": 1889,
      "risco": 1890,
      "cursos": 1891,
      "subs": 1892,
      "neuró": 1893,
      "quest": 1894,
      "mater": 1895,
      "entrar": 1896,
      "pontos": 1897,
      "mica": 1898,
      "inais": 1899,
      "percebi": 1900,
      "descober": 1901,
      "mãos": 1902,
      "utiliza": 1903,
      "ticamente": 1904,
      "conven": 1905,
      "transforma": 1906,
      "téc": 1907,
      "solução": 1908,
      "brin": 1909,
      "alunos": 1910,
      "ferramentas": 1911,
      "12": 1912,
      "rus": 1913,
      "tomar": 1914,
      "consum": 1915,
      "avan": 1916,
      "lingu": 1917,
      "cientistas": 1918,
      "resultados": 1919,
      "controlo": 1920,
      "representa": 1921,
      "we": 1922,
      "devido": 1923,
      "docum": 1924,
      "rep": 1925,
      "andar": 1926,
      "tava": 1927,
      "última": 1928,
      "crescimento": 1929,
      "semanas": 1930,
      "totalmente": 1931,
      "dida": 1932,
      "habi": 1933,
      "iria": 1934,
      "sinto": 1935,
      "nicas": 1936,
      "cula": 1937,
      "leo": 1938,
      "gado": 1939,
      "fizeram": 1940,
      "estudo": 1941,
      "acredito": 1942,
      "ava": 1943,
      "visto": 1944,
      "xi": 1945,
      "ame": 1946,
      "dado": 1947,
      "recu": 1948,
      "sejam": 1949,
      "sau": 1950,
      "moder": 1951,
      "movimento": 1952,
      "bol": 1953,
      "bono": 1954,
      "pré": 1955,
      "inação": 1956,
      "morr": 1957,
      "perguntar": 1958,
      "deira": 1959,
      "extraor": 1960,
      "série": 1961,
      "igual": 1962,
      "bon": 1963,
      "bras": 1964,
      "uso": 1965,
      "novos": 1966,
      "vio": 1967,
      "lidar": 1968,
      "peda": 1969,
      "passo": 1970,
      "érica": 1971,
      "norte": 1972,
      "experiências": 1973,
      "cientí": 1974,
      "nucle": 1975,
      "18": 1976,
      "pera": 1977,
      "paz": 1978,
      "morte": 1979,
      "capaz": 1980,
      "comportamento": 1981,
      "questões": 1982,
      "quão": 1983,
      "hon": 1984,
      "vejam": 1985,
      "nicos": 1986,
      "suficiente": 1987,
      "igas": 1988,
      "último": 1989,
      "universidade": 1990,
      "destru": 1991,
      "fras": 1992,
      "lis": 1993,
      "sob": 1994,
      "tividade": 1995,
      "tex": 1996,
      "fic": 1997,
      "resultado": 1998,
      "amigo": 1999,
      "dessa": 2000,
      "acesso": 2001,
      "manh": 2002,
      "ato": 2003,
      "devem": 2004,
      "embora": 2005,
      "alcan": 2006,
      "elo": 2007,
      "ribu": 2008,
      "carbono": 2009,
      "pedir": 2010,
      "mesmos": 2011,
      "começaram": 2012,
      "centro": 2013,
      "europa": 2014,
      "bor": 2015,
      "cem": 2016,
      "tente": 2017,
      "compe": 2018,
      "engen": 2019,
      "partes": 2020,
      "ficam": 2021,
      "quantidade": 2022,
      "publi": 2023,
      "partici": 2024,
      "computadores": 2025,
      "funcionar": 2026,
      "áreas": 2027,
      "padrões": 2028,
      "pesquisa": 2029,
      "manhã": 2030,
      "25": 2031,
      "ili": 2032,
      "nessa": 2033,
      "osa": 2034,
      "arran": 2035,
      "impor": 2036,
      "dessas": 2037,
      "extrem": 2038,
      "pegar": 2039,
      "agir": 2040,
      "perceb": 2041,
      "capazes": 2042,
      "filho": 2043,
      "consider": 2044,
      "democra": 2045,
      "design": 2046,
      "maravilhos": 2047,
      "demasiado": 2048,
      "impacto": 2049,
      "dí": 2050,
      "ura": 2051,
      "várias": 2052,
      "sete": 2053,
      "confor": 2054,
      "vermel": 2055,
      "fiquei": 2056,
      "usam": 2057,
      "prefer": 2058,
      "objec": 2059,
      "física": 2060,
      "acabar": 2061,
      "aprox": 2062,
      "cros": 2063,
      "mó": 2064,
      "ques": 2065,
      "comb": 2066,
      "poten": 2067,
      "pequenas": 2068,
      "grupos": 2069,
      "terror": 2070,
      "program": 2071,
      "extraordin": 2072,
      "ral": 2073,
      "cama": 2074,
      "siona": 2075,
      "semelha": 2076,
      "iorque": 2077,
      "feita": 2078,
      "viagem": 2079,
      "bura": 2080,
      "permite": 2081,
      "direito": 2082,
      "laboratório": 2083,
      "ições": 2084,
      "nisto": 2085,
      "veu": 2086,
      "den": 2087,
      "daqui": 2088,
      "elei": 2089,
      "imp": 2090,
      "alizar": 2091,
      "desafio": 2092,
      "máquina": 2093,
      "notícias": 2094,
      "70": 2095,
      "bac": 2096,
      "oce": 2097,
      "téri": 2098,
      "quência": 2099,
      "imentos": 2100,
      "fundo": 2101,
      "essen": 2102,
      "parecem": 2103,
      "transpor": 2104,
      "espero": 2105,
      "izar": 2106,
      "crescer": 2107,
      "conside": 2108,
      "próprios": 2109,
      "preocupa": 2110,
      "digital": 2111,
      "exatamente": 2112,
      "og": 2113,
      "ts": 2114,
      "vá": 2115,
      "osos": 2116,
      "devemos": 2117,
      "amar": 2118,
      "sequer": 2119,
      "produz": 2120,
      "ensino": 2121,
      "consegue": 2122,
      "vídu": 2123,
      "aprendiz": 2124,
      "descobrimos": 2125,
      "consigo": 2126,
      "indivídu": 2127,
      "mensagem": 2128,
      "80": 2129,
      "fon": 2130,
      "resto": 2131,
      "ses": 2132,
      "rado": 2133,
      "rada": 2134,
      "pobre": 2135,
      "til": 2136,
      "sil": 2137,
      "priva": 2138,
      "plos": 2139,
      "rua": 2140,
      "mercado": 2141,
      "produção": 2142,
      "direitos": 2143,
      "cuidados": 2144,
      "índia": 2145,
      "indústria": 2146,
      "damos": 2147,
      "nesse": 2148,
      "américa": 2149,
      "doentes": 2150,
      "cies": 2151,
      "direc": 2152,
      "éssemos": 2153,
      "freque": 2154,
      "aumentar": 2155,
      "pág": 2156,
      "língua": 2157,
      "metade": 2158,
      "11": 2159,
      "bres": 2160,
      "edade": 2161,
      "nisso": 2162,
      "oito": 2163,
      "vul": 2164,
      "ático": 2165,
      "multi": 2166,
      "descre": 2167,
      "velo": 2168,
      "princ": 2169,
      "melhorar": 2170,
      "jovem": 2171,
      "escolas": 2172,
      "az": 2173,
      "ávamos": 2174,
      "assu": 2175,
      "enfr": 2176,
      "anda": 2177,
      "fac": 2178,
      "micro": 2179,
      "boas": 2180,
      "entais": 2181,
      "autor": 2182,
      "linguagem": 2183,
      "aprendizagem": 2184,
      "fro": 2185,
      "jan": 2186,
      "emó": 2187,
      "mudou": 2188,
      "pessoal": 2189,
      "chamamos": 2190,
      "explicar": 2191,
      "hipó": 2192,
      "médico": 2193,
      "telemó": 2194,
      "sangue": 2195,
      "neurónios": 2196,
      "ogle": 2197,
      "90": 2198,
      "iro": 2199,
      "iamente": 2200,
      "ofer": 2201,
      "ema": 2202,
      "guar": 2203,
      "veem": 2204,
      "seres": 2205,
      "google": 2206,
      "fotos": 2207,
      "agri": 2208,
      "gosto": 2209,
      "aula": 2210,
      "possam": 2211,
      "expan": 2212,
      "ficou": 2213,
      "demons": 2214,
      "material": 2215,
      "web": 2216,
      "rário": 2217,
      "elem": 2218,
      "tada": 2219,
      "vejo": 2220,
      "pris": 2221,
      "ultra": 2222,
      "esperança": 2223,
      "remo": 2224,
      "robô": 2225,
      "itar": 2226,
      "entam": 2227,
      "timo": 2228,
      "ligar": 2229,
      "contrário": 2230,
      "online": 2231,
      "ensinar": 2232,
      "absolu": 2233,
      "desenvolver": 2234,
      "obrigada": 2235,
      "próximo": 2236,
      "colegas": 2237,
      "rã": 2238,
      "cap": 2239,
      "pod": 2240,
      "viam": 2241,
      "massa": 2242,
      "sito": 2243,
      "fazia": 2244,
      "taram": 2245,
      "médicos": 2246,
      "naquele": 2247,
      "justi": 2248,
      "companh": 2249,
      "soz": 2250,
      "mont": 2251,
      "téria": 2252,
      "caixa": 2253,
      "hipótes": 2254,
      "sexo": 2255,
      "pobres": 2256,
      "novamente": 2257,
      "sion": 2258,
      "entação": 2259,
      "tribu": 2260,
      "lugares": 2261,
      "espécies": 2262,
      "professor": 2263,
      "molé": 2264,
      "teoria": 2265,
      "edi": 2266,
      "imedia": 2267,
      "ética": 2268,
      "asso": 2269,
      "pagar": 2270,
      "cost": 2271,
      "consciência": 2272,
      "ligação": 2273,
      "entender": 2274,
      "bons": 2275,
      "nuclear": 2276,
      "princí": 2277,
      "17": 2278,
      "th": 2279,
      "alta": 2280,
      "podiam": 2281,
      "lias": 2282,
      "tualmente": 2283,
      "terem": 2284,
      "agra": 2285,
      "profis": 2286,
      "afas": 2287,
      "ke": 2288,
      "vesse": 2289,
      "ine": 2290,
      "cun": 2291,
      "levou": 2292,
      "zação": 2293,
      "tenha": 2294,
      "minar": 2295,
      "genes": 2296,
      "média": 2297,
      "regres": 2298,
      "fotografia": 2299,
      "liberdade": 2300,
      "pôr": 2301,
      "ceu": 2302,
      "efeito": 2303,
      "qualidade": 2304,
      "orar": 2305,
      "reco": 2306,
      "produzir": 2307,
      "geno": 2308,
      "relações": 2309,
      "produtos": 2310,
      "tivesse": 2311,
      "custo": 2312,
      "sociedades": 2313,
      "floresta": 2314,
      "fé": 2315,
      "gamos": 2316,
      "malá": 2317,
      "viamente": 2318,
      "favor": 2319,
      "carac": 2320,
      "petró": 2321,
      "marca": 2322,
      "trou": 2323,
      "reio": 2324,
      "geral": 2325,
      "revolução": 2326,
      "petróleo": 2327,
      "áticas": 2328,
      "coz": 2329,
      "compro": 2330,
      "elhas": 2331,
      "suger": 2332,
      "inhar": 2333,
      "camp": 2334,
      "médio": 2335,
      "sonho": 2336,
      "errado": 2337,
      "procurar": 2338,
      "coração": 2339,
      "teriais": 2340,
      "conversa": 2341,
      "normalmente": 2342,
      "malária": 2343,
      "pis": 2344,
      "ógi": 2345,
      "materiais": 2346,
      "recent": 2347,
      "eli": 2348,
      "dido": 2349,
      "metro": 2350,
      "guei": 2351,
      "vidu": 2352,
      "faço": 2353,
      "prov": 2354,
      "curi": 2355,
      "corri": 2356,
      "passei": 2357,
      "tenham": 2358,
      "conseguia": 2359,
      "palestra": 2360,
      "poderá": 2361,
      "famili": 2362,
      "sensa": 2363,
      "miúdos": 2364,
      "recentemente": 2365,
      "km": 2366,
      "mou": 2367,
      "entu": 2368,
      "repar": 2369,
      "hado": 2370,
      "tran": 2371,
      "exce": 2372,
      "disposi": 2373,
      "preside": 2374,
      "obviamente": 2375,
      "instal": 2376,
      "espera": 2377,
      "memó": 2378,
      "regras": 2379,
      "superfí": 2380,
      "famílias": 2381,
      "individu": 2382,
      "jornal": 2383,
      "primeiros": 2384,
      "animal": 2385,
      "cru": 2386,
      "epi": 2387,
      "ox": 2388,
      "tina": 2389,
      "refer": 2390,
      "inos": 2391,
      "mili": 2392,
      "bate": 2393,
      "chave": 2394,
      "partilha": 2395,
      "escolher": 2396,
      "estudar": 2397,
      "infeliz": 2398,
      "bene": 2399,
      "amea": 2400,
      "dest": 2401,
      "neuro": 2402,
      "ído": 2403,
      "vil": 2404,
      "perder": 2405,
      "propri": 2406,
      "sicos": 2407,
      "dução": 2408,
      "pior": 2409,
      "especialmente": 2410,
      "organiza": 2411,
      "necessário": 2412,
      "comprar": 2413,
      "podíamos": 2414,
      "caracter": 2415,
      "ah": 2416,
      "aus": 2417,
      "deres": 2418,
      "recursos": 2419,
      "partí": 2420,
      "capital": 2421,
      "tax": 2422,
      "impres": 2423,
      "propor": 2424,
      "fomos": 2425,
      "doras": 2426,
      "dispon": 2427,
      "presente": 2428,
      "audi": 2429,
      "hospital": 2430,
      "próxima": 2431,
      "adoro": 2432,
      "lógica": 2433,
      "fantástico": 2434,
      "substitu": 2435,
      "democracia": 2436,
      "ces": 2437,
      "jamos": 2438,
      "oci": 2439,
      "pam": 2440,
      "pli": 2441,
      "senta": 2442,
      "esfor": 2443,
      "ambos": 2444,
      "entus": 2445,
      "querer": 2446,
      "bios": 2447,
      "sobrevi": 2448,
      "humanidade": 2449,
      "gener": 2450,
      "responder": 2451,
      "edifícios": 2452,
      "instituições": 2453,
      "sítio": 2454,
      "esquerda": 2455,
      "dê": 2456,
      "iar": 2457,
      "nam": 2458,
      "ío": 2459,
      "ero": 2460,
      "mau": 2461,
      "diminu": 2462,
      "rio": 2463,
      "mover": 2464,
      "usamos": 2465,
      "exac": 2466,
      "construção": 2467,
      "possamos": 2468,
      "alização": 2469,
      "geração": 2470,
      "entusias": 2471,
      "bá": 2472,
      "bat": 2473,
      "iga": 2474,
      "lês": 2475,
      "revel": 2476,
      "tare": 2477,
      "gio": 2478,
      "interior": 2479,
      "ística": 2480,
      "ecido": 2481,
      "bilidades": 2482,
      "víti": 2483,
      "vírus": 2484,
      "razões": 2485,
      "gráfico": 2486,
      "principal": 2487,
      "velocidade": 2488,
      "superfície": 2489,
      "jos": 2490,
      "espal": 2491,
      "vivemos": 2492,
      "perigos": 2493,
      "exter": 2494,
      "distribu": 2495,
      "líderes": 2496,
      "minis": 2497,
      "inglês": 2498,
      "estrada": 2499,
      "influ": 2500,
      "custos": 2501,
      "naquela": 2502,
      "repente": 2503,
      "pir": 2504,
      "tmo": 2505,
      "amo": 2506,
      "estre": 2507,
      "cic": 2508,
      "vivem": 2509,
      "eleva": 2510,
      "chin": 2511,
      "plano": 2512,
      "bater": 2513,
      "poderíamos": 2514,
      "transformar": 2515,
      "exemplos": 2516,
      "próprias": 2517,
      "13": 2518,
      "rí": 2519,
      "tadas": 2520,
      "lados": 2521,
      "diag": 2522,
      "essar": 2523,
      "lembro": 2524,
      "brilha": 2525,
      "encontrei": 2526,
      "inspira": 2527,
      "abelhas": 2528,
      "chega": 2529,
      "aquelas": 2530,
      "medicam": 2531,
      "código": 2532,
      "confli": 2533,
      "lembrar": 2534,
      "desejo": 2535,
      "edifício": 2536,
      "literalmente": 2537,
      "morrer": 2538,
      "14": 2539,
      "bia": 2540,
      "mir": 2541,
      "teste": 2542,
      "erior": 2543,
      "mapa": 2544,
      "alto": 2545,
      "incri": 2546,
      "elé": 2547,
      "sai": 2548,
      "possa": 2549,
      "casos": 2550,
      "encontra": 2551,
      "ológi": 2552,
      "esperar": 2553,
      "estudos": 2554,
      "comunicação": 2555,
      "modelos": 2556,
      "vêem": 2557,
      "organização": 2558,
      "anterior": 2559,
      "mental": 2560,
      "responsa": 2561,
      "responde": 2562,
      "analis": 2563,
      "pus": 2564,
      "tora": 2565,
      "tância": 2566,
      "vós": 2567,
      "aspe": 2568,
      "assus": 2569,
      "aspec": 2570,
      "reno": 2571,
      "repe": 2572,
      "cidos": 2573,
      "perío": 2574,
      "tua": 2575,
      "carre": 2576,
      "boni": 2577,
      "falta": 2578,
      "reira": 2579,
      "missão": 2580,
      "crí": 2581,
      "veio": 2582,
      "excel": 2583,
      "negócio": 2584,
      "assunto": 2585,
      "test": 2586,
      "vários": 2587,
      "empen": 2588,
      "iação": 2589,
      "paração": 2590,
      "fabri": 2591,
      "forte": 2592,
      "tamentos": 2593,
      "visível": 2594,
      "senti": 2595,
      "medicina": 2596,
      "nervos": 2597,
      "observar": 2598,
      "acordo": 2599,
      "aborda": 2600,
      "épo": 2601,
      "topo": 2602,
      "solar": 2603,
      "paci": 2604,
      "cérebros": 2605,
      "respostas": 2606,
      "receber": 2607,
      "célula": 2608,
      "conceito": 2609,
      "objetivo": 2610,
      "câmara": 2611,
      "religi": 2612,
      "recuper": 2613,
      "incrivelmente": 2614,
      "dy": 2615,
      "om": 2616,
      "pção": 2617,
      "rendi": 2618,
      "combus": 2619,
      "exper": 2620,
      "dul": 2621,
      "postos": 2622,
      "casas": 2623,
      "chu": 2624,
      "escolh": 2625,
      "comunidades": 2626,
      "acreditar": 2627,
      "investigação": 2628,
      "alimentar": 2629,
      "distância": 2630,
      "rápido": 2631,
      "crise": 2632,
      "frequentemente": 2633,
      "16": 2634,
      "abaixo": 2635,
      "africa": 2636,
      "clim": 2637,
      "ed": 2638,
      "fór": 2639,
      "hu": 2640,
      "ly": 2641,
      "lista": 2642,
      "zo": 2643,
      "ára": 2644,
      "entou": 2645,
      "dito": 2646,
      "difi": 2647,
      "dimen": 2648,
      "contex": 2649,
      "intro": 2650,
      "ficação": 2651,
      "jogo": 2652,
      "escolha": 2653,
      "ganhar": 2654,
      "salvar": 2655,
      "enviar": 2656,
      "projecto": 2657,
      "aparec": 2658,
      "bele": 2659,
      "clas": 2660,
      "dú": 2661,
      "duma": 2662,
      "psi": 2663,
      "peito": 2664,
      "tência": 2665,
      "arre": 2666,
      "conduzir": 2667,
      "desses": 2668,
      "perman": 2669,
      "micros": 2670,
      "inten": 2671,
      "char": 2672,
      "apan": 2673,
      "avam": 2674,
      "culpa": 2675,
      "verdadeira": 2676,
      "mudanças": 2677,
      "produto": 2678,
      "evolução": 2679,
      "telefon": 2680,
      "negócios": 2681,
      "aprendemos": 2682,
      "inovação": 2683,
      "absolutamente": 2684,
      "justiça": 2685,
      "gs": 2686,
      "ion": 2687,
      "aria": 2688,
      "ume": 2689,
      "fir": 2690,
      "poderiam": 2691,
      "passou": 2692,
      "juntar": 2693,
      "ísticas": 2694,
      "começam": 2695,
      "estive": 2696,
      "filme": 2697,
      "flex": 2698,
      "superior": 2699,
      "colabora": 2700,
      "estranho": 2701,
      "fundamental": 2702,
      "front": 2703,
      "época": 2704,
      "istir": 2705,
      "dom": 2706,
      "indepen": 2707,
      "ang": 2708,
      "aná": 2709,
      "bola": 2710,
      "pros": 2711,
      "visu": 2712,
      "especi": 2713,
      "estruturas": 2714,
      "tórios": 2715,
      "governos": 2716,
      "tiveram": 2717,
      "prazo": 2718,
      "determina": 2719,
      "associa": 2720,
      "experim": 2721,
      "adul": 2722,
      "bb": 2723,
      "brar": 2724,
      "cadeia": 2725,
      "tantes": 2726,
      "imi": 2727,
      "serão": 2728,
      "ceis": 2729,
      "ensin": 2730,
      "identi": 2731,
      "tricidade": 2732,
      "central": 2733,
      "fizer": 2734,
      "espantos": 2735,
      "adoles": 2736,
      "continua": 2737,
      "económico": 2738,
      "serviços": 2739,
      "raparigas": 2740,
      "aproxima": 2741,
      "infelizmente": 2742,
      "ade": 2743,
      "aco": 2744,
      "eis": 2745,
      "sinal": 2746,
      "vêm": 2747,
      "arg": 2748,
      "doente": 2749,
      "vivo": 2750,
      "loc": 2751,
      "trá": 2752,
      "mesmas": 2753,
      "atin": 2754,
      "book": 2755,
      "sobreviver": 2756,
      "bair": 2757,
      "ignor": 2758,
      "físico": 2759,
      "deixa": 2760,
      "tária": 2761,
      "biologia": 2762,
      "abrir": 2763,
      "especí": 2764,
      "bebés": 2765,
      "quarto": 2766,
      "militar": 2767,
      "exactamente": 2768,
      "adolesc": 2769,
      "bul": 2770,
      "tando": 2771,
      "ves": 2772,
      "vores": 2773,
      "detal": 2774,
      "isti": 2775,
      "matéria": 2776,
      "recor": 2777,
      "rique": 2778,
      "tecido": 2779,
      "trar": 2780,
      "preço": 2781,
      "gados": 2782,
      "políticos": 2783,
      "conhecido": 2784,
      "utiliz": 2785,
      "bebé": 2786,
      "necessi": 2787,
      "sensação": 2788,
      "eta": 2789,
      "lâ": 2790,
      "tâ": 2791,
      "úr": 2792,
      "devia": 2793,
      "questi": 2794,
      "erro": 2795,
      "sel": 2796,
      "sendo": 2797,
      "sens": 2798,
      "elec": 2799,
      "and": 2800,
      "conce": 2801,
      "lig": 2802,
      "tratamento": 2803,
      "cura": 2804,
      "acel": 2805,
      "chei": 2806,
      "quadra": 2807,
      "funda": 2808,
      "maneiras": 2809,
      "ássemos": 2810,
      "sentimento": 2811,
      "milhão": 2812,
      "admi": 2813,
      "baixa": 2814,
      "direita": 2815,
      "funcionam": 2816,
      "próximos": 2817,
      "década": 2818,
      "padrão": 2819,
      "cidad": 2820,
      "terceiro": 2821,
      "pobreza": 2822,
      "hipótese": 2823,
      "presidente": 2824,
      "período": 2825,
      "efica": 2826,
      "tres": 2827,
      "víamos": 2828,
      "emer": 2829,
      "entra": 2830,
      "regu": 2831,
      "compaixão": 2832,
      "tida": 2833,
      "conec": 2834,
      "tuais": 2835,
      "iramente": 2836,
      "sui": 2837,
      "mico": 2838,
      "inteiro": 2839,
      "quantos": 2840,
      "ramo": 2841,
      "acaba": 2842,
      "199": 2843,
      "levant": 2844,
      "adap": 2845,
      "trazer": 2846,
      "respons": 2847,
      "branco": 2848,
      "oceano": 2849,
      "dável": 2850,
      "idas": 2851,
      "ites": 2852,
      "jei": 2853,
      "mês": 2854,
      "resta": 2855,
      "the": 2856,
      "isra": 2857,
      "museu": 2858,
      "guas": 2859,
      "guer": 2860,
      "concent": 2861,
      "verão": 2862,
      "ficos": 2863,
      "acto": 2864,
      "velho": 2865,
      "inado": 2866,
      "ruas": 2867,
      "joh": 2868,
      "geo": 2869,
      "fábri": 2870,
      "utilizar": 2871,
      "pública": 2872,
      "sorte": 2873,
      "narra": 2874,
      "emprego": 2875,
      "facebook": 2876,
      "azul": 2877,
      "campanha": 2878,
      "abordagem": 2879,
      "camos": 2880,
      "iva": 2881,
      "lam": 2882,
      "pan": 2883,
      "osas": 2884,
      "verde": 2885,
      "versão": 2886,
      "teu": 2887,
      "ece": 2888,
      "ecrã": 2889,
      "formá": 2890,
      "fornec": 2891,
      "carta": 2892,
      "boca": 2893,
      "certamente": 2894,
      "pressa": 2895,
      "giga": 2896,
      "fala": 2897,
      "palco": 2898,
      "livre": 2899,
      "olharem": 2900,
      "fotogra": 2901,
      "belo": 2902,
      "aparel": 2903,
      "deveria": 2904,
      "árvores": 2905,
      "chegou": 2906,
      "parede": 2907,
      "cidadãos": 2908,
      "fis": 2909,
      "hig": 2910,
      "emis": 2911,
      "mag": 2912,
      "recom": 2913,
      "tocar": 2914,
      "envel": 2915,
      "povo": 2916,
      "nove": 2917,
      "contribu": 2918,
      "aliz": 2919,
      "poucos": 2920,
      "demia": 2921,
      "lanç": 2922,
      "financ": 2923,
      "frase": 2924,
      "semelhante": 2925,
      "envelh": 2926,
      "gon": 2927,
      "tário": 2928,
      "zero": 2929,
      "alem": 2930,
      "reconhecer": 2931,
      "sons": 2932,
      "lutar": 2933,
      "pudesse": 2934,
      "transmi": 2935,
      "complica": 2936,
      "pensamento": 2937,
      "explica": 2938,
      "fossem": 2939,
      "fascina": 2940,
      "observa": 2941,
      "americanos": 2942,
      "istência": 2943,
      "perspe": 2944,
      "documentos": 2945,
      "imediatamente": 2946,
      "partículas": 2947,
      "dificul": 2948,
      "acima": 2949,
      "gás": 2950,
      "nestas": 2951,
      "nano": 2952,
      "sinais": 2953,
      "esa": 2954,
      "quências": 2955,
      "iste": 2956,
      "parque": 2957,
      "cana": 2958,
      "didos": 2959,
      "divi": 2960,
      "nação": 2961,
      "conduz": 2962,
      "veri": 2963,
      "mosqui": 2964,
      "veí": 2965,
      "fonte": 2966,
      "acção": 2967,
      "chão": 2968,
      "primi": 2969,
      "tendo": 2970,
      "verdadeiramente": 2971,
      "mercados": 2972,
      "gene": 2973,
      "membros": 2974,
      "relaciona": 2975,
      "permitir": 2976,
      "proteí": 2977,
      "chamar": 2978,
      "artista": 2979,
      "necessidade": 2980,
      "cirurgia": 2981,
      "extremamente": 2982,
      "potencial": 2983,
      "agu": 2984,
      "afec": 2985,
      "ki": 2986,
      "lus": 2987,
      "testar": 2988,
      "ób": 2989,
      "defen": 2990,
      "mani": 2991,
      "dan": 2992,
      "secun": 2993,
      "tom": 2994,
      "ander": 2995,
      "tema": 2996,
      "ecu": 2997,
      "conte": 2998,
      "cuida": 2999,
      "seguro": 3000,
      "parecia": 3001,
      "céu": 3002,
      "dentemente": 3003,
      "perguntei": 3004,
      "políticas": 3005,
      "complexo": 3006,
      "explora": 3007,
      "opini": 3008,
      "decisão": 3009,
      "descoberta": 3010,
      "página": 3011,
      "telemóvel": 3012,
      "taxa": 3013,
      "anális": 3014,
      "ante": 3015,
      "cê": 3016,
      "efeitos": 3017,
      "gps": 3018,
      "lor": 3019,
      "pele": 3020,
      "mun": 3021,
      "imen": 3022,
      "nosco": 3023,
      "viu": 3024,
      "viz": 3025,
      "tempos": 3026,
      "perfei": 3027,
      "person": 3028,
      "ficas": 3029,
      "resso": 3030,
      "forem": 3031,
      "nidades": 3032,
      "posta": 3033,
      "agens": 3034,
      "gada": 3035,
      "bido": 3036,
      "prima": 3037,
      "ató": 3038,
      "torno": 3039,
      "prática": 3040,
      "consci": 3041,
      "olho": 3042,
      "ecimento": 3043,
      "tornam": 3044,
      "peso": 3045,
      "infra": 3046,
      "educa": 3047,
      "acabou": 3048,
      "décadas": 3049,
      "condições": 3050,
      "encontramos": 3051,
      "indivíduos": 3052,
      "costuma": 3053,
      "aci": 3054,
      "aparecer": 3055,
      "afir": 3056,
      "debaixo": 3057,
      "asse": 3058,
      "região": 3059,
      "cadeira": 3060,
      "pont": 3061,
      "diri": 3062,
      "rico": 3063,
      "mecâ": 3064,
      "muni": 3065,
      "impossível": 3066,
      "cong": 3067,
      "exer": 3068,
      "pena": 3069,
      "carne": 3070,
      "leis": 3071,
      "queriam": 3072,
      "agar": 3073,
      "vossas": 3074,
      "chris": 3075,
      "falamos": 3076,
      "puder": 3077,
      "publica": 3078,
      "verdadeiro": 3079,
      "gostam": 3080,
      "olhem": 3081,
      "cópio": 3082,
      "chamo": 3083,
      "sério": 3084,
      "direção": 3085,
      "máquinas": 3086,
      "arquite": 3087,
      "memória": 3088,
      "clí": 3089,
      "pés": 3090,
      "ramente": 3091,
      "sin": 3092,
      "tentes": 3093,
      "útil": 3094,
      "estima": 3095,
      "seda": 3096,
      "parado": 3097,
      "convos": 3098,
      "concor": 3099,
      "viram": 3100,
      "vant": 3101,
      "acas": 3102,
      "cedo": 3103,
      "interesse": 3104,
      "polícia": 3105,
      "proteger": 3106,
      "cró": 3107,
      "quiserem": 3108,
      "alcançar": 3109,
      "buraco": 3110,
      "entusiasma": 3111,
      "john": 3112,
      "convosco": 3113,
      "adas": 3114,
      "fera": 3115,
      "tões": 3116,
      "udo": 3117,
      "vindo": 3118,
      "depressa": 3119,
      "erros": 3120,
      "iso": 3121,
      "dança": 3122,
      "cate": 3123,
      "poli": 3124,
      "diria": 3125,
      "log": 3126,
      "ecos": 3127,
      "carvão": 3128,
      "mias": 3129,
      "luta": 3130,
      "ferência": 3131,
      "pios": 3132,
      "pico": 3133,
      "falam": 3134,
      "jul": 3135,
      "meios": 3136,
      "função": 3137,
      "começamos": 3138,
      "vari": 3139,
      "biliões": 3140,
      "tornaram": 3141,
      "táveis": 3142,
      "conhecem": 3143,
      "conhecemos": 3144,
      "permiti": 3145,
      "senhor": 3146,
      "segundos": 3147,
      "depende": 3148,
      "decidimos": 3149,
      "fenó": 3150,
      "decisões": 3151,
      "brincar": 3152,
      "sionais": 3153,
      "ameaça": 3154,
      "vítimas": 3155,
      "contexto": 3156,
      "conteú": 3157,
      "avi": 3158,
      "bru": 3159,
      "cali": 3160,
      "íri": 3161,
      "matar": 3162,
      "reduz": 3163,
      "rais": 3164,
      "ana": 3165,
      "desper": 3166,
      "irmã": 3167,
      "simu": 3168,
      "peça": 3169,
      "quiló": 3170,
      "estás": 3171,
      "ating": 3172,
      "quantas": 3173,
      "sentem": 3174,
      "informações": 3175,
      "sustent": 3176,
      "aumenta": 3177,
      "géner": 3178,
      "indus": 3179,
      "construímos": 3180,
      "galá": 3181,
      "aplicação": 3182,
      "religião": 3183,
      "factos": 3184,
      "elementos": 3185,
      "sional": 3186,
      "argum": 3187,
      "24": 3188,
      "creio": 3189,
      "linhas": 3190,
      "ms": 3191,
      "ry": 3192,
      "támos": 3193,
      "insec": 3194,
      "rados": 3195,
      "secre": 3196,
      "connosco": 3197,
      "propó": 3198,
      "motor": 3199,
      "motiva": 3200,
      "tração": 3201,
      "site": 3202,
      "sermos": 3203,
      "dutor": 3204,
      "acha": 3205,
      "acham": 3206,
      "criámos": 3207,
      "aulas": 3208,
      "poderão": 3209,
      "claramente": 3210,
      "espaços": 3211,
      "usado": 3212,
      "existi": 3213,
      "universi": 3214,
      "cientemente": 3215,
      "controlar": 3216,
      "aprovei": 3217,
      "explorar": 3218,
      "daquele": 3219,
      "tware": 3220,
      "software": 3221,
      "encontrámos": 3222,
      "pedaço": 3223,
      "importância": 3224,
      "considerar": 3225,
      "agricul": 3226,
      "moléculas": 3227,
      "provável": 3228,
      "familiar": 3229,
      "500": 3230,
      "apaix": 3231,
      "atualmente": 3232,
      "jas": 3233,
      "ka": 3234,
      "nestes": 3235,
      "tível": 3236,
      "vento": 3237,
      "ânti": 3238,
      "demor": 3239,
      "ração": 3240,
      "toca": 3241,
      "ritmo": 3242,
      "vidos": 3243,
      "teis": 3244,
      "ficial": 3245,
      "filha": 3246,
      "vonta": 3247,
      "estat": 3248,
      "iram": 3249,
      "onar": 3250,
      "queríamos": 3251,
      "lua": 3252,
      "diante": 3253,
      "dizia": 3254,
      "apli": 3255,
      "criação": 3256,
      "calor": 3257,
      "recei": 3258,
      "estraté": 3259,
      "soluções": 3260,
      "cál": 3261,
      "circu": 3262,
      "process": 3263,
      "galáx": 3264,
      "vontade": 3265,
      "famos": 3266,
      "oti": 3267,
      "pto": 3268,
      "armas": 3269,
      "istão": 3270,
      "tantas": 3271,
      "façam": 3272,
      "tratar": 3273,
      "expres": 3274,
      "trum": 3275,
      "pren": 3276,
      "grava": 3277,
      "corpor": 3278,
      "constitu": 3279,
      "consegui": 3280,
      "olha": 3281,
      "valores": 3282,
      "oriente": 3283,
      "oportunidades": 3284,
      "felizes": 3285,
      "poderoso": 3286,
      "possibilidade": 3287,
      "transporte": 3288,
      "prisão": 3289,
      "estrelas": 3290,
      "responsabilidade": 3291,
      "perspetiva": 3292,
      "afinal": 3293,
      "níveis": 3294,
      "pão": 3295,
      "stres": 3296,
      "tin": 3297,
      "tum": 3298,
      "erva": 3299,
      "rapaz": 3300,
      "pares": 3301,
      "dios": 3302,
      "rir": 3303,
      "tempera": 3304,
      "mesa": 3305,
      "cegos": 3306,
      "certos": 3307,
      "riscos": 3308,
      "visual": 3309,
      "diferenças": 3310,
      "significado": 3311,
      "interessantes": 3312,
      "inteligente": 3313,
      "surpreendente": 3314,
      "química": 3315,
      "incluindo": 3316,
      "princípio": 3317,
      "genoma": 3318,
      "audiência": 3319,
      "sobreviv": 3320,
      "árabe": 3321,
      "fase": 3322,
      "hes": 3323,
      "nel": 3324,
      "esca": 3325,
      "emin": 3326,
      "reino": 3327,
      "coment": 3328,
      "solo": 3329,
      "desempen": 3330,
      "ficiência": 3331,
      "respeito": 3332,
      "bocado": 3333,
      "giu": 3334,
      "obs": 3335,
      "horr": 3336,
      "criatividade": 3337,
      "palest": 3338,
      "poderemos": 3339,
      "ganistão": 3340,
      "espíri": 3341,
      "ficaram": 3342,
      "olharmos": 3343,
      "expli": 3344,
      "estradas": 3345,
      "receb": 3346,
      "apoio": 3347,
      "complexidade": 3348,
      "objeto": 3349,
      "órg": 3350,
      "inteligentes": 3351,
      "particularmente": 3352,
      "afeganistão": 3353,
      "trabalhadores": 3354,
      "terceira": 3355,
      "estiverem": 3356,
      "quilómetros": 3357,
      "propósito": 3358,
      "cão": 3359,
      "han": 3360,
      "len": 3361,
      "mbo": 3362,
      "segre": 3363,
      "cito": 3364,
      "mex": 3365,
      "fias": 3366,
      "momentos": 3367,
      "veja": 3368,
      "teriam": 3369,
      "contudo": 3370,
      "micos": 3371,
      "fogo": 3372,
      "esteja": 3373,
      "crimin": 3374,
      "entado": 3375,
      "aval": 3376,
      "haria": 3377,
      "sentia": 3378,
      "gostava": 3379,
      "estivesse": 3380,
      "abando": 3381,
      "adora": 3382,
      "âncias": 3383,
      "usada": 3384,
      "permitem": 3385,
      "negro": 3386,
      "aumento": 3387,
      "americana": 3388,
      "sexu": 3389,
      "rapariga": 3390,
      "participa": 3391,
      "programas": 3392,
      "elicidade": 3393,
      "israel": 3394,
      "género": 3395,
      "zona": 3396,
      "dete": 3397,
      "assem": 3398,
      "ariamente": 3399,
      "daí": 3400,
      "infer": 3401,
      "rab": 3402,
      "rica": 3403,
      "meia": 3404,
      "lide": 3405,
      "terminar": 3406,
      "biam": 3407,
      "fazerem": 3408,
      "cere": 3409,
      "humanas": 3410,
      "conhe": 3411,
      "instru": 3412,
      "inventar": 3413,
      "limita": 3414,
      "urban": 3415,
      "evitar": 3416,
      "inteligência": 3417,
      "mensagens": 3418,
      "silên": 3419,
      "batal": 3420,
      "testem": 3421,
      "felicidade": 3422,
      "gelo": 3423,
      "vin": 3424,
      "depar": 3425,
      "detec": 3426,
      "org": 3427,
      "aldeia": 3428,
      "dig": 3429,
      "notas": 3430,
      "perfeito": 3431,
      "expressão": 3432,
      "forças": 3433,
      "certas": 3434,
      "presa": 3435,
      "começo": 3436,
      "encontro": 3437,
      "venção": 3438,
      "difíceis": 3439,
      "dental": 3440,
      "desafios": 3441,
      "línguas": 3442,
      "prémi": 3443,
      "esforço": 3444,
      "exterior": 3445,
      "medicamentos": 3446,
      "insectos": 3447,
      "gr": 3448,
      "ile": 3449,
      "ll": 3450,
      "ída": 3451,
      "def": 3452,
      "devo": 3453,
      "arem": 3454,
      "amentos": 3455,
      "informá": 3456,
      "setem": 3457,
      "elim": 3458,
      "tador": 3459,
      "ouro": 3460,
      "vaz": 3461,
      "usá": 3462,
      "exig": 3463,
      "velhos": 3464,
      "eração": 3465,
      "conseguiu": 3466,
      "avali": 3467,
      "sentimos": 3468,
      "nutri": 3469,
      "escrito": 3470,
      "idosos": 3471,
      "ferramenta": 3472,
      "éramos": 3473,
      "twit": 3474,
      "investimento": 3475,
      "enfrentar": 3476,
      "profissionais": 3477,
      "beleza": 3478,
      "300": 3479,
      "ze": 3480,
      "âne": 3481,
      "depressão": 3482,
      "devíamos": 3483,
      "orgu": 3484,
      "entemente": 3485,
      "estrela": 3486,
      "ref": 3487,
      "compon": 3488,
      "anhas": 3489,
      "hados": 3490,
      "vergon": 3491,
      "lição": 3492,
      "perda": 3493,
      "moda": 3494,
      "vozes": 3495,
      "exér": 3496,
      "iremos": 3497,
      "sivo": 3498,
      "fortes": 3499,
      "supor": 3500,
      "peças": 3501,
      "ficado": 3502,
      "avança": 3503,
      "menor": 3504,
      "poupar": 3505,
      "instrum": 3506,
      "deixou": 3507,
      "método": 3508,
      "adminis": 3509,
      "comunicar": 3510,
      "banho": 3511,
      "alterna": 3512,
      "etc": 3513,
      "enormes": 3514,
      "conclu": 3515,
      "florestas": 3516,
      "apresentar": 3517,
      "origem": 3518,
      "conselho": 3519,
      "prazer": 3520,
      "brasil": 3521,
      "essencialmente": 3522,
      "aspeto": 3523,
      "cuidado": 3524,
      "silêncio": 3525,
      "testemun": 3526,
      "setembro": 3527,
      "cção": 3528,
      "dências": 3529,
      "lusão": 3530,
      "nó": 3531,
      "nis": 3532,
      "pamento": 3533,
      "wi": 3534,
      "ímos": 3535,
      "ismos": 3536,
      "ordem": 3537,
      "almo": 3538,
      "reais": 3539,
      "capi": 3540,
      "tira": 3541,
      "tidos": 3542,
      "satis": 3543,
      "logos": 3544,
      "eiramente": 3545,
      "contas": 3546,
      "sufi": 3547,
      "discu": 3548,
      "plem": 3549,
      "obra": 3550,
      "tensão": 3551,
      "tendência": 3552,
      "mark": 3553,
      "new": 3554,
      "vistas": 3555,
      "poucas": 3556,
      "encontram": 3557,
      "mortal": 3558,
      "barato": 3559,
      "bur": 3560,
      "longa": 3561,
      "geralmente": 3562,
      "cinas": 3563,
      "cientista": 3564,
      "pensava": 3565,
      "investiga": 3566,
      "antiga": 3567,
      "artistas": 3568,
      "serviço": 3569,
      "avançar": 3570,
      "científica": 3571,
      "competi": 3572,
      "engenharia": 3573,
      "buracos": 3574,
      "térias": 3575,
      "reparem": 3576,
      "excelente": 3577,
      "opinião": 3578,
      "espírito": 3579,
      "cel": 3580,
      "femin": 3581,
      "más": 3582,
      "osidade": 3583,
      "quia": 3584,
      "radi": 3585,
      "ratos": 3586,
      "comuns": 3587,
      "tanta": 3588,
      "vers": 3589,
      "dessem": 3590,
      "fila": 3591,
      "pronto": 3592,
      "teremos": 3593,
      "terap": 3594,
      "irem": 3595,
      "fazendo": 3596,
      "cartas": 3597,
      "carreira": 3598,
      "tarem": 3599,
      "atribu": 3600,
      "alidades": 3601,
      "trabalhos": 3602,
      "consta": 3603,
      "olá": 3604,
      "percebem": 3605,
      "medir": 3606,
      "dáveis": 3607,
      "negros": 3608,
      "alterar": 3609,
      "explos": 3610,
      "bloque": 3611,
      "areia": 3612,
      "xico": 3613,
      "igualdade": 3614,
      "dispositivo": 3615,
      "epidemia": 3616,
      "benefí": 3617,
      "aspecto": 3618,
      "higgs": 3619,
      "análise": 3620,
      "exército": 3621,
      "tt": 3622,
      "testes": 3623,
      "cogni": 3624,
      "quente": 3625,
      "magia": 3626,
      "entro": 3627,
      "nave": 3628,
      "imas": 3629,
      "conser": 3630,
      "provo": 3631,
      "teríamos": 3632,
      "cardí": 3633,
      "micró": 3634,
      "acess": 3635,
      "bió": 3636,
      "gração": 3637,
      "costa": 3638,
      "tória": 3639,
      "britâ": 3640,
      "meno": 3641,
      "sentimentos": 3642,
      "abra": 3643,
      "abran": 3644,
      "minuto": 3645,
      "vídeos": 3646,
      "ficientes": 3647,
      "preocupar": 3648,
      "fracas": 3649,
      "incríveis": 3650,
      "lembrem": 3651,
      "rápida": 3652,
      "armaz": 3653,
      "eventu": 3654,
      "tentei": 3655,
      "engenh": 3656,
      "maravilhoso": 3657,
      "tarefa": 3658,
      "eficaz": 3659,
      "conteúdo": 3660,
      "by": 3661,
      "gh": 3662,
      "gí": 3663,
      "gestão": 3664,
      "idades": 3665,
      "misso": 3666,
      "of": 3667,
      "reconstruir": 3668,
      "infe": 3669,
      "sona": 3670,
      "umo": 3671,
      "ouvido": 3672,
      "imar": 3673,
      "deser": 3674,
      "lio": 3675,
      "provar": 3676,
      "mov": 3677,
      "ford": 3678,
      "biológi": 3679,
      "formação": 3680,
      "interpre": 3681,
      "precisar": 3682,
      "eladas": 3683,
      "algori": 3684,
      "identidade": 3685,
      "feitas": 3686,
      "morre": 3687,
      "cilmente": 3688,
      "bomba": 3689,
      "vale": 3690,
      "acreditam": 3691,
      "banco": 3692,
      "flores": 3693,
      "plata": 3694,
      "passaram": 3695,
      "inicia": 3696,
      "terrível": 3697,
      "públicos": 3698,
      "americano": 3699,
      "sexual": 3700,
      "arquitec": 3701,
      "sítios": 3702,
      "técnicas": 3703,
      "eleições": 3704,
      "robôs": 3705,
      "disponível": 3706,
      "brilhante": 3707,
      "analisar": 3708,
      "pacientes": 3709,
      "apanhar": 3710,
      "adolescentes": 3711,
      "secund": 3712,
      "afirma": 3713,
      "fenómeno": 3714,
      "stress": 3715,
      "twitter": 3716,
      "eventualmente": 3717,
      "cemos": 3718,
      "mí": 3719,
      "sente": 3720,
      "tch": 3721,
      "ámo": 3722,
      "ótimo": 3723,
      "eses": 3724,
      "esqui": 3725,
      "dedi": 3726,
      "manti": 3727,
      "inver": 3728,
      "iais": 3729,
      "pareci": 3730,
      "tivar": 3731,
      "ricos": 3732,
      "tantos": 3733,
      "nota": 3734,
      "natura": 3735,
      "pernas": 3736,
      "fix": 3737,
      "voar": 3738,
      "pato": 3739,
      "ustra": 3740,
      "siva": 3741,
      "sicas": 3742,
      "suce": 3743,
      "acres": 3744,
      "graça": 3745,
      "graças": 3746,
      "discus": 3747,
      "tens": 3748,
      "internacional": 3749,
      "marido": 3750,
      "precisão": 3751,
      "cultural": 3752,
      "cheguei": 3753,
      "desenhar": 3754,
      "surgir": 3755,
      "compreensão": 3756,
      "escreveu": 3757,
      "automó": 3758,
      "escrita": 3759,
      "dinâ": 3760,
      "acabei": 3761,
      "diversidade": 3762,
      "felizmente": 3763,
      "precisava": 3764,
      "notícia": 3765,
      "primeiras": 3766,
      "aceitar": 3767,
      "consumo": 3768,
      "individuais": 3769,
      "elétri": 3770,
      "chuva": 3771,
      "fábrica": 3772,
      "fotografias": 3773,
      "agricultores": 3774,
      "bela": 3775,
      "fru": 3776,
      "ilha": 3777,
      "ny": 3778,
      "pás": 3779,
      "psico": 3780,
      "rest": 3781,
      "deli": 3782,
      "deviam": 3783,
      "aranha": 3784,
      "quânti": 3785,
      "empreen": 3786,
      "altamente": 3787,
      "reci": 3788,
      "redor": 3789,
      "reuni": 3790,
      "reduzir": 3791,
      "iana": 3792,
      "eng": 3793,
      "encia": 3794,
      "enfer": 3795,
      "cabo": 3796,
      "civil": 3797,
      "mecan": 3798,
      "sabiam": 3799,
      "tempor": 3800,
      "faça": 3801,
      "lixo": 3802,
      "exam": 3803,
      "irmão": 3804,
      "graus": 3805,
      "interna": 3806,
      "troca": 3807,
      "culturas": 3808,
      "imaginação": 3809,
      "cheia": 3810,
      "transpar": 3811,
      "perigo": 3812,
      "normais": 3813,
      "bang": 3814,
      "médica": 3815,
      "símbo": 3816,
      "proteção": 3817,
      "drogas": 3818,
      "antigo": 3819,
      "cír": 3820,
      "profunda": 3821,
      "esquele": 3822,
      "aberto": 3823,
      "poderosa": 3824,
      "perspec": 3825,
      "litera": 3826,
      "passam": 3827,
      "consumi": 3828,
      "ficamos": 3829,
      "indivíduo": 3830,
      "ciclo": 3831,
      "combustível": 3832,
      "responsável": 3833,
      "suficientemente": 3834,
      "naturais": 3835,
      "ai": 3836,
      "cele": 3837,
      "ocorre": 3838,
      "pun": 3839,
      "zz": 3840,
      "ães": 3841,
      "detrás": 3842,
      "erar": 3843,
      "cores": 3844,
      "estú": 3845,
      "rever": 3846,
      "encora": 3847,
      "sofr": 3848,
      "cade": 3849,
      "diga": 3850,
      "noção": 3851,
      "imens": 3852,
      "tein": 3853,
      "vais": 3854,
      "vacinas": 3855,
      "desas": 3856,
      "perten": 3857,
      "patia": 3858,
      "terão": 3859,
      "terreno": 3860,
      "subi": 3861,
      "ley": 3862,
      "focar": 3863,
      "age": 3864,
      "segura": 3865,
      "gratu": 3866,
      "unidade": 3867,
      "cionou": 3868,
      "visi": 3869,
      "algures": 3870,
      "ulho": 3871,
      "salas": 3872,
      "ério": 3873,
      "limite": 3874,
      "errada": 3875,
      "recente": 3876,
      "virtual": 3877,
      "conseguirmos": 3878,
      "ataque": 3879,
      "dezenas": 3880,
      "aleg": 3881,
      "participar": 3882,
      "arranjar": 3883,
      "implica": 3884,
      "essencial": 3885,
      "companhia": 3886,
      "acaso": 3887,
      "fós": 3888,
      "ld": 3889,
      "nes": 3890,
      "pós": 3891,
      "tê": 3892,
      "usou": 3893,
      "ético": 3894,
      "ón": 3895,
      "escon": 3896,
      "escondi": 3897,
      "cober": 3898,
      "sofri": 3899,
      "cabelo": 3900,
      "ponte": 3901,
      "outu": 3902,
      "vili": 3903,
      "persona": 3904,
      "ficamente": 3905,
      "proba": 3906,
      "terá": 3907,
      "caro": 3908,
      "bit": 3909,
      "obtemos": 3910,
      "deram": 3911,
      "voltei": 3912,
      "unido": 3913,
      "avó": 3914,
      "cionalmente": 3915,
      "gostamos": 3916,
      "escolhas": 3917,
      "bara": 3918,
      "barulho": 3919,
      "sabíamos": 3920,
      "descobriram": 3921,
      "político": 3922,
      "cór": 3923,
      "198": 3924,
      "planta": 3925,
      "plantas": 3926,
      "génio": 3927,
      "cídio": 3928,
      "designer": 3929,
      "televisão": 3930,
      "principais": 3931,
      "daquela": 3932,
      "tradicional": 3933,
      "tradicionais": 3934,
      "artigo": 3935,
      "vermelho": 3936,
      "bactérias": 3937,
      "direcção": 3938,
      "descrever": 3939,
      "organizações": 3940,
      "impressiona": 3941,
      "domés": 3942,
      "magn": 3943,
      "sustentável": 3944,
      "temperatura": 3945,
      "micróbios": 3946,
      "cente": 3947,
      "dres": 3948,
      "fê": 3949,
      "fó": 3950,
      "kg": 3951,
      "pho": 3952,
      "sani": 3953,
      "codi": 3954,
      "cooper": 3955,
      "mago": 3956,
      "ampli": 3957,
      "dani": 3958,
      "reun": 3959,
      "rato": 3960,
      "sequência": 3961,
      "engan": 3962,
      "caval": 3963,
      "cili": 3964,
      "civili": 3965,
      "tion": 3966,
      "tiza": 3967,
      "ouvimos": 3968,
      "imer": 3969,
      "vidro": 3970,
      "trân": 3971,
      "possu": 3972,
      "bici": 3973,
      "corpos": 3974,
      "inada": 3975,
      "gico": 3976,
      "falhar": 3977,
      "criamos": 3978,
      "visões": 3979,
      "podermos": 3980,
      "candida": 3981,
      "espacial": 3982,
      "perguntou": 3983,
      "ilum": 3984,
      "tivessem": 3985,
      "regis": 3986,
      "sustenta": 3987,
      "indica": 3988,
      "frequência": 3989,
      "projetos": 3990,
      "treino": 3991,
      "assum": 3992,
      "emoções": 3993,
      "blocos": 3994,
      "clientes": 3995,
      "aberta": 3996,
      "aleató": 3997,
      "técnica": 3998,
      "páginas": 3999,
      "agricultura": 4000,
      "recolh": 4001,
      "fórnia": 4002,
      "telefone": 4003,
      "adultos": 4004,
      "califórnia": 4005,
      "pássar": 4006,
      "bes": 4007,
      "cl": 4008,
      "dámos": 4009,
      "eza": 4010,
      "ios": 4011,
      "tv": 4012,
      "vest": 4013,
      "wa": 4014,
      "wo": 4015,
      "áto": 4016,
      "demais": 4017,
      "domin": 4018,
      "reputa": 4019,
      "reparar": 4020,
      "revista": 4021,
      "retirar": 4022,
      "cair": 4023,
      "polar": 4024,
      "digamos": 4025,
      "nado": 4026,
      "nações": 4027,
      "convi": 4028,
      "facul": 4029,
      "facilmente": 4030,
      "fixe": 4031,
      "pain": 4032,
      "termo": 4033,
      "fome": 4034,
      "casamento": 4035,
      "atmos": 4036,
      "quanti": 4037,
      "tenhamos": 4038,
      "visíveis": 4039,
      "manu": 4040,
      "avô": 4041,
      "brio": 4042,
      "varia": 4043,
      "canção": 4044,
      "frio": 4045,
      "ligações": 4046,
      "itocina": 4047,
      "praticamente": 4048,
      "busca": 4049,
      "flutu": 4050,
      "envolver": 4051,
      "clima": 4052,
      "deveríamos": 4053,
      "definição": 4054,
      "chegámos": 4055,
      "heró": 4056,
      "investir": 4057,
      "científico": 4058,
      "frases": 4059,
      "terrorismo": 4060,
      "camada": 4061,
      "princípios": 4062,
      "dispositivos": 4063,
      "oxitocina": 4064,
      "conflito": 4065,
      "dimensional": 4066,
      "classi": 4067,
      "riqueza": 4068,
      "arquitetura": 4069,
      "industri": 4070,
      "3d": 4071,
      "ker": 4072,
      "ty": 4073,
      "tanha": 4074,
      "wal": 4075,
      "úteis": 4076,
      "debate": 4077,
      "reforma": 4078,
      "releva": 4079,
      "invisível": 4080,
      "compri": 4081,
      "parc": 4082,
      "paris": 4083,
      "pol": 4084,
      "tata": 4085,
      "parados": 4086,
      "natal": 4087,
      "impressão": 4088,
      "implem": 4089,
      "vive": 4090,
      "amostras": 4091,
      "pertur": 4092,
      "moni": 4093,
      "tulo": 4094,
      "lações": 4095,
      "estabel": 4096,
      "ecem": 4097,
      "seriam": 4098,
      "estejam": 4099,
      "luzes": 4100,
      "big": 4101,
      "cher": 4102,
      "gido": 4103,
      "rosto": 4104,
      "juntas": 4105,
      "criou": 4106,
      "visitar": 4107,
      "viajar": 4108,
      "mergu": 4109,
      "mortes": 4110,
      "ânia": 4111,
      "tíveis": 4112,
      "rádio": 4113,
      "londres": 4114,
      "máx": 4115,
      "mostram": 4116,
      "filmes": 4117,
      "registo": 4118,
      "equival": 4119,
      "2008": 4120,
      "complexos": 4121,
      "profundamente": 4122,
      "instituição": 4123,
      "aplicações": 4124,
      "possibilidades": 4125,
      "adicionar": 4126,
      "extraordinário": 4127,
      "expansão": 4128,
      "ultrapassar": 4129,
      "transi": 4130,
      "substituir": 4131,
      "chinês": 4132,
      "diagnós": 4133,
      "conflitos": 4134,
      "rendimento": 4135,
      "trânsito": 4136,
      "bicicle": 4137,
      "2000": 4138,
      "aparece": 4139,
      "dre": 4140,
      "gram": 4141,
      "hal": 4142,
      "iriam": 4143,
      "jap": 4144,
      "sms": 4145,
      "tz": 4146,
      "vali": 4147,
      "wat": 4148,
      "éis": 4149,
      "énia": 4150,
      "óp": 4151,
      "ash": 4152,
      "orde": 4153,
      "domina": 4154,
      "entamos": 4155,
      "entamente": 4156,
      "infin": 4157,
      "compar": 4158,
      "enda": 4159,
      "somente": 4160,
      "rodas": 4161,
      "canto": 4162,
      "tim": 4163,
      "tações": 4164,
      "hada": 4165,
      "monte": 4166,
      "estação": 4167,
      "ondas": 4168,
      "micas": 4169,
      "acen": 4170,
      "intest": 4171,
      "pitais": 4172,
      "dizemos": 4173,
      "pur": 4174,
      "bais": 4175,
      "olhamos": 4176,
      "estiv": 4177,
      "estilo": 4178,
      "chamam": 4179,
      "pensarem": 4180,
      "vendo": 4181,
      "passados": 4182,
      "hospitais": 4183,
      "cioso": 4184,
      "mudaram": 4185,
      "decidir": 4186,
      "baseado": 4187,
      "comportamentos": 4188,
      "toneladas": 4189,
      "profundo": 4190,
      "alimentos": 4191,
      "árvor": 4192,
      "haverá": 4193,
      "original": 4194,
      "consequências": 4195,
      "juntamente": 4196,
      "pedaços": 4197,
      "texto": 4198,
      "semelhantes": 4199,
      "telemóveis": 4200,
      "oferecer": 4201,
      "molécula": 4202,
      "disponíveis": 4203,
      "apareceu": 4204,
      "bairro": 4205,
      "ignorância": 4206,
      "necessidades": 4207,
      "óbvio": 4208,
      "batalha": 4209,
      "versário": 4210,
      "entropia": 4211,
      "reputação": 4212,
      "japão": 4213,
      "árvore": 4214,
      "aperceb": 4215,
      "bla": 4216,
      "bun": 4217,
      "gência": 4218,
      "ph": 4219,
      "wor": 4220,
      "áticos": 4221,
      "esia": 4222,
      "astro": 4223,
      "arro": 4224,
      "alar": 4225,
      "alma": 4226,
      "alvo": 4227,
      "paral": 4228,
      "ponta": 4229,
      "dimento": 4230,
      "gura": 4231,
      "virem": 4232,
      "teia": 4233,
      "deslo": 4234,
      "respei": 4235,
      "terramo": 4236,
      "preparar": 4237,
      "eletricidade": 4238,
      "pudessem": 4239,
      "criaram": 4240,
      "lembra": 4241,
      "insta": 4242,
      "ntil": 4243,
      "vender": 4244,
      "advo": 4245,
      "possíveis": 4246,
      "tornei": 4247,
      "relativamente": 4248,
      "coloca": 4249,
      "limites": 4250,
      "continuam": 4251,
      "lónia": 4252,
      "completa": 4253,
      "libertar": 4254,
      "popular": 4255,
      "concei": 4256,
      "emocional": 4257,
      "objetos": 4258,
      "fantástica": 4259,
      "miúdo": 4260,
      "esquerdo": 4261,
      "moderna": 4262,
      "objecto": 4263,
      "programar": 4264,
      "daquilo": 4265,
      "privacidade": 4266,
      "afastar": 4267,
      "regressar": 4268,
      "ocidental": 4269,
      "repeti": 4270,
      "carregar": 4271,
      "dúvida": 4272,
      "adequa": 4273,
      "aparelho": 4274,
      "fascinante": 4275,
      "mosquitos": 4276,
      "defender": 4277,
      "atingir": 4278,
      "prémio": 4279,
      "constantemente": 4280,
      "benefícios": 4281,
      "plataforma": 4282,
      "empreende": 4283,
      "atmosfera": 4284,
      "45": 4285,
      "apercebi": 4286,
      "bens": 4287,
      "crá": 4288,
      "ego": 4289,
      "eins": 4290,
      "fusão": 4291,
      "hh": 4292,
      "iti": 4293,
      "tâncias": 4294,
      "vori": 4295,
      "xx": 4296,
      "àque": 4297,
      "don": 4298,
      "refu": 4299,
      "radia": 4300,
      "iano": 4301,
      "parecido": 4302,
      "podes": 4303,
      "cidas": 4304,
      "ticar": 4305,
      "dim": 4306,
      "dita": 4307,
      "rios": 4308,
      "metá": 4309,
      "tecidos": 4310,
      "favori": 4311,
      "perfu": 4312,
      "lama": 4313,
      "pazes": 4314,
      "execu": 4315,
      "lhar": 4316,
      "faziam": 4317,
      "postas": 4318,
      "agres": 4319,
      "seguros": 4320,
      "elefa": 4321,
      "sobretudo": 4322,
      "pib": 4323,
      "cortar": 4324,
      "nega": 4325,
      "físicos": 4326,
      "genética": 4327,
      "2010": 4328,
      "gastar": 4329,
      "ington": 4330,
      "pensámos": 4331,
      "acreditamos": 4332,
      "equipamento": 4333,
      "planetas": 4334,
      "inici": 4335,
      "corrente": 4336,
      "sombra": 4337,
      "necessária": 4338,
      "opções": 4339,
      "bloco": 4340,
      "iraque": 4341,
      "peixe": 4342,
      "extraordinária": 4343,
      "tério": 4344,
      "considera": 4345,
      "andava": 4346,
      "guarda": 4347,
      "elemento": 4348,
      "montanha": 4349,
      "recolher": 4350,
      "cozinhar": 4351,
      "restaura": 4352,
      "proteínas": 4353,
      "exploração": 4354,
      "conserva": 4355,
      "morreu": 4356,
      "perspectiva": 4357,
      "consumidores": 4358,
      "einstein": 4359,
      "1000": 4360,
      "aa": 4361,
      "cámos": 4362,
      "ds": 4363,
      "dras": 4364,
      "eda": 4365,
      "egi": 4366,
      "ocas": 4367,
      "põ": 4368,
      "sr": 4369,
      "deo": 4370,
      "eri": 4371,
      "core": 4372,
      "coca": 4373,
      "maca": 4374,
      "mape": 4375,
      "mail": 4376,
      "reti": 4377,
      "eno": 4378,
      "poesia": 4379,
      "diá": 4380,
      "nomes": 4381,
      "nais": 4382,
      "mula": 4383,
      "impren": 4384,
      "conex": 4385,
      "conferência": 4386,
      "vias": 4387,
      "descri": 4388,
      "hol": 4389,
      "exci": 4390,
      "preto": 4391,
      "fontes": 4392,
      "segurar": 4393,
      "breve": 4394,
      "certi": 4395,
      "judi": 4396,
      "marte": 4397,
      "criado": 4398,
      "clara": 4399,
      "ângu": 4400,
      "izo": 4401,
      "existir": 4402,
      "curva": 4403,
      "capacidades": 4404,
      "baixos": 4405,
      "atravessar": 4406,
      "descobriu": 4407,
      "ilusão": 4408,
      "turalmente": 4409,
      "desaparecer": 4410,
      "custa": 4411,
      "equilí": 4412,
      "recebi": 4413,
      "recebe": 4414,
      "positivo": 4415,
      "aluno": 4416,
      "estranhos": 4417,
      "progresso": 4418,
      "tiverem": 4419,
      "tentativa": 4420,
      "digitais": 4421,
      "empregos": 4422,
      "paredes": 4423,
      "gripe": 4424,
      "distribuição": 4425,
      "microscópio": 4426,
      "espantoso": 4427,
      "cheio": 4428,
      "complicado": 4429,
      "galáxias": 4430,
      "órgãos": 4431,
      "terapia": 4432,
      "armazen": 4433,
      "alegria": 4434,
      "faculdade": 4435,
      "imprensa": 4436,
      "bam": 4437,
      "equa": 4438,
      "hem": 4439,
      "idê": 4440,
      "jac": 4441,
      "mm": 4442,
      "mora": 4443,
      "múlti": 4444,
      "van": 4445,
      "wn": 4446,
      "yor": 4447,
      "çamos": 4448,
      "ídos": 4449,
      "íram": 4450,
      "espos": 4451,
      "escara": 4452,
      "dedos": 4453,
      "infa": 4454,
      "incent": 4455,
      "causar": 4456,
      "ansi": 4457,
      "eixo": 4458,
      "formou": 4459,
      "pedra": 4460,
      "eletró": 4461,
      "discurso": 4462,
      "prós": 4463,
      "garant": 4464,
      "quadro": 4465,
      "pura": 4466,
      "volume": 4467,
      "interagir": 4468,
      "trabalham": 4469,
      "apanha": 4470,
      "transfer": 4471,
      "sabes": 4472,
      "gerir": 4473,
      "sonhos": 4474,
      "cresci": 4475,
      "braço": 4476,
      "infância": 4477,
      "ligados": 4478,
      "completo": 4479,
      "aniversário": 4480,
      "alizado": 4481,
      "alterações": 4482,
      "conversas": 4483,
      "divertido": 4484,
      "opção": 4485,
      "colec": 4486,
      "escuro": 4487,
      "excrem": 4488,
      "fundamentais": 4489,
      "aprendem": 4490,
      "amaz": 4491,
      "quisermos": 4492,
      "perante": 4493,
      "destruição": 4494,
      "janela": 4495,
      "sozinho": 4496,
      "compromisso": 4497,
      "sugerir": 4498,
      "características": 4499,
      "pirar": 4500,
      "religiões": 4501,
      "rendimentos": 4502,
      "climáticas": 4503,
      "detalhes": 4504,
      "dificuldades": 4505,
      "categor": 4506,
      "tumor": 4507,
      "orgâ": 4508,
      "vergonha": 4509,
      "mortalidade": 4510,
      "secundário": 4511,
      "terramoto": 4512,
      "conceitos": 4513,
      "idênti": 4514,
      "23": 4515,
      "blá": 4516,
      "dge": 4517,
      "eti": 4518,
      "frança": 4519,
      "gamento": 4520,
      "ii": 4521,
      "nela": 4522,
      "tú": 4523,
      "uau": 4524,
      "énio": 4525,
      "artes": 4526,
      "quénia": 4527,
      "empur": 4528,
      "estres": 4529,
      "retra": 4530,
      "realizar": 4531,
      "rapazes": 4532,
      "soma": 4533,
      "sono": 4534,
      "ciro": 4535,
      "ciências": 4536,
      "angar": 4537,
      "timos": 4538,
      "dimens": 4539,
      "parada": 4540,
      "sapa": 4541,
      "consul": 4542,
      "video": 4543,
      "fato": 4544,
      "protó": 4545,
      "movem": 4546,
      "lada": 4547,
      "pega": 4548,
      "intes": 4549,
      "dissemos": 4550,
      "prestes": 4551,
      "pica": 4552,
      "pilo": 4553,
      "obras": 4554,
      "falo": 4555,
      "pux": 4556,
      "interesses": 4557,
      "igre": 4558,
      "campos": 4559,
      "feira": 4560,
      "jogar": 4561,
      "minús": 4562,
      "mortos": 4563,
      "esperamos": 4564,
      "subir": 4565,
      "infec": 4566,
      "escrevi": 4567,
      "ligado": 4568,
      "mistura": 4569,
      "ocupa": 4570,
      "roupa": 4571,
      "alizados": 4572,
      "eting": 4573,
      "construído": 4574,
      "colega": 4575,
      "diretamente": 4576,
      "lembram": 4577,
      "ouvidos": 4578,
      "gerações": 4579,
      "istente": 4580,
      "pintura": 4581,
      "artificial": 4582,
      "transformação": 4583,
      "saudável": 4584,
      "conforme": 4585,
      "austrá": 4586,
      "diagnos": 4587,
      "recuperar": 4588,
      "fronteiras": 4589,
      "fizermos": 4590,
      "militares": 4591,
      "electricidade": 4592,
      "fundação": 4593,
      "alemanha": 4594,
      "veículo": 4595,
      "vantagem": 4596,
      "avião": 4597,
      "estratégia": 4598,
      "explosão": 4599,
      "sofrer": 4600,
      "sofrimento": 4601,
      "industrial": 4602,
      "perturba": 4603,
      "monitor": 4604,
      "equilíbrio": 4605,
      "infantil": 4606,
      "dimensões": 4607,
      "austrália": 4608,
      "150": 4609,
      "75": 4610,
      "atras": 4611,
      "clu": 4612,
      "dinho": 4613,
      "edades": 4614,
      "eficiente": 4615,
      "mentes": 4616,
      "oposto": 4617,
      "sia": 4618,
      "wash": 4619,
      "çul": 4620,
      "éticas": 4621,
      "empatia": 4622,
      "requer": 4623,
      "ena": 4624,
      "soli": 4625,
      "potência": 4626,
      "tima": 4627,
      "muçul": 4628,
      "impul": 4629,
      "guia": 4630,
      "concre": 4631,
      "virar": 4632,
      "vacina": 4633,
      "resistência": 4634,
      "gador": 4635,
      "inteira": 4636,
      "correc": 4637,
      "fundos": 4638,
      "trabalhei": 4639,
      "negra": 4640,
      "visita": 4641,
      "giados": 4642,
      "ístico": 4643,
      "ásia": 4644,
      "basta": 4645,
      "moral": 4646,
      "méxico": 4647,
      "ajudam": 4648,
      "relacion": 4649,
      "existia": 4650,
      "curto": 4651,
      "surpresa": 4652,
      "energé": 4653,
      "volunt": 4654,
      "nuvem": 4655,
      "economias": 4656,
      "land": 4657,
      "lança": 4658,
      "escritório": 4659,
      "conclusão": 4660,
      "intelec": 4661,
      "frag": 4662,
      "cenário": 4663,
      "deveriam": 4664,
      "económica": 4665,
      "confiar": 4666,
      "descobertas": 4667,
      "moderno": 4668,
      "morreram": 4669,
      "agrade": 4670,
      "cozinha": 4671,
      "individual": 4672,
      "propriedade": 4673,
      "tarefas": 4674,
      "perigoso": 4675,
      "eléc": 4676,
      "recompensa": 4677,
      "envelhecimento": 4678,
      "vizinhos": 4679,
      "sobrevivência": 4680,
      "rabis": 4681,
      "marketing": 4682,
      "fême": 4683,
      "máximo": 4684,
      "equivalente": 4685,
      "muçulma": 4686,
      "ib": 4687,
      "ivos": 4688,
      "ko": 4689,
      "kin": 4690,
      "mt": 4691,
      "nele": 4692,
      "nessas": 4693,
      "oc": 4694,
      "ramos": 4695,
      "sentar": 4696,
      "trei": 4697,
      "tários": 4698,
      "ula": 4699,
      "ál": 4700,
      "ótica": 4701,
      "ún": 4702,
      "empr": 4703,
      "maus": 4704,
      "dolor": 4705,
      "regi": 4706,
      "incerteza": 4707,
      "encar": 4708,
      "envia": 4709,
      "tijo": 4710,
      "divul": 4711,
      "porto": 4712,
      "meter": 4713,
      "mul": 4714,
      "haiti": 4715,
      "vieram": 4716,
      "vapor": 4717,
      "descul": 4718,
      "desculpa": 4719,
      "perdi": 4720,
      "perdido": 4721,
      "euros": 4722,
      "motivo": 4723,
      "prever": 4724,
      "sida": 4725,
      "contacto": 4726,
      "pede": 4727,
      "peço": 4728,
      "acções": 4729,
      "gravi": 4730,
      "hámos": 4731,
      "picos": 4732,
      "plas": 4733,
      "plás": 4734,
      "passos": 4735,
      "gil": 4736,
      "quad": 4737,
      "bert": 4738,
      "horizo": 4739,
      "ney": 4740,
      "ficados": 4741,
      "cami": 4742,
      "jogos": 4743,
      "fugir": 4744,
      "pareceu": 4745,
      "olhando": 4746,
      "abun": 4747,
      "salva": 4748,
      "pensarmos": 4749,
      "desenho": 4750,
      "ândia": 4751,
      "existência": 4752,
      "pessoais": 4753,
      "universal": 4754,
      "braços": 4755,
      "antigos": 4756,
      "alizada": 4757,
      "jardim": 4758,
      "estudante": 4759,
      "lógico": 4760,
      "escura": 4761,
      "confro": 4762,
      "apresenta": 4763,
      "cuidar": 4764,
      "especialistas": 4765,
      "pintar": 4766,
      "químicos": 4767,
      "secção": 4768,
      "saída": 4769,
      "vulner": 4770,
      "trouxe": 4771,
      "ocidente": 4772,
      "espalhar": 4773,
      "renov": 4774,
      "classe": 4775,
      "bairros": 4776,
      "ligeiramente": 4777,
      "emissões": 4778,
      "canadá": 4779,
      "perfeitamente": 4780,
      "mecânica": 4781,
      "comentários": 4782,
      "conheço": 4783,
      "engenheiros": 4784,
      "radiação": 4785,
      "excremento": 4786,
      "eléctri": 4787,
      "21": 4788,
      "bí": 4789,
      "déssemos": 4790,
      "festa": 4791,
      "ks": 4792,
      "nesses": 4793,
      "pem": 4794,
      "plicar": 4795,
      "sta": 4796,
      "ste": 4797,
      "youtu": 4798,
      "ãs": 4799,
      "écia": 4800,
      "ódio": 4801,
      "ónia": 4802,
      "devas": 4803,
      "dada": 4804,
      "ren": 4805,
      "inse": 4806,
      "inevi": 4807,
      "rom": 4808,
      "cant": 4809,
      "café": 4810,
      "anun": 4811,
      "saté": 4812,
      "viva": 4813,
      "verdes": 4814,
      "facili": 4815,
      "amostra": 4816,
      "filos": 4817,
      "propa": 4818,
      "tude": 4819,
      "traduz": 4820,
      "votar": 4821,
      "vejamos": 4822,
      "usaram": 4823,
      "reside": 4824,
      "sivos": 4825,
      "leg": 4826,
      "queres": 4827,
      "achamos": 4828,
      "intu": 4829,
      "bibli": 4830,
      "chas": 4831,
      "cheiro": 4832,
      "simo": 4833,
      "práticas": 4834,
      "diziam": 4835,
      "rup": 4836,
      "pudéssemos": 4837,
      "constante": 4838,
      "joel": 4839,
      "histor": 4840,
      "gosta": 4841,
      "morto": 4842,
      "ntado": 4843,
      "adqui": 4844,
      "torná": 4845,
      "membro": 4846,
      "mães": 4847,
      "izada": 4848,
      "surge": 4849,
      "recebem": 4850,
      "automá": 4851,
      "coragem": 4852,
      "integra": 4853,
      "ataques": 4854,
      "abrigo": 4855,
      "tivermos": 4856,
      "ouviram": 4857,
      "princip": 4858,
      "passámos": 4859,
      "convencer": 4860,
      "oceanos": 4861,
      "familiares": 4862,
      "aspectos": 4863,
      "independentemente": 4864,
      "angeles": 4865,
      "aproximadamente": 4866,
      "narrativa": 4867,
      "transmitir": 4868,
      "explicação": 4869,
      "imenso": 4870,
      "consciente": 4871,
      "costumava": 4872,
      "acidente": 4873,
      "processos": 4874,
      "desempenho": 4875,
      "inferior": 4876,
      "refle": 4877,
      "youtube": 4878,
      "satéli": 4879,
      "biblio": 4880,
      "400": 4881,
      "ajus": 4882,
      "amanhã": 4883,
      "gou": 4884,
      "gla": 4885,
      "grã": 4886,
      "imuni": 4887,
      "od": 4888,
      "sina": 4889,
      "teles": 4890,
      "vent": 4891,
      "zas": 4892,
      "declar": 4893,
      "arris": 4894,
      "alo": 4895,
      "invas": 4896,
      "soa": 4897,
      "parou": 4898,
      "cipl": 4899,
      "anún": 4900,
      "naturalmente": 4901,
      "vivia": 4902,
      "tebol": 4903,
      "temp": 4904,
      "perdemos": 4905,
      "provas": 4906,
      "paquis": 4907,
      "usas": 4908,
      "preten": 4909,
      "duras": 4910,
      "quilo": 4911,
      "seguida": 4912,
      "bretanha": 4913,
      "discipl": 4914,
      "presos": 4915,
      "obes": 4916,
      "mart": 4917,
      "aconte": 4918,
      "humani": 4919,
      "viagens": 4920,
      "absor": 4921,
      "estaria": 4922,
      "poderem": 4923,
      "perceção": 4924,
      "vence": 4925,
      "canal": 4926,
      "usadas": 4927,
      "2011": 4928,
      "tivéssemos": 4929,
      "ligada": 4930,
      "2009": 4931,
      "econom": 4932,
      "mantém": 4933,
      "colap": 4934,
      "apoiar": 4935,
      "tróno": 4936,
      "estrang": 4937,
      "atacar": 4938,
      "cena": 4939,
      "distúr": 4940,
      "atividade": 4941,
      "económicos": 4942,
      "daqueles": 4943,
      "crispr": 4944,
      "financi": 4945,
      "saudáveis": 4946,
      "alcance": 4947,
      "vermelha": 4948,
      "objectivo": 4949,
      "expandir": 4950,
      "companhias": 4951,
      "jornalista": 4952,
      "climática": 4953,
      "identificar": 4954,
      "selva": 4955,
      "acelerar": 4956,
      "fornecer": 4957,
      "bocadinho": 4958,
      "gigantes": 4959,
      "relacionadas": 4960,
      "manipu": 4961,
      "circuns": 4962,
      "segredo": 4963,
      "alternativa": 4964,
      "discussão": 4965,
      "círculo": 4966,
      "doméstica": 4967,
      "civilização": 4968,
      "relevante": 4969,
      "transição": 4970,
      "refugiados": 4971,
      "diálogo": 4972,
      "principalmente": 4973,
      "avis": 4974,
      "atual": 4975,
      "cy": 4976,
      "igua": 4977,
      "idio": 4978,
      "ky": 4979,
      "tências": 4980,
      "esgo": 4981,
      "ers": 4982,
      "ntem": 4983,
      "colh": 4984,
      "reação": 4985,
      "inim": 4986,
      "raio": 4987,
      "seca": 4988,
      "divisão": 4989,
      "metal": 4990,
      "imita": 4991,
      "hat": 4992,
      "haja": 4993,
      "vios": 4994,
      "loja": 4995,
      "fantas": 4996,
      "lido": 4997,
      "proce": 4998,
      "hotel": 4999,
      "veter": 5000,
      "patente": 5001,
      "expon": 5002,
      "exposição": 5003,
      "contém": 5004,
      "suposto": 5005,
      "achar": 5006,
      "chor": 5007,
      "grantes": 5008,
      "primo": 5009,
      "nasci": 5010,
      "nasceu": 5011,
      "criam": 5012,
      "aplicar": 5013,
      "mandar": 5014,
      "caminhar": 5015,
      "jantar": 5016,
      "estarem": 5017,
      "tribun": 5018,
      "aquecimento": 5019,
      "vende": 5020,
      "métodos": 5021,
      "gerar": 5022,
      "invent": 5023,
      "capaci": 5024,
      "últimas": 5025,
      "conhecida": 5026,
      "levantar": 5027,
      "mistério": 5028,
      "baseada": 5029,
      "mantêm": 5030,
      "paisagem": 5031,
      "posições": 5032,
      "tentamos": 5033,
      "representam": 5034,
      "decidiram": 5035,
      "distingu": 5036,
      "maravilha": 5037,
      "chip": 5038,
      "confortável": 5039,
      "janelas": 5040,
      "email": 5041,
      "sozinhos": 5042,
      "curiosidade": 5043,
      "bonito": 5044,
      "fabrica": 5045,
      "veículos": 5046,
      "cênt": 5047,
      "permitiu": 5048,
      "vazio": 5049,
      "avaliar": 5050,
      "almoço": 5051,
      "bitco": 5052,
      "phone": 5053,
      "pássaros": 5054,
      "átomos": 5055,
      "comprimento": 5056,
      "circunstâncias": 5057,
      "iguais": 5058,
      "air": 5059,
      "bg": 5060,
      "bine": 5061,
      "cla": 5062,
      "egí": 5063,
      "ivo": 5064,
      "lum": 5065,
      "sá": 5066,
      "tmos": 5067,
      "tismo": 5068,
      "wil": 5069,
      "ígen": 5070,
      "isse": 5071,
      "madeira": 5072,
      "enci": 5073,
      "caça": 5074,
      "polu": 5075,
      "anz": 5076,
      "tidão": 5077,
      "noites": 5078,
      "convida": 5079,
      "condutor": 5080,
      "vih": 5081,
      "vera": 5082,
      "verem": 5083,
      "teca": 5084,
      "percent": 5085,
      "perfeita": 5086,
      "moeda": 5087,
      "turar": 5088,
      "sites": 5089,
      "sivamente": 5090,
      "gol": 5091,
      "seguintes": 5092,
      "taria": 5093,
      "intera": 5094,
      "chorar": 5095,
      "grave": 5096,
      "gravidade": 5097,
      "primir": 5098,
      "pilha": 5099,
      "inados": 5100,
      "falando": 5101,
      "hormo": 5102,
      "funções": 5103,
      "união": 5104,
      "neo": 5105,
      "neander": 5106,
      "acontecido": 5107,
      "aves": 5108,
      "beber": 5109,
      "partido": 5110,
      "chefe": 5111,
      "usados": 5112,
      "frustra": 5113,
      "ilus": 5114,
      "cinz": 5115,
      "demora": 5116,
      "noutros": 5117,
      "chegaram": 5118,
      "mentir": 5119,
      "assistir": 5120,
      "apoia": 5121,
      "complexa": 5122,
      "estranha": 5123,
      "urb": 5124,
      "piada": 5125,
      "comercial": 5126,
      "francis": 5127,
      "pensamentos": 5128,
      "utilizadores": 5129,
      "habitu": 5130,
      "maravilhosa": 5131,
      "destino": 5132,
      "propriedades": 5133,
      "influência": 5134,
      "medicamento": 5135,
      "aspetos": 5136,
      "nervoso": 5137,
      "combustíveis": 5138,
      "fronteira": 5139,
      "question": 5140,
      "guerras": 5141,
      "aparelhos": 5142,
      "variedade": 5143,
      "avaliação": 5144,
      "componentes": 5145,
      "instrumentos": 5146,
      "deserto": 5147,
      "engano": 5148,
      "esqueleto": 5149,
      "egito": 5150,
      "esposa": 5151,
      "washington": 5152,
      "plástico": 5153,
      "tribunal": 5154,
      "egíp": 5155,
      "bria": 5156,
      "dum": 5157,
      "eficiência": 5158,
      "jun": 5159,
      "jeito": 5160,
      "ng": 5161,
      "tho": 5162,
      "win": 5163,
      "xes": 5164,
      "ínio": 5165,
      "espel": 5166,
      "assas": 5167,
      "issem": 5168,
      "queda": 5169,
      "maç": 5170,
      "data": 5171,
      "danos": 5172,
      "seque": 5173,
      "rode": 5174,
      "roda": 5175,
      "cantar": 5176,
      "tinta": 5177,
      "diplo": 5178,
      "notável": 5179,
      "vira": 5180,
      "vivos": 5181,
      "mostrei": 5182,
      "fatores": 5183,
      "prome": 5184,
      "tuber": 5185,
      "voto": 5186,
      "tero": 5187,
      "terço": 5188,
      "forme": 5189,
      "contem": 5190,
      "contam": 5191,
      "serve": 5192,
      "pensas": 5193,
      "onda": 5194,
      "carga": 5195,
      "cartões": 5196,
      "mit": 5197,
      "letra": 5198,
      "leve": 5199,
      "ach": 5200,
      "acum": 5201,
      "quinta": 5202,
      "gais": 5203,
      "bigo": 5204,
      "chos": 5205,
      "dormir": 5206,
      "cordas": 5207,
      "correm": 5208,
      "planos": 5209,
      "obce": 5210,
      "rosa": 5211,
      "essência": 5212,
      "maria": 5213,
      "criei": 5214,
      "menina": 5215,
      "menino": 5216,
      "pouca": 5217,
      "olhámos": 5218,
      "variação": 5219,
      "ganda": 5220,
      "ganha": 5221,
      "crença": 5222,
      "barco": 5223,
      "cionado": 5224,
      "ajudou": 5225,
      "passada": 5226,
      "ciosas": 5227,
      "interessados": 5228,
      "desenvolvemos": 5229,
      "conhecidos": 5230,
      "turno": 5231,
      "surgiu": 5232,
      "flec": 5233,
      "hidro": 5234,
      "aneamente": 5235,
      "plantar": 5236,
      "ligadas": 5237,
      "ambientes": 5238,
      "democrá": 5239,
      "globais": 5240,
      "chamou": 5241,
      "integ": 5242,
      "necessários": 5243,
      "decidiu": 5244,
      "aparentemente": 5245,
      "caixas": 5246,
      "gritar": 5247,
      "ficção": 5248,
      "objectos": 5249,
      "silen": 5250,
      "privado": 5251,
      "hipóteses": 5252,
      "memórias": 5253,
      "elevado": 5254,
      "brilhantes": 5255,
      "inspiração": 5256,
      "específico": 5257,
      "quadrado": 5258,
      "ecossistema": 5259,
      "cálculo": 5260,
      "palestras": 5261,
      "fracasso": 5262,
      "dinâmica": 5263,
      "mecanismo": 5264,
      "esconder": 5265,
      "designers": 5266,
      "intestino": 5267,
      "instant": 5268,
      "sapatos": 5269,
      "aconteça": 5270,
      "27": 5271,
      "ativos": 5272,
      "acompan": 5273,
      "bé": 5274,
      "bera": 5275,
      "cência": 5276,
      "efe": 5277,
      "ilar": 5278,
      "listas": 5279,
      "lentamente": 5280,
      "mentais": 5281,
      "sh": 5282,
      "vesti": 5283,
      "esma": 5284,
      "escra": 5285,
      "ascen": 5286,
      "coma": 5287,
      "mamí": 5288,
      "amiga": 5289,
      "reconhecimento": 5290,
      "realiz": 5291,
      "sele": 5292,
      "comem": 5293,
      "comér": 5294,
      "engraça": 5295,
      "sopa": 5296,
      "tio": 5297,
      "cone": 5298,
      "condu": 5299,
      "fio": 5300,
      "promes": 5301,
      "motores": 5302,
      "uscri": 5303,
      "ters": 5304,
      "termin": 5305,
      "termina": 5306,
      "irmãos": 5307,
      "ace": 5308,
      "seguras": 5309,
      "formam": 5310,
      "corte": 5311,
      "presentes": 5312,
      "dizendo": 5313,
      "riso": 5314,
      "unidades": 5315,
      "nego": 5316,
      "precisávamos": 5317,
      "manuscri": 5318,
      "ficava": 5319,
      "tropi": 5320,
      "olham": 5321,
      "insti": 5322,
      "centros": 5323,
      "pergunto": 5324,
      "barata": 5325,
      "adamente": 5326,
      "geor": 5327,
      "izado": 5328,
      "colocá": 5329,
      "acredita": 5330,
      "limi": 5331,
      "desenvolvido": 5332,
      "espeta": 5333,
      "perceberam": 5334,
      "complexas": 5335,
      "construída": 5336,
      "bral": 5337,
      "acabámos": 5338,
      "representar": 5339,
      "faria": 5340,
      "situações": 5341,
      "pedimos": 5342,
      "piração": 5343,
      "cumpri": 5344,
      "poderosos": 5345,
      "tradição": 5346,
      "evento": 5347,
      "estiveram": 5348,
      "utilização": 5349,
      "prision": 5350,
      "paciente": 5351,
      "africano": 5352,
      "introduz": 5353,
      "especificamente": 5354,
      "experimentar": 5355,
      "conectoma": 5356,
      "imensa": 5357,
      "agarrar": 5358,
      "horrível": 5359,
      "criminosos": 5360,
      "sexuais": 5361,
      "orgulhos": 5362,
      "discutir": 5363,
      "restri": 5364,
      "transparência": 5365,
      "literatura": 5366,
      "cavalo": 5367,
      "diagnóstico": 5368,
      "igreja": 5369,
      "trónomos": 5370,
      "exponen": 5371,
      "tuberculos": 5372,
      "mamífer": 5373,
      "comércio": 5374,
      "22": 5375,
      "efec": 5376,
      "my": 5377,
      "olu": 5378,
      "peu": 5379,
      "wk": 5380,
      "zhe": 5381,
      "ossos": 5382,
      "copi": 5383,
      "cobri": 5384,
      "isa": 5385,
      "mala": 5386,
      "entalmente": 5387,
      "entrou": 5388,
      "entrada": 5389,
      "altos": 5390,
      "altru": 5391,
      "alzhe": 5392,
      "estam": 5393,
      "esten": 5394,
      "reconhec": 5395,
      "reiras": 5396,
      "rejei": 5397,
      "ianos": 5398,
      "comparação": 5399,
      "encaix": 5400,
      "param": 5401,
      "roman": 5402,
      "cau": 5403,
      "anato": 5404,
      "richar": 5405,
      "mudam": 5406,
      "gueira": 5407,
      "mostrou": 5408,
      "lida": 5409,
      "lições": 5410,
      "fiquem": 5411,
      "mono": 5412,
      "extr": 5413,
      "reserva": 5414,
      "triste": 5415,
      "sint": 5416,
      "dula": 5417,
      "letras": 5418,
      "peia": 5419,
      "esteve": 5420,
      "actualmente": 5421,
      "agrí": 5422,
      "gante": 5423,
      "fazermos": 5424,
      "cego": 5425,
      "botão": 5426,
      "diais": 5427,
      "presas": 5428,
      "gicamente": 5429,
      "falámos": 5430,
      "falsos": 5431,
      "essam": 5432,
      "voltou": 5433,
      "nascer": 5434,
      "bado": 5435,
      "igma": 5436,
      "funcional": 5437,
      "funcionou": 5438,
      "crime": 5439,
      "criativo": 5440,
      "líder": 5441,
      "mortas": 5442,
      "trias": 5443,
      "deixei": 5444,
      "passava": 5445,
      "lindo": 5446,
      "tér": 5447,
      "táculo": 5448,
      "dólar": 5449,
      "organizar": 5450,
      "europeia": 5451,
      "droga": 5452,
      "assisti": 5453,
      "acabaram": 5454,
      "necessariamente": 5455,
      "leite": 5456,
      "pedido": 5457,
      "esquecer": 5458,
      "abertos": 5459,
      "igualmente": 5460,
      "defini": 5461,
      "brancos": 5462,
      "configu": 5463,
      "frank": 5464,
      "peixes": 5465,
      "passamos": 5466,
      "aproximar": 5467,
      "camadas": 5468,
      "janeiro": 5469,
      "demonstra": 5470,
      "website": 5471,
      "cruz": 5472,
      "benefici": 5473,
      "básica": 5474,
      "assustador": 5475,
      "crítico": 5476,
      "africanos": 5477,
      "psicó": 5478,
      "concentrar": 5479,
      "proteína": 5480,
      "anderson": 5481,
      "mundiais": 5482,
      "estatística": 5483,
      "cálculos": 5484,
      "esquizo": 5485,
      "automóvel": 5486,
      "probabilidade": 5487,
      "córtex": 5488,
      "clás": 5489,
      "heróis": 5490,
      "bicicleta": 5491,
      "ângulo": 5492,
      "tuberculose": 5493,
      "altruís": 5494,
      "alzheimer": 5495,
      "richard": 5496,
      "36": 5497,
      "ak": 5498,
      "abre": 5499,
      "cês": 5500,
      "gentes": 5501,
      "leste": 5502,
      "rma": 5503,
      "wan": 5504,
      "zum": 5505,
      "égio": 5506,
      "ízes": 5507,
      "índi": 5508,
      "escultura": 5509,
      "degra": 5510,
      "asi": 5511,
      "arque": 5512,
      "mali": 5513,
      "malu": 5514,
      "altas": 5515,
      "ester": 5516,
      "rea": 5517,
      "rel": 5518,
      "regra": 5519,
      "india": 5520,
      "didas": 5521,
      "ricas": 5522,
      "med": 5523,
      "guem": 5524,
      "low": 5525,
      "fibra": 5526,
      "ficiais": 5527,
      "ficá": 5528,
      "fibras": 5529,
      "proto": 5530,
      "tratamentos": 5531,
      "patentes": 5532,
      "explo": 5533,
      "resolu": 5534,
      "formos": 5535,
      "lev": 5536,
      "levam": 5537,
      "ciado": 5538,
      "gato": 5539,
      "chimp": 5540,
      "gradu": 5541,
      "bolas": 5542,
      "piri": 5543,
      "corru": 5544,
      "junto": 5545,
      "babb": 5546,
      "ign": 5547,
      "vidades": 5548,
      "ficadas": 5549,
      "bridge": 5550,
      "criando": 5551,
      "criaturas": 5552,
      "harvar": 5553,
      "líqui": 5554,
      "abs": 5555,
      "chegam": 5556,
      "chamava": 5557,
      "ganho": 5558,
      "soub": 5559,
      "pensaram": 5560,
      "barreiras": 5561,
      "esperava": 5562,
      "memor": 5563,
      "peridade": 5564,
      "acadé": 5565,
      "livres": 5566,
      "ingles": 5567,
      "ciosa": 5568,
      "acreditem": 5569,
      "encontraram": 5570,
      "james": 5571,
      "197": 5572,
      "equili": 5573,
      "antigas": 5574,
      "alteração": 5575,
      "treinar": 5576,
      "acabam": 5577,
      "investigar": 5578,
      "fluxo": 5579,
      "molecu": 5580,
      "escutar": 5581,
      "condição": 5582,
      "abordar": 5583,
      "fundamentalmente": 5584,
      "especialista": 5585,
      "pénis": 5586,
      "cirurgião": 5587,
      "honra": 5588,
      "destruir": 5589,
      "publicar": 5590,
      "percebemos": 5591,
      "combinação": 5592,
      "corrida": 5593,
      "exceto": 5594,
      "sentado": 5595,
      "namora": 5596,
      "crítica": 5597,
      "prosperidade": 5598,
      "questionar": 5599,
      "acabado": 5600,
      "personalidade": 5601,
      "logista": 5602,
      "aproveitar": 5603,
      "apaixona": 5604,
      "investigadores": 5605,
      "acessível": 5606,
      "fósseis": 5607,
      "próstata": 5608,
      "garantir": 5609,
      "francisco": 5610,
      "zumbido": 5611,
      "resolução": 5612,
      "chimpanz": 5613,
      "babbage": 5614,
      "harvard": 5615,
      "aer": 5616,
      "ativo": 5617,
      "atitu": 5618,
      "fes": 5619,
      "gras": 5620,
      "hen": 5621,
      "mín": 5622,
      "onada": 5623,
      "pista": 5624,
      "sy": 5625,
      "war": 5626,
      "xix": 5627,
      "óso": 5628,
      "entá": 5629,
      "retorno": 5630,
      "inesper": 5631,
      "inveja": 5632,
      "raiva": 5633,
      "enca": 5634,
      "cai": 5635,
      "caos": 5636,
      "andam": 5637,
      "tiro": 5638,
      "nados": 5639,
      "gues": 5640,
      "vivas": 5641,
      "licen": 5642,
      "perdeu": 5643,
      "percorrer": 5644,
      "fios": 5645,
      "modi": 5646,
      "exi": 5647,
      "preços": 5648,
      "sili": 5649,
      "caras": 5650,
      "leonar": 5651,
      "pessoalmente": 5652,
      "activa": 5653,
      "actual": 5654,
      "bill": 5655,
      "casar": 5656,
      "tendem": 5657,
      "tendências": 5658,
      "raramente": 5659,
      "manda": 5660,
      "ideal": 5661,
      "olhou": 5662,
      "chamadas": 5663,
      "feed": 5664,
      "barbe": 5665,
      "bilizar": 5666,
      "inclus": 5667,
      "canções": 5668,
      "ficarem": 5669,
      "razo": 5670,
      "medidas": 5671,
      "continente": 5672,
      "ciosos": 5673,
      "limpo": 5674,
      "limpa": 5675,
      "filóso": 5676,
      "hipo": 5677,
      "dária": 5678,
      "governam": 5679,
      "professora": 5680,
      "organismos": 5681,
      "protegi": 5682,
      "lançar": 5683,
      "extrair": 5684,
      "séculos": 5685,
      "gostaríamos": 5686,
      "necessárias": 5687,
      "matemático": 5688,
      "progres": 5689,
      "teira": 5690,
      "deseja": 5691,
      "consequência": 5692,
      "adiv": 5693,
      "indústrias": 5694,
      "processa": 5695,
      "habita": 5696,
      "sintomas": 5697,
      "ficámos": 5698,
      "transportes": 5699,
      "enfrentamos": 5700,
      "demonstr": 5701,
      "vítima": 5702,
      "bonita": 5703,
      "permanente": 5704,
      "visuais": 5705,
      "responsáveis": 5706,
      "gigante": 5707,
      "dificuldade": 5708,
      "pudermos": 5709,
      "estatísticas": 5710,
      "liderança": 5711,
      "cerebral": 5712,
      "instruções": 5713,
      "departamento": 5714,
      "algoritmo": 5715,
      "arquitectura": 5716,
      "estúpi": 5717,
      "desastre": 5718,
      "implicações": 5719,
      "metáfora": 5720,
      "muçulmanos": 5721,
      "biblioteca": 5722,
      "paquistão": 5723,
      "colapso": 5724,
      "percentagem": 5725,
      "sequen": 5726,
      "george": 5727,
      "35": 5728,
      "acu": 5729,
      "aço": 5730,
      "eter": 5731,
      "féri": 5732,
      "jes": 5733,
      "mpa": 5734,
      "oeste": 5735,
      "ple": 5736,
      "sha": 5737,
      "sane": 5738,
      "stan": 5739,
      "tárias": 5740,
      "ular": 5741,
      "zon": 5742,
      "ídas": 5743,
      "únicos": 5744,
      "deva": 5745,
      "denta": 5746,
      "davi": 5747,
      "refor": 5748,
      "refei": 5749,
      "raça": 5750,
      "senão": 5751,
      "toque": 5752,
      "combo": 5753,
      "comparar": 5754,
      "parcer": 5755,
      "ciú": 5756,
      "tidas": 5757,
      "digni": 5758,
      "portas": 5759,
      "portá": 5760,
      "nobel": 5761,
      "dose": 5762,
      "saiu": 5763,
      "desesper": 5764,
      "faix": 5765,
      "ligam": 5766,
      "perde": 5767,
      "montar": 5768,
      "laterra": 5769,
      "latina": 5770,
      "trauma": 5771,
      "pagam": 5772,
      "resum": 5773,
      "irri": 5774,
      "serra": 5775,
      "dulo": 5776,
      "duplo": 5777,
      "cartão": 5778,
      "micha": 5779,
      "leta": 5780,
      "legal": 5781,
      "folhas": 5782,
      "gadas": 5783,
      "doria": 5784,
      "ator": 5785,
      "diss": 5786,
      "pude": 5787,
      "marí": 5788,
      "marcas": 5789,
      "igénio": 5790,
      "ensina": 5791,
      "precisamente": 5792,
      "trocar": 5793,
      "menores": 5794,
      "meninas": 5795,
      "criada": 5796,
      "criativa": 5797,
      "verdadeiros": 5798,
      "olina": 5799,
      "escolar": 5800,
      "calcular": 5801,
      "gana": 5802,
      "espan": 5803,
      "título": 5804,
      "passagem": 5805,
      "longas": 5806,
      "bombas": 5807,
      "ponho": 5808,
      "izados": 5809,
      "inglaterra": 5810,
      "continuamos": 5811,
      "táculos": 5812,
      "pesca": 5813,
      "ecológica": 5814,
      "tórias": 5815,
      "aumentou": 5816,
      "houvesse": 5817,
      "organiz": 5818,
      "europeu": 5819,
      "corais": 5820,
      "correntes": 5821,
      "positiva": 5822,
      "cré": 5823,
      "tentámos": 5824,
      "fariam": 5825,
      "buscar": 5826,
      "lógicos": 5827,
      "pediu": 5828,
      "evoluir": 5829,
      "gráficos": 5830,
      "haveria": 5831,
      "especiais": 5832,
      "laboratórios": 5833,
      "chegamos": 5834,
      "pareça": 5835,
      "couro": 5836,
      "combin": 5837,
      "back": 5838,
      "microfon": 5839,
      "sozinha": 5840,
      "agradável": 5841,
      "diminuir": 5842,
      "ministro": 5843,
      "assusta": 5844,
      "repetir": 5845,
      "dimensão": 5846,
      "imigrantes": 5847,
      "lâmpa": 5848,
      "sensor": 5849,
      "regular": 5850,
      "fisicamente": 5851,
      "dançar": 5852,
      "pontu": 5853,
      "vantagens": 5854,
      "existiam": 5855,
      "mexer": 5856,
      "participação": 5857,
      "competição": 5858,
      "movimentos": 5859,
      "acresc": 5860,
      "personagens": 5861,
      "estabelecer": 5862,
      "põe": 5863,
      "protótipo": 5864,
      "tempesta": 5865,
      "promessa": 5866,
      "saneamento": 5867,
      "dignidade": 5868,
      "26": 5869,
      "aper": 5870,
      "atu": 5871,
      "bei": 5872,
      "ff": 5873,
      "gl": 5874,
      "ken": 5875,
      "lamento": 5876,
      "oi": 5877,
      "sto": 5878,
      "êx": 5879,
      "ífico": 5880,
      "ínu": 5881,
      "devol": 5882,
      "aranhas": 5883,
      "cocó": 5884,
      "embar": 5885,
      "mapas": 5886,
      "aler": 5887,
      "alex": 5888,
      "recurso": 5889,
      "reflex": 5890,
      "injustiça": 5891,
      "invenção": 5892,
      "combater": 5893,
      "enciar": 5894,
      "tirei": 5895,
      "digam": 5896,
      "porco": 5897,
      "mega": 5898,
      "musi": 5899,
      "impla": 5900,
      "conde": 5901,
      "verso": 5902,
      "teus": 5903,
      "teatro": 5904,
      "descer": 5905,
      "liam": 5906,
      "percurso": 5907,
      "firo": 5908,
      "procur": 5909,
      "montes": 5910,
      "vege": 5911,
      "patri": 5912,
      "terri": 5913,
      "contínu": 5914,
      "pensou": 5915,
      "ong": 5916,
      "durar": 5917,
      "achei": 5918,
      "velhas": 5919,
      "prior": 5920,
      "prestar": 5921,
      "preserva": 5922,
      "gica": 5923,
      "berg": 5924,
      "ficada": 5925,
      "ficações": 5926,
      "cionamento": 5927,
      "melhoria": 5928,
      "olhei": 5929,
      "prótes": 5930,
      "morrem": 5931,
      "calhar": 5932,
      "estarão": 5933,
      "transporta": 5934,
      "salto": 5935,
      "saltar": 5936,
      "baral": 5937,
      "barreira": 5938,
      "vencer": 5939,
      "compra": 5940,
      "significar": 5941,
      "núcle": 5942,
      "invés": 5943,
      "currí": 5944,
      "2012": 5945,
      "livrar": 5946,
      "interessado": 5947,
      "recru": 5948,
      "cinema": 5949,
      "tiramos": 5950,
      "desafia": 5951,
      "produtividade": 5952,
      "noutro": 5953,
      "funcionários": 5954,
      "ambiental": 5955,
      "conseguiram": 5956,
      "colabor": 5957,
      "mentiras": 5958,
      "pensavam": 5959,
      "farma": 5960,
      "justo": 5961,
      "investidores": 5962,
      "correto": 5963,
      "leitura": 5964,
      "lógicas": 5965,
      "fluores": 5966,
      "alimenta": 5967,
      "cabeças": 5968,
      "daquelas": 5969,
      "aborre": 5970,
      "branca": 5971,
      "cirurgi": 5972,
      "descoberto": 5973,
      "representação": 5974,
      "modernos": 5975,
      "competências": 5976,
      "publicidade": 5977,
      "terroristas": 5978,
      "bactéria": 5979,
      "considerado": 5980,
      "directamente": 5981,
      "remover": 5982,
      "epide": 5983,
      "pamentos": 5984,
      "sentados": 5985,
      "elevada": 5986,
      "recuperação": 5987,
      "dúz": 5988,
      "flexível": 5989,
      "localização": 5990,
      "andre": 5991,
      "fábricas": 5992,
      "infraestrutura": 5993,
      "recebemos": 5994,
      "concluir": 5995,
      "britânico": 5996,
      "afirmação": 5997,
      "quântica": 5998,
      "símbolo": 5999,
      "parceiros": 6000,
      "paralis": 6001,
      "amazónia": 6002,
      "voluntários": 6003,
      "thomas": 6004,
      "diploma": 6005,
      "bigode": 6006,
      "mamíferos": 6007,
      "ignora": 6008,
      "mínimo": 6009,
      "ciúme": 6010,
      "apos": 6011,
      "aparecem": 6012,
      "bó": 6013,
      "ble": 6014,
      "centes": 6015,
      "dram": 6016,
      "gest": 6017,
      "gro": 6018,
      "gela": 6019,
      "plica": 6020,
      "pistas": 6021,
      "tano": 6022,
      "uras": 6023,
      "xxi": 6024,
      "ânico": 6025,
      "deficiência": 6026,
      "arco": 6027,
      "colu": 6028,
      "colos": 6029,
      "coinci": 6030,
      "colónia": 6031,
      "istica": 6032,
      "queima": 6033,
      "dação": 6034,
      "dando": 6035,
      "entram": 6036,
      "reagir": 6037,
      "reflec": 6038,
      "indro": 6039,
      "invisíveis": 6040,
      "separação": 6041,
      "comprimi": 6042,
      "povos": 6043,
      "poema": 6044,
      "anón": 6045,
      "timas": 6046,
      "tizar": 6047,
      "tativas": 6048,
      "porém": 6049,
      "porcento": 6050,
      "sagra": 6051,
      "impedir": 6052,
      "guí": 6053,
      "conqu": 6054,
      "conso": 6055,
      "vibra": 6056,
      "versa": 6057,
      "veremos": 6058,
      "mascul": 6059,
      "perna": 6060,
      "prontos": 6061,
      "move": 6062,
      "lago": 6063,
      "eceu": 6064,
      "prejudi": 6065,
      "conto": 6066,
      "contac": 6067,
      "curar": 6068,
      "suficientes": 6069,
      "pene": 6070,
      "mila": 6071,
      "foco": 6072,
      "fotó": 6073,
      "velha": 6074,
      "agentes": 6075,
      "gabine": 6076,
      "tasse": 6077,
      "larga": 6078,
      "piores": 6079,
      "corresponde": 6080,
      "plani": 6081,
      "costas": 6082,
      "garra": 6083,
      "rurais": 6084,
      "falei": 6085,
      "tenção": 6086,
      "maras": 6087,
      "unidas": 6088,
      "cometa": 6089,
      "mandela": 6090,
      "caminhos": 6091,
      "acontecem": 6092,
      "partida": 6093,
      "minas": 6094,
      "truque": 6095,
      "instante": 6096,
      "centí": 6097,
      "ganhou": 6098,
      "percebe": 6099,
      "cilindro": 6100,
      "sabor": 6101,
      "significava": 6102,
      "perguntam": 6103,
      "gasolina": 6104,
      "universos": 6105,
      "colocou": 6106,
      "cresceu": 6107,
      "recentes": 6108,
      "banda": 6109,
      "computação": 6110,
      "compreendemos": 6111,
      "orienta": 6112,
      "doutor": 6113,
      "conseguirem": 6114,
      "ajudaram": 6115,
      "landa": 6116,
      "populações": 6117,
      "tentam": 6118,
      "apontar": 6119,
      "pensado": 6120,
      "sabedoria": 6121,
      "sanguí": 6122,
      "cínio": 6123,
      "envolve": 6124,
      "envolvidos": 6125,
      "operar": 6126,
      "grátis": 6127,
      "fantásticas": 6128,
      "abertura": 6129,
      "linear": 6130,
      "empregados": 6131,
      "istentes": 6132,
      "poderosas": 6133,
      "louco": 6134,
      "twe": 6135,
      "robótica": 6136,
      "projectos": 6137,
      "pôs": 6138,
      "compras": 6139,
      "artigos": 6140,
      "sofistica": 6141,
      "neurónio": 6142,
      "brinque": 6143,
      "bolso": 6144,
      "nucleares": 6145,
      "vermelhos": 6146,
      "amarelo": 6147,
      "assuntos": 6148,
      "troux": 6149,
      "sugere": 6150,
      "corrigir": 6151,
      "instalações": 6152,
      "oxigénio": 6153,
      "refere": 6154,
      "partícula": 6155,
      "esforços": 6156,
      "revelar": 6157,
      "respondeu": 6158,
      "determinado": 6159,
      "selec": 6160,
      "eficazes": 6161,
      "verificar": 6162,
      "agulha": 6163,
      "simul": 6164,
      "expressões": 6165,
      "eliminar": 6166,
      "radical": 6167,
      "cardíaco": 6168,
      "algoritmos": 6169,
      "inverno": 6170,
      "símbolos": 6171,
      "imensas": 6172,
      "possuem": 6173,
      "painel": 6174,
      "estivessem": 6175,
      "elefante": 6176,
      "conexões": 6177,
      "distúrbios": 6178,
      "cêntimos": 6179,
      "romance": 6180,
      "ficácia": 6181,
      "corrupção": 6182,
      "molecular": 6183,
      "acusa": 6184,
      "michael": 6185,
      "28": 6186,
      "65": 6187,
      "dância": 6188,
      "eficientes": 6189,
      "eficácia": 6190,
      "ie": 6191,
      "imu": 6192,
      "irei": 6193,
      "ilhas": 6194,
      "iphone": 6195,
      "jer": 6196,
      "lé": 6197,
      "lê": 6198,
      "ontem": 6199,
      "pm": 6200,
      "sch": 6201,
      "stre": 6202,
      "tela": 6203,
      "uber": 6204,
      "usei": 6205,
      "osso": 6206,
      "archi": 6207,
      "queix": 6208,
      "quebra": 6209,
      "ambas": 6210,
      "donos": 6211,
      "alia": 6212,
      "ret": 6213,
      "redução": 6214,
      "iner": 6215,
      "incomo": 6216,
      "raios": 6217,
      "causas": 6218,
      "pop": 6219,
      "times": 6220,
      "diariamente": 6221,
      "tatu": 6222,
      "navios": 6223,
      "saio": 6224,
      "desistir": 6225,
      "lic": 6226,
      "persegu": 6227,
      "proi": 6228,
      "proposta": 6229,
      "lava": 6230,
      "lavar": 6231,
      "tragé": 6232,
      "voa": 6233,
      "patch": 6234,
      "exten": 6235,
      "trão": 6236,
      "preparados": 6237,
      "nicamente": 6238,
      "cujo": 6239,
      "carr": 6240,
      "agru": 6241,
      "intriga": 6242,
      "casse": 6243,
      "sementes": 6244,
      "grafo": 6245,
      "gravar": 6246,
      "prim": 6247,
      "privil": 6248,
      "atómi": 6249,
      "dispar": 6250,
      "darwin": 6251,
      "preso": 6252,
      "raste": 6253,
      "alien": 6254,
      "jeo": 6255,
      "apple": 6256,
      "melhora": 6257,
      "aconteci": 6258,
      "futebol": 6259,
      "poup": 6260,
      "entrevista": 6261,
      "calcula": 6262,
      "centrais": 6263,
      "deixam": 6264,
      "deixaram": 6265,
      "esperem": 6266,
      "biliz": 6267,
      "tecnológica": 6268,
      "comunica": 6269,
      "mágico": 6270,
      "contrato": 6271,
      "194": 6272,
      "resulta": 6273,
      "levado": 6274,
      "orial": 6275,
      "automa": 6276,
      "próximas": 6277,
      "2001": 6278,
      "sensi": 6279,
      "alizadas": 6280,
      "géme": 6281,
      "apropria": 6282,
      "terríveis": 6283,
      "tentando": 6284,
      "naqueles": 6285,
      "construídas": 6286,
      "entendem": 6287,
      "correu": 6288,
      "câmaras": 6289,
      "profundas": 6290,
      "operação": 6291,
      "operações": 6292,
      "apresentação": 6293,
      "económicas": 6294,
      "originais": 6295,
      "programação": 6296,
      "pinturas": 6297,
      "louca": 6298,
      "loucos": 6299,
      "loucura": 6300,
      "tian": 6301,
      "trabalhava": 6302,
      "inovações": 6303,
      "juntam": 6304,
      "demasia": 6305,
      "eventos": 6306,
      "sofrem": 6307,
      "utilizador": 6308,
      "honest": 6309,
      "extrema": 6310,
      "combinar": 6311,
      "potencialmente": 6312,
      "transa": 6313,
      "partilhada": 6314,
      "capitalismo": 6315,
      "anteriormente": 6316,
      "árabes": 6317,
      "colaboração": 6318,
      "financeira": 6319,
      "observação": 6320,
      "nanopatch": 6321,
      "ecossistemas": 6322,
      "desperdi": 6323,
      "argumento": 6324,
      "universidades": 6325,
      "galáxia": 6326,
      "famoso": 6327,
      "comentário": 6328,
      "defesa": 6329,
      "ânea": 6330,
      "componente": 6331,
      "administração": 6332,
      "capita": 6333,
      "abrandar": 6334,
      "movim": 6335,
      "exames": 6336,
      "ocorreu": 6337,
      "cadeiras": 6338,
      "escaravelho": 6339,
      "fêmea": 6340,
      "doloroso": 6341,
      "vulneráveis": 6342,
      "veteranos": 6343,
      "junho": 6344,
      "aeropor": 6345,
      "leonardo": 6346,
      "david": 6347,
      "êxito": 6348,
      "gabinete": 6349,
      "cável": 6350,
      "cício": 6351,
      "jou": 6352,
      "leu": 6353,
      "mc": 6354,
      "sir": 6355,
      "tento": 6356,
      "ting": 6357,
      "vim": 6358,
      "xido": 6359,
      "zi": 6360,
      "áu": 6361,
      "çando": 6362,
      "ôs": 6363,
      "osamente": 6364,
      "espiri": 6365,
      "dere": 6366,
      "arras": 6367,
      "quoti": 6368,
      "empol": 6369,
      "mad": 6370,
      "dava": 6371,
      "inser": 6372,
      "racio": 6373,
      "raízes": 6374,
      "compre": 6375,
      "enro": 6376,
      "sofre": 6377,
      "parques": 6378,
      "cat": 6379,
      "caiu": 6380,
      "cabos": 6381,
      "polin": 6382,
      "tirada": 6383,
      "dió": 6384,
      "rido": 6385,
      "paraí": 6386,
      "mulo": 6387,
      "sacri": 6388,
      "desconhecido": 6389,
      "lie": 6390,
      "perdida": 6391,
      "provis": 6392,
      "lacu": 6393,
      "voo": 6394,
      "paga": 6395,
      "prepar": 6396,
      "previsão": 6397,
      "pete": 6398,
      "agre": 6399,
      "agências": 6400,
      "bil": 6401,
      "casca": 6402,
      "chá": 6403,
      "grau": 6404,
      "primos": 6405,
      "simpá": 6406,
      "simpli": 6407,
      "dispostos": 6408,
      "cerveja": 6409,
      "ruanda": 6410,
      "puzz": 6411,
      "rostos": 6412,
      "intervenção": 6413,
      "nascimento": 6414,
      "babi": 6415,
      "manhat": 6416,
      "consegues": 6417,
      "acontecimento": 6418,
      "cionei": 6419,
      "caminh": 6420,
      "bases": 6421,
      "poupan": 6422,
      "sentidos": 6423,
      "histórico": 6424,
      "ultras": 6425,
      "estimula": 6426,
      "pequen": 6427,
      "tridimensional": 6428,
      "ntico": 6429,
      "genéticas": 6430,
      "deixamos": 6431,
      "percepção": 6432,
      "adam": 6433,
      "inventou": 6434,
      "2050": 6435,
      "ingredi": 6436,
      "colocam": 6437,
      "colocamos": 6438,
      "conhecidas": 6439,
      "turma": 6440,
      "continuava": 6441,
      "errados": 6442,
      "cresce": 6443,
      "expec": 6444,
      "noutras": 6445,
      "aprenderam": 6446,
      "roubar": 6447,
      "2007": 6448,
      "senhora": 6449,
      "chamaram": 6450,
      "mentira": 6451,
      "treina": 6452,
      "globalização": 6453,
      "partilhamos": 6454,
      "idosas": 6455,
      "apoi": 6456,
      "apont": 6457,
      "humil": 6458,
      "humilha": 6459,
      "violenta": 6460,
      "praia": 6461,
      "comportam": 6462,
      "conversar": 6463,
      "diretor": 6464,
      "públicas": 6465,
      "americanas": 6466,
      "tornado": 6467,
      "apartamento": 6468,
      "sexta": 6469,
      "telefó": 6470,
      "cuitos": 6471,
      "choque": 6472,
      "tradições": 6473,
      "afeta": 6474,
      "circuitos": 6475,
      "frances": 6476,
      "francês": 6477,
      "determinar": 6478,
      "técnico": 6479,
      "documento": 6480,
      "extraordinárias": 6481,
      "produzem": 6482,
      "vulgar": 6483,
      "guardar": 6484,
      "demonstrar": 6485,
      "demonstração": 6486,
      "capí": 6487,
      "jornalistas": 6488,
      "crucial": 6489,
      "sentada": 6490,
      "básico": 6491,
      "influencia": 6492,
      "chineses": 6493,
      "anteriores": 6494,
      "excelentes": 6495,
      "escolhemos": 6496,
      "microscó": 6497,
      "domínio": 6498,
      "bby": 6499,
      "ignorar": 6500,
      "específica": 6501,
      "adolescente": 6502,
      "admira": 6503,
      "suicídio": 6504,
      "primavera": 6505,
      "conscientes": 6506,
      "exercício": 6507,
      "demorar": 6508,
      "receitas": 6509,
      "recebeu": 6510,
      "mexica": 6511,
      "adorava": 6512,
      "informáticos": 6513,
      "nutrientes": 6514,
      "orgulho": 6515,
      "acessíveis": 6516,
      "surgiram": 6517,
      "gratui": 6518,
      "reunir": 6519,
      "sustentabilidade": 6520,
      "world": 6521,
      "empreendedores": 6522,
      "movembro": 6523,
      "intelectual": 6524,
      "filoso": 6525,
      "legis": 6526,
      "telescópio": 6527,
      "integrar": 6528,
      "crédito": 6529,
      "microfone": 6530,
      "musical": 6531,
      "prioridade": 6532,
      "cirurgiões": 6533,
      "street": 6534,
      "quotidia": 6535,
      "manhattan": 6536,
      "poupanças": 6537,
      "99": 6538,
      "acomp": 6539,
      "aprova": 6540,
      "bum": 6541,
      "bram": 6542,
      "brem": 6543,
      "belas": 6544,
      "cães": 6545,
      "dício": 6546,
      "fan": 6547,
      "glas": 6548,
      "iran": 6549,
      "kan": 6550,
      "mera": 6551,
      "nelas": 6552,
      "pt": 6553,
      "zan": 6554,
      "âmetro": 6555,
      "ía": 6556,
      "ópia": 6557,
      "deri": 6558,
      "assegurar": 6559,
      "arial": 6560,
      "colher": 6561,
      "isl": 6562,
      "islâ": 6563,
      "max": 6564,
      "ampl": 6565,
      "estí": 6566,
      "retina": 6567,
      "reparação": 6568,
      "inacredi": 6569,
      "sejamos": 6570,
      "comis": 6571,
      "enrique": 6572,
      "cante": 6573,
      "tintas": 6574,
      "dial": 6575,
      "dieta": 6576,
      "mur": 6577,
      "saem": 6578,
      "condução": 6579,
      "havido": 6580,
      "verti": 6581,
      "vermos": 6582,
      "licada": 6583,
      "liceu": 6584,
      "mons": 6585,
      "eias": 6586,
      "tradução": 6587,
      "usámos": 6588,
      "estabilidade": 6589,
      "ech": 6590,
      "tral": 6591,
      "trões": 6592,
      "preven": 6593,
      "sujei": 6594,
      "suécia": 6595,
      "one": 6596,
      "mito": 6597,
      "levá": 6598,
      "fogue": 6599,
      "peti": 6600,
      "pegamos": 6601,
      "segue": 6602,
      "bito": 6603,
      "chica": 6604,
      "bolha": 6605,
      "correio": 6606,
      "presença": 6607,
      "gios": 6608,
      "gira": 6609,
      "falso": 6610,
      "judeus": 6611,
      "marcar": 6612,
      "março": 6613,
      "cripto": 6614,
      "precisavam": 6615,
      "vistos": 6616,
      "conseguiam": 6617,
      "cionário": 6618,
      "cambridge": 6619,
      "íssemos": 6620,
      "japon": 6621,
      "fuga": 6622,
      "viaja": 6623,
      "céus": 6624,
      "inspirar": 6625,
      "bron": 6626,
      "estarmos": 6627,
      "estariam": 6628,
      "triz": 6629,
      "chamados": 6630,
      "tesla": 6631,
      "transferência": 6632,
      "transformou": 6633,
      "souber": 6634,
      "soube": 6635,
      "fizesse": 6636,
      "vendas": 6637,
      "bilião": 6638,
      "clareza": 6639,
      "admir": 6640,
      "incl": 6641,
      "passag": 6642,
      "existentes": 6643,
      "ponham": 6644,
      "2015": 6645,
      "acreditava": 6646,
      "limpar": 6647,
      "filma": 6648,
      "fáceis": 6649,
      "hip": 6650,
      "conhecia": 6651,
      "mús": 6652,
      "placa": 6653,
      "plateia": 6654,
      "resultou": 6655,
      "negras": 6656,
      "autocarro": 6657,
      "frenia": 6658,
      "tornarem": 6659,
      "comecemos": 6660,
      "antár": 6661,
      "síria": 6662,
      "senso": 6663,
      "inicialmente": 6664,
      "corremos": 6665,
      "pólio": 6666,
      "matemáticos": 6667,
      "explor": 6668,
      "levaram": 6669,
      "pediram": 6670,
      "cidadão": 6671,
      "rural": 6672,
      "gordura": 6673,
      "trabalhado": 6674,
      "possivelmente": 6675,
      "francamente": 6676,
      "químico": 6677,
      "chips": 6678,
      "processar": 6679,
      "conveni": 6680,
      "brincadeira": 6681,
      "maravilhosas": 6682,
      "eleição": 6683,
      "preocupação": 6684,
      "sessão": 6685,
      "instalação": 6686,
      "ameaças": 6687,
      "nami": 6688,
      "imigração": 6689,
      "ensinam": 6690,
      "detalhe": 6691,
      "levantem": 6692,
      "dividir": 6693,
      "cêu": 6694,
      "costumavam": 6695,
      "congela": 6696,
      "sincer": 6697,
      "concordar": 6698,
      "desperdício": 6699,
      "irmãs": 6700,
      "motivação": 6701,
      "achava": 6702,
      "corporal": 6703,
      "nelson": 6704,
      "escapar": 6705,
      "obstáculos": 6706,
      "detetar": 6707,
      "limitações": 6708,
      "ilegal": 6709,
      "informática": 6710,
      "âneo": 6711,
      "wiki": 6712,
      "satisfa": 6713,
      "navegar": 6714,
      "automóveis": 6715,
      "imensos": 6716,
      "personagem": 6717,
      "sanita": 6718,
      "assumir": 6719,
      "quantidades": 6720,
      "wall": 6721,
      "ocasion": 6722,
      "mapear": 6723,
      "excitante": 6724,
      "incentivos": 6725,
      "categoria": 6726,
      "etiópia": 6727,
      "tijolos": 6728,
      "inevitável": 6729,
      "disciplina": 6730,
      "obesidade": 6731,
      "financiamento": 6732,
      "william": 6733,
      "efetivamente": 6734,
      "estaminais": 6735,
      "extremo": 6736,
      "esquizofrenia": 6737,
      "abstra": 6738,
      "devagar": 6739,
      "farmacêu": 6740,
      "epidemias": 6741,
      "tweet": 6742,
      "tragédia": 6743,
      "privilégio": 6744,
      "acontecimentos": 6745,
      "puzzle": 6746,
      "acompanha": 6747,
      "chicago": 6748,
      "aba": 6749,
      "abas": 6750,
      "apelo": 6751,
      "aperceber": 6752,
      "apercebem": 6753,
      "bp": 6754,
      "búr": 6755,
      "eas": 6756,
      "fla": 6757,
      "gg": 6758,
      "gin": 6759,
      "gámos": 6760,
      "iedade": 6761,
      "jen": 6762,
      "kit": 6763,
      "mões": 6764,
      "rm": 6765,
      "smart": 6766,
      "tindo": 6767,
      "up": 6768,
      "átri": 6769,
      "çou": 6770,
      "ína": 6771,
      "quim": 6772,
      "coer": 6773,
      "coro": 6774,
      "embal": 6775,
      "mante": 6776,
      "entrei": 6777,
      "alfa": 6778,
      "alvos": 6779,
      "estrei": 6780,
      "reb": 6781,
      "recon": 6782,
      "rebel": 6783,
      "recic": 6784,
      "reinventar": 6785,
      "radio": 6786,
      "comemos": 6787,
      "pardy": 6788,
      "poeta": 6789,
      "diâmetro": 6790,
      "ridão": 6791,
      "rigor": 6792,
      "noti": 6793,
      "novidade": 6794,
      "medula": 6795,
      "nau": 6796,
      "nadas": 6797,
      "naquilo": 6798,
      "mudei": 6799,
      "conv": 6800,
      "confu": 6801,
      "hadas": 6802,
      "vivi": 6803,
      "vertidos": 6804,
      "lojas": 6805,
      "temo": 6806,
      "façamos": 6807,
      "protec": 6808,
      "tun": 6809,
      "tus": 6810,
      "tubo": 6811,
      "tubos": 6812,
      "traduzir": 6813,
      "paul": 6814,
      "pausa": 6815,
      "estações": 6816,
      "excesso": 6817,
      "extin": 6818,
      "ecemos": 6819,
      "sivas": 6820,
      "nima": 6821,
      "seremos": 6822,
      "servir": 6823,
      "culares": 6824,
      "sura": 6825,
      "sujeito": 6826,
      "duplicar": 6827,
      "pedras": 6828,
      "actu": 6829,
      "aceito": 6830,
      "luxo": 6831,
      "bob": 6832,
      "bole": 6833,
      "dispo": 6834,
      "distor": 6835,
      "distante": 6836,
      "pias": 6837,
      "cortes": 6838,
      "zado": 6839,
      "gida": 6840,
      "falhas": 6841,
      "pudemos": 6842,
      "tópico": 6843,
      "trabalhamos": 6844,
      "consiste": 6845,
      "avós": 6846,
      "caminha": 6847,
      "íssimo": 6848,
      "fura": 6849,
      "pareceram": 6850,
      "encontrado": 6851,
      "olhemos": 6852,
      "autê": 6853,
      "truques": 6854,
      "morcegos": 6855,
      "entretanto": 6856,
      "ganham": 6857,
      "transmissão": 6858,
      "barra": 6859,
      "venda": 6860,
      "desenhos": 6861,
      "estudei": 6862,
      "complicada": 6863,
      "tornando": 6864,
      "baixar": 6865,
      "izadas": 6866,
      "conhecimentos": 6867,
      "energias": 6868,
      "hambúr": 6869,
      "ecologia": 6870,
      "noutra": 6871,
      "autocarros": 6872,
      "funcione": 6873,
      "roupas": 6874,
      "2004": 6875,
      "2005": 6876,
      "escritos": 6877,
      "escritórios": 6878,
      "quaisquer": 6879,
      "preocupam": 6880,
      "fechar": 6881,
      "divertir": 6882,
      "tony": 6883,
      "antibió": 6884,
      "cícios": 6885,
      "escuridão": 6886,
      "clique": 6887,
      "instituto": 6888,
      "gráfica": 6889,
      "atirar": 6890,
      "nariz": 6891,
      "rápidos": 6892,
      "definir": 6893,
      "tisse": 6894,
      "incluir": 6895,
      "saudita": 6896,
      "considero": 6897,
      "preocupações": 6898,
      "multiverso": 6899,
      "azu": 6900,
      "factores": 6901,
      "captar": 6902,
      "profissional": 6903,
      "genomas": 6904,
      "referência": 6905,
      "partilhado": 6906,
      "visualizar": 6907,
      "associação": 6908,
      "ensinou": 6909,
      "espantosa": 6910,
      "sensores": 6911,
      "emergência": 6912,
      "regulam": 6913,
      "fornece": 6914,
      "contribuir": 6915,
      "lançou": 6916,
      "lançamento": 6917,
      "financeiro": 6918,
      "anteci": 6919,
      "antepassados": 6920,
      "mundos": 6921,
      "exercícios": 6922,
      "clínica": 6923,
      "clínicos": 6924,
      "julgamento": 6925,
      "senhores": 6926,
      "demorou": 6927,
      "explicou": 6928,
      "órgão": 6929,
      "suporte": 6930,
      "avançada": 6931,
      "administra": 6932,
      "cognitivo": 6933,
      "iniciativa": 6934,
      "enferme": 6935,
      "estúdio": 6936,
      "baratos": 6937,
      "impressionante": 6938,
      "painéis": 6939,
      "arroz": 6940,
      "macaco": 6941,
      "equação": 6942,
      "york": 6943,
      "piloto": 6944,
      "energética": 6945,
      "camiões": 6946,
      "renováveis": 6947,
      "economistas": 6948,
      "manipular": 6949,
      "neandertais": 6950,
      "acompanhar": 6951,
      "espetacular": 6952,
      "encanta": 6953,
      "férias": 6954,
      "doutoramento": 6955,
      "jeopardy": 6956,
      "poupança": 6957,
      "dióxido": 6958,
      "ocasionalmente": 6959,
      "hambúrguer": 6960,
      "32": 6961,
      "800": 6962,
      "adiante": 6963,
      "cário": 6964,
      "clicar": 6965,
      "dri": 6966,
      "eó": 6967,
      "epis": 6968,
      "fôs": 6969,
      "hando": 6970,
      "ls": 6971,
      "mentação": 6972,
      "neles": 6973,
      "ologia": 6974,
      "sali": 6975,
      "sores": 6976,
      "scra": 6977,
      "tinho": 6978,
      "uri": 6979,
      "wer": 6980,
      "xvi": 6981,
      "édia": 6982,
      "esas": 6983,
      "del": 6984,
      "quali": 6985,
      "ntal": 6986,
      "co2": 6987,
      "dobrar": 6988,
      "alimento": 6989,
      "reprodução": 6990,
      "incapacidade": 6991,
      "radas": 6992,
      "sequências": 6993,
      "tono": 6994,
      "comédia": 6995,
      "parem": 6996,
      "elho": 6997,
      "umar": 6998,
      "potável": 6999,
      "cimo": 7000,
      "citar": 7001,
      "civis": 7002,
      "anc": 7003,
      "didade": 7004,
      "diária": 7005,
      "diarre": 7006,
      "ridí": 7007,
      "porcos": 7008,
      "ouve": 7009,
      "impre": 7010,
      "improvis": 7011,
      "confer": 7012,
      "vigil": 7013,
      "logicamente": 7014,
      "fabul": 7015,
      "fique": 7016,
      "hop": 7017,
      "voca": 7018,
      "paciência": 7019,
      "pací": 7020,
      "estabele": 7021,
      "extensão": 7022,
      "resistir": 7023,
      "respiração": 7024,
      "terras": 7025,
      "prece": 7026,
      "formi": 7027,
      "forne": 7028,
      "duro": 7029,
      "dupla": 7030,
      "caros": 7031,
      "milí": 7032,
      "actividade": 7033,
      "segui": 7034,
      "gava": 7035,
      "intr": 7036,
      "estágio": 7037,
      "bie": 7038,
      "bits": 7039,
      "cegueira": 7040,
      "gratidão": 7041,
      "aten": 7042,
      "formato": 7043,
      "pru": 7044,
      "prem": 7045,
      "fertili": 7046,
      "talento": 7047,
      "plan": 7048,
      "rast": 7049,
      "falsa": 7050,
      "falha": 7051,
      "voltando": 7052,
      "interven": 7053,
      "interface": 7054,
      "cismo": 7055,
      "nasa": 7056,
      "criadores": 7057,
      "criativos": 7058,
      "cultivar": 7059,
      "verdadeiras": 7060,
      "bastian": 7061,
      "encontrou": 7062,
      "estivemos": 7063,
      "morta": 7064,
      "vasto": 7065,
      "estará": 7066,
      "deixe": 7067,
      "crenças": 7068,
      "espir": 7069,
      "desenhado": 7070,
      "cionados": 7071,
      "ajudá": 7072,
      "relatório": 7073,
      "relacionar": 7074,
      "significativa": 7075,
      "curta": 7076,
      "bomb": 7077,
      "tentaram": 7078,
      "frigor": 7079,
      "adopção": 7080,
      "sonhar": 7081,
      "erradi": 7082,
      "subme": 7083,
      "recém": 7084,
      "começarmos": 7085,
      "hiper": 7086,
      "aconteceria": 7087,
      "deitar": 7088,
      "recep": 7089,
      "sustentar": 7090,
      "suspei": 7091,
      "indicar": 7092,
      "houver": 7093,
      "organismo": 7094,
      "fases": 7095,
      "manten": 7096,
      "senhoras": 7097,
      "inicial": 7098,
      "terrestres": 7099,
      "praticar": 7100,
      "diversas": 7101,
      "evidências": 7102,
      "sentirem": 7103,
      "aparência": 7104,
      "alimentação": 7105,
      "confusão": 7106,
      "esquec": 7107,
      "jornais": 7108,
      "conselh": 7109,
      "mostrado": 7110,
      "analo": 7111,
      "tomada": 7112,
      "evan": 7113,
      "saído": 7114,
      "quarta": 7115,
      "quartos": 7116,
      "avanço": 7117,
      "textos": 7118,
      "competir": 7119,
      "confortáveis": 7120,
      "móveis": 7121,
      "montanhas": 7122,
      "profissão": 7123,
      "regresso": 7124,
      "excepto": 7125,
      "perderam": 7126,
      "taxas": 7127,
      "proporcionar": 7128,
      "saibam": 7129,
      "introduzir": 7130,
      "apareceram": 7131,
      "psiquia": 7132,
      "colaboradores": 7133,
      "acolh": 7134,
      "utilizando": 7135,
      "electró": 7136,
      "quadrados": 7137,
      "financeiros": 7138,
      "observações": 7139,
      "secundária": 7140,
      "primatas": 7141,
      "paradoxo": 7142,
      "entusiasmado": 7143,
      "variáveis": 7144,
      "aviões": 7145,
      "apaixonada": 7146,
      "receita": 7147,
      "estratégias": 7148,
      "expressar": 7149,
      "avalia": 7150,
      "instrumento": 7151,
      "alternativas": 7152,
      "quântico": 7153,
      "literacia": 7154,
      "tional": 7155,
      "watts": 7156,
      "dominante": 7157,
      "restaurante": 7158,
      "túnel": 7159,
      "clube": 7160,
      "correcta": 7161,
      "agradecer": 7162,
      "kinson": 7163,
      "horizonte": 7164,
      "abundância": 7165,
      "anunci": 7166,
      "satélites": 7167,
      "bitcoin": 7168,
      "airb": 7169,
      "ígenas": 7170,
      "urbano": 7171,
      "contempor": 7172,
      "aceder": 7173,
      "tropicais": 7174,
      "prisioneiros": 7175,
      "efectivamente": 7176,
      "anatomia": 7177,
      "relva": 7178,
      "feedback": 7179,
      "zonas": 7180,
      "pontuação": 7181,
      "acrescentar": 7182,
      "currículo": 7183,
      "sanguíne": 7184,
      "fôssemos": 7185,
      "scratch": 7186,
      "diarreia": 7187,
      "vigilância": 7188,
      "250": 7189,
      "54": 7190,
      "72": 7191,
      "ades": 7192,
      "aterror": 7193,
      "beira": 7194,
      "cs": 7195,
      "gres": 7196,
      "hé": 7197,
      "hí": 7198,
      "jon": 7199,
      "lento": 7200,
      "lentes": 7201,
      "rús": 7202,
      "sco": 7203,
      "sam": 7204,
      "star": 7205,
      "scho": 7206,
      "tsu": 7207,
      "ue": 7208,
      "vinha": 7209,
      "ventu": 7210,
      "wit": 7211,
      "çamento": 7212,
      "óculos": 7213,
      "ose": 7214,
      "ostra": 7215,
      "orçam": 7216,
      "doce": 7217,
      "dobro": 7218,
      "dadores": 7219,
      "entando": 7220,
      "entámos": 7221,
      "estô": 7222,
      "inun": 7223,
      "insul": 7224,
      "inária": 7225,
      "racional": 7226,
      "seco": 7227,
      "separa": 7228,
      "separar": 7229,
      "sebastian": 7230,
      "compara": 7231,
      "composto": 7232,
      "ensai": 7233,
      "endere": 7234,
      "sovi": 7235,
      "park": 7236,
      "parkinson": 7237,
      "rocha": 7238,
      "cane": 7239,
      "polo": 7240,
      "tiz": 7241,
      "tiram": 7242,
      "difusão": 7243,
      "tadores": 7244,
      "tavam": 7245,
      "paradig": 7246,
      "entei": 7247,
      "medes": 7248,
      "metria": 7249,
      "metano": 7250,
      "saco": 7251,
      "congo": 7252,
      "confun": 7253,
      "vila": 7254,
      "desespero": 7255,
      "desporto": 7256,
      "lider": 7257,
      "liguei": 7258,
      "perfil": 7259,
      "figura": 7260,
      "promover": 7261,
      "propus": 7262,
      "motivos": 7263,
      "traje": 7264,
      "usem": 7265,
      "estatu": 7266,
      "reser": 7267,
      "resili": 7268,
      "preconceitos": 7269,
      "sio": 7270,
      "contou": 7271,
      "contamos": 7272,
      "lhões": 7273,
      "nias": 7274,
      "supr": 7275,
      "carreg": 7276,
      "lego": 7277,
      "foxo": 7278,
      "pedia": 7279,
      "peguei": 7280,
      "actuais": 7281,
      "vela": 7282,
      "lucros": 7283,
      "unir": 7284,
      "çado": 7285,
      "gama": 7286,
      "gates": 7287,
      "interação": 7288,
      "tassem": 7289,
      "disper": 7290,
      "ferro": 7291,
      "talentos": 7292,
      "talib": 7293,
      "pion": 7294,
      "daria": 7295,
      "bale": 7296,
      "aliás": 7297,
      "garanti": 7298,
      "derru": 7299,
      "falsi": 7300,
      "falava": 7301,
      "juventu": 7302,
      "interro": 7303,
      "interrup": 7304,
      "mary": 7305,
      "margem": 7306,
      "bay": 7307,
      "baby": 7308,
      "netos": 7309,
      "lema": 7310,
      "mann": 7311,
      "ficando": 7312,
      "camar": 7313,
      "merece": 7314,
      "minor": 7315,
      "lágri": 7316,
      "absur": 7317,
      "abelha": 7318,
      "entrevis": 7319,
      "centri": 7320,
      "vemente": 7321,
      "venha": 7322,
      "sabendo": 7323,
      "esperam": 7324,
      "rámo": 7325,
      "medicação": 7326,
      "ilustra": 7327,
      "continuou": 7328,
      "crescem": 7329,
      "empresários": 7330,
      "bancos": 7331,
      "códi": 7332,
      "cópia": 7333,
      "músicos": 7334,
      "custar": 7335,
      "levanta": 7336,
      "orientação": 7337,
      "utilidade": 7338,
      "controla": 7339,
      "basebol": 7340,
      "planear": 7341,
      "economi": 7342,
      "educar": 7343,
      "iniciar": 7344,
      "culturais": 7345,
      "observ": 7346,
      "observamos": 7347,
      "sombras": 7348,
      "praça": 7349,
      "construíram": 7350,
      "acabamos": 7351,
      "voltaram": 7352,
      "queira": 7353,
      "progredi": 7354,
      "começado": 7355,
      "colis": 7356,
      "color": 7357,
      "tratava": 7358,
      "cliente": 7359,
      "sexos": 7360,
      "pesquisar": 7361,
      "acordar": 7362,
      "jornada": 7363,
      "surpreendeu": 7364,
      "surpreendentemente": 7365,
      "origin": 7366,
      "animação": 7367,
      "afetar": 7368,
      "circular": 7369,
      "adicion": 7370,
      "teorias": 7371,
      "móvel": 7372,
      "eleitores": 7373,
      "transportar": 7374,
      "multidão": 7375,
      "comprome": 7376,
      "destro": 7377,
      "característica": 7378,
      "chinesa": 7379,
      "intensidade": 7380,
      "prostitu": 7381,
      "fizerem": 7382,
      "concebi": 7383,
      "emergentes": 7384,
      "high": 7385,
      "lançámos": 7386,
      "infraestruturas": 7387,
      "congesti": 7388,
      "processamento": 7389,
      "famosa": 7390,
      "desempenhar": 7391,
      "provoca": 7392,
      "cardíaca": 7393,
      "pareciam": 7394,
      "acrescent": 7395,
      "mecanismos": 7396,
      "internacionais": 7397,
      "cobertura": 7398,
      "registos": 7399,
      "mergulho": 7400,
      "hall": 7401,
      "óptimo": 7402,
      "apercebeu": 7403,
      "black": 7404,
      "egoís": 7405,
      "macacos": 7406,
      "descrição": 7407,
      "múltiplas": 7408,
      "ansiedade": 7409,
      "orgânica": 7410,
      "idênticas": 7411,
      "rabiscar": 7412,
      "emprés": 7413,
      "propaganda": 7414,
      "automática": 7415,
      "procedimento": 7416,
      "distinguir": 7417,
      "fabricantes": 7418,
      "egípcios": 7419,
      "espelho": 7420,
      "ascensão": 7421,
      "condutores": 7422,
      "inglesa": 7423,
      "atitude": 7424,
      "stanford": 7425,
      "refeição": 7426,
      "portátil": 7427,
      "dúzia": 7428,
      "proibi": 7429,
      "aeroporto": 7430,
      "azuis": 7431,
      "rússia": 7432,
      "juventude": 7433,
      "120": 7434,
      "160": 7435,
      "55": 7436,
      "64": 7437,
      "700": 7438,
      "aé": 7439,
      "adores": 7440,
      "ativa": 7441,
      "afro": 7442,
      "aperfei": 7443,
      "cci": 7444,
      "cei": 7445,
      "ctos": 7446,
      "eh": 7447,
      "ear": 7448,
      "gel": 7449,
      "gli": 7450,
      "ião": 7451,
      "icidade": 7452,
      "ivas": 7453,
      "mk": 7454,
      "nalguns": 7455,
      "ocorrer": 7456,
      "oficial": 7457,
      "phon": 7458,
      "sora": 7459,
      "she": 7460,
      "steve": 7461,
      "vês": 7462,
      "ws": 7463,
      "yo": 7464,
      "ác": 7465,
      "âmi": 7466,
      "ânio": 7467,
      "ótima": 7468,
      "ostras": 7469,
      "espre": 7470,
      "delica": 7471,
      "astrónomos": 7472,
      "ntu": 7473,
      "colar": 7474,
      "copia": 7475,
      "emi": 7476,
      "embro": 7477,
      "quebrar": 7478,
      "queiram": 7479,
      "orçamento": 7480,
      "ampla": 7481,
      "dano": 7482,
      "dante": 7483,
      "davam": 7484,
      "rebo": 7485,
      "refiro": 7486,
      "inga": 7487,
      "rap": 7488,
      "ensaio": 7489,
      "soar": 7490,
      "sota": 7491,
      "socio": 7492,
      "parlamento": 7493,
      "roma": 7494,
      "rolar": 7495,
      "cica": 7496,
      "city": 7497,
      "anó": 7498,
      "anfi": 7499,
      "diu": 7500,
      "ditas": 7501,
      "divisões": 7502,
      "tativa": 7503,
      "tail": 7504,
      "portu": 7505,
      "medos": 7506,
      "meteor": 7507,
      "nacionais": 7508,
      "outono": 7509,
      "muro": 7510,
      "sado": 7511,
      "versões": 7512,
      "lobos": 7513,
      "vaca": 7514,
      "desigualdade": 7515,
      "desfru": 7516,
      "desconfortável": 7517,
      "lip": 7518,
      "perdem": 7519,
      "turi": 7520,
      "laços": 7521,
      "holanda": 7522,
      "extro": 7523,
      "tris": 7524,
      "teres": 7525,
      "conter": 7526,
      "onu": 7527,
      "carto": 7528,
      "pegada": 7529,
      "queridos": 7530,
      "acos": 7531,
      "lucra": 7532,
      "çada": 7533,
      "seguem": 7534,
      "bita": 7535,
      "primor": 7536,
      "atori": 7537,
      "bona": 7538,
      "distra": 7539,
      "distantes": 7540,
      "toral": 7541,
      "talk": 7542,
      "zados": 7543,
      "zadas": 7544,
      "garagem": 7545,
      "quanta": 7546,
      "ruído": 7547,
      "falou": 7548,
      "meias": 7549,
      "uniforme": 7550,
      "manual": 7551,
      "trocas": 7552,
      "físicas": 7553,
      "encontros": 7554,
      "merecem": 7555,
      "estimu": 7556,
      "ésia": 7557,
      "moralidade": 7558,
      "morrido": 7559,
      "tripu": 7560,
      "genético": 7561,
      "lesão": 7562,
      "salário": 7563,
      "venho": 7564,
      "venham": 7565,
      "bilização": 7566,
      "inovar": 7567,
      "típica": 7568,
      "long": 7569,
      "norma": 7570,
      "normas": 7571,
      "significativo": 7572,
      "significativamente": 7573,
      "gastamos": 7574,
      "adop": 7575,
      "espeech": 7576,
      "subor": 7577,
      "mostraram": 7578,
      "viral": 7579,
      "virtu": 7580,
      "filmar": 7581,
      "mudado": 7582,
      "desaparece": 7583,
      "desapareceram": 7584,
      "brais": 7585,
      "permitam": 7586,
      "regista": 7587,
      "escrevo": 7588,
      "nuvens": 7589,
      "governa": 7590,
      "dirão": 7591,
      "freespeech": 7592,
      "tornarmos": 7593,
      "rouba": 7594,
      "conseguiria": 7595,
      "2006": 7596,
      "protegem": 7597,
      "colagénio": 7598,
      "altera": 7599,
      "populares": 7600,
      "globalmente": 7601,
      "adoramos": 7602,
      "assina": 7603,
      "tentou": 7604,
      "bosão": 7605,
      "objetivos": 7606,
      "fraque": 7607,
      "galer": 7608,
      "optim": 7609,
      "desafiar": 7610,
      "profundidade": 7611,
      "apresentam": 7612,
      "enviou": 7613,
      "dezembro": 7614,
      "arquimedes": 7615,
      "tanque": 7616,
      "aleatori": 7617,
      "possibili": 7618,
      "revoluções": 7619,
      "incluem": 7620,
      "técnicos": 7621,
      "científicos": 7622,
      "bordo": 7623,
      "dívida": 7624,
      "vermelhas": 7625,
      "preferido": 7626,
      "terrorista": 7627,
      "térios": 7628,
      "cuidadosamente": 7629,
      "microbia": 7630,
      "oferece": 7631,
      "imediata": 7632,
      "curioso": 7633,
      "caracteres": 7634,
      "proporção": 7635,
      "generosidade": 7636,
      "básicos": 7637,
      "testos": 7638,
      "receberam": 7639,
      "africana": 7640,
      "permanecer": 7641,
      "charles": 7642,
      "visualização": 7643,
      "determinada": 7644,
      "bble": 7645,
      "atingiu": 7646,
      "admitir": 7647,
      "canais": 7648,
      "análises": 7649,
      "acidentes": 7650,
      "congresso": 7651,
      "entusiasmante": 7652,
      "aplicam": 7653,
      "sobreviventes": 7654,
      "cerebrais": 7655,
      "grão": 7656,
      "nutrição": 7657,
      "suportar": 7658,
      "biológica": 7659,
      "sentei": 7660,
      "elétrica": 7661,
      "esqueletos": 7662,
      "encoraja": 7663,
      "subitamente": 7664,
      "probabilidades": 7665,
      "candidatos": 7666,
      "aleatórias": 7667,
      "wood": 7668,
      "astronau": 7669,
      "advogado": 7670,
      "advogados": 7671,
      "eletrónica": 7672,
      "monitorizar": 7673,
      "desculpem": 7674,
      "gravita": 7675,
      "insetos": 7676,
      "adquiri": 7677,
      "anúncio": 7678,
      "anúncios": 7679,
      "estrangeiro": 7680,
      "aviso": 7681,
      "inimigo": 7682,
      "poluição": 7683,
      "agrícola": 7684,
      "clássico": 7685,
      "governamentais": 7686,
      "dentais": 7687,
      "comboio": 7688,
      "parceria": 7689,
      "núcleo": 7690,
      "andrew": 7691,
      "milagre": 7692,
      "áudio": 7693,
      "capítulo": 7694,
      "filosofia": 7695,
      "legislação": 7696,
      "glass": 7697,
      "kansas": 7698,
      "deriva": 7699,
      "inacreditável": 7700,
      "vertical": 7701,
      "convinc": 7702,
      "extinção": 7703,
      "estômago": 7704,
      "lágrimas": 7705,
      "aperfeiço": 7706,
      "phones": 7707,
      ".”": 7708,
      "29": 7709,
      "95": 7710,
      "apa": 7711,
      "bris": 7712,
      "ctor": 7713,
      "eva": 7714,
      "fus": 7715,
      "gros": 7716,
      "hemis": 7717,
      "ico": 7718,
      "ilu": 7719,
      "ji": 7720,
      "jia": 7721,
      "kar": 7722,
      "nb": 7723,
      "ndro": 7724,
      "plu": 7725,
      "pânico": 7726,
      "ss": 7727,
      "sho": 7728,
      "smi": 7729,
      "stor": 7730,
      "vente": 7731,
      "yn": 7732,
      "çá": 7733,
      "únicas": 7734,
      "dedo": 7735,
      "defici": 7736,
      "ará": 7737,
      "quina": 7738,
      "quarte": 7739,
      "emite": 7740,
      "macha": 7741,
      "machos": 7742,
      "dono": 7743,
      "daf": 7744,
      "entimento": 7745,
      "entura": 7746,
      "alas": 7747,
      "alturas": 7748,
      "alavan": 7749,
      "retro": 7750,
      "repó": 7751,
      "reações": 7752,
      "rainha": 7753,
      "raiz": 7754,
      "secular": 7755,
      "toler": 7756,
      "sole": 7757,
      "solares": 7758,
      "ron": 7759,
      "cachor": 7760,
      "power": 7761,
      "ciber": 7762,
      "citação": 7763,
      "anças": 7764,
      "tit": 7765,
      "die": 7766,
      "diva": 7767,
      "dimentos": 7768,
      "diriam": 7769,
      "ril": 7770,
      "novem": 7771,
      "metas": 7772,
      "navio": 7773,
      "mutações": 7774,
      "saturno": 7775,
      "imor": 7776,
      "imprimir": 7777,
      "guiar": 7778,
      "habilidade": 7779,
      "viet": 7780,
      "teto": 7781,
      "teiras": 7782,
      "desli": 7783,
      "desligar": 7784,
      "lico": 7785,
      "litt": 7786,
      "perseguir": 7787,
      "permissão": 7788,
      "promo": 7789,
      "modos": 7790,
      "tratado": 7791,
      "homo": 7792,
      "paco": 7793,
      "estacionamento": 7794,
      "exag": 7795,
      "trina": 7796,
      "previsões": 7797,
      "sima": 7798,
      "sinte": 7799,
      "forçar": 7800,
      "contor": 7801,
      "contigo": 7802,
      "nigé": 7803,
      "let": 7804,
      "folha": 7805,
      "pedem": 7806,
      "querido": 7807,
      "querida": 7808,
      "possui": 7809,
      "acti": 7810,
      "activo": 7811,
      "velas": 7812,
      "lucro": 7813,
      "agos": 7814,
      "agente": 7815,
      "aglo": 7816,
      "agenda": 7817,
      "seguido": 7818,
      "gadores": 7819,
      "inteiramente": 7820,
      "cep": 7821,
      "boy": 7822,
      "boli": 7823,
      "dispara": 7824,
      "dispostas": 7825,
      "fero": 7826,
      "largura": 7827,
      "darem": 7828,
      "gidos": 7829,
      "gicos": 7830,
      "rastre": 7831,
      "interacção": 7832,
      "marco": 7833,
      "bateria": 7834,
      "bailar": 7835,
      "fundar": 7836,
      "consentimento": 7837,
      "sara": 7838,
      "entada": 7839,
      "aventura": 7840,
      "criatura": 7841,
      "rami": 7842,
      "acontecia": 7843,
      "hard": 7844,
      "começando": 7845,
      "líbia": 7846,
      "partidos": 7847,
      "sentiu": 7848,
      "estilistas": 7849,
      "reiro": 7850,
      "inspi": 7851,
      "abuso": 7852,
      "vasos": 7853,
      "vasta": 7854,
      "brook": 7855,
      "fingir": 7856,
      "calcul": 7857,
      "trivi": 7858,
      "center": 7859,
      "transformá": 7860,
      "credi": 7861,
      "percebo": 7862,
      "fizeste": 7863,
      "duração": 7864,
      "veneza": 7865,
      "preench": 7866,
      "butão": 7867,
      "membra": 7868,
      "atrair": 7869,
      "usavam": 7870,
      "ling": 7871,
      "perguntem": 7872,
      "perguntaram": 7873,
      "gasta": 7874,
      "gastos": 7875,
      "pensemos": 7876,
      "limpe": 7877,
      "desenvolveu": 7878,
      "erradas": 7879,
      "crescente": 7880,
      "contradi": 7881,
      "conhece": 7882,
      "músicas": 7883,
      "funcionamento": 7884,
      "baseados": 7885,
      "síndro": 7886,
      "planeamento": 7887,
      "pólen": 7888,
      "libertação": 7889,
      "trein": 7890,
      "partilham": 7891,
      "assistência": 7892,
      "humor": 7893,
      "prati": 7894,
      "séria": 7895,
      "gostariam": 7896,
      "telhado": 7897,
      "entendemos": 7898,
      "entendimento": 7899,
      "emocionalmente": 7900,
      "matemáticas": 7901,
      "soldados": 7902,
      "solly": 7903,
      "estranhas": 7904,
      "diretora": 7905,
      "valorizar": 7906,
      "evidência": 7907,
      "evidentemente": 7908,
      "conjuntos": 7909,
      "teiro": 7910,
      "abriu": 7911,
      "evoluímos": 7912,
      "enviam": 7913,
      "exclus": 7914,
      "ativista": 7915,
      "atividades": 7916,
      "esqueçam": 7917,
      "gore": 7918,
      "trabalhador": 7919,
      "project": 7920,
      "químicas": 7921,
      "investimos": 7922,
      "cirurgias": 7923,
      "determin": 7924,
      "modernas": 7925,
      "texas": 7926,
      "considerem": 7927,
      "conforto": 7928,
      "densidade": 7929,
      "desenvolveram": 7930,
      "elitas": 7931,
      "curiosa": 7932,
      "oxford": 7933,
      "proporciona": 7934,
      "ocidentais": 7935,
      "diminui": 7936,
      "externa": 7937,
      "pirâmi": 7938,
      "puseram": 7939,
      "religiosas": 7940,
      "lyn": 7941,
      "culpado": 7942,
      "independente": 7943,
      "independência": 7944,
      "associada": 7945,
      "atingem": 7946,
      "conceb": 7947,
      "acelera": 7948,
      "levantou": 7949,
      "israelitas": 7950,
      "fornecem": 7951,
      "relacionado": 7952,
      "aguentar": 7953,
      "afectam": 7954,
      "opiniões": 7955,
      "industria": 7956,
      "circuito": 7957,
      "otim": 7958,
      "segredos": 7959,
      "abandonar": 7960,
      "participantes": 7961,
      "conheçam": 7962,
      "detecção": 7963,
      "testemunhar": 7964,
      "provocar": 7965,
      "britânica": 7966,
      "abraçar": 7967,
      "sucedida": 7968,
      "discussões": 7969,
      "reuniões": 7970,
      "escondidas": 7971,
      "iluminação": 7972,
      "registar": 7973,
      "woo": 7974,
      "implementar": 7975,
      "gramas": 7976,
      "infinito": 7977,
      "estivéssemos": 7978,
      "eric": 7979,
      "coreia": 7980,
      "mails": 7981,
      "conexão": 7982,
      "escaravelhos": 7983,
      "diagnostica": 7984,
      "álbum": 7985,
      "camião": 7986,
      "facilidade": 7987,
      "intui": 7988,
      "satélite": 7989,
      "venti": 7990,
      "declaração": 7991,
      "obcecado": 7992,
      "instantaneamente": 7993,
      "béria": 7994,
      "engraçado": 7995,
      "negocia": 7996,
      "limitado": 7997,
      "restrições": 7998,
      "copiar": 7999,
      "indiano": 8000,
      "académico": 8001,
      "chimpanzés": 8002,
      "licencia": 8003,
      "adivinhar": 8004,
      "faixas": 8005,
      "marítimo": 8006,
      "baralho": 8007,
      "colaborar": 8008,
      "archie": 8009,
      "comunicações": 8010,
      "transações": 8011,
      "ingredientes": 8012,
      "prevenir": 8013,
      "disponi": 8014,
      "furacão": 8015,
      "tsunami": 8016,
      "paradigma": 8017,
      "talibã": 8018,
      "primordial": 8019,
      "repór": 8020,
      "novembro": 8021,
      "nigéria": 8022,
      "38": 8023,
      "39": 8024,
      "600": 8025,
      "apel": 8026,
      "bin": 8027,
      "ez": 8028,
      "frá": 8029,
      "fumo": 8030,
      "fério": 8031,
      "fumar": 8032,
      "hil": 8033,
      "jamento": 8034,
      "jane": 8035,
      "lera": 8036,
      "nésia": 8037,
      "ope": 8038,
      "ocul": 8039,
      "ocorrem": 8040,
      "pesco": 8041,
      "slo": 8042,
      "stu": 8043,
      "ster": 8044,
      "sinc": 8045,
      "sky": 8046,
      "vu": 8047,
      "zel": 8048,
      "étri": 8049,
      "ébola": 8050,
      "írem": 8051,
      "ílio": 8052,
      "ólogos": 8053,
      "ótimas": 8054,
      "ossau": 8055,
      "quo": 8056,
      "isol": 8057,
      "mat": 8058,
      "maci": 8059,
      "malas": 8060,
      "ami": 8061,
      "amy": 8062,
      "amigas": 8063,
      "ambul": 8064,
      "dadas": 8065,
      "dantes": 8066,
      "ince": 8067,
      "inje": 8068,
      "incorpor": 8069,
      "setor": 8070,
      "combate": 8071,
      "enx": 8072,
      "enigma": 8073,
      "somá": 8074,
      "ell": 8075,
      "elite": 8076,
      "pontas": 8077,
      "ciam": 8078,
      "ciamos": 8079,
      "andado": 8080,
      "div": 8081,
      "dica": 8082,
      "diário": 8083,
      "pormenores": 8084,
      "nojo": 8085,
      "nomia": 8086,
      "mede": 8087,
      "national": 8088,
      "ouvem": 8089,
      "impostos": 8090,
      "impede": 8091,
      "haviam": 8092,
      "vital": 8093,
      "viveu": 8094,
      "viviam": 8095,
      "vitória": 8096,
      "veram": 8097,
      "verme": 8098,
      "versus": 8099,
      "lix": 8100,
      "litros": 8101,
      "perdas": 8102,
      "fideli": 8103,
      "provi": 8104,
      "prolon": 8105,
      "monta": 8106,
      "mobilidade": 8107,
      "tulos": 8108,
      "law": 8109,
      "lante": 8110,
      "traum": 8111,
      "trava": 8112,
      "traição": 8113,
      "homi": 8114,
      "pau": 8115,
      "pagamento": 8116,
      "ust": 8117,
      "usha": 8118,
      "exame": 8119,
      "resume": 8120,
      "respirar": 8121,
      "terços": 8122,
      "preval": 8123,
      "fortal": 8124,
      "nização": 8125,
      "servem": 8126,
      "suponho": 8127,
      "fazíamos": 8128,
      "pendi": 8129,
      "onia": 8130,
      "onamento": 8131,
      "dulos": 8132,
      "durou": 8133,
      "leal": 8134,
      "focados": 8135,
      "acam": 8136,
      "quilos": 8137,
      "gapura": 8138,
      "gabby": 8139,
      "casti": 8140,
      "cegas": 8141,
      "priori": 8142,
      "dissem": 8143,
      "discor": 8144,
      "discri": 8145,
      "prático": 8146,
      "diabo": 8147,
      "diapositivo": 8148,
      "coral": 8149,
      "corria": 8150,
      "preser": 8151,
      "gie": 8152,
      "obe": 8153,
      "obama": 8154,
      "junta": 8155,
      "juiz": 8156,
      "interacções": 8157,
      "cistas": 8158,
      "imamente": 8159,
      "neve": 8160,
      "constro": 8161,
      "conseguido": 8162,
      "aventu": 8163,
      "criados": 8164,
      "criador": 8165,
      "jamais": 8166,
      "ful": 8167,
      "autó": 8168,
      "milhas": 8169,
      "minia": 8170,
      "entrega": 8171,
      "calças": 8172,
      "transmis": 8173,
      "barde": 8174,
      "esperma": 8175,
      "cionante": 8176,
      "tími": 8177,
      "passavam": 8178,
      "norue": 8179,
      "usarem": 8180,
      "curvas": 8181,
      "perguntámos": 8182,
      "gasto": 8183,
      "sonância": 8184,
      "desenvolve": 8185,
      "continuei": 8186,
      "bandeira": 8187,
      "fárma": 8188,
      "encontrarem": 8189,
      "196": 8190,
      "futuros": 8191,
      "milé": 8192,
      "mismo": 8193,
      "procuram": 8194,
      "aumentam": 8195,
      "baseia": 8196,
      "ambientais": 8197,
      "antro": 8198,
      "escritor": 8199,
      "integração": 8200,
      "partilhá": 8201,
      "biodiversidade": 8202,
      "dinossau": 8203,
      "prato": 8204,
      "construídos": 8205,
      "coletiva": 8206,
      "coletivo": 8207,
      "dependentes": 8208,
      "cks": 8209,
      "bush": 8210,
      "fechado": 8211,
      "frau": 8212,
      "fraco": 8213,
      "fraca": 8214,
      "leitor": 8215,
      "arth": 8216,
      "artístico": 8217,
      "designs": 8218,
      "flui": 8219,
      "pedidos": 8220,
      "evoluiu": 8221,
      "desejos": 8222,
      "colocaram": 8223,
      "abertas": 8224,
      "chocante": 8225,
      "surpreendido": 8226,
      "tanz": 8227,
      "pulso": 8228,
      "inovadores": 8229,
      "aceite": 8230,
      "adicional": 8231,
      "investimentos": 8232,
      "saírem": 8233,
      "convencido": 8234,
      "científicas": 8235,
      "importam": 8236,
      "pegarmos": 8237,
      "percebeu": 8238,
      "preferidas": 8239,
      "extraordinários": 8240,
      "denso": 8241,
      "essenciais": 8242,
      "privada": 8243,
      "descreveu": 8244,
      "prisões": 8245,
      "remoto": 8246,
      "montagem": 8247,
      "editor": 8248,
      "costum": 8249,
      "comprometer": 8250,
      "general": 8251,
      "diminuiu": 8252,
      "básicas": 8253,
      "ológicos": 8254,
      "responsabilidades": 8255,
      "puser": 8256,
      "pusemos": 8257,
      "fabrico": 8258,
      "ombro": 8259,
      "escolhi": 8260,
      "alimentares": 8261,
      "dúvidas": 8262,
      "intenções": 8263,
      "prosper": 8264,
      "associado": 8265,
      "cheias": 8266,
      "1998": 8267,
      "envelhecer": 8268,
      "complicadas": 8269,
      "afectar": 8270,
      "educativo": 8271,
      "dirigir": 8272,
      "munici": 8273,
      "puderam": 8274,
      "publicado": 8275,
      "publicação": 8276,
      "singapura": 8277,
      "simulação": 8278,
      "argumentos": 8279,
      "secreto": 8280,
      "secretária": 8281,
      "prender": 8282,
      "constituição": 8283,
      "tumores": 8284,
      "horror": 8285,
      "urbanização": 8286,
      "vindos": 8287,
      "prémios": 8288,
      "ilegais": 8289,
      "bloquear": 8290,
      "infeções": 8291,
      "sucedidos": 8292,
      "elétrico": 8293,
      "elétricos": 8294,
      "psicologia": 8295,
      "examinar": 8296,
      "círculos": 8297,
      "pertence": 8298,
      "gratuita": 8299,
      "codifica": 8300,
      "cooperação": 8301,
      "recolhemos": 8302,
      "vestí": 8303,
      "domingo": 8304,
      "variações": 8305,
      "bicicletas": 8306,
      "watson": 8307,
      "comparem": 8308,
      "adequada": 8309,
      "àquela": 8310,
      "favorito": 8311,
      "elefantes": 8312,
      "negativo": 8313,
      "equações": 8314,
      "morais": 8315,
      "múltiplos": 8316,
      "puxar": 8317,
      "diagnosticar": 8318,
      "tijolo": 8319,
      "multa": 8320,
      "renovável": 8321,
      "facilitar": 8322,
      "glaciar": 8323,
      "absorver": 8324,
      "brian": 8325,
      "maçã": 8326,
      "hidrogénio": 8327,
      "manuscrito": 8328,
      "cobrir": 8329,
      "configuração": 8330,
      "índice": 8331,
      "líquido": 8332,
      "silicone": 8333,
      "desejava": 8334,
      "procuramos": 8335,
      "sagrado": 8336,
      "brinquedo": 8337,
      "trouxeram": 8338,
      "tatuagens": 8339,
      "raciocínio": 8340,
      "paraíso": 8341,
      "franceses": 8342,
      "protecção": 8343,
      "fornecimento": 8344,
      "espiral": 8345,
      "analogia": 8346,
      "airbnb": 8347,
      "school": 8348,
      "orçamentos": 8349,
      "liderar": 8350,
      "estatuto": 8351,
      "reboque": 8352,
      "optimista": 8353,
      "hemisfério": 8354,
      "arábia": 8355,
      "little": 8356,
      "agosto": 8357,
      "credibilidade": 8358,
      "industriais": 8359,
      "pescoço": 8360,
      "constroem": 8361,
      "noruega": 8362,
      "46": 8363,
      "76": 8364,
      "aç": 8365,
      "aterra": 8366,
      "aposto": 8367,
      "bis": 8368,
      "bina": 8369,
      "cm": 8370,
      "cú": 8371,
      "calmente": 8372,
      "dões": 8373,
      "fú": 8374,
      "fres": 8375,
      "fins": 8376,
      "hú": 8377,
      "itos": 8378,
      "into": 8379,
      "ital": 8380,
      "ivamente": 8381,
      "kel": 8382,
      "linda": 8383,
      "mestres": 8384,
      "nção": 8385,
      "omi": 8386,
      "olí": 8387,
      "pê": 8388,
      "testá": 8389,
      "ther": 8390,
      "ure": 8391,
      "vinham": 8392,
      "ware": 8393,
      "ya": 8394,
      "émos": 8395,
      "úmer": 8396,
      "deem": 8397,
      "aste": 8398,
      "arn": 8399,
      "quéri": 8400,
      "coli": 8401,
      "colas": 8402,
      "mama": 8403,
      "macho": 8404,
      "dobra": 8405,
      "ala": 8406,
      "alde": 8407,
      "alca": 8408,
      "estigma": 8409,
      "repor": 8410,
      "redu": 8411,
      "retal": 8412,
      "requis": 8413,
      "relógi": 8414,
      "reformar": 8415,
      "reproduzir": 8416,
      "reconstrução": 8417,
      "iné": 8418,
      "inúmer": 8419,
      "inquéri": 8420,
      "sepul": 8421,
      "tomas": 8422,
      "ench": 8423,
      "ence": 8424,
      "enço": 8425,
      "envergon": 8426,
      "parto": 8427,
      "caver": 8428,
      "cans": 8429,
      "cantos": 8430,
      "cabel": 8431,
      "pomos": 8432,
      "pole": 8433,
      "timi": 8434,
      "tização": 8435,
      "divis": 8436,
      "mee": 8437,
      "out": 8438,
      "mus": 8439,
      "mutu": 8440,
      "museus": 8441,
      "viar": 8442,
      "verdades": 8443,
      "vereiro": 8444,
      "tea": 8445,
      "tear": 8446,
      "temas": 8447,
      "descar": 8448,
      "descen": 8449,
      "fada": 8450,
      "fibona": 8451,
      "prop": 8452,
      "pronta": 8453,
      "proust": 8454,
      "monum": 8455,
      "tubar": 8456,
      "lata": 8457,
      "traços": 8458,
      "pago": 8459,
      "resi": 8460,
      "resistentes": 8461,
      "content": 8462,
      "contraste": 8463,
      "seriamente": 8464,
      "seringa": 8465,
      "cuja": 8466,
      "caram": 8467,
      "carol": 8468,
      "lee": 8469,
      "legado": 8470,
      "ciada": 8471,
      "activos": 8472,
      "quiátri": 8473,
      "gatos": 8474,
      "intang": 8475,
      "chel": 8476,
      "chora": 8477,
      "graf": 8478,
      "botões": 8479,
      "disti": 8480,
      "tortura": 8481,
      "prest": 8482,
      "prince": 8483,
      "feras": 8484,
      "diagrama": 8485,
      "picas": 8486,
      "inações": 8487,
      "balão": 8488,
      "zada": 8489,
      "presum": 8490,
      "pression": 8491,
      "obtivemos": 8492,
      "voltam": 8493,
      "interessar": 8494,
      "interessam": 8495,
      "marcha": 8496,
      "bata": 8497,
      "jean": 8498,
      "negação": 8499,
      "avc": 8500,
      "brilho": 8501,
      "mencionei": 8502,
      "criativas": 8503,
      "cionária": 8504,
      "campe": 8505,
      "íssim": 8506,
      "cultiva": 8507,
      "harmo": 8508,
      "ástro": 8509,
      "sentou": 8510,
      "mero": 8511,
      "minist": 8512,
      "abenço": 8513,
      "calcário": 8514,
      "estaremos": 8515,
      "sour": 8516,
      "fego": 8517,
      "fevereiro": 8518,
      "genera": 8519,
      "deixado": 8520,
      "salvo": 8521,
      "fizéssemos": 8522,
      "baru": 8523,
      "adre": 8524,
      "vín": 8525,
      "típico": 8526,
      "tornámos": 8527,
      "memorial": 8528,
      "usava": 8529,
      "ficaria": 8530,
      "ficarmos": 8531,
      "usarmos": 8532,
      "cursor": 8533,
      "bombe": 8534,
      "academia": 8535,
      "2014": 8536,
      "lindamente": 8537,
      "quisemos": 8538,
      "continentes": 8539,
      "téis": 8540,
      "ténis": 8541,
      "continuo": 8542,
      "filtrar": 8543,
      "dádiva": 8544,
      "compreendem": 8545,
      "custam": 8546,
      "viveram": 8547,
      "equipas": 8548,
      "procurá": 8549,
      "projetar": 8550,
      "dral": 8551,
      "escritores": 8552,
      "escrituras": 8553,
      "conclus": 8554,
      "assin": 8555,
      "assinal": 8556,
      "observem": 8557,
      "totalidade": 8558,
      "aponta": 8559,
      "boston": 8560,
      "emoção": 8561,
      "emocionais": 8562,
      "convers": 8563,
      "alugar": 8564,
      "dependem": 8565,
      "galinha": 8566,
      "diversos": 8567,
      "divertida": 8568,
      "sorri": 8569,
      "block": 8570,
      "abrigos": 8571,
      "érsia": 8572,
      "piratas": 8573,
      "ouviu": 8574,
      "ouvirem": 8575,
      "desej": 8576,
      "distin": 8577,
      "forçado": 8578,
      "drama": 8579,
      "tentado": 8580,
      "surpreendidos": 8581,
      "programadores": 8582,
      "fundamentos": 8583,
      "pspt": 8584,
      "definido": 8585,
      "tang": 8586,
      "inovadoras": 8587,
      "404": 8588,
      "green": 8589,
      "continuarmos": 8590,
      "exato": 8591,
      "exaus": 8592,
      "armadi": 8593,
      "juntá": 8594,
      "confir": 8595,
      "aceitável": 8596,
      "tomamos": 8597,
      "substância": 8598,
      "avanços": 8599,
      "bolsa": 8600,
      "preferida": 8601,
      "preferidos": 8602,
      "programável": 8603,
      "eleitoral": 8604,
      "império": 8605,
      "preocupado": 8606,
      "preocupante": 8607,
      "vál": 8608,
      "autorização": 8609,
      "capturar": 8610,
      "imediato": 8611,
      "agradáveis": 8612,
      "genocídio": 8613,
      "passeios": 8614,
      "instalar": 8615,
      "neuronal": 8616,
      "ville": 8617,
      "ausência": 8618,
      "entusiasmo": 8619,
      "perigosos": 8620,
      "influenciar": 8621,
      "baterias": 8622,
      "chegada": 8623,
      "críticas": 8624,
      "fórmula": 8625,
      "introdução": 8626,
      "psiquiátri": 8627,
      "colaborativo": 8628,
      "determinação": 8629,
      "adulta": 8630,
      "ensinaram": 8631,
      "atinge": 8632,
      "atingido": 8633,
      "específicas": 8634,
      "utilizam": 8635,
      "narrador": 8636,
      "ecrãs": 8637,
      "fascinado": 8638,
      "manif": 8639,
      "primata": 8640,
      "educadores": 8641,
      "estimativa": 8642,
      "catedral": 8643,
      "dependendo": 8644,
      "conteúdos": 8645,
      "sustentáveis": 8646,
      "universitário": 8647,
      "aproveitamento": 8648,
      "gravação": 8649,
      "obscu": 8650,
      "grécia": 8651,
      "defens": 8652,
      "burgo": 8653,
      "celular": 8654,
      "engenheiro": 8655,
      "biológicos": 8656,
      "parecidas": 8657,
      "fruta": 8658,
      "reunião": 8659,
      "transparente": 8660,
      "celebrar": 8661,
      "cadeias": 8662,
      "subida": 8663,
      "escondido": 8664,
      "magní": 8665,
      "ampliar": 8666,
      "daniel": 8667,
      "enganar": 8668,
      "indicadores": 8669,
      "herói": 8670,
      "diagnósticos": 8671,
      "valioso": 8672,
      "restaurantes": 8673,
      "conservação": 8674,
      "põem": 8675,
      "certificado": 8676,
      "jack": 8677,
      "categorias": 8678,
      "etique": 8679,
      "retratos": 8680,
      "minúsculas": 8681,
      "energético": 8682,
      "fêmeas": 8683,
      "regime": 8684,
      "divulgar": 8685,
      "joelhos": 8686,
      "adquirir": 8687,
      "imunitário": 8688,
      "vencedor": 8689,
      "economista": 8690,
      "colhei": 8691,
      "mandarim": 8692,
      "bitcoins": 8693,
      "caçadores": 8694,
      "habituados": 8695,
      "assass": 8696,
      "orgulhosa": 8697,
      "definitivamente": 8698,
      "equilibra": 8699,
      "namorada": 8700,
      "henry": 8701,
      "razoável": 8702,
      "filósofos": 8703,
      "jesus": 8704,
      "desesperadamente": 8705,
      "europeus": 8706,
      "preservativos": 8707,
      "comprimido": 8708,
      "anónimas": 8709,
      "conquista": 8710,
      "fotógrafo": 8711,
      "gémeos": 8712,
      "catástro": 8713,
      "lacuna": 8714,
      "babilónia": 8715,
      "expectativas": 8716,
      "islão": 8717,
      "estímulo": 8718,
      "antibióticos": 8719,
      "ancest": 8720,
      "receptor": 8721,
      "ensaios": 8722,
      "congestionamento": 8723,
      "anfitri": 8724,
      "evacu": 8725,
      "smith": 8726,
      "story": 8727,
      "deficiências": 8728,
      "brooklyn": 8729,
      "limpeza": 8730,
      "slogan": 8731,
      "somália": 8732,
      "fidelidade": 8733,
      "municipal": 8734,
      "mutuamente": 8735,
      "fibonacci": 8736,
      "ministério": 8737,
      "31": 8738,
      "86": 8739,
      "aqu": 8740,
      "api": 8741,
      "atuais": 8742,
      "dv": 8743,
      "dney": 8744,
      "ef": 8745,
      "fria": 8746,
      "festi": 8747,
      "hima": 8748,
      "ides": 8749,
      "ice": 8750,
      "itá": 8751,
      "jh": 8752,
      "lenta": 8753,
      "lfia": 8754,
      "mentar": 8755,
      "mestra": 8756,
      "nei": 8757,
      "open": 8758,
      "onto": 8759,
      "ofen": 8760,
      "oposição": 8761,
      "oficiais": 8762,
      "pin": 8763,
      "phi": 8764,
      "psicos": 8765,
      "sê": 8766,
      "scan": 8767,
      "slide": 8768,
      "tistas": 8769,
      "tbp": 8770,
      "ud": 8771,
      "una": 8772,
      "uganda": 8773,
      "vana": 8774,
      "ye": 8775,
      "yan": 8776,
      "ácidos": 8777,
      "çámos": 8778,
      "éticos": 8779,
      "ínt": 8780,
      "óleo": 8781,
      "ócolos": 8782,
      "õem": 8783,
      "úcar": 8784,
      "esferas": 8785,
      "deposi": 8786,
      "deprimi": 8787,
      "asfal": 8788,
      "arr": 8789,
      "arias": 8790,
      "qualidades": 8791,
      "ergu": 8792,
      "embaix": 8793,
      "mata": 8794,
      "maio": 8795,
      "maxi": 8796,
      "amiza": 8797,
      "donal": 8798,
      "entina": 8799,
      "red": 8800,
      "renos": 8801,
      "reter": 8802,
      "revis": 8803,
      "reconhecem": 8804,
      "retira": 8805,
      "incons": 8806,
      "infant": 8807,
      "set": 8808,
      "ianas": 8809,
      "comparado": 8810,
      "engo": 8811,
      "enlou": 8812,
      "paras": 8813,
      "elos": 8814,
      "rota": 8815,
      "rock": 8816,
      "cave": 8817,
      "cairo": 8818,
      "potente": 8819,
      "cigar": 8820,
      "anas": 8821,
      "anel": 8822,
      "diram": 8823,
      "port": 8824,
      "porno": 8825,
      "meca": 8826,
      "meados": 8827,
      "metrónomos": 8828,
      "nadar": 8829,
      "ouço": 8830,
      "sais": 8831,
      "imba": 8832,
      "gui": 8833,
      "vitor": 8834,
      "verbal": 8835,
      "teó": 8836,
      "despe": 8837,
      "desfloresta": 8838,
      "desisti": 8839,
      "desvan": 8840,
      "fator": 8841,
      "perplex": 8842,
      "fita": 8843,
      "filhas": 8844,
      "promis": 8845,
      "moham": 8846,
      "later": 8847,
      "travar": 8848,
      "tradutor": 8849,
      "votos": 8850,
      "patro": 8851,
      "pagos": 8852,
      "usalém": 8853,
      "ressonância": 8854,
      "teros": 8855,
      "terrenos": 8856,
      "preco": 8857,
      "preparação": 8858,
      "contrar": 8859,
      "nike": 8860,
      "suí": 8861,
      "cardio": 8862,
      "carác": 8863,
      "migração": 8864,
      "levei": 8865,
      "fogu": 8866,
      "fobia": 8867,
      "achas": 8868,
      "acús": 8869,
      "quinto": 8870,
      "seguiu": 8871,
      "gaio": 8872,
      "intenção": 8873,
      "estável": 8874,
      "óscar": 8875,
      "casal": 8876,
      "castan": 8877,
      "semel": 8878,
      "ches": 8879,
      "cheira": 8880,
      "chil": 8881,
      "hábito": 8882,
      "atla": 8883,
      "atores": 8884,
      "distri": 8885,
      "disposição": 8886,
      "inadas": 8887,
      "baleias": 8888,
      "giro": 8889,
      "derem": 8890,
      "falem": 8891,
      "falemos": 8892,
      "juda": 8893,
      "voltas": 8894,
      "interfer": 8895,
      "interagem": 8896,
      "nascido": 8897,
      "nascem": 8898,
      "nascemos": 8899,
      "martin": 8900,
      "crimes": 8901,
      "precisas": 8902,
      "conseguisse": 8903,
      "brilhar": 8904,
      "mencionar": 8905,
      "chapé": 8906,
      "ísticos": 8907,
      "culinária": 8908,
      "betão": 8909,
      "basque": 8910,
      "sentiam": 8911,
      "viaj": 8912,
      "viajei": 8913,
      "olharam": 8914,
      "autora": 8915,
      "aban": 8916,
      "entrevistas": 8917,
      "brown": 8918,
      "fing": 8919,
      "trizes": 8920,
      "apreciar": 8921,
      "transdutor": 8922,
      "south": 8923,
      "deixo": 8924,
      "deixámos": 8925,
      "salarial": 8926,
      "barris": 8927,
      "esperanças": 8928,
      "métri": 8929,
      "descobrem": 8930,
      "preencher": 8931,
      "tornem": 8932,
      "tornamos": 8933,
      "memente": 8934,
      "atrai": 8935,
      "espaciais": 8936,
      "existente": 8937,
      "aplauso": 8938,
      "atravessam": 8939,
      "fral": 8940,
      "pensando": 8941,
      "colocado": 8942,
      "colocámos": 8943,
      "sonda": 8944,
      "limiar": 8945,
      "submar": 8946,
      "mudarmos": 8947,
      "banque": 8948,
      "contrair": 8949,
      "desaparecem": 8950,
      "pesa": 8951,
      "voluntar": 8952,
      "hidi": 8953,
      "190": 8954,
      "1950": 8955,
      "1970": 8956,
      "permitido": 8957,
      "produtores": 8958,
      "fosso": 8959,
      "superar": 8960,
      "compreendo": 8961,
      "compreendia": 8962,
      "deitado": 8963,
      "equipamentos": 8964,
      "escrevem": 8965,
      "solucionar": 8966,
      "passarem": 8967,
      "mister": 8968,
      "decide": 8969,
      "controle": 8970,
      "sabermos": 8971,
      "globo": 8972,
      "ocupar": 8973,
      "aprenderem": 8974,
      "comecem": 8975,
      "positivas": 8976,
      "liberal": 8977,
      "mentalidade": 8978,
      "biotecnologia": 8979,
      "observam": 8980,
      "séc": 8981,
      "brócolos": 8982,
      "telhados": 8983,
      "resolvido": 8984,
      "délfia": 8985,
      "emocionante": 8986,
      "preocupem": 8987,
      "alucina": 8988,
      "soldado": 8989,
      "depender": 8990,
      "justa": 8991,
      "diversão": 8992,
      "correcto": 8993,
      "começava": 8994,
      "confiante": 8995,
      "confiantes": 8996,
      "cívi": 8997,
      "evidente": 8998,
      "cenários": 8999,
      "fluidos": 9000,
      "pirataria": 9001,
      "envolvimento": 9002,
      "envolvido": 9003,
      "órbita": 9004,
      "feno": 9005,
      "exclu": 9006,
      "atira": 9007,
      "ativistas": 9008,
      "fantásticos": 9009,
      "espectro": 9010,
      "pesquisas": 9011,
      "tentativas": 9012,
      "chocola": 9013,
      "surpreendentes": 9014,
      "pses": 9015,
      "animada": 9016,
      "brancas": 9017,
      "pulmões": 9018,
      "mostrando": 9019,
      "cirúr": 9020,
      "juntaram": 9021,
      "confirma": 9022,
      "tomam": 9023,
      "passear": 9024,
      "bené": 9025,
      "chile": 9026,
      "estivermos": 9027,
      "convencional": 9028,
      "transformam": 9029,
      "documentar": 9030,
      "habitação": 9031,
      "prédio": 9032,
      "violação": 9033,
      "destruída": 9034,
      "importar": 9035,
      "objectivos": 9036,
      "aproxim": 9037,
      "densa": 9038,
      "consideração": 9039,
      "preocupados": 9040,
      "produzido": 9041,
      "privados": 9042,
      "director": 9043,
      "multiplica": 9044,
      "autoridade": 9045,
      "autoridades": 9046,
      "ironia": 9047,
      "guardas": 9048,
      "captura": 9049,
      "companheiros": 9050,
      "piso": 9051,
      "cruel": 9052,
      "referi": 9053,
      "batedor": 9054,
      "benefi": 9055,
      "propriamente": 9056,
      "propriet": 9057,
      "impressora": 9058,
      "proporcion": 9059,
      "encontrava": 9060,
      "ológico": 9061,
      "fórum": 9062,
      "hud": 9063,
      "telefones": 9064,
      "tráfego": 9065,
      "aceler": 9066,
      "suicida": 9067,
      "1999": 9068,
      "adaptar": 9069,
      "geogra": 9070,
      "alemão": 9071,
      "mosquito": 9072,
      "óbvia": 9073,
      "vizinho": 9074,
      "clínicas": 9075,
      "fenómenos": 9076,
      "brutal": 9077,
      "existiu": 9078,
      "universitários": 9079,
      "kate": 9080,
      "famosos": 9081,
      "horríveis": 9082,
      "palestina": 9083,
      "hanna": 9084,
      "sexualmente": 9085,
      "israelita": 9086,
      "inferno": 9087,
      "urbana": 9088,
      "detectar": 9089,
      "avançado": 9090,
      "feminina": 9091,
      "radicais": 9092,
      "filadélfia": 9093,
      "cognitiva": 9094,
      "biólogos": 9095,
      "ght": 9096,
      "recife": 9097,
      "enfermaria": 9098,
      "celebri": 9099,
      "celebra": 9100,
      "encorajar": 9101,
      "subiu": 9102,
      "visitas": 9103,
      "visibilidade": 9104,
      "pássaro": 9105,
      "manuais": 9106,
      "parceiro": 9107,
      "alargar": 9108,
      "adequado": 9109,
      "hhhh": 9110,
      "favorita": 9111,
      "perfurados": 9112,
      "perfuração": 9113,
      "iniciou": 9114,
      "angari": 9115,
      "minúsculo": 9116,
      "visitantes": 9117,
      "landês": 9118,
      "ocde": 9119,
      "intuição": 9120,
      "historicamente": 9121,
      "integrado": 9122,
      "sinapses": 9123,
      "vencedores": 9124,
      "idiota": 9125,
      "pilhagem": 9126,
[...]
