{
  "version": "1.0",
  "truncation": null,
  "padding": null,
  "added_tokens": [
    {
      "id": 0,
      "content": "[UNK]",
      "single_word": false,
      "lstrip": false,
      "rstrip": false,
      "normalized": false,
      "special": true
    },
    {
      "id": 1,
      "content": "[START]",
      "single_word": false,
      "lstrip": false,
      "rstrip": false,
      "normalized": false,
      "special": true
    },
    {
      "id": 2,
      "content": "[NEXT]",
      "single_word": false,
      "lstrip": false,
      "rstrip": false,
      "normalized": false,
      "special": true
    },
    {
      "id": 3,
      "content": "[STOP]",
      "single_word": false,
      "lstrip": false,
      "rstrip": false,
      "normalized": false,
      "special": true
    }
  ],
  "normalizer": {
    "type": "Sequence",
    "normalizers": [
      {
        "type": "Lowercase"
      },
      {
        "type": "Strip",
        "strip_left": true,
        "strip_right": true
      }
    ]
  },
  "pre_tokenizer": {
    "type": "Whitespace"
  },
  "post_processor": null,
  "decoder": null,
  "model": {
    "type": "BPE",
    "dropout": null,
    "unk_token": null,
    "continuing_subword_prefix": null,
    "end_of_word_suffix": null,
    "fuse_unk": false,
    "byte_fallback": false,
    "ignore_merges": false,
    "vocab": {
      "[UNK]": 0,
      "[START]": 1,
      "[NEXT]": 2,
      "[STOP]": 3,
      " ": 4,
      "!": 5,
      "#": 6,
      "$": 7,
      "%": 8,
      "&": 9,
      "'": 10,
      "(": 11,
      ")": 12,
      "*": 13,
      "+": 14,
      ",": 15,
      "-": 16,
      ".": 17,
      "/": 18,
      "0": 19,
      "1": 20,
      "2": 21,
      "3": 22,
      "4": 23,
      "5": 24,
      "6": 25,
      "7": 26,
      "8": 27,
      "9": 28,
      ":": 29,
      ";": 30,
      "<": 31,
      "=": 32,
      ">": 33,
      "?": 34,
      "@": 35,
      "[": 36,
      "\\": 37,
      "]": 38,
      "^": 39,
      "_": 40,
      "`": 41,
      "a": 42,
      "b": 43,
      "c": 44,
      "d": 45,
      "e": 46,
      "f": 47,
      "g": 48,
      "h": 49,
      "i": 50,
      "j": 51,
      "k": 52,
      "l": 53,
      "m": 54,
      "n": 55,
      "o": 56,
      "p": 57,
      "q": 58,
      "r": 59,
      "s": 60,
      "t": 61,
      "u": 62,
      "v": 63,
      "w": 64,
      "x": 65,
      "y": 66,
      "z": 67,
      "~": 68,
      "": 69,
      "": 70,
      "¥": 71,
      "©": 72,
      "«": 73,
      "­": 74,
      "®": 75,
      "°": 76,
      "²": 77,
      "º": 78,
      "»": 79,
      "¼": 80,
      "½": 81,
      "¾": 82,
      "¿": 83,
      "×": 84,
      "à": 85,
      "á": 86,
      "ã": 87,
      "ä": 88,
      "æ": 89,
      "ç": 90,
      "è": 91,
      "é": 92,
      "ê": 93,
      "ë": 94,
      "í": 95,
      "ï": 96,
      "ð": 97,
      "ñ": 98,
      "ò": 99,
      "ó": 100,
      "ö": 101,
      "ü": 102,
      "ý": 103,
      "ā": 104,
      "ī": 105,
      "ō": 106,
      "˚": 107,
      "́": 108,
      "̢": 109,
      "τ": 110,
      "а": 111,
      "б": 112,
      "в": 113,
      "г": 114,
      "д": 115,
      "е": 116,
      "ж": 117,
      "з": 118,
      "и": 119,
      "й": 120,
      "к": 121,
      "л": 122,
      "м": 123,
      "н": 124,
      "о": 125,
      "п": 126,
      "р": 127,
      "с": 128,
      "т": 129,
      "у": 130,
      "ф": 131,
      "х": 132,
      "ц": 133,
      "ч": 134,
      "ш": 135,
      "щ": 136,
      "ъ": 137,
      "ы": 138,
      "ь": 139,
      "э": 140,
      "ю": 141,
      "я": 142,
      "ё": 143,
      "і": 144,
      "՛": 145,
      "ْ": 146,
      "ย": 147,
      "ร": 148,
      "อ": 149,
      "่": 150,
      "​": 151,
      "‐": 152,
      "‒": 153,
      "–": 154,
      "—": 155,
      "―": 156,
      "‘": 157,
      "’": 158,
      "“": 159,
      "”": 160,
      "„": 161,
      "•": 162,
      "…": 163,
      "‮": 164,
      "′": 165,
      "″": 166,
      "₂": 167,
      "№": 168,
      "™": 169,
      "∇": 170,
      "♪": 171,
      "♫": 172,
      "﻿": 173,
      "－": 174,
      "то": 175,
      "на": 176,
      "но": 177,
      "ст": 178,
      "ни": 179,
      "по": 180,
      "ра": 181,
      "ко": 182,
      "ро": 183,
      "не": 184,
      "ли": 185,
      "ре": 186,
      "во": 187,
      "те": 188,
      "ва": 189,
      "ть": 190,
      "ка": 191,
      "го": 192,
      "де": 193,
      "ме": 194,
      "ль": 195,
      "мо": 196,
      "ле": 197,
      "та": 198,
      "ри": 199,
      "ны": 200,
      "да": 201,
      "ло": 202,
      "ла": 203,
      "за": 204,
      "ве": 205,
      "что": 206,
      "это": 207,
      "че": 208,
      "ми": 209,
      "ти": 210,
      "ся": 211,
      "до": 212,
      "же": 213,
      "со": 214,
      "про": 215,
      "бы": 216,
      "мы": 217,
      "ви": 218,
      "ма": 219,
      "бо": 220,
      "ди": 221,
      "вы": 222,
      "се": 223,
      "ки": 224,
      "ру": 225,
      "из": 226,
      "ля": 227,
      "ча": 228,
      "об": 229,
      "ет": 230,
      "хо": 231,
      "му": 232,
      "пе": 233,
      "при": 234,
      "ры": 235,
      "ста": 236,
      "чи": 237,
      "ду": 238,
      "сто": 239,
      "ше": 240,
      "ци": 241,
      "от": 242,
      "си": 243,
      "ние": 244,
      "сь": 245,
      "ния": 246,
      "кото": 247,
      "раз": 248,
      "ну": 249,
      "лю": 250,
      "са": 251,
      "как": 252,
      "сть": 253,
      "сти": 254,
      "па": 255,
      "ня": 256,
      "ши": 257,
      "ще": 258,
      "ют": 259,
      "ги": 260,
      "ку": 261,
      "ты": 262,
      "нь": 263,
      "все": 264,
      "пре": 265,
      "лу": 266,
      "бе": 267,
      "нно": 268,
      "так": 269,
      "га": 270,
      "льно": 271,
      "жи": 272,
      "щи": 273,
      "жно": 274,
      "ско": 275,
      "ис": 276,
      "зна": 277,
      "гда": 278,
      "''": 279,
      "ем": 280,
      "которы": 281,
      "ные": 282,
      "ту": 283,
      "они": 284,
      "це": 285,
      "бу": 286,
      "он": 287,
      "ных": 288,
      "сле": 289,
      "ин": 290,
      "для": 291,
      "дела": 292,
      "вать": 293,
      "сли": 294,
      "су": 295,
      "ска": 296,
      "пи": 297,
      "ски": 298,
      "би": 299,
      "вер": 300,
      "пра": 301,
      "когда": 302,
      "ство": 303,
      "може": 304,
      "ву": 305,
      "ный": 306,
      "мно": 307,
      "боль": 308,
      "сте": 309,
      "ется": 310,
      "ря": 311,
      "дру": 312,
      "ша": 313,
      "ды": 314,
      "если": 315,
      "их": 316,
      "сво": 317,
      "эти": 318,
      "рабо": 319,
      "лько": 320,
      "жа": 321,
      "рас": 322,
      "воз": 323,
      "чно": 324,
      "стра": 325,
      "ор": 326,
      "тся": 327,
      "сме": 328,
      "ться": 329,
      "дей": 330,
      "ком": 331,
      "ба": 332,
      "она": 333,
      "пер": 334,
      "чтобы": 335,
      "пу": 336,
      "зы": 337,
      "гра": 338,
      "под": 339,
      "ке": 340,
      "том": 341,
      "од": 342,
      "или": 343,
      "можно": 344,
      "пере": 345,
      "его": 346,
      "дол": 347,
      "мог": 348,
      "оче": 349,
      "``": 350,
      "которые": 351,
      "вот": 352,
      "меня": 353,
      "вре": 354,
      "ходи": 355,
      "зо": 356,
      "стве": 357,
      "вс": 358,
      "есть": 359,
      "кон": 360,
      "вля": 361,
      "мне": 362,
      "ным": 363,
      "лет": 364,
      "ная": 365,
      "тель": 366,
      "пред": 367,
      "гово": 368,
      "дума": 369,
      "сло": 370,
      "было": 371,
      "ной": 372,
      "нии": 373,
      "очень": 374,
      "тельно": 375,
      "ров": 376,
      "нас": 377,
      "кто": 378,
      "нима": 379,
      "чу": 380,
      "сно": 381,
      "лы": 382,
      "чески": 383,
      "фи": 384,
      "ге": 385,
      "ющи": 386,
      "мен": 387,
      "тому": 388,
      "ции": 389,
      "ства": 390,
      "тре": 391,
      "нам": 392,
      "три": 393,
      "зда": 394,
      "спо": 395,
      "вле": 396,
      "име": 397,
      "ей": 398,
      "всё": 399,
      "00": 400,
      "сказа": 401,
      "зу": 402,
      "сдела": 403,
      "ща": 404,
      "ят": 405,
      "сту": 406,
      "работа": 407,
      "поль": 408,
      "лове": 409,
      "боле": 410,
      "само": 411,
      "ний": 412,
      "стви": 413,
      "пы": 414,
      "много": 415,
      "стро": 416,
      "мя": 417,
      "потому": 418,
      "челове": 419,
      "кой": 420,
      "жиз": 421,
      "только": 422,
      "виде": 423,
      "ете": 424,
      "фор": 425,
      "мер": 426,
      "созда": 427,
      "смех": 428,
      "слу": 429,
      "пла": 430,
      "чем": 431,
      "нет": 432,
      "смо": 433,
      "был": 434,
      "зыва": 435,
      "зи": 436,
      "лось": 437,
      "лись": 438,
      "ются": 439,
      "может": 440,
      "пока": 441,
      "дет": 442,
      "ную": 443,
      "рова": 444,
      "после": 445,
      "вно": 446,
      "фе": 447,
      "логи": 448,
      "просто": 449,
      "ха": 450,
      "полу": 451,
      "того": 452,
      "тра": 453,
      "жен": 454,
      "вам": 455,
      "нача": 456,
      "инте": 457,
      "которо": 458,
      "кти": 459,
      "больше": 460,
      "бле": 461,
      "таки": 462,
      "исполь": 463,
      "образ": 464,
      "лся": 465,
      "быть": 466,
      "пло": 467,
      "ству": 468,
      "тех": 469,
      "возможно": 470,
      "тем": 471,
      "соб": 472,
      "год": 473,
      "обще": 474,
      "людей": 475,
      "ём": 476,
      "стоя": 477,
      "говори": 478,
      "тов": 479,
      "кра": 480,
      "спе": 481,
      "пол": 482,
      "каж": 483,
      "ней": 484,
      "ут": 485,
      "шо": 486,
      "этого": 487,
      "вой": 488,
      "им": 489,
      "ца": 490,
      "ными": 491,
      "мени": 492,
      "щё": 493,
      "гла": 494,
      "люди": 495,
      "более": 496,
      "дь": 497,
      "дин": 498,
      "этот": 499,
      "них": 500,
      "были": 501,
      "вя": 502,
      "ков": 503,
      "этом": 504,
      "где": 505,
      "нные": 506,
      "ёт": 507,
      "кры": 508,
      "который": 509,
      "час": 510,
      "зде": 511,
      "прави": 512,
      "пробле": 513,
      "ещё": 514,
      "шь": 515,
      "исто": 516,
      "сей": 517,
      "время": 518,
      "была": 519,
      "деле": 520,
      "ческо": 521,
      "дер": 522,
      "ход": 523,
      "теле": 524,
      "сре": 525,
      "вз": 526,
      "други": 527,
      "кру": 528,
      "нных": 529,
      "вто": 530,
      "лли": 531,
      "нию": 532,
      "вас": 533,
      "наше": 534,
      "ция": 535,
      "мой": 536,
      "ью": 537,
      "сейчас": 538,
      "буду": 539,
      "здесь": 540,
      "сколько": 541,
      "гу": 542,
      "види": 543,
      "оста": 544,
      "вет": 545,
      "сы": 546,
      "бя": 547,
      "кт": 548,
      "можем": 549,
      "её": 550,
      "помо": 551,
      "будет": 552,
      "нием": 553,
      "ром": 554,
      "этому": 555,
      "действи": 556,
      "луч": 557,
      "пример": 558,
      "жу": 559,
      "уже": 560,
      "даже": 561,
      "хоро": 562,
      "лась": 563,
      "ного": 564,
      "ан": 565,
      "там": 566,
      "нее": 567,
      "наши": 568,
      "клю": 569,
      "произ": 570,
      "предста": 571,
      "фо": 572,
      "хи": 573,
      "чита": 574,
      "кар": 575,
      "вопро": 576,
      "вые": 577,
      "нужно": 578,
      "жны": 579,
      "жде": 580,
      "цен": 581,
      "рии": 582,
      "йте": 583,
      "иде": 584,
      "нов": 585,
      "явля": 586,
      "дова": 587,
      "юще": 588,
      "суще": 589,
      "этой": 590,
      "одна": 591,
      "стью": 592,
      "обра": 593,
      "гля": 594,
      "нной": 595,
      "года": 596,
      "тер": 597,
      "дви": 598,
      "жда": 599,
      "друго": 600,
      "ника": 601,
      "образо": 602,
      "рез": 603,
      "аль": 604,
      "тя": 605,
      "дно": 606,
      "эта": 607,
      "один": 608,
      "сделать": 609,
      "рая": 610,
      "милли": 611,
      "систе": 612,
      "поз": 613,
      "гру": 614,
      "коне": 615,
      "ар": 616,
      "вали": 617,
      "вме": 618,
      "кла": 619,
      "..": 620,
      "поня": 621,
      "стре": 622,
      "также": 623,
      "поло": 624,
      "бли": 625,
      "ально": 626,
      "всего": 627,
      "свя": 628,
      "чему": 629,
      "жизни": 630,
      "вра": 631,
      "объ": 632,
      "вели": 633,
      "вый": 634,
      "могут": 635,
      "кое": 636,
      "ровать": 637,
      "использо": 638,
      "учи": 639,
      "шу": 640,
      "ходит": 641,
      "фа": 642,
      "вых": 643,
      "нты": 644,
      "себя": 645,
      "чего": 646,
      "кро": 647,
      "день": 648,
      "перь": 649,
      "годня": 650,
      "сегодня": 651,
      "форма": 652,
      "теперь": 653,
      "вить": 654,
      "нный": 655,
      "хоте": 656,
      "лё": 657,
      "чь": 658,
      "ном": 659,
      "этих": 660,
      "ное": 661,
      "нологи": 662,
      "дов": 663,
      "больши": 664,
      "интере": 665,
      "осно": 666,
      "вая": 667,
      "поэтому": 668,
      "цию": 669,
      "технологи": 670,
      "бра": 671,
      "доста": 672,
      "уча": 673,
      "которая": 674,
      "орга": 675,
      "пыта": 676,
      "жду": 677,
      "тру": 678,
      "следова": 679,
      "дели": 680,
      "женщи": 681,
      "проис": 682,
      "многи": 683,
      "чув": 684,
      "способ": 685,
      "чина": 686,
      "эко": 687,
      "рь": 688,
      "кого": 689,
      "получи": 690,
      "можете": 691,
      "горо": 692,
      "почему": 693,
      "самы": 694,
      "чение": 695,
      "каза": 696,
      "нер": 697,
      "зад": 698,
      "над": 699,
      "зе": 700,
      "должны": 701,
      "дом": 702,
      "думаю": 703,
      "самом": 704,
      "случа": 705,
      "зем": 706,
      "йти": 707,
      "всех": 708,
      "сказать": 709,
      "стру": 710,
      "ственно": 711,
      "послед": 712,
      "позво": 713,
      "писа": 714,
      "цы": 715,
      "рт": 716,
      "голо": 717,
      "дя": 718,
      "вос": 719,
      "кажды": 720,
      "осо": 721,
      "точно": 722,
      "води": 723,
      "следу": 724,
      "спа": 725,
      "понима": 726,
      "хочу": 727,
      "бира": 728,
      "которых": 729,
      "через": 730,
      "прое": 731,
      "счита": 732,
      "тро": 733,
      "моз": 734,
      "эк": 735,
      "эту": 736,
      "сов": 737,
      "стано": 738,
      "доб": 739,
      "графи": 740,
      "жизнь": 741,
      "жения": 742,
      "назад": 743,
      "между": 744,
      "тия": 745,
      "ющих": 746,
      "откры": 747,
      "ступ": 748,
      "показа": 749,
      "вое": 750,
      "разви": 751,
      "заме": 752,
      "мате": 753,
      "без": 754,
      "него": 755,
      "сни": 756,
      "лучше": 757,
      "называ": 758,
      "сказал": 759,
      "вания": 760,
      "кре": 761,
      "действительно": 762,
      "мир": 763,
      "кан": 764,
      "поли": 765,
      "итак": 766,
      "органи": 767,
      "жение": 768,
      "доро": 769,
      "исследова": 770,
      "несколько": 771,
      "реше": 772,
      "информа": 773,
      "могли": 774,
      "тей": 775,
      "вает": 776,
      "еди": 777,
      "ности": 778,
      "большо": 779,
      "зада": 780,
      "чё": 781,
      "плоди": 782,
      "отно": 783,
      "использу": 784,
      "шло": 785,
      "конечно": 786,
      "рия": 787,
      "два": 788,
      "бла": 789,
      "каждый": 790,
      "сла": 791,
      "сси": 792,
      "нения": 793,
      "именно": 794,
      "плодисме": 795,
      "посмо": 796,
      "плодисменты": 797,
      "ющие": 798,
      "сты": 799,
      "вал": 800,
      "делать": 801,
      "себе": 802,
      "мент": 803,
      "ять": 804,
      "нт": 805,
      "мери": 806,
      "значи": 807,
      "юсь": 808,
      "видите": 809,
      "грам": 810,
      "опре": 811,
      "20": 812,
      "человек": 813,
      "слы": 814,
      "мире": 815,
      "аплодисменты": 816,
      "всем": 817,
      "вод": 818,
      "тить": 819,
      "эле": 820,
      "ему": 821,
      "реши": 822,
      "этим": 823,
      "сторо": 824,
      "обы": 825,
      "рую": 826,
      "кли": 827,
      "кри": 828,
      "коло": 829,
      "ску": 830,
      "ним": 831,
      "лле": 832,
      "бой": 833,
      "номи": 834,
      "году": 835,
      "обе": 836,
      "стои": 837,
      "тогда": 838,
      "вь": 839,
      "является": 840,
      "фото": 841,
      "сред": 842,
      "дава": 843,
      "кие": 844,
      "щу": 845,
      "ман": 846,
      "нами": 847,
      "стя": 848,
      "вши": 849,
      "льта": 850,
      "видеть": 851,
      "комп": 852,
      "аф": 853,
      "отве": 854,
      "измени": 855,
      "точ": 856,
      "19": 857,
      "вли": 858,
      "изме": 859,
      "например": 860,
      "вают": 861,
      "часть": 862,
      "веро": 863,
      "времени": 864,
      "хорошо": 865,
      "мира": 866,
      "простра": 867,
      "пря": 868,
      "поч": 869,
      "важно": 870,
      "уди": 871,
      "затем": 872,
      "вопрос": 873,
      "кту": 874,
      "верх": 875,
      "ньше": 876,
      "амери": 877,
      "шко": 878,
      "10": 879,
      "ких": 880,
      "хра": 881,
      "одно": 882,
      "чество": 883,
      "экономи": 884,
      "емся": 885,
      "компа": 886,
      "жить": 887,
      "необ": 888,
      "тно": 889,
      "нем": 890,
      "чения": 891,
      "получа": 892,
      "мале": 893,
      "ления": 894,
      "нару": 895,
      "резу": 896,
      "результа": 897,
      "проце": 898,
      "ник": 899,
      "существу": 900,
      "обо": 901,
      "вание": 902,
      "вне": 903,
      "треть": 904,
      "нная": 905,
      "энер": 906,
      "ог": 907,
      "мас": 908,
      "ответ": 909,
      "обла": 910,
      "малень": 911,
      "образом": 912,
      "наш": 913,
      "блю": 914,
      "сем": 915,
      "тво": 916,
      "нау": 917,
      "вро": 918,
      "кая": 919,
      "происходит": 920,
      "ской": 921,
      "потом": 922,
      "пор": 923,
      "необходи": 924,
      "нным": 925,
      "могу": 926,
      "000": 927,
      "уда": 928,
      "дать": 929,
      "проси": 930,
      "све": 931,
      "оно": 932,
      "авто": 933,
      "ческие": 934,
      "пом": 935,
      "маши": 936,
      "телей": 937,
      "всегда": 938,
      "компью": 939,
      "которой": 940,
      "нство": 941,
      "сс": 942,
      "прав": 943,
      "совер": 944,
      "ющий": 945,
      "начина": 946,
      "свои": 947,
      "тив": 948,
      "ках": 949,
      "вну": 950,
      "теля": 951,
      "таким": 952,
      "био": 953,
      "вероят": 954,
      "шта": 955,
      "игра": 956,
      "знаете": 957,
      "которое": 958,
      "програм": 959,
      "наде": 960,
      "ваться": 961,
      "груп": 962,
      "нци": 963,
      "вместе": 964,
      "тели": 965,
      "помощ": 966,
      "дель": 967,
      "интер": 968,
      "крас": 969,
      "ность": 970,
      "которую": 971,
      "вести": 972,
      "человека": 973,
      "друг": 974,
      "той": 975,
      "никогда": 976,
      "щая": 977,
      "вится": 978,
      "пар": 979,
      "ёл": 980,
      "ческих": 981,
      "ья": 982,
      "других": 983,
      "находи": 984,
      "лич": 985,
      "род": 986,
      "нить": 987,
      "высо": 988,
      "такие": 989,
      "коли": 990,
      "продол": 991,
      "некоторые": 992,
      "подума": 993,
      "детей": 994,
      "нное": 995,
      "нашей": 996,
      "ками": 997,
      "занима": 998,
      "...": 999,
      "цев": 1000,
      "дово": 1001,
      "тыся": 1002,
      "нного": 1003,
      "глу": 1004,
      "сер": 1005,
      "проблема": 1006,
      "хоти": 1007,
      "пове": 1008,
      "муж": 1009,
      "зву": 1010,
      "другой": 1011,
      "разу": 1012,
      "нк": 1013,
      "тр": 1014,
      "такой": 1015,
      "мента": 1016,
      "поте": 1017,
      "ческой": 1018,
      "либо": 1019,
      "афри": 1020,
      "моя": 1021,
      "ходя": 1022,
      "настоя": 1023,
      "кни": 1024,
      "приме": 1025,
      "будут": 1026,
      "кор": 1027,
      "вого": 1028,
      "расска": 1029,
      "музы": 1030,
      "ключа": 1031,
      "давайте": 1032,
      "гре": 1033,
      "нуть": 1034,
      "дра": 1035,
      "многие": 1036,
      "ская": 1037,
      "говоря": 1038,
      "мар": 1039,
      "сами": 1040,
      "матери": 1041,
      "собира": 1042,
      "дву": 1043,
      "тря": 1044,
      "лом": 1045,
      "шая": 1046,
      "своей": 1047,
      "ских": 1048,
      "перед": 1049,
      "плане": 1050,
      "полити": 1051,
      "ран": 1052,
      "энерги": 1053,
      "роди": 1054,
      "свою": 1055,
      "будь": 1056,
      "дости": 1057,
      "нта": 1058,
      "тот": 1059,
      "ничего": 1060,
      "важ": 1061,
      "выгля": 1062,
      "принима": 1063,
      "вещи": 1064,
      "цу": 1065,
      "тор": 1066,
      "рой": 1067,
      "части": 1068,
      "стей": 1069,
      "ффе": 1070,
      "нали": 1071,
      "лишь": 1072,
      "50": 1073,
      "использовать": 1074,
      "долла": 1075,
      "ств": 1076,
      "стоит": 1077,
      "бор": 1078,
      "достаточно": 1079,
      "фу": 1080,
      "жется": 1081,
      "ск": 1082,
      "вления": 1083,
      "узна": 1084,
      "надо": 1085,
      "време": 1086,
      "рения": 1087,
      "рен": 1088,
      "моей": 1089,
      "стал": 1090,
      "правля": 1091,
      "спу": 1092,
      "фотографи": 1093,
      "еще": 1094,
      "рию": 1095,
      "ню": 1096,
      "цо": 1097,
      "немного": 1098,
      "соци": 1099,
      "отноше": 1100,
      "строи": 1101,
      "вается": 1102,
      "спаси": 1103,
      "дж": 1104,
      "работать": 1105,
      "мест": 1106,
      "ческий": 1107,
      "наз": 1108,
      "поя": 1109,
      "пара": 1110,
      "встре": 1111,
      "ток": 1112,
      "дой": 1113,
      "будуще": 1114,
      "около": 1115,
      "эффе": 1116,
      "емы": 1117,
      "лага": 1118,
      "изве": 1119,
      "кта": 1120,
      "зай": 1121,
      "ского": 1122,
      "реа": 1123,
      "вами": 1124,
      "инди": 1125,
      "кий": 1126,
      "наших": 1127,
      "спасибо": 1128,
      "идея": 1129,
      "подоб": 1130,
      "бро": 1131,
      "вление": 1132,
      "произо": 1133,
      "говорить": 1134,
      "грани": 1135,
      "миллио": 1136,
      "другие": 1137,
      "дёт": 1138,
      "тие": 1139,
      "пита": 1140,
      "дли": 1141,
      "дар": 1142,
      "дело": 1143,
      "смы": 1144,
      "потре": 1145,
      "ники": 1146,
      "такое": 1147,
      "мати": 1148,
      "видео": 1149,
      "уни": 1150,
      "знаю": 1151,
      "дё": 1152,
      "чной": 1153,
      "сша": 1154,
      "тоже": 1155,
      "ваше": 1156,
      "дже": 1157,
      "ников": 1158,
      "кус": 1159,
      "нах": 1160,
      "место": 1161,
      "вую": 1162,
      "обнару": 1163,
      "похо": 1164,
      "любо": 1165,
      "льной": 1166,
      "льные": 1167,
      "вид": 1168,
      "знаем": 1169,
      "таких": 1170,
      "меся": 1171,
      "одной": 1172,
      "внима": 1173,
      "истории": 1174,
      "дици": 1175,
      "случае": 1176,
      "самое": 1177,
      "особе": 1178,
      "туа": 1179,
      "момент": 1180,
      "понять": 1181,
      "две": 1182,
      "ление": 1183,
      "держи": 1184,
      "соверше": 1185,
      "гото": 1186,
      "приш": 1187,
      "строй": 1188,
      "успе": 1189,
      "циона": 1190,
      "окру": 1191,
      "зави": 1192,
      "слыша": 1193,
      "дере": 1194,
      "снова": 1195,
      "сом": 1196,
      "тут": 1197,
      "люби": 1198,
      "ешь": 1199,
      "чувство": 1200,
      "живот": 1201,
      "жать": 1202,
      "оп": 1203,
      "чер": 1204,
      "ква": 1205,
      "низ": 1206,
      "ческого": 1207,
      "иг": 1208,
      "мыш": 1209,
      "стать": 1210,
      "извест": 1211,
      "моло": 1212,
      "демо": 1213,
      "наблю": 1214,
      "ведь": 1215,
      "реально": 1216,
      "сили": 1217,
      "ким": 1218,
      "сол": 1219,
      "нра": 1220,
      "сколь": 1221,
      "ху": 1222,
      "част": 1223,
      "ский": 1224,
      "кажется": 1225,
      "хва": 1226,
      "посмотри": 1227,
      "нд": 1228,
      "отли": 1229,
      "вым": 1230,
      "миру": 1231,
      "создать": 1232,
      "столько": 1233,
      "куль": 1234,
      "ино": 1235,
      "волю": 1236,
      "диа": 1237,
      "вол": 1238,
      "защи": 1239,
      "начала": 1240,
      "насе": 1241,
      "ден": 1242,
      "хотел": 1243,
      "рю": 1244,
      "мина": 1245,
      "спра": 1246,
      "ново": 1247,
      "te": 1248,
      "гло": 1249,
      "причи": 1250,
      "благода": 1251,
      "жна": 1252,
      "бора": 1253,
      "конце": 1254,
      "взгля": 1255,
      "миллиар": 1256,
      "долларов": 1257,
      "спосо": 1258,
      "мет": 1259,
      "семь": 1260,
      "един": 1261,
      "работ": 1262,
      "кам": 1263,
      "двига": 1264,
      "ющей": 1265,
      "необходимо": 1266,
      "уро": 1267,
      "людя": 1268,
      "200": 1269,
      "найти": 1270,
      "свой": 1271,
      "проблемы": 1272,
      "уме": 1273,
      "ций": 1274,
      "дизай": 1275,
      "язы": 1276,
      "дале": 1277,
      "помощью": 1278,
      "данные": 1279,
      "куда": 1280,
      "связа": 1281,
      "часто": 1282,
      "верну": 1283,
      "почти": 1284,
      "места": 1285,
      "чить": 1286,
      "какой": 1287,
      "нную": 1288,
      "спи": 1289,
      "ставля": 1290,
      "деля": 1291,
      "нут": 1292,
      "филь": 1293,
      "приня": 1294,
      "объя": 1295,
      "чет": 1296,
      "вла": 1297,
      "щей": 1298,
      "ее": 1299,
      "ших": 1300,
      "свобо": 1301,
      "стали": 1302,
      "ктив": 1303,
      "ожи": 1304,
      "моби": 1305,
      "буде": 1306,
      "запа": 1307,
      "ские": 1308,
      "рода": 1309,
      "вза": 1310,
      "колле": 1311,
      "льный": 1312,
      "обре": 1313,
      "прошло": 1314,
      "знача": 1315,
      "значит": 1316,
      "удиви": 1317,
      "мся": 1318,
      "круг": 1319,
      "скую": 1320,
      "возможность": 1321,
      "мои": 1322,
      "бер": 1323,
      "нности": 1324,
      "рить": 1325,
      "ях": 1326,
      "работает": 1327,
      "уров": 1328,
      "льных": 1329,
      "оказа": 1330,
      "работы": 1331,
      "технологии": 1332,
      "ал": 1333,
      "нение": 1334,
      "пасно": 1335,
      "имо": 1336,
      "деся": 1337,
      "чества": 1338,
      "кита": 1339,
      "бри": 1340,
      "коро": 1341,
      "нок": 1342,
      "правитель": 1343,
      "ждения": 1344,
      "дома": 1345,
      "состоя": 1346,
      "друга": 1347,
      "уг": 1348,
      "первый": 1349,
      "весь": 1350,
      "ктивно": 1351,
      "прямо": 1352,
      "должен": 1353,
      "видим": 1354,
      "выра": 1355,
      "вари": 1356,
      "большой": 1357,
      "жили": 1358,
      "влия": 1359,
      "зависи": 1360,
      "ступа": 1361,
      "30": 1362,
      "нка": 1363,
      "искус": 1364,
      "оке": 1365,
      "количество": 1366,
      "культу": 1367,
      "клет": 1368,
      "лов": 1369,
      "сложно": 1370,
      "нными": 1371,
      "организа": 1372,
      "согла": 1373,
      "нибудь": 1374,
      "кте": 1375,
      "вили": 1376,
      "всю": 1377,
      "ностью": 1378,
      "пера": 1379,
      "казыва": 1380,
      "реб": 1381,
      "слож": 1382,
      "нес": 1383,
      "своих": 1384,
      "жды": 1385,
      "доступ": 1386,
      "зя": 1387,
      "говорит": 1388,
      "позволя": 1389,
      "взаимо": 1390,
      "уве": 1391,
      "американ": 1392,
      "четы": 1393,
      "дит": 1394,
      "увидеть": 1395,
      "шком": 1396,
      "изи": 1397,
      "печа": 1398,
      "ством": 1399,
      "нью": 1400,
      "мной": 1401,
      "мозга": 1402,
      "сса": 1403,
      "меньше": 1404,
      "безо": 1405,
      "пыт": 1406,
      "двух": 1407,
      "каждо": 1408,
      "существует": 1409,
      "лег": 1410,
      "однако": 1411,
      "работу": 1412,
      "уче": 1413,
      "лей": 1414,
      "миллионов": 1415,
      "щих": 1416,
      "физи": 1417,
      "структу": 1418,
      "ез": 1419,
      "верси": 1420,
      "течение": 1421,
      "жении": 1422,
      "прекрас": 1423,
      "экспе": 1424,
      "дить": 1425,
      "города": 1426,
      "сам": 1427,
      "вала": 1428,
      "спроси": 1429,
      "сообще": 1430,
      "шие": 1431,
      "убе": 1432,
      "проду": 1433,
      "нём": 1434,
      "соеди": 1435,
      "нность": 1436,
      "мере": 1437,
      "карти": 1438,
      "людям": 1439,
      "примерно": 1440,
      "ситуа": 1441,
      "чный": 1442,
      "увели": 1443,
      "цие": 1444,
      "хотя": 1445,
      "система": 1446,
      "стой": 1447,
      "труд": 1448,
      "ваем": 1449,
      "ряд": 1450,
      "системы": 1451,
      "означа": 1452,
      "написа": 1453,
      "иногда": 1454,
      "сра": 1455,
      "сфе": 1456,
      "болез": 1457,
      "слишком": 1458,
      "представля": 1459,
      "большинство": 1460,
      "своего": 1461,
      "обычно": 1462,
      "быстро": 1463,
      "замеча": 1464,
      "изобра": 1465,
      "совсем": 1466,
      "ними": 1467,
      "жела": 1468,
      "контро": 1469,
      "показыва": 1470,
      "котором": 1471,
      "гли": 1472,
      "довольно": 1473,
      "наша": 1474,
      "пацие": 1475,
      "закон": 1476,
      "микро": 1477,
      "ском": 1478,
      "распростра": 1479,
      "щие": 1480,
      "льного": 1481,
      "пле": 1482,
      "всему": 1483,
      "сня": 1484,
      "первые": 1485,
      "шим": 1486,
      "инстру": 1487,
      "аб": 1488,
      "дети": 1489,
      "имеет": 1490,
      "совершенно": 1491,
      "ктро": 1492,
      "скоро": 1493,
      "постоя": 1494,
      "виду": 1495,
      "бере": 1496,
      "слова": 1497,
      "еха": 1498,
      "тил": 1499,
      "рази": 1500,
      "мая": 1501,
      "одного": 1502,
      "конец": 1503,
      "приро": 1504,
      "долго": 1505,
      "смотри": 1506,
      "ший": 1507,
      "ходят": 1508,
      "невероят": 1509,
      "экспери": 1510,
      "менты": 1511,
      "вокруг": 1512,
      "новые": 1513,
      "страны": 1514,
      "строе": 1515,
      "держа": 1516,
      "поста": 1517,
      "тера": 1518,
      "зако": 1519,
      "интерес": 1520,
      "ните": 1521,
      "тельные": 1522,
      "начали": 1523,
      "многих": 1524,
      "фон": 1525,
      "история": 1526,
      "поле": 1527,
      "собой": 1528,
      "огром": 1529,
      "никто": 1530,
      "уби": 1531,
      "электро": 1532,
      "видно": 1533,
      "тан": 1534,
      "даль": 1535,
      "ющее": 1536,
      "кую": 1537,
      "внутри": 1538,
      "разме": 1539,
      "скоре": 1540,
      "ребё": 1541,
      "множе": 1542,
      "чные": 1543,
      "практи": 1544,
      "решения": 1545,
      "процен": 1546,
      "интересно": 1547,
      "кты": 1548,
      "изменить": 1549,
      "чёт": 1550,
      "щую": 1551,
      "ради": 1552,
      "сделали": 1553,
      "нор": 1554,
      "враща": 1555,
      "эн": 1556,
      "видели": 1557,
      "собстве": 1558,
      "музыка": 1559,
      "льное": 1560,
      "нти": 1561,
      "проти": 1562,
      "нном": 1563,
      "сут": 1564,
      "шли": 1565,
      "робо": 1566,
      "специ": 1567,
      "вместо": 1568,
      "дают": 1569,
      "тран": 1570,
      "взя": 1571,
      "насколько": 1572,
      "должно": 1573,
      "город": 1574,
      "полага": 1575,
      "говорят": 1576,
      "подо": 1577,
      "коман": 1578,
      "вом": 1579,
      "показать": 1580,
      "пой": 1581,
      "нан": 1582,
      "бес": 1583,
      "le": 1584,
      "воды": 1585,
      "учё": 1586,
      "щий": 1587,
      "15": 1588,
      "знать": 1589,
      "информации": 1590,
      "женщин": 1591,
      "биз": 1592,
      "стати": 1593,
      "появи": 1594,
      "нда": 1595,
      "миро": 1596,
      "различ": 1597,
      "компьютер": 1598,
      "собра": 1599,
      "тят": 1600,
      "хотим": 1601,
      "благодаря": 1602,
      "ум": 1603,
      "рами": 1604,
      "пусти": 1605,
      "тах": 1606,
      "выше": 1607,
      "бло": 1608,
      "циф": 1609,
      "поме": 1610,
      "госу": 1611,
      "чём": 1612,
      "ствовать": 1613,
      "сю": 1614,
      "сим": 1615,
      "гене": 1616,
      "100": 1617,
      "государ": 1618,
      "цве": 1619,
      "мозг": 1620,
      "ствие": 1621,
      "которым": 1622,
      "энергии": 1623,
      "веде": 1624,
      "шей": 1625,
      "медици": 1626,
      "цией": 1627,
      "смер": 1628,
      "попа": 1629,
      "свет": 1630,
      "кси": 1631,
      "данных": 1632,
      "усло": 1633,
      "чных": 1634,
      "тий": 1635,
      "исследования": 1636,
      "правда": 1637,
      "кле": 1638,
      "заня": 1639,
      "помога": 1640,
      "расте": 1641,
      "серь": 1642,
      "приходи": 1643,
      "мужчи": 1644,
      "ваются": 1645,
      "мов": 1646,
      "живу": 1647,
      "пли": 1648,
      "тили": 1649,
      "шую": 1650,
      "друз": 1651,
      "нашего": 1652,
      "являются": 1653,
      "стороны": 1654,
      "вообще": 1655,
      "делают": 1656,
      "получить": 1657,
      "нг": 1658,
      "стри": 1659,
      "коле": 1660,
      "окружа": 1661,
      "вьте": 1662,
      "нове": 1663,
      "вроде": 1664,
      "ющая": 1665,
      "напра": 1666,
      "внимание": 1667,
      "тен": 1668,
      "против": 1669,
      "случи": 1670,
      "наи": 1671,
      "научи": 1672,
      "объе": 1673,
      "ктов": 1674,
      "настолько": 1675,
      "зова": 1676,
      "ужа": 1677,
      "ёз": 1678,
      "самых": 1679,
      "процесс": 1680,
      "чки": 1681,
      "делает": 1682,
      "мини": 1683,
      "среди": 1684,
      "ье": 1685,
      "воо": 1686,
      "ат": 1687,
      "думать": 1688,
      "дьми": 1689,
      "бога": 1690,
      "ёр": 1691,
      "рий": 1692,
      "щения": 1693,
      "сказала": 1694,
      "глаза": 1695,
      "продолжа": 1696,
      "дре": 1697,
      "шка": 1698,
      "людьми": 1699,
      "означает": 1700,
      "стало": 1701,
      "слуша": 1702,
      "компании": 1703,
      "туда": 1704,
      "ощу": 1705,
      "женщины": 1706,
      "производ": 1707,
      "евро": 1708,
      "устрой": 1709,
      "проект": 1710,
      "рассказать": 1711,
      "жил": 1712,
      "настояще": 1713,
      "глоба": 1714,
      "дает": 1715,
      "вселе": 1716,
      "хе": 1717,
      "гор": 1718,
      "мом": 1719,
      "последние": 1720,
      "давно": 1721,
      "историю": 1722,
      "in": 1723,
      "носи": 1724,
      "сек": 1725,
      "али": 1726,
      "частью": 1727,
      "жив": 1728,
      "ствия": 1729,
      "социаль": 1730,
      "ted": 1731,
      "одну": 1732,
      "финан": 1733,
      "тысяч": 1734,
      "ванием": 1735,
      "возь": 1736,
      "смотря": 1737,
      "твор": 1738,
      "вдо": 1739,
      "ческая": 1740,
      "ческое": 1741,
      "особенно": 1742,
      "разных": 1743,
      "пси": 1744,
      "гражда": 1745,
      "ули": 1746,
      "тории": 1747,
      "изуча": 1748,
      "дут": 1749,
      "предло": 1750,
      "лан": 1751,
      "тео": 1752,
      "публи": 1753,
      "становится": 1754,
      "услови": 1755,
      "самый": 1756,
      "баты": 1757,
      "обеспе": 1758,
      "on": 1759,
      "какие": 1760,
      "мето": 1761,
      "ётся": 1762,
      "безопасно": 1763,
      "видел": 1764,
      "изменения": 1765,
      "менее": 1766,
      "цель": 1767,
      "степе": 1768,
      "всей": 1769,
      "полностью": 1770,
      "раньше": 1771,
      "ёх": 1772,
      "такого": 1773,
      "моего": 1774,
      "чай": 1775,
      "иска": 1776,
      "деньги": 1777,
      "вся": 1778,
      "воду": 1779,
      "тами": 1780,
      "большое": 1781,
      "четыре": 1782,
      "сми": 1783,
      "возду": 1784,
      "эй": 1785,
      "ница": 1786,
      "виру": 1787,
      "стов": 1788,
      "нки": 1789,
      "честве": 1790,
      "позволи": 1791,
      "метров": 1792,
      "неё": 1793,
      "плохо": 1794,
      "решение": 1795,
      "моих": 1796,
      "представьте": 1797,
      "точки": 1798,
      "зрения": 1799,
      "мало": 1800,
      "говорю": 1801,
      "находится": 1802,
      "ожида": 1803,
      "раздо": 1804,
      "масшта": 1805,
      "биологи": 1806,
      "деть": 1807,
      "делё": 1808,
      "цион": 1809,
      "поверх": 1810,
      "ана": 1811,
      "пери": 1812,
      "разно": 1813,
      "рования": 1814,
      "щение": 1815,
      "будем": 1816,
      "рам": 1817,
      "тельный": 1818,
      "возможности": 1819,
      "ктор": 1820,
      "которого": 1821,
      "чувству": 1822,
      "благо": 1823,
      "льным": 1824,
      "изобре": 1825,
      "рай": 1826,
      "край": 1827,
      "оди": 1828,
      "стала": 1829,
      "тон": 1830,
      "крати": 1831,
      "версите": 1832,
      "оши": 1833,
      "гораздо": 1834,
      "университе": 1835,
      "рует": 1836,
      "производи": 1837,
      "40": 1838,
      "вери": 1839,
      "выми": 1840,
      "помочь": 1841,
      "круп": 1842,
      "архи": 1843,
      "ссе": 1844,
      "ключе": 1845,
      "полови": 1846,
      "вни": 1847,
      "пти": 1848,
      "ок": 1849,
      "кому": 1850,
      "тесь": 1851,
      "представить": 1852,
      "рост": 1853,
      "бед": 1854,
      "начать": 1855,
      "нейро": 1856,
      "жё": 1857,
      "рак": 1858,
      "новый": 1859,
      "пись": 1860,
      "сделал": 1861,
      "должна": 1862,
      "фер": 1863,
      "каме": 1864,
      "называется": 1865,
      "оказыва": 1866,
      "дене": 1867,
      "земле": 1868,
      "сможем": 1869,
      "шла": 1870,
      "сур": 1871,
      "пуска": 1872,
      "глав": 1873,
      "заболе": 1874,
      "могла": 1875,
      "относи": 1876,
      "емо": 1877,
      "принци": 1878,
      "фра": 1879,
      "пить": 1880,
      "систему": 1881,
      "нравится": 1882,
      "ограни": 1883,
      "спустя": 1884,
      "наблюда": 1885,
      "хотели": 1886,
      "вень": 1887,
      "помина": 1888,
      "теше": 1889,
      "ям": 1890,
      "пожа": 1891,
      "здо": 1892,
      "нтов": 1893,
      "стране": 1894,
      "идеи": 1895,
      "основа": 1896,
      "мор": 1897,
      "проводи": 1898,
      "иметь": 1899,
      "информацию": 1900,
      "вещей": 1901,
      "земли": 1902,
      "сма": 1903,
      "лабора": 1904,
      "материа": 1905,
      "тол": 1906,
      "единстве": 1907,
      "ющего": 1908,
      "связ": 1909,
      "огро": 1910,
      "серд": 1911,
      "пода": 1912,
      "цов": 1913,
      "посмотрите": 1914,
      "пять": 1915,
      "рели": 1916,
      "выглядит": 1917,
      "восто": 1918,
      "говорил": 1919,
      "правильно": 1920,
      "тка": 1921,
      "лично": 1922,
      "ющим": 1923,
      "наконец": 1924,
      "начал": 1925,
      "тни": 1926,
      "нач": 1927,
      "минут": 1928,
      "тельных": 1929,
      "равно": 1930,
      "сен": 1931,
      "ar": 1932,
      "обществе": 1933,
      "трудно": 1934,
      "пя": 1935,
      "строить": 1936,
      "ваши": 1937,
      "дальше": 1938,
      "йор": 1939,
      "беспо": 1940,
      "здоро": 1941,
      "страда": 1942,
      "навер": 1943,
      "дево": 1944,
      "организ": 1945,
      "путеше": 1946,
      "намного": 1947,
      "однажды": 1948,
      "профе": 1949,
      "жур": 1950,
      "находя": 1951,
      "хотите": 1952,
      "oo": 1953,
      "пути": 1954,
      "нечто": 1955,
      "хотят": 1956,
      "сотруд": 1957,
      "сильно": 1958,
      "эволю": 1959,
      "легко": 1960,
      "множество": 1961,
      "60": 1962,
      "национа": 1963,
      "чие": 1964,
      "знако": 1965,
      "секу": 1966,
      "клетки": 1967,
      "сети": 1968,
      "ровали": 1969,
      "осозна": 1970,
      "шки": 1971,
      "нель": 1972,
      "делаем": 1973,
      "управля": 1974,
      "буд": 1975,
      "переме": 1976,
      "здра": 1977,
      "большая": 1978,
      "случай": 1979,
      "упра": 1980,
      "вил": 1981,
      "приве": 1982,
      "пару": 1983,
      "ческую": 1984,
      "влека": 1985,
      "реша": 1986,
      "модель": 1987,
      "первых": 1988,
      "переда": 1989,
      "противо": 1990,
      "взять": 1991,
      "определё": 1992,
      "оте": 1993,
      "основ": 1994,
      "частли": 1995,
      "анали": 1996,
      "кло": 1997,
      "абсо": 1998,
      "сохра": 1999,
      "автомоби": 2000,
      "меч": 2001,
      "выя": 2002,
      "странах": 2003,
      "компьюте": 2004,
      "произошло": 2005,
      "уровень": 2006,
      "er": 2007,
      "дро": 2008,
      "сце": 2009,
      "объеди": 2010,
      "сюда": 2011,
      "зале": 2012,
      "помощи": 2013,
      "определе": 2014,
      "ев": 2015,
      "лекар": 2016,
      "посмотреть": 2017,
      "поведе": 2018,
      "тела": 2019,
      "китай": 2020,
      "любой": 2021,
      "проблем": 2022,
      "мета": 2023,
      "счастли": 2024,
      "льная": 2025,
      "етесь": 2026,
      "второй": 2027,
      "другом": 2028,
      "математи": 2029,
      "постоянно": 2030,
      "нства": 2031,
      "пора": 2032,
      "полне": 2033,
      "впервые": 2034,
      "рей": 2035,
      "прия": 2036,
      "абсолю": 2037,
      "другими": 2038,
      "шёл": 2039,
      "краси": 2040,
      "месте": 2041,
      "няя": 2042,
      "вода": 2043,
      "стол": 2044,
      "шего": 2045,
      "считаю": 2046,
      "най": 2047,
      "заключа": 2048,
      "стер": 2049,
      "нашу": 2050,
      "гри": 2051,
      "ресур": 2052,
      "бом": 2053,
      "тебя": 2054,
      "одним": 2055,
      "гна": 2056,
      "сказали": 2057,
      "существо": 2058,
      "такая": 2059,
      "ждение": 2060,
      "брать": 2061,
      "новых": 2062,
      "18": 2063,
      "призна": 2064,
      "дня": 2065,
      "доба": 2066,
      "говорим": 2067,
      "источ": 2068,
      "игры": 2069,
      "повто": 2070,
      "рение": 2071,
      "дел": 2072,
      "составля": 2073,
      "тельность": 2074,
      "ями": 2075,
      "потря": 2076,
      "тки": 2077,
      "чей": 2078,
      "говорили": 2079,
      "мых": 2080,
      "комна": 2081,
      "каса": 2082,
      "скольку": 2083,
      "ваю": 2084,
      "прода": 2085,
      "обу": 2086,
      "смотреть": 2087,
      "включа": 2088,
      "стан": 2089,
      "каждого": 2090,
      "опера": 2091,
      "тек": 2092,
      "созна": 2093,
      "вопросы": 2094,
      "здоров": 2095,
      "дож": 2096,
      "поскольку": 2097,
      "месяцев": 2098,
      "архите": 2099,
      "яза": 2100,
      "попро": 2101,
      "слово": 2102,
      "своим": 2103,
      "требу": 2104,
      "хими": 2105,
      "смысле": 2106,
      "ито": 2107,
      "своё": 2108,
      "тельной": 2109,
      "мед": 2110,
      "отношения": 2111,
      "зависимо": 2112,
      "поко": 2113,
      "кур": 2114,
      "рование": 2115,
      "ляр": 2116,
      "or": 2117,
      "шить": 2118,
      "тельное": 2119,
      "ствует": 2120,
      "потеря": 2121,
      "зации": 2122,
      "возмо": 2123,
      "ходить": 2124,
      "собы": 2125,
      "отправи": 2126,
      "исы": 2127,
      "области": 2128,
      "стран": 2129,
      "глубо": 2130,
      "лета": 2131,
      "которыми": 2132,
      "вятся": 2133,
      "чек": 2134,
      "образи": 2135,
      "движения": 2136,
      "гов": 2137,
      "связи": 2138,
      "меха": 2139,
      "12": 2140,
      "ктри": 2141,
      "нё": 2142,
      "центра": 2143,
      "дии": 2144,
      "хода": 2145,
      "интернет": 2146,
      "животных": 2147,
      "став": 2148,
      "щь": 2149,
      "клады": 2150,
      "чка": 2151,
      "имеют": 2152,
      "решили": 2153,
      "возра": 2154,
      "участ": 2155,
      "мное": 2156,
      "смотре": 2157,
      "большие": 2158,
      "отвеча": 2159,
      "населения": 2160,
      "фици": 2161,
      "кроме": 2162,
      "кило": 2163,
      "обсу": 2164,
      "числе": 2165,
      "прежде": 2166,
      "времен": 2167,
      "есте": 2168,
      "функ": 2169,
      "протя": 2170,
      "ясь": 2171,
      "религи": 2172,
      "an": 2173,
      "ссо": 2174,
      "тельства": 2175,
      "снить": 2176,
      "интерне": 2177,
      "солне": 2178,
      "ским": 2179,
      "дне": 2180,
      "путь": 2181,
      "денег": 2182,
      "выпол": 2183,
      "увере": 2184,
      "ющихся": 2185,
      "похоже": 2186,
      "ваш": 2187,
      "вались": 2188,
      "рит": 2189,
      "остано": 2190,
      "заста": 2191,
      "расши": 2192,
      "ческим": 2193,
      "создания": 2194,
      "встреча": 2195,
      "нужны": 2196,
      "действия": 2197,
      "народ": 2198,
      "моё": 2199,
      "80": 2200,
      "другу": 2201,
      "днк": 2202,
      "общества": 2203,
      "англи": 2204,
      "развития": 2205,
      "будущее": 2206,
      "неф": 2207,
      "руют": 2208,
      "число": 2209,
      "ментов": 2210,
      "вдох": 2211,
      "кну": 2212,
      "разные": 2213,
      "прове": 2214,
      "выступ": 2215,
      "модели": 2216,
      "дней": 2217,
      "док": 2218,
      "причина": 2219,
      "скорее": 2220,
      "вших": 2221,
      "смогли": 2222,
      "эмо": 2223,
      "зывать": 2224,
      "кции": 2225,
      "чная": 2226,
      "обяза": 2227,
      "разру": 2228,
      "тых": 2229,
      "кора": 2230,
      "сон": 2231,
      "работают": 2232,
      "вном": 2233,
      "будто": 2234,
      "ори": 2235,
      "пози": 2236,
      "лам": 2237,
      "вида": 2238,
      "надеюсь": 2239,
      "нять": 2240,
      "индии": 2241,
      "сматри": 2242,
      "наиболее": 2243,
      "нашем": 2244,
      "поддержи": 2245,
      "ключи": 2246,
      "нельзя": 2247,
      "кими": 2248,
      "цели": 2249,
      "инсти": 2250,
      "тельности": 2251,
      "ственного": 2252,
      "мышле": 2253,
      "речь": 2254,
      "мысли": 2255,
      "холо": 2256,
      "близ": 2257,
      "вещь": 2258,
      "проте": 2259,
      "электри": 2260,
      "миллиардов": 2261,
      "лый": 2262,
      "трёх": 2263,
      "африке": 2264,
      "телями": 2265,
      "ору": 2266,
      "забо": 2267,
      "маль": 2268,
      "тый": 2269,
      "спраши": 2270,
      "лон": 2271,
      "сок": 2272,
      "превра": 2273,
      "решить": 2274,
      "рах": 2275,
      "льте": 2276,
      "типа": 2277,
      "работали": 2278,
      "группа": 2279,
      "будущем": 2280,
      "итоге": 2281,
      "поку": 2282,
      "увеличи": 2283,
      "гом": 2284,
      "другим": 2285,
      "несколь": 2286,
      "револю": 2287,
      "некоторых": 2288,
      "рассказыва": 2289,
      "потряса": 2290,
      "нему": 2291,
      "тали": 2292,
      "ген": 2293,
      "печат": 2294,
      "каким": 2295,
      "узнать": 2296,
      "зап": 2297,
      "знают": 2298,
      "самые": 2299,
      "просты": 2300,
      "руки": 2301,
      "предоста": 2302,
      "невозможно": 2303,
      "шее": 2304,
      "силь": 2305,
      "рядом": 2306,
      "воохра": 2307,
      "вное": 2308,
      "зер": 2309,
      "прошлом": 2310,
      "цио": 2311,
      "знали": 2312,
      "серьёз": 2313,
      "нар": 2314,
      "доказа": 2315,
      "дея": 2316,
      "крет": 2317,
      "кем": 2318,
      "посе": 2319,
      "несмотря": 2320,
      "позвольте": 2321,
      "al": 2322,
      "побе": 2323,
      "работе": 2324,
      "женщина": 2325,
      "решил": 2326,
      "сразу": 2327,
      "сона": 2328,
      "отра": 2329,
      "ственное": 2330,
      "сай": 2331,
      "машины": 2332,
      "11": 2333,
      "ап": 2334,
      "стях": 2335,
      "тысячи": 2336,
      "демократи": 2337,
      "ина": 2338,
      "стно": 2339,
      "задума": 2340,
      "право": 2341,
      "следует": 2342,
      "сначала": 2343,
      "чную": 2344,
      "делить": 2345,
      "жений": 2346,
      "ское": 2347,
      "далеко": 2348,
      "абсолютно": 2349,
      "качестве": 2350,
      "экологи": 2351,
      "этими": 2352,
      "альной": 2353,
      "друзья": 2354,
      "реги": 2355,
      "тебе": 2356,
      "сигна": 2357,
      "ннова": 2358,
      "зов": 2359,
      "процентов": 2360,
      "направле": 2361,
      "ак": 2362,
      "знает": 2363,
      "посмотрим": 2364,
      "самым": 2365,
      "кс": 2366,
      "тю": 2367,
      "мыс": 2368,
      "зве": 2369,
      "угле": 2370,
      "устано": 2371,
      "жерт": 2372,
      "тые": 2373,
      "медицин": 2374,
      "оце": 2375,
      "гами": 2376,
      "иннова": 2377,
      "совме": 2378,
      "север": 2379,
      "возмож": 2380,
      "обща": 2381,
      "разгово": 2382,
      "ступи": 2383,
      "стойчи": 2384,
      "годы": 2385,
      "пришлось": 2386,
      "борь": 2387,
      "часов": 2388,
      "создали": 2389,
      "используя": 2390,
      "моле": 2391,
      "молоды": 2392,
      "жим": 2393,
      "скаже": 2394,
      "спор": 2395,
      "доволь": 2396,
      "далее": 2397,
      "граждан": 2398,
      "кова": 2399,
      "дали": 2400,
      "даёт": 2401,
      "одном": 2402,
      "фотографии": 2403,
      "здравоохра": 2404,
      "25": 2405,
      "недавно": 2406,
      "пользу": 2407,
      "молеку": 2408,
      "роль": 2409,
      "соответ": 2410,
      "выбор": 2411,
      "инже": 2412,
      "вшие": 2413,
      "бан": 2414,
      "связь": 2415,
      "нте": 2416,
      "опыт": 2417,
      "люб": 2418,
      "форму": 2419,
      "сро": 2420,
      "полни": 2421,
      "понял": 2422,
      "позволяет": 2423,
      "мощ": 2424,
      "стить": 2425,
      "компания": 2426,
      "отлича": 2427,
      "90": 2428,
      "попроси": 2429,
      "состоит": 2430,
      "станет": 2431,
      "тельная": 2432,
      "идёт": 2433,
      "думал": 2434,
      "уровне": 2435,
      "ред": 2436,
      "капита": 2437,
      "исче": 2438,
      "ид": 2439,
      "экра": 2440,
      "мину": 2441,
      "пас": 2442,
      "создавать": 2443,
      "ac": 2444,
      "лки": 2445,
      "видов": 2446,
      "кали": 2447,
      "форми": 2448,
      "интересо": 2449,
      "норма": 2450,
      "ющую": 2451,
      "рабаты": 2452,
      "рот": 2453,
      "сель": 2454,
      "чного": 2455,
      "лла": 2456,
      "уго": 2457,
      "тельным": 2458,
      "кана": 2459,
      "проблему": 2460,
      "десяти": 2461,
      "держ": 2462,
      "усили": 2463,
      "вен": 2464,
      "первая": 2465,
      "технологий": 2466,
      "группы": 2467,
      "веща": 2468,
      "буква": 2469,
      "хотелось": 2470,
      "результате": 2471,
      "мые": 2472,
      "разли": 2473,
      "газ": 2474,
      "лые": 2475,
      "сила": 2476,
      "домой": 2477,
      "бакте": 2478,
      "хотела": 2479,
      "попу": 2480,
      "мей": 2481,
      "работал": 2482,
      "покажу": 2483,
      "телем": 2484,
      "результат": 2485,
      "потреб": 2486,
      "новой": 2487,
      "шан": 2488,
      "писать": 2489,
      "поис": 2490,
      "луй": 2491,
      "годно": 2492,
      "стар": 2493,
      "образование": 2494,
      "школу": 2495,
      "угро": 2496,
      "воло": 2497,
      "прият": 2498,
      "движение": 2499,
      "миллиона": 2500,
      "устойчи": 2501,
      "чным": 2502,
      "вит": 2503,
      "хочет": 2504,
      "самая": 2505,
      "бен": 2506,
      "жит": 2507,
      "утвер": 2508,
      "войны": 2509,
      "факти": 2510,
      "экс": 2511,
      "хозя": 2512,
      "факт": 2513,
      "ван": 2514,
      "лой": 2515,
      "бума": 2516,
      "чное": 2517,
      "дят": 2518,
      "услыша": 2519,
      "дая": 2520,
      "первое": 2521,
      "имею": 2522,
      "заключается": 2523,
      "ссии": 2524,
      "европе": 2525,
      "вижу": 2526,
      "широ": 2527,
      "ауди": 2528,
      "эффектив": 2529,
      "лиде": 2530,
      "лых": 2531,
      "планеты": 2532,
      "самой": 2533,
      "подумал": 2534,
      "семьи": 2535,
      "вселенной": 2536,
      "протяжении": 2537,
      "делиться": 2538,
      "следующий": 2539,
      "клима": 2540,
      "вариан": 2541,
      "уж": 2542,
      "льную": 2543,
      "тай": 2544,
      "опять": 2545,
      "съ": 2546,
      "зав": 2547,
      "бов": 2548,
      "ющими": 2549,
      "участи": 2550,
      "начале": 2551,
      "мою": 2552,
      "общи": 2553,
      "70": 2554,
      "ган": 2555,
      "тур": 2556,
      "уровня": 2557,
      "нера": 2558,
      "руко": 2559,
      "ждать": 2560,
      "солн": 2561,
      "пожалуй": 2562,
      "тии": 2563,
      "привы": 2564,
      "вероятно": 2565,
      "невероятно": 2566,
      "ницы": 2567,
      "преступ": 2568,
      "льном": 2569,
      "названием": 2570,
      "генети": 2571,
      "чку": 2572,
      "студен": 2573,
      "чёр": 2574,
      "зма": 2575,
      "формы": 2576,
      "клад": 2577,
      "вании": 2578,
      "тар": 2579,
      "ti": 2580,
      "насили": 2581,
      "безопасности": 2582,
      "очевидно": 2583,
      "ческом": 2584,
      "весьма": 2585,
      "контроли": 2586,
      "сл": 2587,
      "результаты": 2588,
      "света": 2589,
      "случилось": 2590,
      "пят": 2591,
      "оби": 2592,
      "поряд": 2593,
      "значение": 2594,
      "гря": 2595,
      "зм": 2596,
      "зри": 2597,
      "присут": 2598,
      "сих": 2599,
      "обрати": 2600,
      "практически": 2601,
      "бизнес": 2602,
      "сеть": 2603,
      "права": 2604,
      "другому": 2605,
      "исти": 2606,
      "кстати": 2607,
      "улуч": 2608,
      "увидите": 2609,
      "знал": 2610,
      "делали": 2611,
      "думаете": 2612,
      "другая": 2613,
      "живут": 2614,
      "доби": 2615,
      "сотни": 2616,
      "предполо": 2617,
      "интелле": 2618,
      "зон": 2619,
      "рака": 2620,
      "думали": 2621,
      "потенци": 2622,
      "демон": 2623,
      "удивительно": 2624,
      "отец": 2625,
      "еже": 2626,
      "чик": 2627,
      "возника": 2628,
      "ровал": 2629,
      "определя": 2630,
      "фактически": 2631,
      "уста": 2632,
      "новое": 2633,
      "техни": 2634,
      "образования": 2635,
      "организации": 2636,
      "цифро": 2637,
      "оказывается": 2638,
      "плани": 2639,
      "дво": 2640,
      "ими": 2641,
      "нако": 2642,
      "быстре": 2643,
      "мать": 2644,
      "пан": 2645,
      "площа": 2646,
      "планете": 2647,
      "ллю": 2648,
      "ёте": 2649,
      "виться": 2650,
      "тело": 2651,
      "дент": 2652,
      "гар": 2653,
      "взро": 2654,
      "попыта": 2655,
      "верно": 2656,
      "ближа": 2657,
      "известно": 2658,
      "зло": 2659,
      "океа": 2660,
      "иначе": 2661,
      "инвести": 2662,
      "возвраща": 2663,
      "трен": 2664,
      "цвета": 2665,
      "конф": 2666,
      "здания": 2667,
      "цвет": 2668,
      "жены": 2669,
      "идею": 2670,
      "помните": 2671,
      "co": 2672,
      "лл": 2673,
      "роли": 2674,
      "избе": 2675,
      "хара": 2676,
      "другое": 2677,
      "сегодняш": 2678,
      "бизне": 2679,
      "посред": 2680,
      "мое": 2681,
      "концов": 2682,
      "развива": 2683,
      "помощь": 2684,
      "книги": 2685,
      "опти": 2686,
      "en": 2687,
      "ранее": 2688,
      "знания": 2689,
      "мужчина": 2690,
      "успеш": 2691,
      "лению": 2692,
      "рых": 2693,
      "стом": 2694,
      "вного": 2695,
      "цами": 2696,
      "обнаружили": 2697,
      "жизне": 2698,
      "емых": 2699,
      "поговорить": 2700,
      "нести": 2701,
      "нужна": 2702,
      "менять": 2703,
      "проекта": 2704,
      "используют": 2705,
      "измене": 2706,
      "удалось": 2707,
      "запад": 2708,
      "закончи": 2709,
      "сотрудни": 2710,
      "реаль": 2711,
      "нстве": 2712,
      "фран": 2713,
      "довать": 2714,
      "современ": 2715,
      "паль": 2716,
      "большую": 2717,
      "технология": 2718,
      "временно": 2719,
      "сожа": 2720,
      "дите": 2721,
      "чуть": 2722,
      "восстано": 2723,
      "существуют": 2724,
      "полез": 2725,
      "гни": 2726,
      "упа": 2727,
      "готов": 2728,
      "лен": 2729,
      "тит": 2730,
      "изо": 2731,
      "пен": 2732,
      "нашим": 2733,
      "звук": 2734,
      "местах": 2735,
      "огромное": 2736,
      "нескольких": 2737,
      "вало": 2738,
      "тила": 2739,
      "сокра": 2740,
      "сути": 2741,
      "вший": 2742,
      "язык": 2743,
      "рд": 2744,
      "реди": 2745,
      "воспо": 2746,
      "самого": 2747,
      "ствуют": 2748,
      "различных": 2749,
      "гно": 2750,
      "веще": 2751,
      "безу": 2752,
      "пережи": 2753,
      "традици": 2754,
      "уверен": 2755,
      "рисо": 2756,
      "сомне": 2757,
      "кисло": 2758,
      "нужда": 2759,
      "жной": 2760,
      "международ": 2761,
      "бре": 2762,
      "шту": 2763,
      "содержа": 2764,
      "шел": 2765,
      "шесть": 2766,
      "ницу": 2767,
      "вался": 2768,
      "разработ": 2769,
      "супер": 2770,
      "смысл": 2771,
      "века": 2772,
      "гала": 2773,
      "ником": 2774,
      "чит": 2775,
      "пространство": 2776,
      "вашей": 2777,
      "джа": 2778,
      "мосфе": 2779,
      "сор": 2780,
      "эффективно": 2781,
      "плат": 2782,
      "голос": 2783,
      "атмосфе": 2784,
      "мама": 2785,
      "способность": 2786,
      "сверх": 2787,
      "дис": 2788,
      "выро": 2789,
      "сил": 2790,
      "испыта": 2791,
      "взгляд": 2792,
      "быстрее": 2793,
      "нку": 2794,
      "хоче": 2795,
      "пригла": 2796,
      "рыв": 2797,
      "водит": 2798,
      "используем": 2799,
      "получается": 2800,
      "принять": 2801,
      "правительство": 2802,
      "поро": 2803,
      "исследований": 2804,
      "наверное": 2805,
      "нили": 2806,
      "прези": 2807,
      "жает": 2808,
      "темпера": 2809,
      "расскажу": 2810,
      "промышле": 2811,
      "люблю": 2812,
      "цей": 2813,
      "сосе": 2814,
      "откуда": 2815,
      "играть": 2816,
      "худож": 2817,
      "смерти": 2818,
      "оне": 2819,
      "позже": 2820,
      "похожи": 2821,
      "шед": 2822,
      "порази": 2823,
      "май": 2824,
      "выбра": 2825,
      "гер": 2826,
      "общество": 2827,
      "понимаете": 2828,
      "оказалось": 2829,
      "it": 2830,
      "акти": 2831,
      "читать": 2832,
      "основном": 2833,
      "своими": 2834,
      "программы": 2835,
      "скры": 2836,
      "какое": 2837,
      "гео": 2838,
      "задача": 2839,
      "ошиб": 2840,
      "ссы": 2841,
      "нена": 2842,
      "инду": 2843,
      "пользова": 2844,
      "зирова": 2845,
      "другого": 2846,
      "професси": 2847,
      "находятся": 2848,
      "es": 2849,
      "такую": 2850,
      "закры": 2851,
      "системе": 2852,
      "архитекту": 2853,
      "навли": 2854,
      "боро": 2855,
      "сан": 2856,
      "больших": 2857,
      "вернуться": 2858,
      "ведли": 2859,
      "поддерж": 2860,
      "действие": 2861,
      "слышали": 2862,
      "справедли": 2863,
      "специали": 2864,
      "щать": 2865,
      "африкан": 2866,
      "ужас": 2867,
      "финансо": 2868,
      "ограниче": 2869,
      "опу": 2870,
      "ваете": 2871,
      "вич": 2872,
      "ческими": 2873,
      "исследование": 2874,
      "настоящему": 2875,
      "щего": 2876,
      "хозяй": 2877,
      "вдруг": 2878,
      "провер": 2879,
      "нул": 2880,
      "школе": 2881,
      "тём": 2882,
      "шек": 2883,
      "силы": 2884,
      "представи": 2885,
      "умира": 2886,
      "вок": 2887,
      "сум": 2888,
      "ктора": 2889,
      "анти": 2890,
      "това": 2891,
      "вызыва": 2892,
      "мую": 2893,
      "терро": 2894,
      "маленькие": 2895,
      "тюрь": 2896,
      "космо": 2897,
      "располо": 2898,
      "никами": 2899,
      "последний": 2900,
      "показывает": 2901,
      "поверхности": 2902,
      "англий": 2903,
      "th": 2904,
      "йн": 2905,
      "кция": 2906,
      "подход": 2907,
      "истори": 2908,
      "внутрен": 2909,
      "деревь": 2910,
      "лаборатории": 2911,
      "зво": 2912,
      "ктом": 2913,
      "теги": 2914,
      "ката": 2915,
      "руем": 2916,
      "констру": 2917,
      "школы": 2918,
      "буквально": 2919,
      "активно": 2920,
      "тора": 2921,
      "оба": 2922,
      "терри": 2923,
      "фильм": 2924,
      "покупа": 2925,
      "затра": 2926,
      "сах": 2927,
      "клеток": 2928,
      "вдохно": 2929,
      "нке": 2930,
      "опасно": 2931,
      "лицо": 2932,
      "деми": 2933,
      "конфли": 2934,
      "мура": 2935,
      "стара": 2936,
      "емые": 2937,
      "эм": 2938,
      "построе": 2939,
      "моим": 2940,
      "заставля": 2941,
      "нашли": 2942,
      "природы": 2943,
      "фан": 2944,
      "тая": 2945,
      "щим": 2946,
      "ющиеся": 2947,
      "ic": 2948,
      "ro": 2949,
      "стратеги": 2950,
      "основе": 2951,
      "добро": 2952,
      "секун": 2953,
      "ске": 2954,
      "отлич": 2955,
      "уничто": 2956,
      "степени": 2957,
      "механиз": 2958,
      "gle": 2959,
      "пля": 2960,
      "раза": 2961,
      "рень": 2962,
      "мость": 2963,
      "думы": 2964,
      "жила": 2965,
      "суть": 2966,
      "проекти": 2967,
      "сторону": 2968,
      "вной": 2969,
      "словами": 2970,
      "обратно": 2971,
      "поняли": 2972,
      "становятся": 2973,
      "миллиарда": 2974,
      "приходится": 2975,
      "гряз": 2976,
      "какая": 2977,
      "рассматри": 2978,
      "план": 2979,
      "большим": 2980,
      "мысль": 2981,
      "тура": 2982,
      "конфе": 2983,
      "дётся": 2984,
      "мужчины": 2985,
      "goo": 2986,
      "остро": 2987,
      "сможет": 2988,
      "жена": 2989,
      "испы": 2990,
      "тельство": 2991,
      "словно": 2992,
      "получили": 2993,
      "недель": 2994,
      "прово": 2995,
      "пласти": 2996,
      "телефон": 2997,
      "ситуация": 2998,
      "статисти": 2999,
      "институ": 3000,
      "ясно": 3001,
      "сталки": 3002,
      "оде": 3003,
      "вес": 3004,
      "циони": 3005,
      "сама": 3006,
      "верю": 3007,
      "тяже": 3008,
      "стреми": 3009,
      "внеш": 3010,
      "будете": 3011,
      "пов": 3012,
      "говари": 3013,
      "думаем": 3014,
      "понимать": 3015,
      "мора": 3016,
      "мах": 3017,
      "сить": 3018,
      "впечат": 3019,
      "лин": 3020,
      "лежа": 3021,
      "йтесь": 3022,
      "подумать": 3023,
      "спросил": 3024,
      "яр": 3025,
      "предлага": 3026,
      "геро": 3027,
      "пришли": 3028,
      "16": 3029,
      "дём": 3030,
      "оцен": 3031,
      "зии": 3032,
      "центре": 3033,
      "ситуации": 3034,
      "болезни": 3035,
      "десятиле": 3036,
      "google": 3037,
      "14": 3038,
      "момента": 3039,
      "выступа": 3040,
      "подвер": 3041,
      "образова": 3042,
      "средства": 3043,
      "семья": 3044,
      "африки": 3045,
      "журна": 3046,
      "вверх": 3047,
      "увидел": 3048,
      "совреме": 3049,
      "ребёнка": 3050,
      "иму": 3051,
      "умер": 3052,
      "удоб": 3053,
      "прогре": 3054,
      "среды": 3055,
      "одновременно": 3056,
      "помню": 3057,
      "чрез": 3058,
      "топли": 3059,
      "силу": 3060,
      "ствен": 3061,
      "думают": 3062,
      "потребле": 3063,
      "чувствовать": 3064,
      "окружающей": 3065,
      "психо": 3066,
      "ада": 3067,
      "дки": 3068,
      "твер": 3069,
      "делю": 3070,
      "зачем": 3071,
      "семей": 3072,
      "ходы": 3073,
      "человеком": 3074,
      "последова": 3075,
      "каждая": 3076,
      "начинает": 3077,
      "пяти": 3078,
      "мечта": 3079,
      "чле": 3080,
      "новую": 3081,
      "доку": 3082,
      "нужен": 3083,
      "предо": 3084,
      "террори": 3085,
      "осве": 3086,
      "моему": 3087,
      "поднима": 3088,
      "америке": 3089,
      "маленький": 3090,
      "дизайн": 3091,
      "аппара": 3092,
      "идей": 3093,
      "рекла": 3094,
      "захва": 3095,
      "крайней": 3096,
      "зая": 3097,
      "реали": 3098,
      "двигаться": 3099,
      "состоянии": 3100,
      "бю": 3101,
      "игру": 3102,
      "попыт": 3103,
      "раб": 3104,
      "разве": 3105,
      "шаг": 3106,
      "действовать": 3107,
      "первой": 3108,
      "получил": 3109,
      "период": 3110,
      "поведение": 3111,
      "джи": 3112,
      "теря": 3113,
      "деву": 3114,
      "заинтересо": 3115,
      "сят": 3116,
      "изу": 3117,
      "второ": 3118,
      "стями": 3119,
      "ответственно": 3120,
      "корот": 3121,
      "правительства": 3122,
      "построить": 3123,
      "отме": 3124,
      "зировать": 3125,
      "каждой": 3126,
      "оружи": 3127,
      "осуще": 3128,
      "новая": 3129,
      "жением": 3130,
      "часа": 3131,
      "распо": 3132,
      "восприя": 3133,
      "считать": 3134,
      "вашего": 3135,
      "умень": 3136,
      "смотрите": 3137,
      "касается": 3138,
      "сна": 3139,
      "япо": 3140,
      "лого": 3141,
      "мимо": 3142,
      "стиму": 3143,
      "земля": 3144,
      "называем": 3145,
      "собираюсь": 3146,
      "отлично": 3147,
      "могло": 3148,
      "правила": 3149,
      "дни": 3150,
      "соба": 3151,
      "виды": 3152,
      "дия": 3153,
      "здание": 3154,
      "телефо": 3155,
      "оз": 3156,
      "сп": 3157,
      "вин": 3158,
      "общем": 3159,
      "убеди": 3160,
      "убий": 3161,
      "мужчин": 3162,
      "мэ": 3163,
      "ственные": 3164,
      "разуме": 3165,
      "конферен": 3166,
      "лица": 3167,
      "руку": 3168,
      "памя": 3169,
      "обраща": 3170,
      "лёг": 3171,
      "зелё": 3172,
      "действительности": 3173,
      "принимать": 3174,
      "климата": 3175,
      "шку": 3176,
      "выз": 3177,
      "тым": 3178,
      "имени": 3179,
      "ав": 3180,
      "лка": 3181,
      "смерт": 3182,
      "перё": 3183,
      "персона": 3184,
      "помнить": 3185,
      "транс": 3186,
      "вече": 3187,
      "гать": 3188,
      "такими": 3189,
      "землю": 3190,
      "произой": 3191,
      "кости": 3192,
      "дения": 3193,
      "своём": 3194,
      "информация": 3195,
      "телям": 3196,
      "13": 3197,
      "вёл": 3198,
      "подня": 3199,
      "начало": 3200,
      "крат": 3201,
      "держать": 3202,
      "изображение": 3203,
      "сексу": 3204,
      "поделиться": 3205,
      "зоваться": 3206,
      "тельного": 3207,
      "обез": 3208,
      "родители": 3209,
      "устройство": 3210,
      "вниз": 3211,
      "ото": 3212,
      "счасть": 3213,
      "стры": 3214,
      "нюю": 3215,
      "культур": 3216,
      "гиб": 3217,
      "свое": 3218,
      "ственных": 3219,
      "начинают": 3220,
      "готовы": 3221,
      "дизайне": 3222,
      "сердце": 3223,
      "ждё": 3224,
      "шения": 3225,
      "распре": 3226,
      "всём": 3227,
      "друзей": 3228,
      "ер": 3229,
      "угодно": 3230,
      "ядер": 3231,
      "рису": 3232,
      "выжи": 3233,
      "следовать": 3234,
      "форме": 3235,
      "крити": 3236,
      "199": 3237,
      "здорово": 3238,
      "вообра": 3239,
      "отда": 3240,
      "предела": 3241,
      "влечь": 3242,
      "сове": 3243,
      "демонстри": 3244,
      "re": 3245,
      "напомина": 3246,
      "косми": 3247,
      "развитие": 3248,
      "слай": 3249,
      "ребёнок": 3250,
      "одинако": 3251,
      "смог": 3252,
      "покры": 3253,
      "щее": 3254,
      "разнообрази": 3255,
      "галакти": 3256,
      "предме": 3257,
      "спорт": 3258,
      "процессе": 3259,
      "высоко": 3260,
      "торго": 3261,
      "радио": 3262,
      "медле": 3263,
      "сожалению": 3264,
      "отправля": 3265,
      "делал": 3266,
      "квар": 3267,
      "пожалуйста": 3268,
      "перёд": 3269,
      "кожи": 3270,
      "недостаточно": 3271,
      "мым": 3272,
      "чать": 3273,
      "отсут": 3274,
      "парень": 3275,
      "след": 3276,
      "инфра": 3277,
      "фунда": 3278,
      "пры": 3279,
      "голу": 3280,
      "вело": 3281,
      "мани": 3282,
      "ходов": 3283,
      "принад": 3284,
      "разговари": 3285,
      "студе": 3286,
      "ального": 3287,
      "машина": 3288,
      "джон": 3289,
      "здравоохранения": 3290,
      "ip": 3291,
      "иллю": 3292,
      "плы": 3293,
      "таком": 3294,
      "чены": 3295,
      "изба": 3296,
      "шать": 3297,
      "простой": 3298,
      "объяснить": 3299,
      "хом": 3300,
      "жите": 3301,
      "вшись": 3302,
      "структуры": 3303,
      "имуще": 3304,
      "is": 3305,
      "смогут": 3306,
      "расти": 3307,
      "метри": 3308,
      "изменя": 3309,
      "чих": 3310,
      "гам": 3311,
      "ственной": 3312,
      "проблемой": 3313,
      "будучи": 3314,
      "способны": 3315,
      "ответил": 3316,
      "программи": 3317,
      "искусства": 3318,
      "17": 3319,
      "наро": 3320,
      "нова": 3321,
      "потра": 3322,
      "няет": 3323,
      "предпринима": 3324,
      "емый": 3325,
      "реаги": 3326,
      "журнали": 3327,
      "звез": 3328,
      "хов": 3329,
      "сист": 3330,
      "делаю": 3331,
      "первую": 3332,
      "слов": 3333,
      "фотография": 3334,
      "согласи": 3335,
      "испыты": 3336,
      "500": 3337,
      "ян": 3338,
      "выбира": 3339,
      "страна": 3340,
      "посмотре": 3341,
      "глуби": 3342,
      "разум": 3343,
      "власти": 3344,
      "эксперимент": 3345,
      "финанси": 3346,
      "изобрете": 3347,
      "ува": 3348,
      "эпи": 3349,
      "неделю": 3350,
      "мена": 3351,
      "мости": 3352,
      "пытаемся": 3353,
      "городе": 3354,
      "считают": 3355,
      "сравне": 3356,
      "вполне": 3357,
      "уника": 3358,
      "ваша": 3359,
      "метра": 3360,
      "примени": 3361,
      "преду": 3362,
      "конкрет": 3363,
      "многое": 3364,
      "энергию": 3365,
      "индивиду": 3366,
      "написал": 3367,
      "вёр": 3368,
      "емой": 3369,
      "вов": 3370,
      "страш": 3371,
      "голову": 3372,
      "брита": 3373,
      "пациентов": 3374,
      "одино": 3375,
      "калифор": 3376,
      "вперёд": 3377,
      "тория": 3378,
      "поступа": 3379,
      "леса": 3380,
      "бук": 3381,
      "слева": 3382,
      "пусты": 3383,
      "каждом": 3384,
      "учить": 3385,
      "сним": 3386,
      "заниматься": 3387,
      "валось": 3388,
      "боя": 3389,
      "выбора": 3390,
      "лях": 3391,
      "характе": 3392,
      "мс": 3393,
      "парт": 3394,
      "гей": 3395,
      "возможностей": 3396,
      "сторон": 3397,
      "исчез": 3398,
      "рав": 3399,
      "тает": 3400,
      "тип": 3401,
      "привлека": 3402,
      "чувства": 3403,
      "отношение": 3404,
      "реальность": 3405,
      "инжене": 3406,
      "профессиона": 3407,
      "сможете": 3408,
      "лечения": 3409,
      "данный": 3410,
      "провод": 3411,
      "дую": 3412,
      "экономики": 3413,
      "трю": 3414,
      "прекрасно": 3415,
      "имя": 3416,
      "км": 3417,
      "мё": 3418,
      "шё": 3419,
      "видела": 3420,
      "визу": 3421,
      "разо": 3422,
      "использовали": 3423,
      "использования": 3424,
      "хро": 3425,
      "мый": 3426,
      "цеп": 3427,
      "детям": 3428,
      "условиях": 3429,
      "другую": 3430,
      "справедливо": 3431,
      "ау": 3432,
      "дат": 3433,
      "вей": 3434,
      "дино": 3435,
      "шение": 3436,
      "очере": 3437,
      "гено": 3438,
      "искусство": 3439,
      "ap": 3440,
      "гро": 3441,
      "навы": 3442,
      "нил": 3443,
      "дал": 3444,
      "титься": 3445,
      "выбро": 3446,
      "чаще": 3447,
      "жают": 3448,
      "звучит": 3449,
      "целью": 3450,
      "включая": 3451,
      "заставить": 3452,
      "опы": 3453,
      "сви": 3454,
      "ноги": 3455,
      "регу": 3456,
      "лая": 3457,
      "суб": 3458,
      "можешь": 3459,
      "хорошие": 3460,
      "вопросом": 3461,
      "ющем": 3462,
      "океана": 3463,
      "окон": 3464,
      "услу": 3465,
      "реза": 3466,
      "запи": 3467,
      "произведе": 3468,
      "казалось": 3469,
      "эффект": 3470,
      "учёные": 3471,
      "оптими": 3472,
      "рту": 3473,
      "вак": 3474,
      "соста": 3475,
      "придётся": 3476,
      "миллионы": 3477,
      "океан": 3478,
      "стую": 3479,
      "массо": 3480,
      "нарко": 3481,
      "систем": 3482,
      "зре": 3483,
      "зация": 3484,
      "заклю": 3485,
      "туры": 3486,
      "верши": 3487,
      "шает": 3488,
      "расстоя": 3489,
      "бабу": 3490,
      "ствии": 3491,
      "красо": 3492,
      "представление": 3493,
      "примеру": 3494,
      "материал": 3495,
      "зависит": 3496,
      "кость": 3497,
      "горит": 3498,
      "целом": 3499,
      "пии": 3500,
      "вернуть": 3501,
      "внимания": 3502,
      "беспоко": 3503,
      "ch": 3504,
      "необы": 3505,
      "небольшой": 3506,
      "дав": 3507,
      "всеми": 3508,
      "карье": 3509,
      "начинается": 3510,
      "книгу": 3511,
      "всюду": 3512,
      "производства": 3513,
      "живём": 3514,
      "тим": 3515,
      "желе": 3516,
      "стая": 3517,
      "пале": 3518,
      "собственно": 3519,
      "главное": 3520,
      "центр": 3521,
      "ам": 3522,
      "лах": 3523,
      "рур": 3524,
      "чия": 3525,
      "скажу": 3526,
      "машину": 3527,
      "времена": 3528,
      "причин": 3529,
      "пустить": 3530,
      "нового": 3531,
      "тации": 3532,
      "вила": 3533,
      "магни": 3534,
      "предполага": 3535,
      "работаю": 3536,
      "хирур": 3537,
      "последствия": 3538,
      "различные": 3539,
      "йорке": 3540,
      "экспер": 3541,
      "прило": 3542,
      "создание": 3543,
      "полно": 3544,
      "дороги": 3545,
      "влияние": 3546,
      "желание": 3547,
      "древ": 3548,
      "километров": 3549,
      "нице": 3550,
      "мин": 3551,
      "цент": 3552,
      "подобные": 3553,
      "устройства": 3554,
      "купить": 3555,
      "бар": 3556,
      "альные": 3557,
      "понимание": 3558,
      "достичь": 3559,
      "месяца": 3560,
      "нрави": 3561,
      "справа": 3562,
      "студентов": 3563,
      "номер": 3564,
      "появляется": 3565,
      "комму": 3566,
      "служ": 3567,
      "хороший": 3568,
      "изображения": 3569,
      "масштаб": 3570,
      "лекарства": 3571,
      "обучения": 3572,
      "вью": 3573,
      "описа": 3574,
      "увидели": 3575,
      "фей": 3576,
      "чая": 3577,
      "преимуще": 3578,
      "имеем": 3579,
      "подумайте": 3580,
      "свиде": 3581,
      "поез": 3582,
      "ваний": 3583,
      "выбо": 3584,
      "суль": 3585,
      "золо": 3586,
      "логии": 3587,
      "будущего": 3588,
      "сообщества": 3589,
      "помогает": 3590,
      "фундамента": 3591,
      "торы": 3592,
      "независимо": 3593,
      "валась": 3594,
      "бовать": 3595,
      "сущ": 3596,
      "клини": 3597,
      "крис": 3598,
      "согласно": 3599,
      "смотрим": 3600,
      "команда": 3601,
      "мировой": 3602,
      "ферме": 3603,
      "хуже": 3604,
      "ресто": 3605,
      "депре": 3606,
      "ристи": 3607,
      "зная": 3608,
      "глаз": 3609,
      "количества": 3610,
      "мальчи": 3611,
      "одо": 3612,
      "лек": 3613,
      "дили": 3614,
      "учиться": 3615,
      "состояние": 3616,
      "единственный": 3617,
      "опубли": 3618,
      "чными": 3619,
      "нос": 3620,
      "пойти": 3621,
      "расту": 3622,
      "рок": 3623,
      "дета": 3624,
      "лог": 3625,
      "чен": 3626,
      "чении": 3627,
      "расы": 3628,
      "чуде": 3629,
      "вычай": 3630,
      "отдель": 3631,
      "превраща": 3632,
      "зову": 3633,
      "работаем": 3634,
      "большей": 3635,
      "большого": 3636,
      "идти": 3637,
      "очередь": 3638,
      "аспе": 3639,
      "снима": 3640,
      "ребе": 3641,
      "тин": 3642,
      "приеха": 3643,
      "приводит": 3644,
      "беско": 3645,
      "пространства": 3646,
      "науки": 3647,
      "ладно": 3648,
      "везде": 3649,
      "боли": 3650,
      "лым": 3651,
      "программа": 3652,
      "возраста": 3653,
      "вакци": 3654,
      "уч": 3655,
      "цем": 3656,
      "рачи": 3657,
      "льными": 3658,
      "лем": 3659,
      "купи": 3660,
      "дыха": 3661,
      "подтвер": 3662,
      "рованы": 3663,
      "выращи": 3664,
      "секунд": 3665,
      "чрезвычай": 3666,
      "la": 3667,
      "ай": 3668,
      "риск": 3669,
      "ходили": 3670,
      "вляет": 3671,
      "ближе": 3672,
      "влияет": 3673,
      "фанта": 3674,
      "жные": 3675,
      "лежит": 3676,
      "цивили": 3677,
      "кусо": 3678,
      "работала": 3679,
      "правило": 3680,
      "сне": 3681,
      "недели": 3682,
      "ребя": 3683,
      "мол": 3684,
      "еты": 3685,
      "стары": 3686,
      "гази": 3687,
      "раскры": 3688,
      "служи": 3689,
      "велико": 3690,
      "понимаю": 3691,
      "называют": 3692,
      "определить": 3693,
      "любовь": 3694,
      "st": 3695,
      "джу": 3696,
      "ственный": 3697,
      "восхи": 3698,
      "свобод": 3699,
      "искать": 3700,
      "удоволь": 3701,
      "чью": 3702,
      "недо": 3703,
      "делы": 3704,
      "рынок": 3705,
      "гип": 3706,
      "страи": 3707,
      "создал": 3708,
      "вторая": 3709,
      "решений": 3710,
      "компаний": 3711,
      "двумя": 3712,
      "любом": 3713,
      "ужасно": 3714,
      "утвержда": 3715,
      "тной": 3716,
      "водоро": 3717,
      "тировать": 3718,
      "рыба": 3719,
      "пау": 3720,
      "конца": 3721,
      "средо": 3722,
      "альный": 3723,
      "дорого": 3724,
      "продолжать": 3725,
      "достиг": 3726,
      "джо": 3727,
      "связаны": 3728,
      "предот": 3729,
      "тё": 3730,
      "посы": 3731,
      "лес": 3732,
      "лосо": 3733,
      "запре": 3734,
      "тики": 3735,
      "проя": 3736,
      "беру": 3737,
      "бедно": 3738,
      "строили": 3739,
      "повре": 3740,
      "воде": 3741,
      "како": 3742,
      "бок": 3743,
      "дие": 3744,
      "дим": 3745,
      "пари": 3746,
      "гах": 3747,
      "бит": 3748,
      "следующее": 3749,
      "реальности": 3750,
      "алгорит": 3751,
      "сердца": 3752,
      "роб": 3753,
      "море": 3754,
      "мысле": 3755,
      "кино": 3756,
      "шем": 3757,
      "зом": 3758,
      "класс": 3759,
      "условия": 3760,
      "обезья": 3761,
      "посвя": 3762,
      "прогно": 3763,
      "хоть": 3764,
      "туи": 3765,
      "меняется": 3766,
      "влены": 3767,
      "которому": 3768,
      "живёт": 3769,
      "вирус": 3770,
      "удов": 3771,
      "провести": 3772,
      "разница": 3773,
      "судь": 3774,
      "библи": 3775,
      "первым": 3776,
      "способности": 3777,
      "твори": 3778,
      "временем": 3779,
      "культуры": 3780,
      "организация": 3781,
      "популяр": 3782,
      "обита": 3783,
      "ou": 3784,
      "аку": 3785,
      "ом": 3786,
      "тт": 3787,
      "преодо": 3788,
      "перспе": 3789,
      "человечества": 3790,
      "станови": 3791,
      "значительно": 3792,
      "дизайна": 3793,
      "растения": 3794,
      "взрослы": 3795,
      "ближай": 3796,
      "опухо": 3797,
      "жут": 3798,
      "режи": 3799,
      "досто": 3800,
      "дире": 3801,
      "городов": 3802,
      "эволюции": 3803,
      "поколения": 3804,
      "иско": 3805,
      "упо": 3806,
      "нец": 3807,
      "лами": 3808,
      "сострада": 3809,
      "гант": 3810,
      "кторов": 3811,
      "программу": 3812,
      "дка": 3813,
      "напря": 3814,
      "ходе": 3815,
      "синте": 3816,
      "верь": 3817,
      "влением": 3818,
      "понятия": 3819,
      "называю": 3820,
      "важное": 3821,
      "америки": 3822,
      "компьютера": 3823,
      "потреби": 3824,
      "насеко": 3825,
      "природе": 3826,
      "настоящее": 3827,
      "кнове": 3828,
      "юри": 3829,
      "поне": 3830,
      "тика": 3831,
      "добы": 3832,
      "руп": 3833,
      "знаком": 3834,
      "влять": 3835,
      "человеческого": 3836,
      "изменение": 3837,
      "новости": 3838,
      "инструменты": 3839,
      "позволить": 3840,
      "ne": 3841,
      "нано": 3842,
      "коре": 3843,
      "роста": 3844,
      "мок": 3845,
      "доктор": 3846,
      "жесто": 3847,
      "гает": 3848,
      "подобное": 3849,
      "скажем": 3850,
      "мём": 3851,
      "справи": 3852,
      "кост": 3853,
      "лок": 3854,
      "прос": 3855,
      "тельными": 3856,
      "обеща": 3857,
      "кампа": 3858,
      "объясня": 3859,
      "добиться": 3860,
      "кров": 3861,
      "тое": 3862,
      "поеха": 3863,
      "генов": 3864,
      "зра": 3865,
      "утра": 3866,
      "фона": 3867,
      "ваших": 3868,
      "магази": 3869,
      "выда": 3870,
      "хожу": 3871,
      "размыш": 3872,
      "коммер": 3873,
      "конти": 3874,
      "телеви": 3875,
      "лучший": 3876,
      "ваясь": 3877,
      "концеп": 3878,
      "участие": 3879,
      "велоси": 3880,
      "гне": 3881,
      "радо": 3882,
      "кате": 3883,
      "мел": 3884,
      "возрасте": 3885,
      "получают": 3886,
      "изучать": 3887,
      "крайне": 3888,
      "события": 3889,
      "хочется": 3890,
      "велосипе": 3891,
      "водя": 3892,
      "тать": 3893,
      "тию": 3894,
      "вирту": 3895,
      "бур": 3896,
      "подрост": 3897,
      "великоле": 3898,
      "наука": 3899,
      "ую": 3900,
      "запу": 3901,
      "веду": 3902,
      "мите": 3903,
      "тельную": 3904,
      "никаких": 3905,
      "интересу": 3906,
      "примеров": 3907,
      "наблюдать": 3908,
      "срав": 3909,
      "относительно": 3910,
      "лондо": 3911,
      "британии": 3912,
      "эт": 3913,
      "повы": 3914,
      "важны": 3915,
      "завер": 3916,
      "сосредо": 3917,
      "граду": 3918,
      "учиты": 3919,
      "животные": 3920,
      "худ": 3921,
      "компьютеры": 3922,
      "ресурсов": 3923,
      "счёт": 3924,
      "гани": 3925,
      "суд": 3926,
      "создают": 3927,
      "жизнью": 3928,
      "научиться": 3929,
      "заболевания": 3930,
      "редине": 3931,
      "зв": 3932,
      "охра": 3933,
      "ляции": 3934,
      "пуль": 3935,
      "каждую": 3936,
      "последнее": 3937,
      "канчи": 3938,
      "структуру": 3939,
      "ситуацию": 3940,
      "появилась": 3941,
      "собрать": 3942,
      "бесконе": 3943,
      "опас": 3944,
      "тных": 3945,
      "чий": 3946,
      "пространстве": 3947,
      "пришёл": 3948,
      "распространя": 3949,
      "здоровье": 3950,
      "интернете": 3951,
      "ra": 3952,
      "ума": 3953,
      "неуда": 3954,
      "прото": 3955,
      "образу": 3956,
      "оборот": 3957,
      "джей": 3958,
      "единё": 3959,
      "каждое": 3960,
      "совмест": 3961,
      "двое": 3962,
      "тные": 3963,
      "эро": 3964,
      "раст": 3965,
      "линии": 3966,
      "каком": 3967,
      "тием": 3968,
      "присоеди": 3969,
      "подобных": 3970,
      "способом": 3971,
      "четыр": 3972,
      "вопросов": 3973,
      "список": 3974,
      "tu": 3975,
      "мле": 3976,
      "улучше": 3977,
      "голове": 3978,
      "ланд": 3979,
      "душе": 3980,
      "отказа": 3981,
      "пересе": 3982,
      "использование": 3983,
      "способа": 3984,
      "социальных": 3985,
      "управлять": 3986,
      "ваны": 3987,
      "лайн": 3988,
      "чере": 3989,
      "динами": 3990,
      "обуча": 3991,
      "столе": 3992,
      "какую": 3993,
      "перво": 3994,
      "формиру": 3995,
      "клие": 3996,
      "настоящий": 3997,
      "самих": 3998,
      "поколение": 3999,
      "глубоко": 4000,
      "активи": 4001,
      "ma": 4002,
      "недоста": 4003,
      "дете": 4004,
      "мисси": 4005,
      "добра": 4006,
      "дополни": 4007,
      "сет": 4008,
      "обору": 4009,
      "успеха": 4010,
      "ощущение": 4011,
      "24": 4012,
      "300": 4013,
      "эпо": 4014,
      "читы": 4015,
      "разрабаты": 4016,
      "любы": 4017,
      "шими": 4018,
      "знаешь": 4019,
      "трех": 4020,
      "случаев": 4021,
      "пациента": 4022,
      "появились": 4023,
      "управления": 4024,
      "повторя": 4025,
      "здоровья": 4026,
      "традицион": 4027,
      "повсе": 4028,
      "теми": 4029,
      "прости": 4030,
      "своему": 4031,
      "процесса": 4032,
      "броса": 4033,
      "видят": 4034,
      "сравни": 4035,
      "eb": 4036,
      "ному": 4037,
      "качества": 4038,
      "рика": 4039,
      "возвра": 4040,
      "сделано": 4041,
      "сделала": 4042,
      "вторых": 4043,
      "альное": 4044,
      "теории": 4045,
      "ночь": 4046,
      "поки": 4047,
      "заба": 4048,
      "разобра": 4049,
      "путём": 4050,
      "человеку": 4051,
      "зеле": 4052,
      "конечном": 4053,
      "выглядеть": 4054,
      "оцени": 4055,
      "астро": 4056,
      "погру": 4057,
      "понадо": 4058,
      "руется": 4059,
      "среде": 4060,
      "считаем": 4061,
      "получаем": 4062,
      "музыку": 4063,
      "домаш": 4064,
      "обеспечи": 4065,
      "зовут": 4066,
      "предотвра": 4067,
      "зис": 4068,
      "плю": 4069,
      "пото": 4070,
      "риф": 4071,
      "числа": 4072,
      "няка": 4073,
      "филосо": 4074,
      "среду": 4075,
      "маленьких": 4076,
      "дёте": 4077,
      "детьми": 4078,
      "столкну": 4079,
      "эмоциона": 4080,
      "любви": 4081,
      "возникает": 4082,
      "жных": 4083,
      "рождения": 4084,
      "лете": 4085,
      "выс": 4086,
      "прибли": 4087,
      "чности": 4088,
      "ходило": 4089,
      "хорошая": 4090,
      "роваться": 4091,
      "основы": 4092,
      "получится": 4093,
      "афгани": 4094,
      "энерге": 4095,
      "китае": 4096,
      "знакоми": 4097,
      "порядке": 4098,
      "контине": 4099,
      "оборудова": 4100,
      "хло": 4101,
      "начи": 4102,
      "качество": 4103,
      "лять": 4104,
      "размер": 4105,
      "первого": 4106,
      "ственным": 4107,
      "платить": 4108,
      "голосо": 4109,
      "подумали": 4110,
      "вернулся": 4111,
      "государства": 4112,
      "психи": 4113,
      "направлении": 4114,
      "21": 4115,
      "повсюду": 4116,
      "горя": 4117,
      "кин": 4118,
      "рыбы": 4119,
      "стаби": 4120,
      "разили": 4121,
      "скими": 4122,
      "внезап": 4123,
      "спут": 4124,
      "сайт": 4125,
      "завтра": 4126,
      "муравь": 4127,
      "ваемся": 4128,
      "сою": 4129,
      "провели": 4130,
      "преж": 4131,
      "зить": 4132,
      "симво": 4133,
      "брасы": 4134,
      "уз": 4135,
      "речи": 4136,
      "веке": 4137,
      "бог": 4138,
      "привет": 4139,
      "приобре": 4140,
      "откро": 4141,
      "тыми": 4142,
      "конку": 4143,
      "фигу": 4144,
      "цах": 4145,
      "деление": 4146,
      "получилось": 4147,
      "воспринима": 4148,
      "показал": 4149,
      "лучшее": 4150,
      "использует": 4151,
      "узнали": 4152,
      "описы": 4153,
      ".»": 4154,
      "доли": 4155,
      "жению": 4156,
      "мнение": 4157,
      "получе": 4158,
      "представляет": 4159,
      "йорк": 4160,
      "медленно": 4161,
      "великолеп": 4162,
      "ира": 4163,
      "пто": 4164,
      "южной": 4165,
      "поводу": 4166,
      "вере": 4167,
      "доме": 4168,
      "музе": 4169,
      "щем": 4170,
      "шоу": 4171,
      "терпе": 4172,
      "альных": 4173,
      "марке": 4174,
      "политики": 4175,
      "выступления": 4176,
      "кцию": 4177,
      "оли": 4178,
      "заканчи": 4179,
      "маля": 4180,
      "макси": 4181,
      "син": 4182,
      "нули": 4183,
      "цело": 4184,
      "способы": 4185,
      "зависимости": 4186,
      "актив": 4187,
      "посла": 4188,
      "править": 4189,
      "фоку": 4190,
      "слыши": 4191,
      "языке": 4192,
      "болезнь": 4193,
      "улице": 4194,
      "нефти": 4195,
      "холод": 4196,
      "сосредото": 4197,
      "тный": 4198,
      "шут": 4199,
      "неожида": 4200,
      "честно": 4201,
      "виа": 4202,
      "боже": 4203,
      "всемир": 4204,
      "действий": 4205,
      "последних": 4206,
      "индуст": 4207,
      "звёз": 4208,
      "вп": 4209,
      "рожде": 4210,
      "меди": 4211,
      "обно": 4212,
      "привести": 4213,
      "жид": 4214,
      "знала": 4215,
      "значения": 4216,
      "целый": 4217,
      "страх": 4218,
      "насчёт": 4219,
      "положение": 4220,
      "энергия": 4221,
      "короб": 4222,
      "взял": 4223,
      "емого": 4224,
      "северной": 4225,
      "стане": 4226,
      "нному": 4227,
      "фика": 4228,
      "сделаем": 4229,
      "остальные": 4230,
      "карты": 4231,
      "случаях": 4232,
      "спасти": 4233,
      "понимаем": 4234,
      "волше": 4235,
      "скорость": 4236,
      "материалы": 4237,
      "ресурсы": 4238,
      "четырёх": 4239,
      "счастью": 4240,
      "метро": 4241,
      "рица": 4242,
      "загряз": 4243,
      "газа": 4244,
      "продолжи": 4245,
      "квадра": 4246,
      "волшеб": 4247,
      "de": 4248,
      "освобо": 4249,
      "рё": 4250,
      "ниже": 4251,
      "лит": 4252,
      "госпо": 4253,
      "типи": 4254,
      "выпу": 4255,
      "исключи": 4256,
      "возник": 4257,
      "чном": 4258,
      "говорила": 4259,
      "циях": 4260,
      "сквозь": 4261,
      "взяли": 4262,
      "наверняка": 4263,
      "выясни": 4264,
      "вные": 4265,
      "ура": 4266,
      "копи": 4267,
      "стами": 4268,
      "сток": 4269,
      "бую": 4270,
      "контек": 4271,
      "тельны": 4272,
      "никакого": 4273,
      "положи": 4274,
      "масса": 4275,
      "машин": 4276,
      "родителей": 4277,
      "сфере": 4278,
      "чрезвычайно": 4279,
      "дю": 4280,
      "еду": 4281,
      "торию": 4282,
      "дение": 4283,
      "зам": 4284,
      "чета": 4285,
      "бол": 4286,
      "обма": 4287,
      "природ": 4288,
      "контак": 4289,
      "организо": 4290,
      "носит": 4291,
      "университете": 4292,
      "бря": 4293,
      "смогу": 4294,
      "увидим": 4295,
      "водой": 4296,
      "чар": 4297,
      "цер": 4298,
      "третий": 4299,
      "создаёт": 4300,
      "говорите": 4301,
      "корпора": 4302,
      "инструмент": 4303,
      "социальные": 4304,
      "нит": 4305,
      "вашу": 4306,
      "лож": 4307,
      "лад": 4308,
      "приходит": 4309,
      "шести": 4310,
      "страли": 4311,
      "трени": 4312,
      "карту": 4313,
      "крови": 4314,
      "объяс": 4315,
      "биологии": 4316,
      "составляет": 4317,
      "обсужда": 4318,
      "солнце": 4319,
      "захваты": 4320,
      "кл": 4321,
      "ого": 4322,
      "ковых": 4323,
      "гос": 4324,
      "лев": 4325,
      "содержи": 4326,
      "руках": 4327,
      "сад": 4328,
      "ценно": 4329,
      "летво": 4330,
      "остаётся": 4331,
      "андер": 4332,
      "дное": 4333,
      "дном": 4334,
      "кроше": 4335,
      "198": 4336,
      "игро": 4337,
      "эксперимента": 4338,
      "обучение": 4339,
      "выступление": 4340,
      "понадоби": 4341,
      "ниж": 4342,
      "тему": 4343,
      "дам": 4344,
      "забы": 4345,
      "щает": 4346,
      "цам": 4347,
      "лучших": 4348,
      "терна": 4349,
      "начинаем": 4350,
      "продукт": 4351,
      "показывают": 4352,
      "профессо": 4353,
      "эпидеми": 4354,
      "удовлетво": 4355,
      "онов": 4356,
      "раи": 4357,
      "мекси": 4358,
      "моти": 4359,
      "лечение": 4360,
      "довер": 4361,
      "пропа": 4362,
      "природа": 4363,
      "скоп": 4364,
      "думала": 4365,
      "центри": 4366,
      "поняла": 4367,
      "происходя": 4368,
      "надё": 4369,
      "семье": 4370,
      "университета": 4371,
      "сигнал": 4372,
      "секунду": 4373,
      "ребята": 4374,
      "me": 4375,
      "se": 4376,
      "жный": 4377,
      "хле": 4378,
      "код": 4379,
      "девя": 4380,
      "лос": 4381,
      "мигра": 4382,
      "жено": 4383,
      "малы": 4384,
      "щими": 4385,
      "лучшие": 4386,
      "корми": 4387,
      "причины": 4388,
      "связано": 4389,
      "размером": 4390,
      "воздух": 4391,
      "молодых": 4392,
      "ежедне": 4393,
      "ванию": 4394,
      "каз": 4395,
      "гори": 4396,
      "маги": 4397,
      "приз": 4398,
      "прекра": 4399,
      "бесе": 4400,
      "общего": 4401,
      "тропи": 4402,
      "месяц": 4403,
      "комнате": 4404,
      "коммуника": 4405,
      "перспекти": 4406,
      "2000": 4407,
      "вку": 4408,
      "пин": 4409,
      "вар": 4410,
      "миром": 4411,
      "жей": 4412,
      "бое": 4413,
      "выну": 4414,
      "чность": 4415,
      "онах": 4416,
      "область": 4417,
      "глуб": 4418,
      "деятельности": 4419,
      "произойдёт": 4420,
      "оф": 4421,
      "невиди": 4422,
      "моём": 4423,
      "пес": 4424,
      "няют": 4425,
      "ключить": 4426,
      "показали": 4427,
      "городах": 4428,
      "огромный": 4429,
      "фицирова": 4430,
      "ано": 4431,
      "вскоре": 4432,
      "вшего": 4433,
      "еды": 4434,
      "трь": 4435,
      "указа": 4436,
      "мами": 4437,
      "выход": 4438,
      "сел": 4439,
      "нией": 4440,
      "нуться": 4441,
      "ценности": 4442,
      "очевид": 4443,
      "альтерна": 4444,
      "внутрь": 4445,
      "пришла": 4446,
      "генера": 4447,
      "смерть": 4448,
      "обязательно": 4449,
      "насилия": 4450,
      "воспомина": 4451,
      "ниц": 4452,
      "мум": 4453,
      "влении": 4454,
      "границы": 4455,
      "нёмся": 4456,
      "изобрета": 4457,
      "девочка": 4458,
      "задуматься": 4459,
      "тяжело": 4460,
      "конференции": 4461,
      "ологи": 4462,
      "торов": 4463,
      "тала": 4464,
      "честь": 4465,
      "мам": 4466,
      "израи": 4467,
      "понятно": 4468,
      "обнаружил": 4469,
      "решать": 4470,
      "изменений": 4471,
      "беспокои": 4472,
      "преодоле": 4473,
      "мг": 4474,
      "набор": 4475,
      "поможет": 4476,
      "рожда": 4477,
      "пройти": 4478,
      "вим": 4479,
      "стоят": 4480,
      "ниях": 4481,
      "видит": 4482,
      "существа": 4483,
      "тяжё": 4484,
      "звуки": 4485,
      "взглянуть": 4486,
      "структура": 4487,
      "слушать": 4488,
      "начнём": 4489,
      "шанс": 4490,
      "катастро": 4491,
      "начиная": 4492,
      "оон": 4493,
      "ниться": 4494,
      "поля": 4495,
      "жет": 4496,
      "проще": 4497,
      "нят": 4498,
      "бая": 4499,
      "играет": 4500,
      "скоростью": 4501,
      "чувствую": 4502,
      "крупней": 4503,
      "данном": 4504,
      "столь": 4505,
      "стен": 4506,
      "компоне": 4507,
      "происходят": 4508,
      "рассказ": 4509,
      "вашем": 4510,
      "защиты": 4511,
      "безопас": 4512,
      "серьез": 4513,
      "масштаба": 4514,
      "европей": 4515,
      "австрали": 4516,
      "фантасти": 4517,
      "ас": 4518,
      "еда": 4519,
      "кно": 4520,
      "пру": 4521,
      "счё": 4522,
      "направля": 4523,
      "кад": 4524,
      "измери": 4525,
      "прибы": 4526,
      "гигант": 4527,
      "ровки": 4528,
      "кторы": 4529,
      "требо": 4530,
      "вяза": 4531,
      "технологию": 4532,
      "понимания": 4533,
      "ответить": 4534,
      "способов": 4535,
      "американцев": 4536,
      "соедине": 4537,
      "теория": 4538,
      "поверхность": 4539,
      "аудитории": 4540,
      "ответственность": 4541,
      "студенты": 4542,
      "400": 4543,
      "ca": 4544,
      "дэ": 4545,
      "наоборот": 4546,
      "дина": 4547,
      "тую": 4548,
      "сказыва": 4549,
      "самостоя": 4550,
      "никам": 4551,
      "огромные": 4552,
      "размера": 4553,
      "вселенная": 4554,
      "метод": 4555,
      "интеллекту": 4556,
      "li": 4557,
      "араб": 4558,
      "идут": 4559,
      "загля": 4560,
      "прозра": 4561,
      "секрет": 4562,
      "рыва": 4563,
      "чика": 4564,
      "нях": 4565,
      "бежен": 4566,
      "делаете": 4567,
      "стоять": 4568,
      "волну": 4569,
      "роботов": 4570,
      "сцена": 4571,
      "президент": 4572,
      "второе": 4573,
      "пределами": 4574,
      "бразили": 4575,
      "постепе": 4576,
      "теа": 4577,
      "каких": 4578,
      "мии": 4579,
      "препят": 4580,
      "кер": 4581,
      "человеческой": 4582,
      "класси": 4583,
      "пытаясь": 4584,
      "многим": 4585,
      "назвать": 4586,
      "прошлого": 4587,
      "законы": 4588,
      "появился": 4589,
      "ата": 4590,
      "вки": 4591,
      "нто": 4592,
      "нси": 4593,
      "мусуль": 4594,
      "сит": 4595,
      "жителей": 4596,
      "сумас": 4597,
      "балан": 4598,
      "фир": 4599,
      "пользоваться": 4600,
      "утром": 4601,
      "книга": 4602,
      "выглядят": 4603,
      "отношении": 4604,
      "власть": 4605,
      "сложные": 4606,
      "пустили": 4607,
      "возьмём": 4608,
      "половина": 4609,
      "контролировать": 4610,
      "вста": 4611,
      "водо": 4612,
      "вай": 4613,
      "действу": 4614,
      "пытаюсь": 4615,
      "ющийся": 4616,
      "книг": 4617,
      "радика": 4618,
      "методы": 4619,
      "интернета": 4620,
      "солнечной": 4621,
      "аути": 4622,
      "ночью": 4623,
      "лаге": 4624,
      "верить": 4625,
      "нями": 4626,
      "лую": 4627,
      "планет": 4628,
      "рован": 4629,
      "картину": 4630,
      "нейронов": 4631,
      "путешествие": 4632,
      "курс": 4633,
      "демократии": 4634,
      "вынужде": 4635,
      "нику": 4636,
      "погло": 4637,
      "зача": 4638,
      "веб": 4639,
      "страну": 4640,
      "миллион": 4641,
      "клас": 4642,
      "используется": 4643,
      "точку": 4644,
      "автомати": 4645,
      "серде": 4646,
      "узнал": 4647,
      "требуется": 4648,
      "смотрели": 4649,
      "fac": 4650,
      "мак": 4651,
      "отсле": 4652,
      "онлайн": 4653,
      "спокой": 4654,
      "учителя": 4655,
      "пытается": 4656,
      "пытались": 4657,
      "голоса": 4658,
      "исследователь": 4659,
      "аге": 4660,
      "лло": 4661,
      "нком": 4662,
      "ворачи": 4663,
      "честву": 4664,
      "применя": 4665,
      "препара": 4666,
      "бера": 4667,
      "подви": 4668,
      "зой": 4669,
      "ментом": 4670,
      "самолё": 4671,
      "объё": 4672,
      "задачи": 4673,
      "кризис": 4674,
      "стоимость": 4675,
      "интервью": 4676,
      "индий": 4677,
      "население": 4678,
      "богат": 4679,
      "обеспечить": 4680,
      "сильнее": 4681,
      "улучшить": 4682,
      "оконча": 4683,
      "внезапно": 4684,
      "75": 4685,
      "ад": 4686,
      "фут": 4687,
      "намере": 4688,
      "гон": 4689,
      "подходя": 4690,
      "форм": 4691,
      "пытался": 4692,
      "нашёл": 4693,
      "название": 4694,
      "людях": 4695,
      "замечательно": 4696,
      "носить": 4697,
      "экране": 4698,
      "территории": 4699,
      "очи": 4700,
      "улы": 4701,
      "ног": 4702,
      "мыми": 4703,
      "буты": 4704,
      "жал": 4705,
      "большее": 4706,
      "нашими": 4707,
      "решила": 4708,
      "кризи": 4709,
      "среднем": 4710,
      "важный": 4711,
      "джор": 4712,
      "причиной": 4713,
      "выяснить": 4714,
      "попробовать": 4715,
      "заставляет": 4716,
      "бюдже": 4717,
      "зви": 4718,
      "ностей": 4719,
      "новым": 4720,
      "какого": 4721,
      "левой": 4722,
      "таре": 4723,
      "чера": 4724,
      "пеще": 4725,
      "отвер": 4726,
      "интуи": 4727,
      "пусть": 4728,
      "проекты": 4729,
      "креп": 4730,
      "элементы": 4731,
      "сложнее": 4732,
      "помогают": 4733,
      "объект": 4734,
      "сознание": 4735,
      "возможным": 4736,
      "бороться": 4737,
      "be": 4738,
      "гности": 4739,
      "воро": 4740,
      "темно": 4741,
      "руя": 4742,
      "пах": 4743,
      "ходил": 4744,
      "пытаются": 4745,
      "открыто": 4746,
      "заметить": 4747,
      "стям": 4748,
      "успех": 4749,
      "десятки": 4750,
      "религиоз": 4751,
      "психологи": 4752,
      "бр": 4753,
      "опыта": 4754,
      "справля": 4755,
      "рецеп": 4756,
      "горы": 4757,
      "соединё": 4758,
      "мане": 4759,
      "станут": 4760,
      "отца": 4761,
      "разработа": 4762,
      "скому": 4763,
      "подроб": 4764,
      "ктором": 4765,
      "гены": 4766,
      "ступить": 4767,
      "харак": 4768,
      "понимают": 4769,
      "стороне": 4770,
      "четвер": 4771,
      "прошлое": 4772,
      "сообщество": 4773,
      "бедных": 4774,
      "емое": 4775,
      "сохранить": 4776,
      "поведения": 4777,
      "требует": 4778,
      "естественно": 4779,
      "сравнению": 4780,
      "упомя": 4781,
      "di": 4782,
      "ато": 4783,
      "лёт": 4784,
      "мл": 4785,
      "ъе": 4786,
      "ниге": 4787,
      "поколе": 4788,
      "мем": 4789,
      "рик": 4790,
      "зага": 4791,
      "замени": 4792,
      "продви": 4793,
      "ниями": 4794,
      "насла": 4795,
      "открыть": 4796,
      "любого": 4797,
      "чувствовал": 4798,
      "продуктов": 4799,
      "шимпан": 4800,
      "производство": 4801,
      "орие": 4802,
      "революции": 4803,
      "шимпанзе": 4804,
      "45": 4805,
      "мель": 4806,
      "мень": 4807,
      "чением": 4808,
      "вырази": 4809,
      "чим": 4810,
      "льности": 4811,
      "инфе": 4812,
      "фено": 4813,
      "альная": 4814,
      "выйти": 4815,
      "парни": 4816,
      "скло": 4817,
      "британ": 4818,
      "учеб": 4819,
      "собственные": 4820,
      "перио": 4821,
      "материалов": 4822,
      "разговор": 4823,
      "любят": 4824,
      "вызывает": 4825,
      "великобритании": 4826,
      "характер": 4827,
      "вчера": 4828,
      "офи": 4829,
      "укра": 4830,
      "рациона": 4831,
      "неправильно": 4832,
      "лями": 4833,
      "отде": 4834,
      "щении": 4835,
      "преды": 4836,
      "знаний": 4837,
      "началось": 4838,
      "осталось": 4839,
      "ждений": 4840,
      "следующем": 4841,
      "получает": 4842,
      "маленькая": 4843,
      "собираемся": 4844,
      "достижения": 4845,
      "важнее": 4846,
      "питания": 4847,
      "слышал": 4848,
      "воору": 4849,
      "ook": 4850,
      "источник": 4851,
      "развивающихся": 4852,
      "библиоте": 4853,
      "ничто": 4854,
      "поги": 4855,
      "пожи": 4856,
      "ковые": 4857,
      "пуга": 4858,
      "влению": 4859,
      "трав": 4860,
      "учили": 4861,
      "происходило": 4862,
      "проектов": 4863,
      "открытия": 4864,
      "особенности": 4865,
      "продукты": 4866,
      "робот": 4867,
      "бактерии": 4868,
      "восполь": 4869,
      "восемь": 4870,
      "зарабаты": 4871,
      "мастер": 4872,
      "исполни": 4873,
      "знамени": 4874,
      "стеро": 4875,
      "щают": 4876,
      "сыгра": 4877,
      "влиять": 4878,
      "вероятность": 4879,
      "ешься": 4880,
      "десять": 4881,
      "контроля": 4882,
      "процент": 4883,
      "бизнеса": 4884,
      "познакоми": 4885,
      "моря": 4886,
      "дами": 4887,
      "пик": 4888,
      "граф": 4889,
      "конгре": 4890,
      "имел": 4891,
      "ствий": 4892,
      "остальных": 4893,
      "позволяют": 4894,
      "каждому": 4895,
      "транспор": 4896,
      "транспорт": 4897,
      "событий": 4898,
      "нефть": 4899,
      "руковод": 4900,
      "ници": 4901,
      "заново": 4902,
      "приходят": 4903,
      "чики": 4904,
      "жали": 4905,
      "рассказал": 4906,
      "мнению": 4907,
      "сын": 4908,
      "получать": 4909,
      "процес": 4910,
      "играют": 4911,
      "встрети": 4912,
      "ter": 4913,
      "попасть": 4914,
      "противополо": 4915,
      "анализ": 4916,
      "lo": 4917,
      "вло": 4918,
      "емая": 4919,
      "егип": 4920,
      "деше": 4921,
      "зали": 4922,
      "проведе": 4923,
      "пала": 4924,
      "рабочих": 4925,
      "имели": 4926,
      "средств": 4927,
      "одному": 4928,
      "отличие": 4929,
      "помести": 4930,
      "сентя": 4931,
      "потребля": 4932,
      "бумаги": 4933,
      "счастье": 4934,
      "регули": 4935,
      "150": 4936,
      "сва": 4937,
      "запуска": 4938,
      "перемен": 4939,
      "трилли": 4940,
      "иденти": 4941,
      "каждые": 4942,
      "скуль": 4943,
      "находимся": 4944,
      "важна": 4945,
      "оказался": 4946,
      "воздуха": 4947,
      "серьёзно": 4948,
      "вариант": 4949,
      "вещества": 4950,
      "записи": 4951,
      "тона": 4952,
      "повыше": 4953,
      "появляются": 4954,
      "давать": 4955,
      "прошу": 4956,
      "отсюда": 4957,
      "шают": 4958,
      "контра": 4959,
      "предмет": 4960,
      "представления": 4961,
      "корруп": 4962,
      "фотографию": 4963,
      "фильма": 4964,
      "смотрит": 4965,
      "университет": 4966,
      "половиной": 4967,
      "относится": 4968,
      "принцип": 4969,
      "учре": 4970,
      "вшей": 4971,
      "охо": 4972,
      "штей": 4973,
      "рией": 4974,
      "зара": 4975,
      "станда": 4976,
      "числи": 4977,
      "разби": 4978,
      "ствием": 4979,
      "вновь": 4980,
      "хар": 4981,
      "точка": 4982,
      "науке": 4983,
      "хватает": 4984,
      "вашинг": 4985,
      "привело": 4986,
      "инновации": 4987,
      "усилия": 4988,
      "восприятие": 4989,
      "стандарт": 4990,
      "коль": 4991,
      "тест": 4992,
      "зади": 4993,
      "дове": 4994,
      "доход": 4995,
      "вина": 4996,
      "рыб": 4997,
      "исследовать": 4998,
      "туре": 4999,
      "ценность": 5000,
      "фабри": 5001,
      "писал": 5002,
      "задать": 5003,
      "группу": 5004,
      "причине": 5005,
      "представляют": 5006,
      "команды": 5007,
      "цифры": 5008,
      "заболеваний": 5009,
      "остановить": 5010,
      "угол": 5011,
      "сверху": 5012,
      "to": 5013,
      "ава": 5014,
      "аэро": 5015,
      "уско": 5016,
      "фло": 5017,
      "чны": 5018,
      "почита": 5019,
      "непосред": 5020,
      "ныне": 5021,
      "совет": 5022,
      "изуче": 5023,
      "ходу": 5024,
      "отрица": 5025,
      "странно": 5026,
      "влен": 5027,
      "историй": 5028,
      "график": 5029,
      "диагности": 5030,
      "блоки": 5031,
      "эйн": 5032,
      "рамках": 5033,
      "поддерживать": 5034,
      "записы": 5035,
      "минуту": 5036,
      "вещах": 5037,
      "посыла": 5038,
      "катего": 5039,
      "разобраться": 5040,
      "35": 5041,
      "шке": 5042,
      "поступи": 5043,
      "непре": 5044,
      "недав": 5045,
      "дога": 5046,
      "секре": 5047,
      "муль": 5048,
      "прине": 5049,
      "одни": 5050,
      "тради": 5051,
      "штат": 5052,
      "учёных": 5053,
      "останови": 5054,
      "герма": 5055,
      "неделе": 5056,
      "вовле": 5057,
      "тепло": 5058,
      "мера": 5059,
      "лед": 5060,
      "задумы": 5061,
      "жем": 5062,
      "падает": 5063,
      "щен": 5064,
      "вернёмся": 5065,
      "рассу": 5066,
      "передать": 5067,
      "зоны": 5068,
      "автобу": 5069,
      "единственное": 5070,
      "преврати": 5071,
      "формирова": 5072,
      "руководи": 5073,
      "францу": 5074,
      "мгнове": 5075,
      "ввп": 5076,
      "ели": 5077,
      "спроекти": 5078,
      "медве": 5079,
      "мило": 5080,
      "процвета": 5081,
      "дил": 5082,
      "прин": 5083,
      "силой": 5084,
      "рять": 5085,
      "жая": 5086,
      "вляют": 5087,
      "нашему": 5088,
      "вопроса": 5089,
      "большинства": 5090,
      "музыки": 5091,
      "языка": 5092,
      "собственной": 5093,
      "зерка": 5094,
      "общаться": 5095,
      "попытаться": 5096,
      "сегодняшний": 5097,
      "десятилетия": 5098,
      "рад": 5099,
      "дах": 5100,
      "выбрать": 5101,
      "рук": 5102,
      "обстоя": 5103,
      "туру": 5104,
      "пищи": 5105,
      "оставить": 5106,
      "класса": 5107,
      "спаса": 5108,
      "штатах": 5109,
      "обнаружи": 5110,
      "мышления": 5111,
      "демокра": 5112,
      "реальном": 5113,
      "культура": 5114,
      "спросить": 5115,
      "растений": 5116,
      "внизу": 5117,
      "случайно": 5118,
      "лекарство": 5119,
      "друзьями": 5120,
      "солнца": 5121,
      "вырос": 5122,
      "механизм": 5123,
      "пчё": 5124,
      "поговорим": 5125,
      "построили": 5126,
      "метр": 5127,
      "таль": 5128,
      "тация": 5129,
      "проходит": 5130,
      "выделя": 5131,
      "хие": 5132,
      "груз": 5133,
      "звуча": 5134,
      "важным": 5135,
      "черно": 5136,
      "защитить": 5137,
      "урок": 5138,
      "скорости": 5139,
      "эксперимен": 5140,
      "поставить": 5141,
      "ционных": 5142,
      "посредством": 5143,
      "the": 5144,
      "калифорнии": 5145,
      "костю": 5146,
      "растёт": 5147,
      "пки": 5148,
      "упомина": 5149,
      "эли": 5150,
      "никак": 5151,
      "вовсе": 5152,
      "теку": 5153,
      "рите": 5154,
      "сот": 5155,
      "выходит": 5156,
      "вычисле": 5157,
      "рука": 5158,
      "шен": 5159,
      "подгото": 5160,
      "меняет": 5161,
      "общения": 5162,
      "война": 5163,
      "деления": 5164,
      "останавли": 5165,
      "понятие": 5166,
      "стрем": 5167,
      "считали": 5168,
      "группе": 5169,
      "распростране": 5170,
      "письмо": 5171,
      "грип": 5172,
      "сосед": 5173,
      "память": 5174,
      "применить": 5175,
      "сумасшед": 5176,
      "предыду": 5177,
      "жки": 5178,
      "опро": 5179,
      "рил": 5180,
      "доль": 5181,
      "прожи": 5182,
      "выстав": 5183,
      "обработ": 5184,
      "шах": 5185,
      "компанию": 5186,
      "важных": 5187,
      "ландии": 5188,
      "благотвори": 5189,
      "операции": 5190,
      "борьбе": 5191,
      "осущест": 5192,
      "кварти": 5193,
      "скульп": 5194,
      "эр": 5195,
      "нется": 5196,
      "реда": 5197,
      "вающие": 5198,
      "вило": 5199,
      "мали": 5200,
      "пришло": 5201,
      "ствовали": 5202,
      "стере": 5203,
      "никакой": 5204,
      "следующие": 5205,
      "экономика": 5206,
      "африка": 5207,
      "важные": 5208,
      "социальной": 5209,
      "безопасность": 5210,
      "ткани": 5211,
      "сцене": 5212,
      "эмоции": 5213,
      "вшиеся": 5214,
      "вшая": 5215,
      "гром": 5216,
      "кля": 5217,
      "мон": 5218,
      "мого": 5219,
      "риско": 5220,
      "тивно": 5221,
      "довери": 5222,
      "сообща": 5223,
      "руются": 5224,
      "жало": 5225,
      "концу": 5226,
      "мозге": 5227,
      "информацией": 5228,
      "свето": 5229,
      "планета": 5230,
      "китая": 5231,
      "щихся": 5232,
      "приходилось": 5233,
      "тенден": 5234,
      "напа": 5235,
      "тема": 5236,
      "лечить": 5237,
      "гали": 5238,
      "шается": 5239,
      "слой": 5240,
      "проблеме": 5241,
      "андже": 5242,
      "дельфи": 5243,
      "родился": 5244,
      "глазами": 5245,
      "камеры": 5246,
      "попросили": 5247,
      "потенциал": 5248,
      "океане": 5249,
      "динозав": 5250,
      "фокуси": 5251,
      "зрение": 5252,
      "уи": 5253,
      "фар": 5254,
      "венство": 5255,
      "доче": 5256,
      "сопроти": 5257,
      "провёл": 5258,
      "сидя": 5259,
      "стволо": 5260,
      "зия": 5261,
      "ровала": 5262,
      "ческому": 5263,
      "груди": 5264,
      "верху": 5265,
      "любопыт": 5266,
      "свободы": 5267,
      "единственная": 5268,
      "попробу": 5269,
      "отличается": 5270,
      "топлива": 5271,
      "приблизи": 5272,
      "ri": 5273,
      "вклад": 5274,
      "дца": 5275,
      "опи": 5276,
      "стся": 5277,
      "коми": 5278,
      "вопло": 5279,
      "дала": 5280,
      "зацию": 5281,
      "чест": 5282,
      "середине": 5283,
      "бей": 5284,
      "переход": 5285,
      "лыми": 5286,
      "мяг": 5287,
      "ссив": 5288,
      "америка": 5289,
      "ющейся": 5290,
      "картина": 5291,
      "огромная": 5292,
      "интересное": 5293,
      "стандар": 5294,
      "поисках": 5295,
      "com": 5296,
      "ebook": 5297,
      "звёзд": 5298,
      "facebook": 5299,
      "бь": 5300,
      "едва": 5301,
      "иду": 5302,
      "тное": 5303,
      "уя": 5304,
      "полю": 5305,
      "кори": 5306,
      "гина": 5307,
      "расстрой": 5308,
      "измерения": 5309,
      "надея": 5310,
      "причинам": 5311,
      "увеличить": 5312,
      "симметри": 5313,
      "добавить": 5314,
      "простые": 5315,
      "молодые": 5316,
      "исчеза": 5317,
      "клу": 5318,
      "охва": 5319,
      "твит": 5320,
      "помимо": 5321,
      "кома": 5322,
      "ковать": 5323,
      "вось": 5324,
      "лений": 5325,
      "семи": 5326,
      "превос": 5327,
      "бир": 5328,
      "смеш": 5329,
      "долги": 5330,
      "начально": 5331,
      "полицей": 5332,
      "автор": 5333,
      "проблемами": 5334,
      "отношений": 5335,
      "пациент": 5336,
      "ционные": 5337,
      "проводить": 5338,
      "религии": 5339,
      "инженер": 5340,
      "осуществи": 5341,
      "памяти": 5342,
      "прежнему": 5343,
      "99": 5344,
      "настрое": 5345,
      "порт": 5346,
      "кол": 5347,
      "лидер": 5348,
      "вале": 5349,
      "вающих": 5350,
      "сосу": 5351,
      "дипло": 5352,
      "льность": 5353,
      "шар": 5354,
      "последу": 5355,
      "давай": 5356,
      "миллиард": 5357,
      "взаимодействия": 5358,
      "спросили": 5359,
      "спросила": 5360,
      "сообщение": 5361,
      "убедить": 5362,
      "береж": 5363,
      "долгосро": 5364,
      "специально": 5365,
      "минист": 5366,
      "близко": 5367,
      "ционной": 5368,
      "пенси": 5369,
      "вклады": 5370,
      "зей": 5371,
      "ох": 5372,
      "неве": 5373,
      "зар": 5374,
      "бывает": 5375,
      "хождения": 5376,
      "чили": 5377,
      "испол": 5378,
      "действуют": 5379,
      "пузы": 5380,
      "подходит": 5381,
      "геном": 5382,
      "смотрю": 5383,
      "циями": 5384,
      "грузо": 5385,
      "маленькой": 5386,
      "цом": 5387,
      "объекты": 5388,
      "районе": 5389,
      "изучения": 5390,
      "разнообразие": 5391,
      "зачастую": 5392,
      "вкус": 5393,
      "сочета": 5394,
      "дию": 5395,
      "жается": 5396,
      "страха": 5397,
      "летний": 5398,
      "идеей": 5399,
      "врач": 5400,
      "заметил": 5401,
      "результатов": 5402,
      "портре": 5403,
      "полагаю": 5404,
      "наблюдаем": 5405,
      "организмы": 5406,
      "установить": 5407,
      "капитали": 5408,
      "чудес": 5409,
      "дольше": 5410,
      "sh": 5411,
      "считы": 5412,
      "тным": 5413,
      "ёв": 5414,
      "ковой": 5415,
      "рили": 5416,
      "зал": 5417,
      "чена": 5418,
      "привле": 5419,
      "прийти": 5420,
      "гал": 5421,
      "создании": 5422,
      "ответы": 5423,
      "дерев": 5424,
      "частности": 5425,
      "необходимости": 5426,
      "девочек": 5427,
      "справиться": 5428,
      "вость": 5429,
      "дем": 5430,
      "моменты": 5431,
      "весе": 5432,
      "бель": 5433,
      "инвали": 5434,
      "скани": 5435,
      "перегово": 5436,
      "ходим": 5437,
      "вспы": 5438,
      "хао": 5439,
      "идее": 5440,
      "величай": 5441,
      "свете": 5442,
      "тивные": 5443,
      "универ": 5444,
      "случится": 5445,
      "производить": 5446,
      "птиц": 5447,
      "организм": 5448,
      "широко": 5449,
      "рных": 5450,
      "небо": 5451,
      "литера": 5452,
      "логов": 5453,
      "сения": 5454,
      "песня": 5455,
      "скон": 5456,
      "карта": 5457,
      "ждает": 5458,
      "книге": 5459,
      "рассказывать": 5460,
      "назвал": 5461,
      "индия": 5462,
      "легче": 5463,
      "one": 5464,
      "кораб": 5465,
      "партнё": 5466,
      "оре": 5467,
      "рные": 5468,
      "наме": 5469,
      "пошли": 5470,
      "риска": 5471,
      "век": 5472,
      "пей": 5473,
      "жность": 5474,
      "передо": 5475,
      "щается": 5476,
      "открытие": 5477,
      "примеры": 5478,
      "игр": 5479,
      "абстра": 5480,
      "робота": 5481,
      "воздуш": 5482,
      "камеру": 5483,
      "метафо": 5484,
      "проверить": 5485,
      "простых": 5486,
      "различия": 5487,
      "энергети": 5488,
      "жным": 5489,
      "ие": 5490,
      "идет": 5491,
      "сё": 5492,
      "побереж": 5493,
      "некоторое": 5494,
      "летом": 5495,
      "достой": 5496,
      "гипоте": 5497,
      "били": 5498,
      "простое": 5499,
      "системой": 5500,
      "учитель": 5501,
      "шум": 5502,
      "чувстви": 5503,
      "восста": 5504,
      "подумала": 5505,
      "нтами": 5506,
      "обнаружить": 5507,
      "болезней": 5508,
      "ехать": 5509,
      "ощущения": 5510,
      "половину": 5511,
      "порядка": 5512,
      "сущности": 5513,
      "слышите": 5514,
      "опла": 5515,
      "увле": 5516,
      "чок": 5517,
      "неу": 5518,
      "дочь": 5519,
      "прош": 5520,
      "изви": 5521,
      "следить": 5522,
      "чудо": 5523,
      "альным": 5524,
      "машине": 5525,
      "ребёнком": 5526,
      "министра": 5527,
      "улицы": 5528,
      "автомобиль": 5529,
      "механи": 5530,
      "услышать": 5531,
      "деревья": 5532,
      "постепенно": 5533,
      "нори": 5534,
      "рент": 5535,
      "ведёт": 5536,
      "пище": 5537,
      "имеется": 5538,
      "большего": 5539,
      "утро": 5540,
      "удастся": 5541,
      "отношению": 5542,
      "игнори": 5543,
      "собственный": 5544,
      "смотрят": 5545,
      "функциони": 5546,
      "самостоятельно": 5547,
      "акт": 5548,
      "бет": 5549,
      "указыва": 5550,
      "медиа": 5551,
      "частей": 5552,
      "сидеть": 5553,
      "жного": 5554,
      "целе": 5555,
      "вред": 5556,
      "ственная": 5557,
      "думает": 5558,
      "человеческих": 5559,
      "труда": 5560,
      "проекте": 5561,
      "снимок": 5562,
      "новость": 5563,
      "приняли": 5564,
      "написать": 5565,
      "закончить": 5566,
      "бесплат": 5567,
      "перемены": 5568,
      "сознания": 5569,
      "вшихся": 5570,
      "сигналы": 5571,
      "уголь": 5572,
      "отслежи": 5573,
      "mo": 5574,
      "ой": 5575,
      "шет": 5576,
      "поток": 5577,
      "кофе": 5578,
      "лить": 5579,
      "мело": 5580,
      "дохода": 5581,
      "сообщи": 5582,
      "вычисли": 5583,
      "приближа": 5584,
      "жители": 5585,
      "создаём": 5586,
      "тяги": 5587,
      "получила": 5588,
      "задач": 5589,
      "сторона": 5590,
      "изменилось": 5591,
      "экономику": 5592,
      "занимаются": 5593,
      "серва": 5594,
      "похож": 5595,
      "организаций": 5596,
      "позволит": 5597,
      "возраст": 5598,
      "старше": 5599,
      "разумеется": 5600,
      "ps": 5601,
      "гка": 5602,
      "лку": 5603,
      "опа": 5604,
      "чте": 5605,
      "нации": 5606,
      "ночи": 5607,
      "линия": 5608,
      "тите": 5609,
      "сятся": 5610,
      "прой": 5611,
      "прошли": 5612,
      "обви": 5613,
      "приспосо": 5614,
      "разделя": 5615,
      "самую": 5616,
      "няется": 5617,
      "куп": 5618,
      "слегка": 5619,
      "подготов": 5620,
      "кен": 5621,
      "импуль": 5622,
      "использовал": 5623,
      "программ": 5624,
      "ктами": 5625,
      "картины": 5626,
      "ing": 5627,
      "аналоги": 5628,
      "управление": 5629,
      "комнату": 5630,
      "станции": 5631,
      "поиск": 5632,
      "брен": 5633,
      "змом": 5634,
      "мпи": 5635,
      "шве": 5636,
      "поступ": 5637,
      "неизвест": 5638,
      "ревно": 5639,
      "гости": 5640,
      "детали": 5641,
      "лья": 5642,
      "чиков": 5643,
      "гают": 5644,
      "ровая": 5645,
      "внед": 5646,
      "семью": 5647,
      "играл": 5648,
      "инструментов": 5649,
      "постара": 5650,
      "подозре": 5651,
      "вдоль": 5652,
      "предложение": 5653,
      "электричество": 5654,
      "хочешь": 5655,
      "потребления": 5656,
      "наркоти": 5657,
      "бру": 5658,
      "оны": 5659,
      "фы": 5660,
      "никому": 5661,
      "поса": 5662,
      "неплохо": 5663,
      "дешё": 5664,
      "излу": 5665,
      "разработали": 5666,
      "препо": 5667,
      "грави": 5668,
      "работало": 5669,
      "видение": 5670,
      "плака": 5671,
      "сыпа": 5672,
      "движу": 5673,
      "никах": 5674,
      "связыва": 5675,
      "большинстве": 5676,
      "каждым": 5677,
      "организова": 5678,
      "точнее": 5679,
      "парня": 5680,
      "занимает": 5681,
      "фотографий": 5682,
      "молекулы": 5683,
      "попросил": 5684,
      "распозна": 5685,
      "предупре": 5686,
      "горизон": 5687,
      "универса": 5688,
      "ir": 5689,
      "вру": 5690,
      "чке": 5691,
      "нила": 5692,
      "нео": 5693,
      "лоша": 5694,
      "сотен": 5695,
      "продемонстри": 5696,
      "прико": 5697,
      "отчая": 5698,
      "щик": 5699,
      "стены": 5700,
      "имея": 5701,
      "детстве": 5702,
      "полной": 5703,
      "хорошее": 5704,
      "карте": 5705,
      "ющему": 5706,
      "труб": 5707,
      "облада": 5708,
      "повезло": 5709,
      "самим": 5710,
      "политика": 5711,
      "важная": 5712,
      "совершенство": 5713,
      "симпто": 5714,
      "смотрел": 5715,
      "разруши": 5716,
      "революция": 5717,
      "насилие": 5718,
      "ошибки": 5719,
      "добраться": 5720,
      "ge": 5721,
      "зор": 5722,
      "нега": 5723,
      "дера": 5724,
      "льда": 5725,
      "записа": 5726,
      "хол": 5727,
      "откло": 5728,
      "сило": 5729,
      "паро": 5730,
      "презе": 5731,
      "действует": 5732,
      "плохие": 5733,
      "собственного": 5734,
      "телефона": 5735,
      "водить": 5736,
      "оборо": 5737,
      "местных": 5738,
      "назвали": 5739,
      "реакция": 5740,
      "любим": 5741,
      "состояния": 5742,
      "сложности": 5743,
      "команду": 5744,
      "мирового": 5745,
      "поместить": 5746,
      "редко": 5747,
      "деревьев": 5748,
      "нравилось": 5749,
      "деб": 5750,
      "меры": 5751,
      "лест": 5752,
      "данными": 5753,
      "вечер": 5754,
      "тихо": 5755,
      "вызов": 5756,
      "гая": 5757,
      "комби": 5758,
      "получения": 5759,
      "проектом": 5760,
      "четвёр": 5761,
      "оказались": 5762,
      "основной": 5763,
      "мечты": 5764,
      "компьютеров": 5765,
      "приятно": 5766,
      "лидеров": 5767,
      "традицио": 5768,
      "стимули": 5769,
      "хирурги": 5770,
      "эйнштей": 5771,
      "3d": 5772,
      "зме": 5773,
      "неизбе": 5774,
      "рин": 5775,
      "запись": 5776,
      "доступа": 5777,
      "вики": 5778,
      "чисто": 5779,
      "разными": 5780,
      "льному": 5781,
      "бие": 5782,
      "располага": 5783,
      "влена": 5784,
      "войне": 5785,
      "участвовать": 5786,
      "особо": 5787,
      "экспо": 5788,
      "смысла": 5789,
      "дерево": 5790,
      "животное": 5791,
      "волны": 5792,
      "десят": 5793,
      "воздухе": 5794,
      "франци": 5795,
      "ограничи": 5796,
      "мальчик": 5797,
      "установ": 5798,
      "размышля": 5799,
      "агент": 5800,
      "da": 5801,
      "ака": 5802,
      "йе": 5803,
      "тного": 5804,
      "нении": 5805,
      "рынка": 5806,
      "гаран": 5807,
      "исход": 5808,
      "орби": 5809,
      "имму": 5810,
      "читал": 5811,
      "движется": 5812,
      "головного": 5813,
      "заметили": 5814,
      "занимается": 5815,
      "будьте": 5816,
      "любимых": 5817,
      "свободу": 5818,
      "физики": 5819,
      "контроль": 5820,
      "девочки": 5821,
      "оригина": 5822,
      "напоминает": 5823,
      "избавиться": 5824,
      "достоин": 5825,
      "жная": 5826,
      "кнуть": 5827,
      "пости": 5828,
      "поиска": 5829,
      "тести": 5830,
      "какими": 5831,
      "чению": 5832,
      "простая": 5833,
      "диску": 5834,
      "сение": 5835,
      "ляция": 5836,
      "души": 5837,
      "целей": 5838,
      "предприя": 5839,
      "человеческий": 5840,
      "правил": 5841,
      "врача": 5842,
      "ссия": 5843,
      "ответа": 5844,
      "правду": 5845,
      "занимаюсь": 5846,
      "корре": 5847,
      "марс": 5848,
      "фильмы": 5849,
      "прекрасный": 5850,
      "фонд": 5851,
      "лекарств": 5852,
      "жертво": 5853,
      "избежать": 5854,
      "безусловно": 5855,
      "проверя": 5856,
      "вечером": 5857,
      "уязви": 5858,
      "ke": 5859,
      "ала": 5860,
      "азии": 5861,
      "дку": 5862,
      "сбор": 5863,
      "эфи": 5864,
      "пое": 5865,
      "зато": 5866,
      "своем": 5867,
      "пун": 5868,
      "трево": 5869,
      "пыль": 5870,
      "полё": 5871,
      "факты": 5872,
      "брали": 5873,
      "родствен": 5874,
      "слышать": 5875,
      "сообщения": 5876,
      "снять": 5877,
      "личности": 5878,
      "посмотрел": 5879,
      "сентября": 5880,
      "нынеш": 5881,
      "презента": 5882,
      "ищ": 5883,
      "сх": 5884,
      "ус": 5885,
      "шкой": 5886,
      "носят": 5887,
      "роде": 5888,
      "вашим": 5889,
      "деду": 5890,
      "ведут": 5891,
      "доктора": 5892,
      "проста": 5893,
      "жности": 5894,
      "исключе": 5895,
      "цена": 5896,
      "возгла": 5897,
      "следующей": 5898,
      "экономике": 5899,
      "потребо": 5900,
      "берём": 5901,
      "природу": 5902,
      "законо": 5903,
      "оценить": 5904,
      "атмосферу": 5905,
      "оружие": 5906,
      "японии": 5907,
      "разоча": 5908,
      "француз": 5909,
      "il": 5910,
      "праз": 5911,
      "скри": 5912,
      "склады": 5913,
      "поря": 5914,
      "появля": 5915,
      "послуша": 5916,
      "копита": 5917,
      "изгото": 5918,
      "изначально": 5919,
      "мудро": 5920,
      "пече": 5921,
      "старо": 5922,
      "цита": 5923,
      "отвра": 5924,
      "работой": 5925,
      "рассмотреть": 5926,
      "переста": 5927,
      "человечество": 5928,
      "рье": 5929,
      "надежда": 5930,
      "объясни": 5931,
      "оказаться": 5932,
      "пациен": 5933,
      "масштабе": 5934,
      "отвечает": 5935,
      "уверены": 5936,
      "борьбы": 5937,
      "минуты": 5938,
      "присутству": 5939,
      "заключё": 5940,
      "ребенка": 5941,
      "млекопита": 5942,
      "андерсон": 5943,
      "23": 5944,
      "you": 5945,
      "адре": 5946,
      "ию": 5947,
      "осу": 5948,
      "сбере": 5949,
      "ябло": 5950,
      "независи": 5951,
      "рем": 5952,
      "лету": 5953,
      "лога": 5954,
      "дится": 5955,
      "музей": 5956,
      "чисты": 5957,
      "любую": 5958,
      "бить": 5959,
      "годами": 5960,
      "большими": 5961,
      "считает": 5962,
      "группой": 5963,
      "местные": 5964,
      "местности": 5965,
      "любое": 5966,
      "взгляните": 5967,
      "медицины": 5968,
      "публика": 5969,
      "чувствуют": 5970,
      "йорка": 5971,
      "бактерий": 5972,
      "рисовать": 5973,
      "звезды": 5974,
      "ископа": 5975,
      "максима": 5976,
      "франциско": 5977,
      "ve": 5978,
      "жную": 5979,
      "офици": 5980,
      "сны": 5981,
      "яй": 5982,
      "роман": 5983,
      "неправи": 5984,
      "разбира": 5985,
      "щены": 5986,
      "шаф": 5987,
      "ровании": 5988,
      "траге": 5989,
      "ключения": 5990,
      "врачи": 5991,
      "маленькую": 5992,
      "западе": 5993,
      "количеством": 5994,
      "интересный": 5995,
      "материала": 5996,
      "основных": 5997,
      "молекуляр": 5998,
      "нормально": 5999,
      "привыкли": 6000,
      "кратко": 6001,
      "мёрт": 6002,
      "ост": 6003,
      "пку": 6004,
      "ноут": 6005,
      "небе": 6006,
      "небольшие": 6007,
      "годов": 6008,
      "лез": 6009,
      "прогу": 6010,
      "диться": 6011,
      "няются": 6012,
      "скор": 6013,
      "хая": 6014,
      "интенси": 6015,
      "общее": 6016,
      "надеемся": 6017,
      "диагно": 6018,
      "2008": 6019,
      "сложная": 6020,
      "распространения": 6021,
      "заняться": 6022,
      "главный": 6023,
      "приведу": 6024,
      "потрясающе": 6025,
      "тюрьме": 6026,
      "молча": 6027,
      "каково": 6028,
      "влю": 6029,
      "дверь": 6030,
      "иди": 6031,
      "нков": 6032,
      "уль": 6033,
      "ужи": 6034,
      "нака": 6035,
      "пок": 6036,
      "пола": 6037,
      "повлия": 6038,
      "ремо": 6039,
      "тент": 6040,
      "мене": 6041,
      "данным": 6042,
      "засе": 6043,
      "загру": 6044,
      "сестра": 6045,
      "рынке": 6046,
      "стадии": 6047,
      "нностью": 6048,
      "среда": 6049,
      "вмеша": 6050,
      "случается": 6051,
      "канди": 6052,
      "ответила": 6053,
      "школ": 6054,
      "надежды": 6055,
      "интерфей": 6056,
      "родилась": 6057,
      "нравятся": 6058,
      "коллеги": 6059,
      "разнообраз": 6060,
      "аппарат": 6061,
      "япон": 6062,
      "отобра": 6063,
      "бразилии": 6064,
      "ориенти": 6065,
      "йо": 6066,
      "кви": 6067,
      "сжи": 6068,
      "увидела": 6069,
      "эл": 6070,
      "нике": 6071,
      "лизова": 6072,
      "гой": 6073,
      "гора": 6074,
      "мец": 6075,
      "мала": 6076,
      "избира": 6077,
      "ходом": 6078,
      "паки": 6079,
      "скопи": 6080,
      "пищу": 6081,
      "комфор": 6082,
      "ходила": 6083,
      "вспом": 6084,
      "тельств": 6085,
      "предска": 6086,
      "гумани": 6087,
      "произвести": 6088,
      "среднего": 6089,
      "политике": 6090,
      "потребу": 6091,
      "волно": 6092,
      "новому": 6093,
      "способен": 6094,
      "свойства": 6095,
      "новения": 6096,
      "направления": 6097,
      "доказать": 6098,
      "деятельность": 6099,
      "впечатля": 6100,
      "характеристи": 6101,
      "рестора": 6102,
      "na": 6103,
      "po": 6104,
      "вных": 6105,
      "рейти": 6106,
      "моем": 6107,
      "давление": 6108,
      "лока": 6109,
      "мат": 6110,
      "обуче": 6111,
      "придумать": 6112,
      "рассмотрим": 6113,
      "возни": 6114,
      "мозгу": 6115,
      "средний": 6116,
      "массы": 6117,
      "высокой": 6118,
      "поверить": 6119,
      "достигли": 6120,
      "токси": 6121,
      "наблюдения": 6122,
      "беспла": 6123,
      "глазах": 6124,
      "продолжает": 6125,
      "секс": 6126,
      "главным": 6127,
      "востор": 6128,
      "основные": 6129,
      "столкнове": 6130,
      "tion": 6131,
      "цифровой": 6132,
      "острова": 6133,
      "оружия": 6134,
      "слайд": 6135,
      "бедности": 6136,
      "ландшаф": 6137,
      "индустрии": 6138,
      "кормить": 6139,
      "зарпла": 6140,
      "65": 6141,
      "зона": 6142,
      "осторо": 6143,
      "неле": 6144,
      "воль": 6145,
      "вайте": 6146,
      "зала": 6147,
      "типы": 6148,
      "изучить": 6149,
      "преуспе": 6150,
      "лум": 6151,
      "вспомина": 6152,
      "работая": 6153,
      "кажу": 6154,
      "цар": 6155,
      "ближ": 6156,
      "дорогу": 6157,
      "слышу": 6158,
      "климати": 6159,
      "почте": 6160,
      "получаете": 6161,
      "процессы": 6162,
      "штатов": 6163,
      "групп": 6164,
      "занимался": 6165,
      "культуре": 6166,
      "предложить": 6167,
      "поразительно": 6168,
      "выбрали": 6169,
      "предметы": 6170,
      "телевизо": 6171,
      "повседне": 6172,
      "жёл": 6173,
      "кций": 6174,
      "народа": 6175,
      "нились": 6176,
      "помогли": 6177,
      "вана": 6178,
      "чтоб": 6179,
      "мыши": 6180,
      "жаться": 6181,
      "подразуме": 6182,
      "рованные": 6183,
      "классе": 6184,
      "определи": 6185,
      "вшим": 6186,
      "ответили": 6187,
      "настоящая": 6188,
      "планету": 6189,
      "частично": 6190,
      "частицы": 6191,
      "сложных": 6192,
      "акку": 6193,
      "потребление": 6194,
      "снаб": 6195,
      "счастья": 6196,
      "измерить": 6197,
      "бесплатно": 6198,
      "астеро": 6199,
      "двой": 6200,
      "ир": 6201,
      "кет": 6202,
      "тная": 6203,
      "эль": 6204,
      "кола": 6205,
      "ваюсь": 6206,
      "какова": 6207,
      "меж": 6208,
      "засу": 6209,
      "запол": 6210,
      "выжить": 6211,
      "привлечь": 6212,
      "старе": 6213,
      "живе": 6214,
      "рабочие": 6215,
      "поддержа": 6216,
      "сделаю": 6217,
      "остальное": 6218,
      "использую": 6219,
      "изменили": 6220,
      "порта": 6221,
      "собирать": 6222,
      "спросите": 6223,
      "эксперименты": 6224,
      "морской": 6225,
      "знакомы": 6226,
      "нёс": 6227,
      "килограм": 6228,
      "расширя": 6229,
      "умирают": 6230,
      "учитывая": 6231,
      "исключительно": 6232,
      "офис": 6233,
      "22": 6234,
      "опо": 6235,
      "ссу": 6236,
      "уо": 6237,
      "углу": 6238,
      "нений": 6239,
      "либера": 6240,
      "респу": 6241,
      "сово": 6242,
      "прови": 6243,
      "продоволь": 6244,
      "выбрасы": 6245,
      "стату": 6246,
      "емле": 6247,
      "тун": 6248,
      "тури": 6249,
      "рассе": 6250,
      "кей": 6251,
      "полный": 6252,
      "показаться": 6253,
      "серви": 6254,
      "емым": 6255,
      "чувствовали": 6256,
      "спира": 6257,
      "американцы": 6258,
      "танце": 6259,
      "появилось": 6260,
      "принципы": 6261,
      "организмов": 6262,
      "передачи": 6263,
      "опасности": 6264,
      "снимки": 6265,
      "палец": 6266,
      "опухоль": 6267,
      "градусов": 6268,
      "предотвратить": 6269,
      "пинг": 6270,
      "беженцев": 6271,
      "доверие": 6272,
      "республи": 6273,
      "огля": 6274,
      "смогла": 6275,
      "эд": 6276,
      "поо": 6277,
      "рос": 6278,
      "лице": 6279,
      "делом": 6280,
      "чено": 6281,
      "изда": 6282,
      "душу": 6283,
      "ствовал": 6284,
      "больных": 6285,
      "перей": 6286,
      "ющимся": 6287,
      "дороге": 6288,
      "197": 6289,
      "штата": 6290,
      "африку": 6291,
      "принимают": 6292,
      "подобного": 6293,
      "чувствовала": 6294,
      "уверена": 6295,
      "антибио": 6296,
      "конкурен": 6297,
      "ta": 6298,
      "вшее": 6299,
      "фри": 6300,
      "фили": 6301,
      "неже": 6302,
      "некотором": 6303,
      "реки": 6304,
      "тащи": 6305,
      "заключе": 6306,
      "пригото": 6307,
      "знание": 6308,
      "делается": 6309,
      "коммента": 6310,
      "бал": 6311,
      "бара": 6312,
      "предпочита": 6313,
      "фикси": 6314,
      "влено": 6315,
      "плоть": 6316,
      "общей": 6317,
      "фов": 6318,
      "2010": 6319,
      "обладают": 6320,
      "играли": 6321,
      "работников": 6322,
      "государство": 6323,
      "национальной": 6324,
      "определение": 6325,
      "адапти": 6326,
      "неожиданно": 6327,
      "обновля": 6328,
      "бби": 6329,
      "ец": 6330,
      "голь": 6331,
      "лекс": 6332,
      "быстры": 6333,
      "мана": 6334,
      "силе": 6335,
      "рассказа": 6336,
      "ственную": 6337,
      "создавая": 6338,
      "органы": 6339,
      "следующих": 6340,
      "главная": 6341,
      "углерода": 6342,
      "совместно": 6343,
      "съём": 6344,
      "географи": 6345,
      "поддержки": 6346,
      "принадлежа": 6347,
      "старые": 6348,
      "насекомых": 6349,
      "мусульман": 6350,
      "обстоятельства": 6351,
      "преподава": 6352,
      "нежели": 6353,
      "агре": 6354,
      "зли": 6355,
      "осе": 6356,
      "пче": 6357,
      "сда": 6358,
      "свер": 6359,
      "ун": 6360,
      "уйти": 6361,
      "явление": 6362,
      "тако": 6363,
      "рио": 6364,
      "вера": 6365,
      "проб": 6366,
      "пило": 6367,
      "перейти": 6368,
      "ходите": 6369,
      "жизней": 6370,
      "вопросу": 6371,
      "особы": 6372,
      "креди": 6373,
      "используются": 6374,
      "школа": 6375,
      "надежду": 6376,
      "собирается": 6377,
      "спуска": 6378,
      "новом": 6379,
      "минимум": 6380,
      "верим": 6381,
      "письма": 6382,
      "камера": 6383,
      "простым": 6384,
      "углерод": 6385,
      "инноваций": 6386,
      "справедливости": 6387,
      "альтернати": 6388,
      "us": 6389,
      "ах": 6390,
      "ока": 6391,
      "фла": 6392,
      "насле": 6393,
      "проявля": 6394,
      "прими": 6395,
      "пределы": 6396,
      "питы": 6397,
      "консерва": 6398,
      "спон": 6399,
      "остаются": 6400,
      "хорошего": 6401,
      "годах": 6402,
      "объём": 6403,
      "головы": 6404,
      "считал": 6405,
      "обладает": 6406,
      "вернулись": 6407,
      "сложный": 6408,
      "написано": 6409,
      "процента": 6410,
      "повтор": 6411,
      "спрашивают": 6412,
      "удовольствие": 6413,
      "сострадание": 6414,
      "кровь": 6415,
      "600": 6416,
      "вперед": 6417,
      "гнуть": 6418,
      "наса": 6419,
      "поэ": 6420,
      "пост": 6421,
      "линей": 6422,
      "вости": 6423,
      "магаз": 6424,
      "выпуска": 6425,
      "оттуда": 6426,
      "сия": 6427,
      "сайте": 6428,
      "препода": 6429,
      "живых": 6430,
      "подъ": 6431,
      "кении": 6432,
      "переди": 6433,
      "сделаны": 6434,
      "лучшим": 6435,
      "показатели": 6436,
      "решением": 6437,
      "водят": 6438,
      "марсе": 6439,
      "подобно": 6440,
      "роботы": 6441,
      "тонн": 6442,
      "отношениях": 6443,
      "позиции": 6444,
      "формировать": 6445,
      "восстановить": 6446,
      "космос": 6447,
      "секунды": 6448,
      "app": 6449,
      "союз": 6450,
      "кризиса": 6451,
      "мульти": 6452,
      "магазин": 6453,
      "дке": 6454,
      "тща": 6455,
      "пошёл": 6456,
      "лист": 6457,
      "приви": 6458,
      "щена": 6459,
      "цены": 6460,
      "многом": 6461,
      "техники": 6462,
      "нейших": 6463,
      "сына": 6464,
      "резер": 6465,
      "голод": 6466,
      "головой": 6467,
      "задачу": 6468,
      "изменит": 6469,
      "соверши": 6470,
      "парк": 6471,
      "двери": 6472,
      "солда": 6473,
      "оказалась": 6474,
      "организацию": 6475,
      "собрали": 6476,
      "объектов": 6477,
      "найде": 6478,
      "функции": 6479,
      "уверенность": 6480,
      "англии": 6481,
      "оценки": 6482,
      "членов": 6483,
      "галактики": 6484,
      "навыки": 6485,
      "опублико": 6486,
      "растут": 6487,
      "наслажда": 6488,
      "периода": 6489,
      "ама": 6490,
      "схе": 6491,
      "почувствовать": 6492,
      "невер": 6493,
      "мега": 6494,
      "моро": 6495,
      "сочув": 6496,
      "нула": 6497,
      "кусок": 6498,
      "живо": 6499,
      "жное": 6500,
      "испа": 6501,
      "делала": 6502,
      "жар": 6503,
      "форд": 6504,
      "рована": 6505,
      "взрыв": 6506,
      "карто": 6507,
      "использовании": 6508,
      "женщину": 6509,
      "совпа": 6510,
      "компанией": 6511,
      "процеду": 6512,
      "политической": 6513,
      "узнала": 6514,
      "строил": 6515,
      "миллиарды": 6516,
      "владе": 6517,
      "интересная": 6518,
      "европы": 6519,
      "творчество": 6520,
      "ошиба": 6521,
      "автомобилей": 6522,
      "отличаются": 6523,
      "прогресс": 6524,
      "документа": 6525,
      "new": 6526,
      "лондоне": 6527,
      "афганистане": 6528,
      "контексте": 6529,
      "ежедневно": 6530,
      "демократия": 6531,
      "поощ": 6532,
      "un": 6533,
      "жь": 6534,
      "плу": 6535,
      "рэ": 6536,
      "назна": 6537,
      "напи": 6538,
      "моди": 6539,
      "вее": 6540,
      "мию": 6541,
      "рукой": 6542,
      "признать": 6543,
      "размно": 6544,
      "папа": 6545,
      "верят": 6546,
      "правы": 6547,
      "бана": 6548,
      "банки": 6549,
      "зию": 6550,
      "общественно": 6551,
      "шься": 6552,
      "альном": 6553,
      "основу": 6554,
      "получите": 6555,
      "результатом": 6556,
      "внести": 6557,
      "тысяча": 6558,
      "владель": 6559,
      "долгое": 6560,
      "ющаяся": 6561,
      "глобали": 6562,
      "фраг": 6563,
      "превратить": 6564,
      "экран": 6565,
      "интересует": 6566,
      "соединённых": 6567,
      "евре": 6568,
      "чкой": 6569,
      "эго": 6570,
      "позади": 6571,
      "несомне": 6572,
      "телю": 6573,
      "зало": 6574,
      "вымира": 6575,
      "чат": 6576,
      "скажут": 6577,
      "зданий": 6578,
      "хай": 6579,
      "оставаться": 6580,
      "технологиями": 6581,
      "понимает": 6582,
      "тивных": 6583,
      "собираются": 6584,
      "бросить": 6585,
      "молодой": 6586,
      "молодё": 6587,
      "2009": 6588,
      "удивительные": 6589,
      "культуру": 6590,
      "взаимодействие": 6591,
      "инструмента": 6592,
      "научить": 6593,
      "вируса": 6594,
      "существования": 6595,
      "скажет": 6596,
      "лидеры": 6597,
      "площадь": 6598,
      "уменьшить": 6599,
      "спис": 6600,
      "убедиться": 6601,
      "хлеб": 6602,
      "девять": 6603,
      "крова": 6604,
      "тоци": 6605,
      "горе": 6606,
      "запустить": 6607,
      "приё": 6608,
      "приез": 6609,
      "тельна": 6610,
      "началась": 6611,
      "оставля": 6612,
      "существовать": 6613,
      "органов": 6614,
      "голова": 6615,
      "считается": 6616,
      "развивается": 6617,
      "научных": 6618,
      "удар": 6619,
      "тивной": 6620,
      "занимаемся": 6621,
      "примера": 6622,
      "политических": 6623,
      "социального": 6624,
      "ктах": 6625,
      "иностра": 6626,
      "колледж": 6627,
      "моими": 6628,
      "американских": 6629,
      "увеличение": 6630,
      "пациенты": 6631,
      "вышел": 6632,
      "предложения": 6633,
      "предложил": 6634,
      "ограничения": 6635,
      "ющегося": 6636,
      "функциона": 6637,
      "расшиф": 6638,
      "заботиться": 6639,
      "доказательства": 6640,
      "страшно": 6641,
      "субъе": 6642,
      "воспоминания": 6643,
      "израиль": 6644,
      "млн": 6645,
      "германии": 6646,
      "абстракт": 6647,
      "1000": 6648,
      "ари": 6649,
      "гг": 6650,
      "оча": 6651,
      "пет": 6652,
      "навсегда": 6653,
      "невро": 6654,
      "тере": 6655,
      "ветер": 6656,
      "мия": 6657,
      "тится": 6658,
      "лливу": 6659,
      "щаясь": 6660,
      "находиться": 6661,
      "звука": 6662,
      "марш": 6663,
      "местом": 6664,
      "худо": 6665,
      "удивительное": 6666,
      "доступны": 6667,
      "направление": 6668,
      "обеспечения": 6669,
      "источников": 6670,
      "девушка": 6671,
      "отсутствие": 6672,
      "песню": 6673,
      "восьми": 6674,
      "иници": 6675,
      "нётся": 6676,
      "тони": 6677,
      "карика": 6678,
      "моду": 6679,
      "такова": 6680,
      "сора": 6681,
      "пробу": 6682,
      "руками": 6683,
      "измен": 6684,
      "придумали": 6685,
      "исследу": 6686,
      "ислам": 6687,
      "базо": 6688,
      "слуши": 6689,
      "служа": 6690,
      "рованных": 6691,
      "этапе": 6692,
      "брат": 6693,
      "женщинами": 6694,
      "последняя": 6695,
      "маленьким": 6696,
      "коллег": 6697,
      "ощуща": 6698,
      "степень": 6699,
      "нейроны": 6700,
      "эволюциони": 6701,
      "противоре": 6702,
      "счастлив": 6703,
      "составляют": 6704,
      "участников": 6705,
      "определяет": 6706,
      "стратегии": 6707,
      "герои": 6708,
      "телефоны": 6709,
      "мён": 6710,
      "стерео": 6711,
      "гуманитар": 6712,
      "ани": 6713,
      "блу": 6714,
      "вная": 6715,
      "влё": 6716,
      "эс": 6717,
      "наста": 6718,
      "лиш": 6719,
      "лесов": 6720,
      "даст": 6721,
      "пробе": 6722,
      "суда": 6723,
      "зовать": 6724,
      "человеческие": 6725,
      "хищ": 6726,
      "учителей": 6727,
      "фай": 6728,
      "женщинам": 6729,
      "открыл": 6730,
      "элемента": 6731,
      "обычные": 6732,
      "необходимые": 6733,
      "тивный": 6734,
      "примером": 6735,
      "похожа": 6736,
      "вернулась": 6737,
      "собственных": 6738,
      "восточной": 6739,
      "осознал": 6740,
      "трёхмер": 6741,
      "возможные": 6742,
      "съе": 6743,
      "участия": 6744,
      "успешно": 6745,
      "хозяйства": 6746,
      "товаров": 6747,
      "историей": 6748,
      "каковы": 6749,
      "взрослых": 6750,
      "господа": 6751,
      "увиде": 6752,
      "увлека": 6753,
      "поменя": 6754,
      "пожертво": 6755,
      "раста": 6756,
      "небольшое": 6757,
      "ворот": 6758,
      "важен": 6759,
      "каби": 6760,
      "меро": 6761,
      "льны": 6762,
      "далё": 6763,
      "минима": 6764,
      "отры": 6765,
      "щением": 6766,
      "газе": 6767,
      "вертика": 6768,
      "интера": 6769,
      "хорошим": 6770,
      "способно": 6771,
      "получим": 6772,
      "красный": 6773,
      "идеями": 6774,
      "фильмов": 6775,
      "щиеся": 6776,
      "ющееся": 6777,
      "мировых": 6778,
      "ционный": 6779,
      "основная": 6780,
      "событие": 6781,
      "ежегодно": 6782,
      "разработки": 6783,
      "смертности": 6784,
      "ребенок": 6785,
      "воспользоваться": 6786,
      "непосредственно": 6787,
      "hone": 6788,
      "ати": 6789,
      "сбо": 6790,
      "чна": 6791,
      "нахожу": 6792,
      "никого": 6793,
      "раком": 6794,
      "родом": 6795,
      "небольшая": 6796,
      "талки": 6797,
      "рича": 6798,
      "ветра": 6799,
      "изоб": 6800,
      "изну": 6801,
      "мусор": 6802,
      "нье": 6803,
      "исправить": 6804,
      "жаю": 6805,
      "первом": 6806,
      "подвод": 6807,
      "студент": 6808,
      "существ": 6809,
      "альную": 6810,
      "этап": 6811,
      "следующим": 6812,
      "третья": 6813,
      "важную": 6814,
      "желания": 6815,
      "связей": 6816,
      "сцену": 6817,
      "потеряли": 6818,
      "образить": 6819,
      "усилий": 6820,
      "демонстра": 6821,
      "бабушка": 6822,
      "цивилизации": 6823,
      "обитания": 6824,
      "оборудование": 6825,
      "администра": 6826,
      "продвину": 6827,
      "несомненно": 6828,
      "художе": 6829,
      "bo": 6830,
      "ho": 6831,
      "жка": 6832,
      "млад": 6833,
      "тором": 6834,
      "колум": 6835,
      "лением": 6836,
      "вене": 6837,
      "доля": 6838,
      "прочитать": 6839,
      "винов": 6840,
      "выигры": 6841,
      "сетей": 6842,
      "жном": 6843,
      "банк": 6844,
      "влений": 6845,
      "ровано": 6846,
      "войну": 6847,
      "хороших": 6848,
      "ждении": 6849,
      "задание": 6850,
      "стоимости": 6851,
      "музыкан": 6852,
      "границ": 6853,
      "джер": 6854,
      "фильме": 6855,
      "королев": 6856,
      "живущих": 6857,
      "проводим": 6858,
      "математики": 6859,
      "обратиться": 6860,
      "устанавли": 6861,
      "современной": 6862,
      "услуги": 6863,
      "целое": 6864,
      "исключением": 6865,
      "порядок": 6866,
      "27": 6867,
      "вдвое": 6868,
      "игре": 6869,
      "оми": 6870,
      "рный": 6871,
      "побо": 6872,
      "построй": 6873,
      "непри": 6874,
      "зака": 6875,
      "заслужи": 6876,
      "стам": 6877,
      "отчасти": 6878,
      "берт": 6879,
      "делая": 6880,
      "расходы": 6881,
      "зоне": 6882,
      "ключ": 6883,
      "поздно": 6884,
      "аргу": 6885,
      "следующего": 6886,
      "обычный": 6887,
      "измеря": 6888,
      "находить": 6889,
      "примере": 6890,
      "политические": 6891,
      "склон": 6892,
      "появится": 6893,
      "дизайнер": 6894,
      "согласны": 6895,
      "ционная": 6896,
      "путешествия": 6897,
      "отправить": 6898,
      "целиком": 6899,
      "углекисло": 6900,
      "возможных": 6901,
      "соответству": 6902,
      "капитала": 6903,
      "западной": 6904,
      "поддержку": 6905,
      "рассматривать": 6906,
      "tube": 6907,
      "олимпи": 6908,
      "выразить": 6909,
      "youtube": 6910,
      "ричард": 6911,
      "do": 6912,
      "твёр": 6913,
      "лето": 6914,
      "лении": 6915,
      "венства": 6916,
      "проник": 6917,
      "вышла": 6918,
      "обслужи": 6919,
      "приносит": 6920,
      "любая": 6921,
      "стин": 6922,
      "щиков": 6923,
      "ряду": 6924,
      "конго": 6925,
      "летря": 6926,
      "сделана": 6927,
      "сделает": 6928,
      "планта": 6929,
      "брал": 6930,
      "землетря": 6931,
      "развиваться": 6932,
      "развитии": 6933,
      "исследовании": 6934,
      "196": 6935,
      "энерго": 6936,
      "настоящие": 6937,
      "наличие": 6938,
      "произойти": 6939,
      "благодар": 6940,
      "2007": 6941,
      "влияют": 6942,
      "чувствуете": 6943,
      "лаборатория": 6944,
      "общественных": 6945,
      "вариантов": 6946,
      "содержание": 6947,
      "топливо": 6948,
      "отметить": 6949,
      "произведения": 6950,
      "охла": 6951,
      "введе": 6952,
      "описать": 6953,
      "христи": 6954,
      "погиб": 6955,
      "нете": 6956,
      "тиши": 6957,
      "рыбу": 6958,
      "пато": 6959,
      "пада": 6960,
      "цепоч": 6961,
      "насы": 6962,
      "часы": 6963,
      "круто": 6964,
      "глядя": 6965,
      "воспита": 6966,
      "открыли": 6967,
      "соверша": 6968,
      "кванто": 6969,
      "ожидать": 6970,
      "команде": 6971,
      "попада": 6972,
      "ошибок": 6973,
      "комнаты": 6974,
      "борьба": 6975,
      "изоли": 6976,
      "штука": 6977,
      "температура": 6978,
      "конфликт": 6979,
      "восприятия": 6980,
      "воображение": 6981,
      "iphone": 6982,
      "верьте": 6983,
      "плюс": 6984,
      "захватыва": 6985,
      "нигерии": 6986,
      "устра": 6987,
      "хво": 6988,
      "торо": 6989,
      "тобой": 6990,
      "нат": 6991,
      "комен": 6992,
      "момен": 6993,
      "лечи": 6994,
      "тана": 6995,
      "запове": 6996,
      "дио": 6997,
      "пам": 6998,
      "няли": 6999,
      "превы": 7000,
      "преобразо": 7001,
      "стену": 7002,
      "рассказала": 7003,
      "бами": 7004,
      "зиа": 7005,
      "образцы": 7006,
      "циям": 7007,
      "обратить": 7008,
      "величи": 7009,
      "кримина": 7010,
      "экономического": 7011,
      "научные": 7012,
      "тысяче": 7013,
      "применения": 7014,
      "деревне": 7015,
      "диаграм": 7016,
      "умере": 7017,
      "распространё": 7018,
      "помогать": 7019,
      "начну": 7020,
      "сотрудников": 7021,
      "летать": 7022,
      "корал": 7023,
      "современных": 7024,
      "температуры": 7025,
      "архитектура": 7026,
      "отличный": 7027,
      "впечатление": 7028,
      "способами": 7029,
      "мотива": 7030,
      "законода": 7031,
      "am": 7032,
      "джен": 7033,
      "оси": 7034,
      "спря": 7035,
      "неприят": 7036,
      "незнаком": 7037,
      "дется": 7038,
      "допусти": 7039,
      "проме": 7040,
      "проника": 7041,
      "мато": 7042,
      "сидел": 7043,
      "пами": 7044,
      "кух": 7045,
      "жай": 7046,
      "баш": 7047,
      "фила": 7048,
      "ступе": 7049,
      "детства": 7050,
      "спек": 7051,
      "взры": 7052,
      "останется": 7053,
      "участок": 7054,
      "элемент": 7055,
      "школах": 7056,
      "тность": 7057,
      "научной": 7058,
      "деревни": 7059,
      "мышление": 7060,
      "ехал": 7061,
      "экспериментов": 7062,
      "атла": 7063,
      "обеспечение": 7064,
      "половины": 7065,
      "птицы": 7066,
      "принципе": 7067,
      "лабораторию": 7068,
      "упраж": 7069,
      "электричества": 7070,
      "экологически": 7071,
      "хрони": 7072,
      "доверя": 7073,
      "заменить": 7074,
      "превосход": 7075,
      "авиа": 7076,
      "встрое": 7077,
      "клей": 7078,
      "швей": 7079,
      "нож": 7080,
      "коор": 7081,
      "вому": 7082,
      "рим": 7083,
      "соревно": 7084,
      "приори": 7085,
      "сидит": 7086,
      "развле": 7087,
      "нулся": 7088,
      "орке": 7089,
      "перео": 7090,
      "самолёт": 7091,
      "близо": 7092,
      "чьи": 7093,
      "женщиной": 7094,
      "дорог": 7095,
      "большом": 7096,
      "задачей": 7097,
      "обычных": 7098,
      "наружи": 7099,
      "необходимы": 7100,
      "потеп": 7101,
      "потери": 7102,
      "частиц": 7103,
      "встречи": 7104,
      "встретил": 7105,
      "статью": 7106,
      "коллектив": 7107,
      "сложной": 7108,
      "сферы": 7109,
      "собственную": 7110,
      "глобального": 7111,
      "производит": 7112,
      "эволюция": 7113,
      "существование": 7114,
      "площади": 7115,
      "опубликова": 7116,
      "эпоху": 7117,
      "прибыль": 7118,
      "вплоть": 7119,
      "днём": 7120,
      "нна": 7121,
      "одоб": 7122,
      "сче": 7123,
      "снаружи": 7124,
      "ур": 7125,
      "стря": 7126,
      "повлиять": 7127,
      "ребен": 7128,
      "рекомен": 7129,
      "кает": 7130,
      "табли": 7131,
      "риску": 7132,
      "данной": 7133,
      "зами": 7134,
      "типов": 7135,
      "сопережи": 7136,
      "выру": 7137,
      "северо": 7138,
      "хождение": 7139,
      "бели": 7140,
      "больнице": 7141,
      "смея": 7142,
      "летнего": 7143,
      "созданы": 7144,
      "плох": 7145,
      "плохая": 7146,
      "иммигра": 7147,
      "альность": 7148,
      "учился": 7149,
      "показатель": 7150,
      "полиции": 7151,
      "областях": 7152,
      "высоким": 7153,
      "количестве": 7154,
      "связанных": 7155,
      "сложность": 7156,
      "американской": 7157,
      "занятия": 7158,
      "анализи": 7159,
      "увеличивается": 7160,
      "вещами": 7161,
      "эффективность": 7162,
      "кварта": 7163,
      "преимущество": 7164,
      "берут": 7165,
      "сосредоточи": 7166,
      "глубже": 7167,
      "восстанавли": 7168,
      "предсказу": 7169,
      "ане": 7170,
      "бл": 7171,
      "ввиду": 7172,
      "дные": 7173,
      "уще": 7174,
      "уделя": 7175,
      "называть": 7176,
      "натура": 7177,
      "рано": 7178,
      "неважно": 7179,
      "каль": 7180,
      "сото": 7181,
      "видом": 7182,
      "босто": 7183,
      "руан": 7184,
      "ляцию": 7185,
      "муд": 7186,
      "шему": 7187,
      "ципли": 7188,
      "санти": 7189,
      "гидро": 7190,
      "белый": 7191,
      "исходя": 7192,
      "смело": 7193,
      "бай": 7194,
      "тельностью": 7195,
      "самому": 7196,
      "импрови": 7197,
      "делей": 7198,
      "терми": 7199,
      "самыми": 7200,
      "последней": 7201,
      "воскре": 7202,
      "развитию": 7203,
      "снизу": 7204,
      "двадца": 7205,
      "средство": 7206,
      "афро": 7207,
      "точный": 7208,
      "уменьше": 7209,
      "уровнем": 7210,
      "клетку": 7211,
      "картинку": 7212,
      "распространение": 7213,
      "специфи": 7214,
      "медицине": 7215,
      "окружающую": 7216,
      "районах": 7217,
      "огромной": 7218,
      "приведёт": 7219,
      "включает": 7220,
      "региона": 7221,
      "современные": 7222,
      "веществ": 7223,
      "подверга": 7224,
      "прогресса": 7225,
      "попытки": 7226,
      "ближайшие": 7227,
      "преодолеть": 7228,
      "gps": 7229,
      "of": 7230,
      "нация": 7231,
      "наступи": 7232,
      "незаме": 7233,
      "репу": 7234,
      "замуж": 7235,
      "доно": 7236,
      "сери": 7237,
      "песни": 7238,
      "разработать": 7239,
      "пало": 7240,
      "сказ": 7241,
      "бия": 7242,
      "пуск": 7243,
      "грамо": 7244,
      "времён": 7245,
      "предстоит": 7246,
      "созданию": 7247,
      "федера": 7248,
      "пытаться": 7249,
      "экономический": 7250,
      "нашла": 7251,
      "высокого": 7252,
      "языком": 7253,
      "убеждения": 7254,
      "умные": 7255,
      "блок": 7256,
      "научились": 7257,
      "рамки": 7258,
      "единственным": 7259,
      "аудитория": 7260,
      "возникают": 7261,
      "дисципли": 7262,
      "художник": 7263,
      "активность": 7264,
      "лицом": 7265,
      "принадле": 7266,
      "янва": 7267,
      "услуг": 7268,
      "содержит": 7269,
      "понадобится": 7270,
      "аре": 7271,
      "писы": 7272,
      "точек": 7273,
      "дев": 7274,
      "моделей": 7275,
      "вино": 7276,
      "вывать": 7277,
      "шель": 7278,
      "сков": 7279,
      "судеб": 7280,
      "бил": 7281,
      "возбу": 7282,
      "летней": 7283,
      "имена": 7284,
      "щаться": 7285,
      "хорошей": 7286,
      "великих": 7287,
      "кредит": 7288,
      "элементов": 7289,
      "емую": 7290,
      "обычной": 7291,
      "любить": 7292,
      "изображений": 7293,
      "норве": 7294,
      "производят": 7295,
      "разному": 7296,
      "крупных": 7297,
      "наблюдали": 7298,
      "and": 7299,
      "выполнять": 7300,
      "остановиться": 7301,
      "интеллект": 7302,
      "франции": 7303,
      "расположен": 7304,
      "австралии": 7305,
      "дешевле": 7306,
      "доверия": 7307,
      "приблизительно": 7308,
      "углекислого": 7309,
      "pa": 7310,
      "ара": 7311,
      "кг": 7312,
      "опере": 7313,
      "схо": 7314,
      "напротив": 7315,
      "хотво": 7316,
      "призыва": 7317,
      "рым": 7318,
      "кури": 7319,
      "живой": 7320,
      "цепи": 7321,
      "делаешь": 7322,
      "больницы": 7323,
      "перевод": 7324,
      "телеско": 7325,
      "термин": 7326,
      "голода": 7327,
      "графии": 7328,
      "лучшего": 7329,
      "средней": 7330,
      "джона": 7331,
      "внимательно": 7332,
      "дерева": 7333,
      "защиту": 7334,
      "двигается": 7335,
      "огромным": 7336,
      "растение": 7337,
      "чувствует": 7338,
      "анализа": 7339,
      "добавля": 7340,
      "английском": 7341,
      "конструи": 7342,
      "современного": 7343,
      "последовательность": 7344,
      "произойдет": 7345,
      "одинаково": 7346,
      "следствие": 7347,
      "визуали": 7348,
      "продолжительность": 7349,
      "кандида": 7350,
      "приорите": 7351,
      "250": 7352,
      "вступа": 7353,
      "включи": 7354,
      "дный": 7355,
      "пм": 7356,
      "сдви": 7357,
      "уло": 7358,
      "удержи": 7359,
      "энд": 7360,
      "лиц": 7361,
      "тацию": 7362,
      "заголо": 7363,
      "мили": 7364,
      "донести": 7365,
      "серо": 7366,
      "кир": 7367,
      "чали": 7368,
      "станов": 7369,
      "дух": 7370,
      "люсь": 7371,
      "стиле": 7372,
      "пали": 7373,
      "белые": 7374,
      "подчи": 7375,
      "летних": 7376,
      "мерт": 7377,
      "рованный": 7378,
      "хаке": 7379,
      "останов": 7380,
      "точности": 7381,
      "снизить": 7382,
      "точные": 7383,
      "обоих": 7384,
      "высоте": 7385,
      "реакции": 7386,
      "реального": 7387,
      "благодарю": 7388,
      "ребят": 7389,
      "печата": 7390,
      "замечательный": 7391,
      "закона": 7392,
      "улицах": 7393,
      "компьютере": 7394,
      "институт": 7395,
      "предоставить": 7396,
      "службы": 7397,
      "депрессии": 7398,
      "остров": 7399,
      "no": 7400,
      "оку": 7401,
      "уто": 7402,
      "уга": 7403,
      "шриф": 7404,
      "нала": 7405,
      "нагре": 7406,
      "ницей": 7407,
      "побу": 7408,
      "дамы": 7409,
      "вечно": 7410,
      "проходят": 7411,
      "вив": 7412,
      "отходов": 7413,
      "стихотво": 7414,
      "стене": 7415,
      "подними": 7416,
      "тельном": 7417,
      "антар": 7418,
      "обрабаты": 7419,
      "последнего": 7420,
      "показано": 7421,
      "1990": 7422,
      "паралле": 7423,
      "любит": 7424,
      "клетка": 7425,
      "компьютером": 7426,
      "курсе": 7427,
      "разговоры": 7428,
      "сократить": 7429,
      "индустри": 7430,
      "трансформа": 7431,
      "дизайнеры": 7432,
      "иллюстра": 7433,
      "желез": 7434,
      "чарль": 7435,
      "осуществить": 7436,
      "приспособле": 7437,
      "антаркти": 7438,
      "si": 7439,
      "иран": 7440,
      "нны": 7441,
      "рной": 7442,
      "тс": 7443,
      "явления": 7444,
      "лик": 7445,
      "домов": 7446,
      "дила": 7447,
      "руете": 7448,
      "ляет": 7449,
      "прибор": 7450,
      "столом": 7451,
      "разы": 7452,
      "разда": 7453,
      "возобновля": 7454,
      "вспомните": 7455,
      "тремя": 7456,
      "говорится": 7457,
      "действию": 7458,
      "использованием": 7459,
      "надпись": 7460,
      "крепля": 7461,
      "необходима": 7462,
      "штате": 7463,
      "программе": 7464,
      "высокий": 7465,
      "защите": 7466,
      "связана": 7467,
      "прекрасная": 7468,
      "картинки": 7469,
      "интересные": 7470,
      "анато": 7471,
      "востоке": 7472,
      "красиво": 7473,
      "текст": 7474,
      "здравоохранение": 7475,
      "промышленности": 7476,
      "ответственности": 7477,
      "вечери": 7478,
      "посмотрели": 7479,
      "генома": 7480,
      "карьеру": 7481,
      "преимущества": 7482,
      "напрямую": 7483,
      "повсемест": 7484,
      "доверять": 7485,
      "улыб": 7486,
      "склонны": 7487,
      "мла": 7488,
      "озе": 7489,
      "сму": 7490,
      "сной": 7491,
      "уходит": 7492,
      "устрое": 7493,
      "пошла": 7494,
      "кода": 7495,
      "неров": 7496,
      "темы": 7497,
      "леги": 7498,
      "шены": 7499,
      "отказыва": 7500,
      "белых": 7501,
      "целая": 7502,
      "поднять": 7503,
      "слома": 7504,
      "словом": 7505,
      "рованию": 7506,
      "вяз": 7507,
      "взор": 7508,
      "ждают": 7509,
      "объем": 7510,
      "многими": 7511,
      "писали": 7512,
      "полиоми": 7513,
      "науку": 7514,
      "политику": 7515,
      "появления": 7516,
      "вашему": 7517,
      "известный": 7518,
      "взглянем": 7519,
      "вырабаты": 7520,
      "несёт": 7521,
      "несчаст": 7522,
      "физически": 7523,
      "версия": 7524,
      "прекрасные": 7525,
      "беспровод": 7526,
      "случиться": 7527,
      "министер": 7528,
      "емости": 7529,
      "объединить": 7530,
      "определения": 7531,
      "провела": 7532,
      "банков": 7533,
      "активности": 7534,
      "восхити": 7535,
      "опухоли": 7536,
      "театра": 7537,
      "32": 7538,
      "wi": 7539,
      "аа": 7540,
      "иной": 7541,
      "оран": 7542,
      "фф": 7543,
      "насило": 7544,
      "новыми": 7545,
      "посети": 7546,
      "поменять": 7547,
      "когни": 7548,
      "неот": 7549,
      "вающий": 7550,
      "мона": 7551,
      "леты": 7552,
      "дай": 7553,
      "заранее": 7554,
      "просмо": 7555,
      "высказыва": 7556,
      "извлечь": 7557,
      "прибыли": 7558,
      "привяза": 7559,
      "отка": 7560,
      "стили": 7561,
      "беспи": 7562,
      "щики": 7563,
      "сульта": 7564,
      "бам": 7565,
      "меняют": 7566,
      "ственными": 7567,
      "говой": 7568,
      "ёмся": 7569,
      "позд": 7570,
      "врачей": 7571,
      "надца": 7572,
      "развивать": 7573,
      "относятся": 7574,
      "слабы": 7575,
      "слабо": 7576,
      "интерпре": 7577,
      "занимались": 7578,
      "марса": 7579,
      "строительство": 7580,
      "коллективно": 7581,
      "природой": 7582,
      "невероятное": 7583,
      "законов": 7584,
      "воодуше": 7585,
      "ожидания": 7586,
      "ткань": 7587,
      "ard": 7588,
      "срок": 7589,
      "услышал": 7590,
      "ющимися": 7591,
      "покупать": 7592,
      "вызвать": 7593,
      "кусочек": 7594,
      "музее": 7595,
      "объяснение": 7596,
      "вынуждены": 7597,
      "гриппа": 7598,
      "грузови": 7599,
      "академи": 7600,
      "беспило": 7601,
      "for": 7602,
      "ассо": 7603,
      "впереди": 7604,
      "лд": 7605,
      "умно": 7606,
      "успо": 7607,
      "тома": 7608,
      "нился": 7609,
      "лома": 7610,
      "чее": 7611,
      "жел": 7612,
      "соору": 7613,
      "сопрово": 7614,
      "боре": 7615,
      "сели": 7616,
      "общая": 7617,
      "пев": 7618,
      "пригод": 7619,
      "саха": 7620,
      "пасса": 7621,
      "кучу": 7622,
      "целую": 7623,
      "инве": 7624,
      "пирами": 7625,
      "жала": 7626,
      "говор": 7627,
      "имела": 7628,
      "хам": 7629,
      "блестя": 7630,
      "образец": 7631,
      "великий": 7632,
      "понимали": 7633,
      "трое": 7634,
      "исследователи": 7635,
      "начинаете": 7636,
      "животного": 7637,
      "реальностью": 7638,
      "коллегами": 7639,
      "соединить": 7640,
      "написала": 7641,
      "терапии": 7642,
      "различными": 7643,
      "новение": 7644,
      "теоре": 7645,
      "национального": 7646,
      "отправился": 7647,
      "соответствует": 7648,
      "газет": 7649,
      "преступления": 7650,
      "улучши": 7651,
      "интеллекта": 7652,
      "предлагаю": 7653,
      "новатор": 7654,
      "расстоянии": 7655,
      "приложение": 7656,
      "отдельные": 7657,
      "философи": 7658,
      "открове": 7659,
      "ad": 7660,
      "рта": 7661,
      "тную": 7662,
      "упро": 7663,
      "уса": 7664,
      "фин": 7665,
      "нагля": 7666,
      "побы": 7667,
      "потер": 7668,
      "миль": 7669,
      "дому": 7670,
      "состав": 7671,
      "мышь": 7672,
      "кибер": 7673,
      "щено": 7674,
      "бесс": 7675,
      "рассчиты": 7676,
      "воздействие": 7677,
      "бас": 7678,
      "мнения": 7679,
      "думая": 7680,
      "самоубий": 7681,
      "мян": 7682,
      "создала": 7683,
      "положении": 7684,
      "свяще": 7685,
      "следующая": 7686,
      "спать": 7687,
      "экстра": 7688,
      "настоящим": 7689,
      "смысли": 7690,
      "нрав": 7691,
      "связанные": 7692,
      "прошлой": 7693,
      "влияния": 7694,
      "поставили": 7695,
      "дальней": 7696,
      "жёст": 7697,
      "ork": 7698,
      "регистри": 7699,
      "капитал": 7700,
      "угрозой": 7701,
      "обратите": 7702,
      "выросла": 7703,
      "пригласили": 7704,
      "президен": 7705,
      "похожие": 7706,
      "ждён": 7707,
      "инфраструктуры": 7708,
      "хромо": 7709,
      "опытом": 7710,
      "сравнить": 7711,
      "профессор": 7712,
      "заглянуть": 7713,
      "чернокожи": 7714,
      "ага": 7715,
      "ею": 7716,
      "окажется": 7717,
      "пис": 7718,
      "упор": 7719,
      "фаль": 7720,
      "нав": 7721,
      "наказа": 7722,
      "набира": 7723,
      "пого": 7724,
      "нево": 7725,
      "рений": 7726,
      "вано": 7727,
      "кафе": 7728,
      "моно": 7729,
      "заря": 7730,
      "зайти": 7731,
      "матри": 7732,
      "дий": 7733,
      "обши": 7734,
      "общие": 7735,
      "общий": 7736,
      "придется": 7737,
      "рыно": 7738,
      "станци": 7739,
      "чистой": 7740,
      "шер": 7741,
      "отделе": 7742,
      "отклады": 7743,
      "разрешения": 7744,
      "парази": 7745,
      "шари": 7746,
      "страницы": 7747,
      "бани": 7748,
      "началь": 7749,
      "общественного": 7750,
      "положения": 7751,
      "учат": 7752,
      "воспринимать": 7753,
      "лучшему": 7754,
      "решении": 7755,
      "массу": 7756,
      "наукой": 7757,
      "парла": 7758,
      "2005": 7759,
      "принятия": 7760,
      "попадает": 7761,
      "продолжается": 7762,
      "творчества": 7763,
      "плохой": 7764,
      "смарт": 7765,
      "организма": 7766,
      "определённо": 7767,
      "автомобили": 7768,
      "счастливы": 7769,
      "математика": 7770,
      "источником": 7771,
      "нефтя": 7772,
      "скажете": 7773,
      "заключение": 7774,
      "купил": 7775,
      "лететь": 7776,
      "фикации": 7777,
      "богатства": 7778,
      "симптомы": 7779,
      "sp": 7780,
      "гл": 7781,
      "мье": 7782,
      "очки": 7783,
      "пья": 7784,
      "чков": 7785,
      "напол": 7786,
      "посреди": 7787,
      "кового": 7788,
      "роз": 7789,
      "тесно": 7790,
      "таков": 7791,
      "дайте": 7792,
      "сете": 7793,
      "изма": 7794,
      "частях": 7795,
      "облег": 7796,
      "мут": 7797,
      "старая": 7798,
      "няться": 7799,
      "тузиа": 7800,
      "супру": 7801,
      "ствовала": 7802,
      "страхо": 7803,
      "перевоз": 7804,
      "гени": 7805,
      "сделан": 7806,
      "строим": 7807,
      "возможное": 7808,
      "втор": 7809,
      "брай": 7810,
      "трущ": 7811,
      "происходить": 7812,
      "экви": 7813,
      "клин": 7814,
      "красные": 7815,
      "двигать": 7816,
      "необходимость": 7817,
      "огромную": 7818,
      "энтузиа": 7819,
      "беспре": 7820,
      "личность": 7821,
      "беспокой": 7822,
      "рассказываю": 7823,
      "молекул": 7824,
      "сельского": 7825,
      "потребность": 7826,
      "неравенство": 7827,
      "бизнесе": 7828,
      "кислорода": 7829,
      "пользователей": 7830,
      "специалистов": 7831,
      "вдохновля": 7832,
      "разнообразия": 7833,
      "выбирать": 7834,
      "изобретение": 7835,
      "юриди": 7836,
      "радость": 7837,
      "талант": 7838,
      "чикаго": 7839,
      "динозавров": 7840,
      "живем": 7841,
      "xx": 7842,
      "акту": 7843,
      "брю": 7844,
      "дх": 7845,
      "ить": 7846,
      "ищем": 7847,
      "мёт": 7848,
      "окра": 7849,
      "см": 7850,
      "спер": 7851,
      "сфотографи": 7852,
      "сфокуси": 7853,
      "уй": 7854,
      "явно": 7855,
      "нобе": 7856,
      "кожу": 7857,
      "розо": 7858,
      "нераз": 7859,
      "необычно": 7860,
      "немало": 7861,
      "некоторыми": 7862,
      "мост": 7863,
      "дан": 7864,
      "чений": 7865,
      "проходя": 7866,
      "диль": 7867,
      "выста": 7868,
      "выгод": 7869,
      "сена": 7870,
      "избы": 7871,
      "придержи": 7872,
      "рые": 7873,
      "симу": 7874,
      "пане": 7875,
      "бии": 7876,
      "путем": 7877,
      "подхода": 7878,
      "вспомнить": 7879,
      "мнее": 7880,
      "рованием": 7881,
      "начался": 7882,
      "действии": 7883,
      "тятся": 7884,
      "факторов": 7885,
      "способна": 7886,
      "колосса": 7887,
      "парке": 7888,
      "разума": 7889,
      "спусти": 7890,
      "любил": 7891,
      "реальной": 7892,
      "выражение": 7893,
      "представляю": 7894,
      "ужаса": 7895,
      "продолжают": 7896,
      "устройств": 7897,
      "возьмите": 7898,
      "окна": 7899,
      "окно": 7900,
      "главной": 7901,
      "морских": 7902,
      "сенсор": 7903,
      "трудности": 7904,
      "солнечный": 7905,
      "проведё": 7906,
      "рассказывал": 7907,
      "пользуются": 7908,
      "бактерия": 7909,
      "закончил": 7910,
      "сотрудничество": 7911,
      "вшийся": 7912,
      "отличная": 7913,
      "журнала": 7914,
      "бюро": 7915,
      "выборов": 7916,
      "превращается": 7917,
      "режиме": 7918,
      "миссия": 7919,
      "огонь": 7920,
      "95": 7921,
      "екто": 7922,
      "уха": 7923,
      "ёй": 7924,
      "награ": 7925,
      "стэн": 7926,
      "помогло": 7927,
      "каи": 7928,
      "ложить": 7929,
      "дого": 7930,
      "вии": 7931,
      "вите": 7932,
      "вышли": 7933,
      "обмен": 7934,
      "пришел": 7935,
      "душ": 7936,
      "дура": 7937,
      "духе": 7938,
      "отчёт": 7939,
      "стира": 7940,
      "стихи": 7941,
      "кули": 7942,
      "гале": 7943,
      "живые": 7944,
      "искре": 7945,
      "знак": 7946,
      "концентра": 7947,
      "концентри": 7948,
      "слом": 7949,
      "сказано": 7950,
      "щаем": 7951,
      "плана": 7952,
      "вность": 7953,
      "траекто": 7954,
      "правильный": 7955,
      "остались": 7956,
      "ключение": 7957,
      "центов": 7958,
      "армии": 7959,
      "лёд": 7960,
      "учатся": 7961,
      "орган": 7962,
      "случаи": 7963,
      "военных": 7964,
      "снизи": 7965,
      "манх": 7966,
      "америку": 7967,
      "экономической": 7968,
      "третье": 7969,
      "проблемах": 7970,
      "принимает": 7971,
      "любимый": 7972,
      "защищать": 7973,
      "взаимодействовать": 7974,
      "замечательные": 7975,
      "микроско": 7976,
      "практике": 7977,
      "цветом": 7978,
      "общественные": 7979,
      "страдания": 7980,
      "автомобиля": 7981,
      "выполнить": 7982,
      "вещество": 7983,
      "проводят": 7984,
      "расстояние": 7985,
      "аспект": 7986,
      "улыба": 7987,
      "дочери": 7988,
      "вручную": 7989,
      "потребуется": 7990,
      "маршру": 7991,
      "инициати": 7992,
      "at": 7993,
      "fe": 7994,
      "ver": 7995,
      "иро": 7996,
      "схва": 7997,
      "чками": 7998,
      "ъя": 7999,
      "раство": 8000,
      "неуже": 8001,
      "листь": 8002,
      "линию": 8003,
      "теха": 8004,
      "мони": 8005,
      "заказ": 8006,
      "просматри": 8007,
      "причём": 8008,
      "придумы": 8009,
      "раздра": 8010,
      "разницу": 8011,
      "живет": 8012,
      "страдают": 8013,
      "предсказать": 8014,
      "тратить": 8015,
      "остаться": 8016,
      "ждали": 8017,
      "считаете": 8018,
      "слышим": 8019,
      "195": 8020,
      "1950": 8021,
      "парадок": 8022,
      "обнаружила": 8023,
      "запах": 8024,
      "запада": 8025,
      "выражения": 8026,
      "экспеди": 8027,
      "компьютерной": 8028,
      "богатых": 8029,
      "настоящего": 8030,
      "глобальной": 8031,
      "четырех": 8032,
      "чувствуем": 8033,
      "благоприят": 8034,
      "крупные": 8035,
      "заболевание": 8036,
      "национальный": 8037,
      "потерял": 8038,
      "потерять": 8039,
      "предположить": 8040,
      "президе": 8041,
      "пределах": 8042,
      "обманы": 8043,
      "счёте": 8044,
      "дэвид": 8045,
      "обработки": 8046,
      "эйнштейн": 8047,
      "рейтин": 8048,
      "кажутся": 8049,
      "изнутри": 8050,
      "поднимите": 8051,
      "неужели": 8052,
      "вшую": 8053,
      "включить": 8054,
      "дных": 8055,
      "дэн": 8056,
      "йся": 8057,
      "мёте": 8058,
      "плё": 8059,
      "твой": 8060,
      "накло": 8061,
      "нарисо": 8062,
      "подой": 8063,
      "валю": 8064,
      "замы": 8065,
      "мари": 8066,
      "чает": 8067,
      "обмени": 8068,
      "чии": 8069,
      "духов": 8070,
      "отста": 8071,
      "отходы": 8072,
      "гаи": 8073,
      "гаре": 8074,
      "жаются": 8075,
      "меняются": 8076,
      "тельстве": 8077,
      "ровка": 8078,
      "хан": 8079,
      "тратим": 8080,
      "полное": 8081,
      "антро": 8082,
      "движений": 8083,
      "резко": 8084,
      "альными": 8085,
      "системати": 8086,
      "арте": 8087,
      "альности": 8088,
      "чувств": 8089,
      "землё": 8090,
      "лучшей": 8091,
      "задавать": 8092,
      "изменил": 8093,
      "штаты": 8094,
      "произошла": 8095,
      "известны": 8096,
      "прекрасное": 8097,
      "ехали": 8098,
      "убить": 8099,
      "размеров": 8100,
      "проводили": 8101,
      "сцены": 8102,
      "религия": 8103,
      "шансы": 8104,
      "таймс": 8105,
      "зрители": 8106,
      "тюрьмы": 8107,
      "проводя": 8108,
      "приехал": 8109,
      "кампании": 8110,
      "любые": 8111,
      "организовать": 8112,
      "ценностей": 8113,
      "отверсти": 8114,
      "догада": 8115,
      "пчёл": 8116,
      "ноутбу": 8117,
      "мероприя": 8118,
      "тысячеле": 8119,
      "ущер": 8120,
      "пассажи": 8121,
      "инвесто": 8122,
      "28": 8123,
      "con": 8124,
      "ii": 8125,
      "адво": 8126,
      "еде": 8127,
      "уте": 8128,
      "эп": 8129,
      "яи": 8130,
      "ятся": 8131,
      "тоне": 8132,
      "поработать": 8133,
      "кожа": 8134,
      "рекор": 8135,
      "голливу": 8136,
      "меду": 8137,
      "забира": 8138,
      "запустили": 8139,
      "веру": 8140,
      "прочим": 8141,
      "просыпа": 8142,
      "рый": 8143,
      "рынки": 8144,
      "дум": 8145,
      "синд": 8146,
      "люми": 8147,
      "стера": 8148,
      "видишь": 8149,
      "тяну": 8150,
      "великой": 8151,
      "следовательно": 8152,
      "понимании": 8153,
      "важной": 8154,
      "правде": 8155,
      "парков": 8156,
      "солдат": 8157,
      "береме": 8158,
      "танцу": 8159,
      "множества": 8160,
      "теорию": 8161,
      "математике": 8162,
      "звезда": 8163,
      "эффективности": 8164,
      "сталкиваемся": 8165,
      "торговли": 8166,
      "манипу": 8167,
      "выбросов": 8168,
      "муравьи": 8169,
      "ираке": 8170,
      "церкви": 8171,
      "баланс": 8172,
      "джордж": 8173,
      "триллионов": 8174,
      "фарма": 8175,
      "пейза": 8176,
      "29": 8177,
      "бин": 8178,
      "вный": 8179,
      "радиа": 8180,
      "кот": 8181,
      "рома": 8182,
      "дека": 8183,
      "доходов": 8184,
      "соли": 8185,
      "выводу": 8186,
      "сетя": 8187,
      "чип": 8188,
      "нужды": 8189,
      "батаре": 8190,
      "подра": 8191,
      "тельством": 8192,
      "показывать": 8193,
      "простого": 8194,
      "интегри": 8195,
      "понимал": 8196,
      "экстре": 8197,
      "называли": 8198,
      "2011": 8199,
      "порту": 8200,
      "тысячу": 8201,
      "спутни": 8202,
      "социа": 8203,
      "известных": 8204,
      "работники": 8205,
      "версию": 8206,
      "картинка": 8207,
      "интересным": 8208,
      "пустил": 8209,
      "генери": 8210,
      "ошибо": 8211,
      "равнове": 8212,
      "общественной": 8213,
      "участки": 8214,
      "ритм": 8215,
      "медицинской": 8216,
      "климат": 8217,
      "устаре": 8218,
      "нуждается": 8219,
      "атмосферы": 8220,
      "выбрал": 8221,
      "журнал": 8222,
      "распоря": 8223,
      "инженеров": 8224,
      "амби": 8225,
      "фермеры": 8226,
      "спокойно": 8227,
      "процессов": 8228,
      "прикосно": 8229,
      "800": 8230,
      "алек": 8231,
      "одержи": 8232,
      "пье": 8233,
      "уна": 8234,
      "нин": 8235,
      "посо": 8236,
      "посту": 8237,
      "помогут": 8238,
      "раду": 8239,
      "нению": 8240,
      "некоторым": 8241,
      "вард": 8242,
      "домини": 8243,
      "духо": 8244,
      "нув": 8245,
      "премье": 8246,
      "бел": 8247,
      "пишу": 8248,
      "возле": 8249,
      "странам": 8250,
      "пунк": 8251,
      "переключа": 8252,
      "телевиде": 8253,
      "губ": 8254,
      "технологиях": 8255,
      "изменилась": 8256,
      "находим": 8257,
      "доллар": 8258,
      "животными": 8259,
      "2004": 8260,
      "соединения": 8261,
      "болезнью": 8262,
      "вирусов": 8263,
      "позволили": 8264,
      "путешеству": 8265,
      "источники": 8266,
      "центральной": 8267,
      "расширить": 8268,
      "мыслить": 8269,
      "задумайтесь": 8270,
      "сотрудничества": 8271,
      "ненави": 8272,
      "затраги": 8273,
      "короткий": 8274,
      "слайде": 8275,
      "регуляр": 8276,
      "улучшения": 8277,
      "философ": 8278,
      "фигура": 8279,
      "уравне": 8280,
      "коммуникации": 8281,
      "бюджет": 8282,
      "комик": 8283,
      "совокуп": 8284,
      "apple": 8285,
      "sc": 8286,
      "атри": 8287,
      "окси": 8288,
      "спло": 8289,
      "нажи": 8290,
      "пони": 8291,
      "помог": 8292,
      "кош": 8293,
      "несли": 8294,
      "неудоб": 8295,
      "каков": 8296,
      "гомо": 8297,
      "денци": 8298,
      "ритуа": 8299,
      "пробо": 8300,
      "прошед": 8301,
      "вывод": 8302,
      "сектор": 8303,
      "кине": 8304,
      "изм": 8305,
      "чают": 8306,
      "обмена": 8307,
      "придумал": 8308,
      "применять": 8309,
      "шиф": 8310,
      "нья": 8311,
      "щика": 8312,
      "целые": 8313,
      "скажите": 8314,
      "больницу": 8315,
      "банка": 8316,
      "предназна": 8317,
      "создает": 8318,
      "полтора": 8319,
      "существенно": 8320,
      "осознать": 8321,
      "ответов": 8322,
      "третьих": 8323,
      "творить": 8324,
      "удаётся": 8325,
      "ранних": 8326,
      "реакцию": 8327,
      "видны": 8328,
      "уроки": 8329,
      "принял": 8330,
      "структур": 8331,
      "означало": 8332,
      "подобие": 8333,
      "колеба": 8334,
      "фермер": 8335,
      "обсуждать": 8336,
      "предоставля": 8337,
      "ционного": 8338,
      "восстановления": 8339,
      "упаков": 8340,
      "художников": 8341,
      "геометри": 8342,
      "хозяйство": 8343,
      "представители": 8344,
      "изучение": 8345,
      "галактик": 8346,
      "принадлежит": 8347,
      "разговаривать": 8348,
      "оптимисти": 8349,
      "карьеры": 8350,
      "алгоритм": 8351,
      "транспорта": 8352,
      "возникла": 8353,
      "тщательно": 8354,
      "эквивале": 8355,
      "прикоснове": 8356,
      "go": 8357,
      "жку": 8358,
      "мм": 8359,
      "нству": 8360,
      "ово": 8361,
      "сработало": 8362,
      "росли": 8363,
      "немец": 8364,
      "личной": 8365,
      "заявля": 8366,
      "проми": 8367,
      "вины": 8368,
      "лятор": 8369,
      "рыбо": 8370,
      "цикл": 8371,
      "ститу": 8372,
      "пары": 8373,
      "иску": 8374,
      "пишет": 8375,
      "ряет": 8376,
      "страниц": 8377,
      "бак": 8378,
      "работающих": 8379,
      "формой": 8380,
      "служить": 8381,
      "зиру": 8382,
      "траги": 8383,
      "полная": 8384,
      "телен": 8385,
      "взрыва": 8386,
      "сыла": 8387,
      "движении": 8388,
      "крове": 8389,
      "показала": 8390,
      "организу": 8391,
      "решению": 8392,
      "стоило": 8393,
      "комплекс": 8394,
      "продолжить": 8395,
      "поведен": 8396,
      "применение": 8397,
      "двум": 8398,
      "месяцы": 8399,
      "хватит": 8400,
      "связан": 8401,
      "убежде": 8402,
      "показываю": 8403,
      "учёный": 8404,
      "главных": 8405,
      "огромного": 8406,
      "находясь": 8407,
      "обязаны": 8408,
      "посередине": 8409,
      "медицинских": 8410,
      "кислород": 8411,
      "международной": 8412,
      "испытания": 8413,
      "тюрьму": 8414,
      "десятилетий": 8415,
      "инженеры": 8416,
      "красота": 8417,
      "железы": 8418,
      "джули": 8419,
      "объясняет": 8420,
      "магазине": 8421,
      "черепа": 8422,
      "контакт": 8423,
      "масштабах": 8424,
      "поколений": 8425,
      "коррупции": 8426,
      "учреждения": 8427,
      "вычисления": 8428,
      "экспоне": 8429,
      "теорети": 8430,
      "bu": 8431,
      "анима": 8432,
      "вначале": 8433,
      "дной": 8434,
      "едят": 8435,
      "жок": 8436,
      "зла": 8437,
      "квали": 8438,
      "устраи": 8439,
      "стные": 8440,
      "похоро": 8441,
      "построил": 8442,
      "растя": 8443,
      "костью": 8444,
      "нехва": 8445,
      "годом": 8446,
      "лер": 8447,
      "дон": 8448,
      "дор": 8449,
      "прось": 8450,
      "прочита": 8451,
      "пети": 8452,
      "приём": 8453,
      "стана": 8454,
      "раздели": 8455,
      "нулевой": 8456,
      "стиль": 8457,
      "скот": 8458,
      "цене": 8459,
      "слепы": 8460,
      "инде": 8461,
      "мном": 8462,
      "шагом": 8463,
      "страсть": 8464,
      "очеред": 8465,
      "кторе": 8466,
      "трети": 8467,
      "вности": 8468,
      "шоки": 8469,
      "вопросами": 8470,
      "арти": 8471,
      "трудо": 8472,
      "пониманию": 8473,
      "используете": 8474,
      "ссию": 8475,
      "вшими": 8476,
      "194": 8477,
      "1960": 8478,
      "нарушения": 8479,
      "принимаем": 8480,
      "встретиться": 8481,
      "черты": 8482,
      "двигатель": 8483,
      "свобода": 8484,
      "свободно": 8485,
      "представлять": 8486,
      "исследованиях": 8487,
      "определённые": 8488,
      "встречаются": 8489,
      "жертв": 8490,
      "попросить": 8491,
      "попытка": 8492,
      "выборы": 8493,
      "дорогой": 8494,
      "отказаться": 8495,
      "астрономи": 8496,
      "традиции": 8497,
      "костюм": 8498,
      "надеяться": 8499,
      "корабль": 8500,
      "романти": 8501,
      "26": 8502,
      "ce": 8503,
      "pr": 8504,
      "sa": 8505,
      "вную": 8506,
      "пка": 8507,
      "фру": 8508,
      "наступа": 8509,
      "направить": 8510,
      "нится": 8511,
      "вон": 8512,
      "ватт": 8513,
      "давали": 8514,
      "забыть": 8515,
      "доказыва": 8516,
      "проигры": 8517,
      "выстре": 8518,
      "выхода": 8519,
      "изнасило": 8520,
      "мур": 8521,
      "нуля": 8522,
      "пал": 8523,
      "ням": 8524,
      "няем": 8525,
      "бежать": 8526,
      "пили": 8527,
      "жаем": 8528,
      "консульта": 8529,
      "предсказа": 8530,
      "вленные": 8531,
      "образы": 8532,
      "плодо": 8533,
      "стоял": 8534,
      "спект": 8535,
      "ктя": 8536,
      "лучшая": 8537,
      "производя": 8538,
      "учил": 8539,
      "технологией": 8540,
      "междунаро": 8541,
      "открытом": 8542,
      "комплек": 8543,
      "точке": 8544,
      "получали": 8545,
      "облака": 8546,
      "научно": 8547,
      "высокие": 8548,
      "корне": 8549,
      "родителями": 8550,
      "клетками": 8551,
      "продуктив": 8552,
      "показывал": 8553,
      "государств": 8554,
      "вселенную": 8555,
      "начнут": 8556,
      "курса": 8557,
      "отправили": 8558,
      "отправились": 8559,
      "участники": 8560,
      "эмоций": 8561,
      "вещам": 8562,
      "пальцев": 8563,
      "выросли": 8564,
      "расположены": 8565,
      "английский": 8566,
      "отдельных": 8567,
      "столкнулись": 8568,
      "выяснилось": 8569,
      "эпидемии": 8570,
      "ассоциа": 8571,
      "автоматически": 8572,
      "феномен": 8573,
      "продемонстрировать": 8574,
      "ассоции": 8575,
      "гаити": 8576,
      "землёй": 8577,
      "120": 8578,
      "700": 8579,
      "he": 8580,
      "mic": 8581,
      "алле": 8582,
      "арен": 8583,
      "пь": 8584,
      "рхи": 8585,
      "тном": 8586,
      "цгей": 8587,
      "нило": 8588,
      "рако": 8589,
      "ванных": 8590,
      "ваешь": 8591,
      "кают": 8592,
      "риться": 8593,
      "зах": 8594,
      "задей": 8595,
      "зарази": 8596,
      "тило": 8597,
      "ману": 8598,
      "вышло": 8599,
      "привели": 8600,
      "стади": 8601,
      "стою": 8602,
      "сильные": 8603,
      "разрешение": 8604,
      "гипер": 8605,
      "шабло": 8606,
      "бах": 8607,
      "переработ": 8608,
      "конститу": 8609,
      "сное": 8610,
      "сного": 8611,
      "видимо": 8612,
      "остается": 8613,
      "карт": 8614,
      "интересы": 8615,
      "способствует": 8616,
      "однозна": 8617,
      "энергией": 8618,
      "подобным": 8619,
      "туалет": 8620,
      "двигаются": 8621,
      "2006": 8622,
      "берёт": 8623,
      "ребёнку": 8624,
      "попадают": 8625,
      "научили": 8626,
      "улицу": 8627,
      "верите": 8628,
      "окс": 8629,
      "жён": 8630,
      "анализировать": 8631,
      "дождь": 8632,
      "отвечают": 8633,
      "обсудить": 8634,
      "разруше": 8635,
      "победи": 8636,
      "затрат": 8637,
      "затраты": 8638,
      "адап": 8639,
      "реклам": 8640,
      "лёгких": 8641,
      "подняться": 8642,
      "поступать": 8643,
      "буквы": 8644,
      "грома": 8645,
      "тёмной": 8646,
      "поехали": 8647,
      "выяснили": 8648,
      "оплачи": 8649,
      "ищут": 8650,
      "антибиоти": 8651,
      "mit": 8652,
      "жными": 8653,
      "ит": 8654,
      "опуска": 8655,
      "тности": 8656,
      "убира": 8657,
      "посте": 8658,
      "поиско": 8659,
      "рон": 8660,
      "россии": 8661,
      "некий": 8662,
      "каче": 8663,
      "лекции": 8664,
      "дало": 8665,
      "лаз": 8666,
      "ченные": 8667,
      "доне": 8668,
      "желу": 8669,
      "боно": 8670,
      "сильное": 8671,
      "щению": 8672,
      "луну": 8673,
      "ряется": 8674,
      "подда": 8675,
      "менти": 8676,
      "служит": 8677,
      "техника": 8678,
      "являемся": 8679,
      "заднем": 8680,
      "ственном": 8681,
      "материи": 8682,
      "дважды": 8683,
      "маленького": 8684,
      "доллара": 8685,
      "доступно": 8686,
      "американского": 8687,
      "замечательная": 8688,
      "собрались": 8689,
      "граждане": 8690,
      "методов": 8691,
      "плохого": 8692,
      "район": 8693,
      "толкну": 8694,
      "холодиль": 8695,
      "разговора": 8696,
      "возвращается": 8697,
      "нуждаются": 8698,
      "распределение": 8699,
      "предметов": 8700,
      "журналист": 8701,
      "изобретения": 8702,
      "бабушки": 8703,
      "сущность": 8704,
      "кусочки": 8705,
      "простите": 8706,
      "символи": 8707,
      "заканчивается": 8708,
      "перспективе": 8709,
      "стволовые": 8710,
      "диагноз": 8711,
      "york": 8712,
      "óль": 8713,
      "але": 8714,
      "бóль": 8715,
      "лке": 8716,
      "оше": 8717,
      "тв": 8718,
      "ухуд": 8719,
      "чо": 8720,
      "наверху": 8721,
      "воли": 8722,
      "водов": 8723,
      "вати": 8724,
      "лесе": 8725,
      "ченных": 8726,
      "бывают": 8727,
      "руке": 8728,
      "обман": 8729,
      "чил": 8730,
      "отцом": 8731,
      "сью": 8732,
      "гиба": 8733,
      "сухо": 8734,
      "пусто": 8735,
      "конкре": 8736,
      "щаются": 8737,
      "фоне": 8738,
      "терпи": 8739,
      "альцгей": 8740,
      "ждут": 8741,
      "следуют": 8742,
      "открытый": 8743,
      "2012": 8744,
      "обознача": 8745,
      "удалё": 8746,
      "тивным": 8747,
      "телях": 8748,
      "разумно": 8749,
      "родитель": 8750,
      "важней": 8751,
      "выглядел": 8752,
      "строительства": 8753,
      "встречу": 8754,
      "вернусь": 8755,
      "спида": 8756,
      "физические": 8757,
      "представляете": 8758,
      "подож": 8759,
      "умру": 8760,
      "смертей": 8761,
      "научился": 8762,
      "позволило": 8763,
      "благополучи": 8764,
      "письме": 8765,
      "емость": 8766,
      "найдёте": 8767,
      "химические": 8768,
      "несколькими": 8769,
      "демократию": 8770,
      "волосы": 8771,
      "жизненно": 8772,
      "майкл": 8773,
      "опасность": 8774,
      "изуми": 8775,
      "мэри": 8776,
      "геноци": 8777,
      "произведение": 8778,
      "выращивать": 8779,
      "режисс": 8780,
      "сострадания": 8781,
      "кампанию": 8782,
      "муравьёв": 8783,
      "вашингтон": 8784,
      "охваты": 8785,
      "извините": 8786,
      "астерои": 8787,
      "id": 8788,
      "wit": 8789,
      "́ль": 8790,
      "вным": 8791,
      "зму": 8792,
      "сформирова": 8793,
      "уган": 8794,
      "шками": 8795,
      "эсте": 8796,
      "наиме": 8797,
      "находят": 8798,
      "роско": 8799,
      "нен": 8800,
      "незначи": 8801,
      "нелегко": 8802,
      "течении": 8803,
      "ваетесь": 8804,
      "лесу": 8805,
      "завра": 8806,
      "запечат": 8807,
      "мистер": 8808,
      "прошёл": 8809,
      "визи": 8810,
      "боюсь": 8811,
      "извлека": 8812,
      "муже": 8813,
      "мусора": 8814,
      "отдать": 8815,
      "сидели": 8816,
      "разделе": 8817,
      "пать": 8818,
      "нял": 8819,
      "бело": 8820,
      "испан": 8821,
      "пишут": 8822,
      "больница": 8823,
      "шаются": 8824,
      "расчё": 8825,
      "страница": 8826,
      "зываться": 8827,
      "человеке": 8828,
      "человеческое": 8829,
      "нашел": 8830,
      "крово": 8831,
      "экосистемы": 8832,
      "открывает": 8833,
      "обед": 8834,
      "процессо": 8835,
      "повество": 8836,
      "марк": 8837,
      "мышцы": 8838,
      "новостей": 8839,
      "принято": 8840,
      "берг": 8841,
      "фонда": 8842,
      "огромных": 8843,
      "стрит": 8844,
      "творческие": 8845,
      "условий": 8846,
      "проводил": 8847,
      "единственной": 8848,
      "управляет": 8849,
      "обсуждения": 8850,
      "серьёзные": 8851,
      "регионе": 8852,
      "эксплу": 8853,
      "присутствует": 8854,
      "дворе": 8855,
      "космоса": 8856,
      "стратегия": 8857,
      "института": 8858,
      "предубе": 8859,
      "справедливость": 8860,
      "навыков": 8861,
      "необычай": 8862,
      "экспертов": 8863,
      "мыслей": 8864,
      "подростков": 8865,
      "столетия": 8866,
      "малярии": 8867,
      "мексикан": 8868,
      "категории": 8869,
      "присутствующих": 8870,
      "младен": 8871,
      "галере": 8872,
      "искрен": 8873,
      "экспоненци": 8874,
      "33": 8875,
      "звали": 8876,
      "октя": 8877,
      "тке": 8878,
      "ух": 8879,
      "убор": 8880,
      "ногами": 8881,
      "порой": 8882,
      "коме": 8883,
      "ковый": 8884,
      "росла": 8885,
      "валь": 8886,
      "дефици": 8887,
      "риан": 8888,
      "запла": 8889,
      "доклад": 8890,
      "сократи": 8891,
      "провода": 8892,
      "богу": 8893,
      "кише": 8894,
      "сина": 8895,
      "мною": 8896,
      "друже": 8897,
      "компроми": 8898,
      "поддержать": 8899,
      "предпочте": 8900,
      "сложи": 8901,
      "трей": 8902,
      "спорить": 8903,
      "детской": 8904,
      "краю": 8905,
      "представили": 8906,
      "образовании": 8907,
      "фана": 8908,
      "писатель": 8909,
      "развитых": 8910,
      "обеспо": 8911,
      "прямой": 8912,
      "важность": 8913,
      "совершить": 8914,
      "длиной": 8915,
      "демографи": 8916,
      "колледже": 8917,
      "меньшей": 8918,
      "интересных": 8919,
      "пойдёт": 8920,
      "цифра": 8921,
      "серьё": 8922,
      "начнем": 8923,
      "бесполез": 8924,
      "требуют": 8925,
      "зависимость": 8926,
      "заботи": 8927,
      "молодым": 8928,
      "формули": 8929,
      "потребности": 8930,
      "ганди": 8931,
      "инвестиции": 8932,
      "разработке": 8933,
      "умирает": 8934,
      "товары": 8935,
      "стараюсь": 8936,
      "стратегию": 8937,
      "острове": 8938,
      "выступать": 8939,
      "второго": 8940,
      "инфраструктура": 8941,
      "глубине": 8942,
      "выбросы": 8943,
      "вакцины": 8944,
      "старый": 8945,
      "континента": 8946,
      "соединенных": 8947,
      "волнует": 8948,
      "театр": 8949,
      "весело": 8950,
      "википе": 8951,
      "умереть": 8952,
      "ами": 8953,
      "вряд": 8954,
      "италь": 8955,
      "нёт": 8956,
      "сход": 8957,
      "чках": 8958,
      "набо": 8959,
      "ногу": 8960,
      "нис": 8961,
      "нилась": 8962,
      "пострада": 8963,
      "колла": 8964,
      "некоммер": 8965,
      "рези": 8966,
      "льна": 8967,
      "мотор": 8968,
      "риски": 8969,
      "лову": 8970,
      "заве": 8971,
      "заим": 8972,
      "затро": 8973,
      "мик": 8974,
      "тирует": 8975,
      "выреза": 8976,
      "избра": 8977,
      "чал": 8978,
      "оттого": 8979,
      "синий": 8980,
      "разным": 8981,
      "разгля": 8982,
      "патри": 8983,
      "гара": 8984,
      "суме": 8985,
      "биться": 8986,
      "билл": 8987,
      "шаги": 8988,
      "смеши": 8989,
      "компози": 8990,
      "зону": 8991,
      "мней": 8992,
      "предки": 8993,
      "думаешь": 8994,
      "созданием": 8995,
      "женные": 8996,
      "собственное": 8997,
      "кручи": 8998,
      "ветря": 8999,
      "фом": 9000,
      "вопросе": 9001,
      "положить": 9002,
      "чья": 9003,
      "доставить": 9004,
      "пыталась": 9005,
      "женщине": 9006,
      "мозгом": 9007,
      "экстреми": 9008,
      "дорога": 9009,
      "экономические": 9010,
      "немся": 9011,
      "областей": 9012,
      "правды": 9013,
      "находились": 9014,
      "высоких": 9015,
      "корни": 9016,
      "названия": 9017,
      "любопы": 9018,
      "статьи": 9019,
      "диапа": 9020,
      "умение": 9021,
      "мобильные": 9022,
      "написали": 9023,
      "изучал": 9024,
      "основана": 9025,
      "решает": 9026,
      "установили": 9027,
      "идём": 9028,
      "варианты": 9029,
      "сомнения": 9030,
      "космосе": 9031,
      "конфликта": 9032,
      "журнале": 9033,
      "джин": 9034,
      "собака": 9035,
      "телефонов": 9036,
      "воображения": 9037,
      "реагировать": 9038,
      "сравнении": 9039,
      "расстояния": 9040,
      "бедность": 9041,
      "возвращаясь": 9042,
      "церков": 9043,
      "наркотиков": 9044,
      "горизонта": 9045,
      "интерактив": 9046,
      "манхэт": 9047,
      "et": 9048,
      "lin": 9049,
      "оправда": 9050,
      "тку": 9051,
      "усовершенство": 9052,
      "хруп": 9053,
      "нировать": 9054,
      "коди": 9055,
      "нев": 9056,
      "непросто": 9057,
      "ванные": 9058,
      "кать": 9059,
      "камен": 9060,
      "месту": 9061,
      "лью": 9062,
      "такому": 9063,
      "провали": 9064,
      "прошла": 9065,
      "вилось": 9066,
      "выходить": 9067,
      "рус": 9068,
      "издели": 9069,
      "облож": 9070,
      "саму": 9071,
      "цену": 9072,
      "веря": 9073,
      "предвзя": 9074,
      "здании": 9075,
      "сделало": 9076,
      "сделают": 9077,
      "хорошую": 9078,
      "великие": 9079,
      "последствий": 9080,
      "военные": 9081,
      "обозна": 9082,
      "научный": 9083,
      "красным": 9084,
      "находитесь": 9085,
      "личные": 9086,
      "высоту": 9087,
      "фунтов": 9088,
      "чувством": 9089,
      "урожай": 9090,
      "алкого": 9091,
      "сложную": 9092,
      "символ": 9093,
      "объекта": 9094,
      "социальную": 9095,
      "разновидно": 9096,
      "района": 9097,
      "находящихся": 9098,
      "решают": 9099,
      "заключалась": 9100,
      "отвечаю": 9101,
      "отвечать": 9102,
      "мужчинами": 9103,
      "реальные": 9104,
      "полезно": 9105,
      "штуки": 9106,
      "дискримина": 9107,
      "ошибка": 9108,
      "чрезмер": 9109,
      "члены": 9110,
      "уменьши": 9111,
      "дизайнеров": 9112,
      "потратить": 9113,
      "приехали": 9114,
      "обезьяны": 9115,
      "директор": 9116,
      "телевизор": 9117,
      "распространяется": 9118,
      "офисе": 9119,
      "попробуем": 9120,
      "потребовалось": 9121,
      "отврати": 9122,
      "аккуму": 9123,
      "еврей": 9124,
      "христиан": 9125,
      "атланти": 9126,
      "хромосо": 9127,
      "ab": 9128,
      "fi": 9129,
      "гры": 9130,
      "гну": 9131,
      "иное": 9132,
      "итали": 9133,
      "оскор": 9134,
      "сэкономи": 9135,
      "убрать": 9136,
      "ыска": 9137,
      "тори": 9138,
      "поставля": 9139,
      "рада": 9140,
      "лицу": 9141,
      "рении": 9142,
      "телом": 9143,
      "кал": 9144,
      "дений": 9145,
      "мостью": 9146,
      "лера": 9147,
      "миссии": 9148,
      "тира": 9149,
      "мамы": 9150,
      "вызо": 9151,
      "выходят": 9152,
      "извле": 9153,
      "прибо": 9154,
      "нятся": 9155,
      "щений": 9156,
      "гии": 9157,
      "луны": 9158,
      "конне": 9159,
      "летки": 9160,
      "тратят": 9161,
      "крыль": 9162,
      "гул": 9163,
      "действием": 9164,
      "анб": 9165,
      "движением": 9166,
      "фактор": 9167,
      "колонии": 9168,
      "обойти": 9169,
      "твоя": 9170,
      "личных": 9171,
      "звуко": 9172,
      "корм": 9173,
      "политиков": 9174,
      "выглядела": 9175,
      "2001": 9176,
      "сложное": 9177,
      "увеличения": 9178,
      "сферу": 9179,
      "микробов": 9180,
      "приходили": 9181,
      "производстве": 9182,
      "изучали": 9183,
      "публику": 9184,
      "верил": 9185,
      "относиться": 9186,
      "подарок": 9187,
      "определённый": 9188,
      "красивые": 9189,
      "заставило": 9190,
      "поддерживают": 9191,
      "спрашивать": 9192,
      "отражает": 9193,
      "предположим": 9194,
      "инвестировать": 9195,
      "пальцы": 9196,
      "отдалё": 9197,
      "уважение": 9198,
      "вершине": 9199,
      "фермеров": 9200,
      "повреждения": 9201,
      "господ": 9202,
      "вооружё": 9203,
      "млекопитающих": 9204,
      "списке": 9205,
      "моменту": 9206,
      "lu": 9207,
      "бд": 9208,
      "зти": 9209,
      "сработает": 9210,
      "томо": 9211,
      "наполне": 9212,
      "стки": 9213,
      "поми": 9214,
      "рождение": 9215,
      "непо": 9216,
      "тесто": 9217,
      "кало": 9218,
      "моментов": 9219,
      "лео": 9220,
      "летов": 9221,
      "даём": 9222,
      "запомина": 9223,
      "допол": 9224,
      "масси": 9225,
      "бо́ль": 9226,
      "часо": 9227,
      "обстанов": 9228,
      "ставить": 9229,
      "старых": 9230,
      "стоп": 9231,
      "разрыв": 9232,
      "безна": 9233,
      "такси": 9234,
      "ингре": 9235,
      "страдает": 9236,
      "создана": 9237,
      "платы": 9238,
      "способностью": 9239,
      "открытий": 9240,
      "называемый": 9241,
      "задания": 9242,
      "изменило": 9243,
      "третьего": 9244,
      "программное": 9245,
      "глупо": 9246,
      "собираетесь": 9247,
      "известен": 9248,
      "любому": 9249,
      "низкой": 9250,
      "диалог": 9251,
      "взгляды": 9252,
      "удивительный": 9253,
      "невероятные": 9254,
      "чётко": 9255,
      "компьютерные": 9256,
      "цветов": 9257,
[...]
